, 5869726
. 3956242
die 2865595
der 2744533
und 2594616
in 1392272
zu 1056646
den 988522
von 954948
ist 825686
für 803233
@-@ 771752
das 684333
mit 673377
auf 657094
des 644250
eine 590507
nicht 530310
im 524483
werden 503263
Sie 499560
dass 497984
- 472448
es 466798
ein 459290
dem 458322
wir 456395
&quot; 450612
sich 445641
Die 434133
auch 398750
sind 364329
wird 349835
an 334159
( 321397
) 318939
ich 315730
als 314044
um 302800
oder 288396
haben 284921
: 281438
über 279748
hat 262106
einer 259338
sie 258686
wie 256281
zur 240978
einen 232891
bei 224158
Ich 223210
aus 216981
Das 213803
können 206364
einem 184181
diese 183220
nach 178345
Wir 177586
uns 174745
zum 174392
nur 172601
durch 167635
kann 165525
er 163383
dieser 162509
Kommission 160021
daß 159594
Der 155519
so 149671
vor 149159
Es 147525
noch 146485
! 144475
Herr 141865
wenn 140129
aber 138051
müssen 137593
wurde 135915
sein 133120
/ 128304
? 124902
sehr 124148
Union 122777
Europäischen 121607
diesem 121478
am 120889
In 117393
mehr 111772
alle 111202
möchte 109770
was 108936
man 108817
eines 101593
ihre 97741
Präsident 97608
bis 97000
EU 95610
war 94809
ver@@ 94630
dieses 93661
vom 91417
sowie 89554
gibt 89500
unter 88772
Bericht 87710
Parlament 86135
muss 85795
zwischen 85443
er@@ 84605
hier 83682
Mitgliedstaaten 83519
an@@ 82413
keine 80896
Hotel 80508
unsere 80225
Europa 78487
a 78012
anderen 76661
; 75288
Ihnen 74423
&apos; 73565
Wenn 72918
immer 71062
... 71029
diesen 70784
ten 70688
dies 70504
dann 70472
gegen 70457
damit 70321
te 70028
de 69515
un@@ 69467
Frau 69142
wurden 66751
da 66742
Europäische 66317
en 65158
habe 64907
Diese 64817
sondern 64435
Im 64261
ge@@ 63699
Zeit 63417
unserer 63113
jedoch 61684
ab@@ 61408
Menschen 61123
seine 60479
heute 59934
europäischen 59680
s 59391
Ihre 59301
neue 59271
bereits 57584
% 57037
en@@ 57028
mich 57016
Rat 56889
sollte 56797
Jahr 56733
ihrer 56401
be@@ 55631
denen 55425
neuen 55093
Ver@@ 54828
aus@@ 54714
ein@@ 54662
Frage 54611
Entwicklung 54520
sollten 54242
Jahren 54228
andere 54168
ohne 53972
k@@ 53798
machen 51007
ganz 50598
t 50379
zwei 50286
finden 50123
allen 49926
weil 49809
2 49296
K@@ 49171
geht 49155
An@@ 48602
dazu 47976
Maßnahmen 47835
denn 47777
Welt 47767
Unternehmen 47705
viele 47524
jetzt 47184
e 47078
darauf 46544
S@@ 46452
t@@ 46064
Herrn 45558
Mit 45383
sch@@ 45301
Bereich 44990
1 44970
dafür 44896
the 44836
bietet 44736
Ein 44641
liegt 44442
i 44379
P@@ 44266
Ab@@ 44006
einige 43978
seiner 43844
B@@ 43755
wieder 43599
selbst 43431
ter 43169
T@@ 43063
auf@@ 42977
würde 42560
Informationen 42533
ung 42411
s@@ 42388
bin 42050
Arbeit 42047
sagen 42008
schon 41993
ihren 41971
meine 41968
Lage 41402
allem 41220
Dies 41101
ihr 41010
mir 40991
Länder 40904
o 40896
wollen 40771
F@@ 40462
viel 40417
ob 40390
Land 40383
zu@@ 40021
f@@ 39977
Jahre 39871
3 39748
über@@ 39423
and 39406
Und 39123
geben 38935
insbesondere 38913
unseren 38849
Eine 38471
G@@ 38447
doch 38133
Parlaments 38118
H@@ 38058
während 37956
D@@ 37928
stehen 37913
Wie 37801
z@@ 37637
nun 37606
Unterstützung 37223
d@@ 37084
Ländern 37037
in@@ 37037
Ein@@ 36999
etwas 36872
vor@@ 36837
gen 36742
&#91; 36676
M@@ 36631
&#93; 36560
Rahmen 36552
möglich 36539
wo 36324
Vorschlag 36314
stellen 36314
lassen 36270
ent@@ 36245
Zusammenarbeit 36154
politischen 35847
A@@ 35721
Für 35692
Bürger 35688
kommen 35637
gut 35509
ab 35433
ungs@@ 35343
seit 35296
waren 35200
Sch@@ 35090
E@@ 35024
of 35024
Aus@@ 34965
ungen 34963
m 34689
L@@ 34437
tun 34415
N@@ 34394
Fall 34252
wichtig 34150
also 34106
erhalten 34074
ch@@ 34045
besteht 34014
steht 34002
wäre 33999
Namen 33888
Teil 33690
soll 33641
Problem 33597
st@@ 33579
n@@ 33547
Ziel 33499
ersten 33281
al@@ 33269
Kollegen 33120
g@@ 32997
Fragen 32930
letzten 32862
einmal 32727
Recht 32499
W@@ 32118
Fraktion 32094
ern 32006
deren 31990
sten 31977
Art 31887
beim 31852
4 31842
Vor@@ 31784
C@@ 31748
Regierung 31721
Sicherheit 31695
sehen 31645
Bedeutung 31642
R@@ 31551
drei 31533
tes 31484
Staaten 31460
to 31204
dabei 31120
worden 31048
einfach 30873
seinen 30801
große 30751
Was 30706
großen 30583
Aber 30554
Seite 30544
muß 30537
könnte 30318
b@@ 30259
m@@ 30178
weiter 30131
Politik 29897
Zimmer 29799
Probleme 29759
Kommissar 29730
Bei 29588
bringen 29576
Daten 29560
Thema 29534
welche 29445
-@@ 29367
darüber 29333
Möglichkeit 29274
wissen 29201
davon 29128
5 28854
daher 28830
Weise 28697
Verfügung 28660
Richtlinie 28628
führen 28621
meiner 28615
ischen 28594
eigenen 28532
Z@@ 28460
ge 28314
Zukunft 28241
Auf 28161
Auch 28142
aller 28065
unterstützen 28036
um@@ 27962
liche 27958
e@@ 27941
sowohl 27835
enden 27807
re@@ 27792
System 27787
kein 27748
el@@ 27644
wirklich 27618
Nach 27564
eren 27459
Ihr 27438
politische 27407
ihnen 27384
USA 27351
o@@ 27347
Als 27314
Er 27279
gegenüber 27217
Rolle 27180
10 27144
weitere 27130
stellt 27054
Beispiel 27040
natürlich 26976
alles 26915
Stadt 26894
Er@@ 26865
du 26827
Frauen 26814
europäische 26808
Ende 26782
O@@ 26754
zwar 26730
Euro 26718
ende 26691
erreichen 26683
innerhalb 26625
besonders 26545
internationalen 26414
ja 26410
on 26371
V@@ 26341
bieten 26171
ische 26098
Weg 26010
hatte 25958
Ihrer 25830
&amp; 25789
Seiten 25787
verschiedenen 25702
unser 25687
d 25613
Kunden 25586
vielen 25517
möchten 25196
Meinung 25089
u@@ 25034
gehen 24959
lich 24772
kommt 24652
Artikel 24508
Situation 24383
Zusammenhang 24373
i@@ 24335
le 24331
E 24327
l@@ 24302
befindet 24193
Lösung 24109
lichen 23968
dort 23883
Mittel 23826
ens 23808
gesagt 23737
entfernt 23734
as 23725
J@@ 23632
chen 23433
Programm 23384
weniger 23312
r@@ 23295
Präsidentin 23279
erste 23238
ste 23123
Tag 23098
beiden 23088
nehmen 23082
is 23053
Um 23030
arbeiten 23008
daran 22941
Rates 22923
Ihren 22891
n 22874
nämlich 22869
de@@ 22819
Re@@ 22789
Hilfe 22766
Un@@ 22711
di@@ 22606
Europas 22532
g 22525
&#124; 22493
Deshalb 22454
Schutz 22378
Millionen 22371
Alle 22260
ts 22239
2009 22148
indem 22141
li@@ 22097
direkt 22076
l 22048
Grund 21975
pro 21909
I@@ 21880
In@@ 21874
bar 21873
h@@ 21837
all 21785
Auf@@ 21748
sogar 21744
Hier 21724
dessen 21707
Be@@ 21658
unserem 21634
Region 21629
Uhr 21622
v@@ 21616
Ebene 21584
Dieses 21570
ins 21566
Aussprache 21519
ar@@ 21481
p@@ 21446
unter@@ 21435
Leben 21419
ale 21400
jeder 21396
st 21338
a@@ 21332
ert 21330
gemacht 21269
hinaus 21253
schaffen 21234
gilt 21205
Produkte 21113
end 21092
Punkt 21048
20 21046
darin 21025
glaube 20989
einigen 20950
nationalen 20948
k 20891
brauchen 20817
etwa 20804
Gemeinschaft 20801
sen 20727
macht 20713
halten 20656
Wirtschaft 20635
öffentlichen 20621
unterstützt 20603
darf 20590
bitte 20578
So 20556
es@@ 20555
Rechte 20519
or@@ 20453
si@@ 20442
el 20398
Kinder 20372
ter@@ 20268
Haus 20256
Abstimmung 20230
on@@ 20206
ti@@ 20185
ebenfalls 20183
bzw. 20140
30 20123
Dieser 20097
will 20079
erten 20041
betrifft 19992
sicher 19989
dürfen 19962
gerade 19874
weiterhin 19825
erte 19807
z 19784
at 19687
St@@ 19681
sollen 19668
Bezug 19658
ihn 19658
6 19656
ger 19527
würden 19499
ihm 19433
keinen 19323
genau 19307
nichts 19252
Strategie 19204
ihrem 19197
seinem 19189
Form 19178
Menschenrechte 19170
Über@@ 19148
meisten 19101
wichtige 19071
Qualität 18988
u 18986
gute 18984
y@@ 18973
Personen 18969
klar 18967
Unsere 18926
ere 18891
deutlich 18872
solche 18866
.@@ 18801
sei 18724
bedeutet 18711
handelt 18710
Ansicht 18655
der@@ 18647
Deutschland 18637
aufgrund 18634
Umsetzung 18606
Kosten 18581
deshalb 18576
Internet 18573
Zugang 18532
besser 18464
em 18403
7 18356
Da 18345
setzen 18343
se 18298
schen 18297
jeden 18262
A 18254
hoffe 18203
Ziele 18197
Demokratie 18191
le@@ 18165
Software 18135
weit 18130
Gesellschaft 18129
Hotels 18093
nutzen 18053
gemeinsamen 18050
Vertrag 18015
nächsten 18008
Arbeits@@ 17958
China 17956
wirtschaftlichen 17925
beispielsweise 17861
Verantwortung 17845
Vorschläge 17821
sozialen 17801
Verfahren 17768
� 17744
Website 17698
j@@ 17697
Grundlage 17688
ri@@ 17664
Finanz@@ 17657
2010 17656
zusammen 17655
Bedingungen 17587
vielleicht 17584
la 17519
Richtung 17516
w@@ 17509
alen 17508
Rechts@@ 17494
Zu@@ 17484
Institutionen 17458
Aus 17432
notwendig 17423
Debatte 17395
könnten 17342
15 17341
at@@ 17315
Markt 17313
Um@@ 17303
8 17287
U@@ 17282
Dank 17271
hin 17244
gen@@ 17213
Anwendung 17191
allerdings 17175
Herren 17162
ers 17161
Interesse 17130
schnell 17110
Ort 17085
2008 17083
recht 17075
Daher 17036
führt 17035
ler 17027
besten 17008
erst 17004
politik 16996
Doch 16971
be 16917
Auswirkungen 16865
sprechen 16862
findet 16845
Hinblick 16836
Reihe 16817
werde 16811
Abkommen 16790
gehört 16786
statt 16755
fen 16704
system 16656
lange 16562
gemeinsame 16559
Berichterstatter 16550
bleiben 16544
Gebiet 16479
ä@@ 16420
Haupt@@ 16413
erreicht 16399
ro@@ 16399
Verhandlungen 16384
Tatsache 16376
et 16366
elle 16347
r 16334
gestellt 16314
Möglichkeiten 16306
b 16266
US 16240
ra@@ 16223
Regionen 16197
sk@@ 16139
Damen 16119
bereich 16089
isch 16061
danken 16044
erung 16001
ch 15976
zeigt 15922
bekannt 15907
licher 15890
ger@@ 15888
denke 15876
verwendet 15832
nach@@ 15830
The 15822
Von 15795
y 15787
50 15743
Al@@ 15738
wenig 15725
ie 15720
erforderlich 15703
Geschichte 15674
Dienstleistungen 15644
I 15635
or 15614
Vereinigten 15603
kleinen 15589
ei@@ 15569
Service 15529
ken 15515
Ihrem 15514
Änderungsanträge 15473
Entscheidung 15455
darum 15455
ten@@ 15446
Mitglieder 15432
Kolleginnen 15425
Unter@@ 15406
Krise 15374
am@@ 15372
Durch 15346
voll 15315
Schritt 15308
Änderungsantrag 15301
Beziehungen 15276
al 15229
zurück@@ 15222
bereit 15218
hätte 15209
3@@ 15204
gesamten 15200
Abgeordneten 15194
ebenso 15161
ne 15109
2007 15095
oft 15074
ü@@ 15067
Ergebnis 15056
Bereichen 15037
2000 15000
Türkei 15000
ermöglicht 14992
gegeben 14992
Verordnung 14989
liegen 14988
hatten 14976
Antwort 14918
Nähe 14914
einzelnen 14900
unternehmen 14891
c@@ 14858
Version 14843
te@@ 14826
weltweit 14793
alten 14784
durch@@ 14774
ser@@ 14774
Bevölkerung 14764
Ausdruck 14747
Wirtschafts@@ 14735
Förderung 14730
f 14726
Liste 14715
internationale 14706
verschiedene 14680
dar 14672
spielen 14646
fragen 14641
eln 14630
leben 14601
wichtigen 14584
weiß 14560
geführt 14527
th@@ 14522
tragen 14520
x 14520
x@@ 14491
helfen 14467
fast 14417
gestimmt 14409
C 14391
Ausschusses 14387
gel@@ 14363
weiteren 14345
Grund@@ 14336
Zu 14323
ange@@ 14321
gemeinsam 14320
verfügt 14311
Man 14308
sp@@ 14289
Außerdem 14277
vier 14275
Am 14259
Aufgabe 14216
Kontrolle 14216
heißt 14213
Gruppe 14210
los 14161
Geld 14131
Behörden 14124
gleichzeitig 14099
Erfolg 14080
bleibt 14071
entwickelt 14033
Entschließung 14026
gleichen 13990
enen 13989
meinen 13986
Forschung 13970
et@@ 13955
ellen 13947
nen 13937
jedem 13934
Ausschuss 13920
km 13917
wegen 13890
Rück@@ 13889
12 13829
Erweiterung 13809
ar 13803
Jahres 13795
gebracht 13794
kon@@ 13760
mit@@ 13759
ges 13712
Russland 13703
hinsichtlich 13700
che 13694
verbunden 13684
100 13636
je 13600
os 13568
se@@ 13555
Minuten 13546
Ge@@ 13534
Beitrag 13526
Neu@@ 13518
per 13510
Sicherheits@@ 13505
zen 13486
_ 13484
Schaffung 13467
gab 13447
zeigen 13418
4@@ 13411
ischer 13410
jede 13410
ziehen 13401
unseres 13392
Regierungen 13388
zi@@ 13387
Preis 13379
Verbesserung 13374
ben 13363
men 13352
Projekt 13274
konnte 13250
bekommen 13236
enthalten 13230
ko@@ 13219
Mal 13215
S 13205
sche 13199
em@@ 13168
au@@ 13144
Einsatz 13143
Verbindung 13123
befinden 13119
derzeit 13114
lässt 13113
Notwendigkeit 13085
Verbraucher 13075
wirtschaftliche 13068
Landes 13059
ermöglichen 13022
ber@@ 13016
besch@@ 13009
Lösungen 12974
wohl 12964
ene 12958
18@@ 12951
fördern 12950
ur@@ 12937
Nach@@ 12928
richtig 12928
Blick 12908
EN 12897
cht 12877
it@@ 12862
wichtigsten 12861
gt 12851
* 12850
h 12844
wobei 12843
jedes 12831
Interessen 12820
Lissabon 12812
Restaurant 12811
soziale 12811
Zum 12789
us 12788
Nutzung 12751
Gelegenheit 12735
verbessern 12682
Seit 12681
legen 12677
genommen 12660
Geschäfts@@ 12657
Ergebnisse 12642
den@@ 12617
Zentrum 12596
B 12594
25 12593
Bau@@ 12579
2006 12564
Vor 12557
Wasser@@ 12557
is@@ 12557
neu 12519
enthält 12515
Damit 12501
Ent@@ 12490
ö@@ 12448
kleine 12437
9 12376
tatsächlich 12352
00 12344
Wort 12339
Platz 12334
ung@@ 12317
völlig 12312
liches 12292
angenommen 12243
gern 12229
ke 12222
for 12220
Gesundheit 12219
X@@ 12216
D 12199
meinem 12184
Kon@@ 12183
+ 12174
Mar@@ 12168
T 12151
dern 12131
Ar@@ 12121
Text 12116
bestehen 12099
Verwendung 12083
mehrere 12076
ber 12072
Unser 12066
ganzen 12066
zusammen@@ 12064
großer 12044
Wachstum 12041
Themen 12040
Zeitpunkt 12023
Einführung 11971
Darüber 11951
Frankreich 11929
eigene 11917
hin@@ 11913
Änderungen 11909
schriftlich 11900
tige 11874
Bekämpfung 11834
Initiative 11831
Umwelt 11821
gerne 11817
sorgen 11812
ganze 11810
Woche 11795
ak@@ 11794
gewährleisten 11794
baren 11750
la@@ 11737
fünf 11733
Kampf 11705
verwenden 11702
us@@ 11698
Bitte 11691
entwickeln 11667
tischen 11666
ck@@ 11663
Prozess 11654
Fortschritte 11650
Di@@ 11649
lediglich 11638
äußerst 11637
verstehen 11628
zurück 11626
bei@@ 11620
verfügen 11588
guten 11573
gesch@@ 11569
wei@@ 11563
bi@@ 11551
Partner 11548
rund 11527
obwohl 11526
Erachtens 11525
gehören 11524
zunächst 11521
anderer 11518
z.B. 11501
bisher 11500
fest 11500
Kultur 11490
halte 11465
Kommissarin 11457
tern 11454
treffen 11444
Wert 11431
Stunden 11404
meines 11400
scheint 11400
bestimmte 11395
ationen 11394
versuchen 11379
Steuer@@ 11378
einschließlich 11351
c 11328
Umwelt@@ 11327
Person 11319
p 11306
gemäß 11274
gleich 11267
2@@ 11256
Investitionen 11249
Mehrheit 11246
neben 11221
Mail 11220
her@@ 11208
Industrie 11207
ändern 11195
len 11181
bare 11177
Ro@@ 11155
Mitglied 11149
sen@@ 11144
ek@@ 11143
ation 11139
40 11131
Zahl 11131
as@@ 11129
Dinge 11118
Erklärung 11107
Bestimmungen 11101
24 11072
gung 11065
stand 11065
Gewalt 11062
5@@ 11051
Integration 11047
O 11042
ag@@ 11040
Juni 11033
Programme 11019
ausge@@ 11013
Aktivitäten 11007
Entscheidungen 10994
ß@@ 10990
sagte 10986
zweite 10985
gesamte 10981
Anzahl 10974
zeit 10967
Anfang 10964
aten 10959
maßnahmen 10957
bestimmten 10937
hohen 10930
vergangenen 10907
bringt 10897
Dialog 10885
Während 10884
gesetzt 10879
Vorschriften 10877
gi@@ 10860
2005 10854
Handel 10851
solchen 10840
tigen 10831
Erfahrung 10824
fordern 10807
stark 10806
ieren 10794
Par@@ 10792
Tage 10791
ta@@ 10773
nimmt 10765
gar 10764
är@@ 10752
Wahl 10743
erster 10727
Beschäftigung 10718
anzu@@ 10718
geb@@ 10712
nie 10707
land 10703
somit 10699
Dabei 10696
it 10692
me 10691
000 10671
Gefahr 10663
Produktion 10645
chten 10634
isches 10629
ges@@ 10622
systeme 10621
Familie 10619
Macht 10616
Standpunkt 10610
Angebot 10605
Y@@ 10595
tische 10595
später 10594
Punkte 10592
sti@@ 10589
Mai 10587
mein 10582
Aufmerksamkeit 10580
Herzen 10579
tet 10552
einzu@@ 10526
Raum 10521
Sprache 10514
angesichts 10512
Freiheit 10510
Energie 10507
ff@@ 10484
leisten 10482
suchen 10482
aufgenommen 10481
Grenzen 10473
Haushalts@@ 10467
ster 10457
Nationen 10454
europäischer 10445
Folgen 10444
Hand 10444
dadurch 10433
6@@ 10422
ot@@ 10417
einzige 10413
2004 10407
Position 10392
® 10386
Landwirtschaft 10364
außerdem 10364
op@@ 10364
Mitarbeiter 10360
Bild 10357
tung 10350
are 10349
Funktion 10341
Präsidenten 10328
Regeln 10327
Dezember 10325
größten 10297
Berichts 10296
all@@ 10295
é@@ 10294
Bereiche 10293
schließlich 10291
Stelle 10278
geschlossen 10269
insgesamt 10266
programm 10258
fahren 10247
Bildung 10245
mal 10238
hohe 10224
setzt 10218
ma@@ 10209
Sp@@ 10207
ul@@ 10206
Transparenz 10195
iert 10190
Wettbewerb 10182
zweiten 10172
Diskussion 10169
Markt@@ 10155
eb@@ 10146
September 10132
Bemühungen 10115
Bo@@ 10115
Präsidentschaft 10114
ed@@ 10114
ell 10108
getan 10106
sieht 10102
Preise 10083
tiger 10071
Gemeinschafts@@ 10057
lichkeit 10055
Auswahl 10043
zahlreiche 10038
neuer 10026
wichtiger 10016
Spiel 10009
Anforderungen 10000
Auffassung 9983
leider 9970
Schlusselwortern 9969
innen 9969
Projekte 9959
Wasser 9956
ad@@ 9950
Ansatz 9942
ender 9940
2003 9934
weder 9933
Online 9900
Meine 9892
Pro@@ 9890
begrüße 9890
frei 9883
Umgebung 9881
öffentliche 9879
Tagesordnung 9876
beitragen 9864
leicht 9834
ts@@ 9833
zehn 9830
Öffentlichkeit 9803
eigentlich 9798
ze 9798
En@@ 9795
bevor 9786
Natur 9778
Gründen 9774
versch@@ 9771
ali@@ 9751
lang 9745
Kraft 9739
Bürgern 9733
allein 9727
fer@@ 9727
diejenigen 9715
führung 9712
2001 9709
Meer 9695
Nur 9694
Anfrage 9693
ker 9693
ihres 9690
März 9679
bezüglich 9673
G 9671
ol@@ 9666
genannten 9658
morgen 9641
by 9634
eingesetzt 9630
Sache 9596
aktuellen 9583
0@@ 9577
Änderung 9571
konnten 9558
durchgeführt 9556
hätten 9547
Fehler 9537
Linie 9532
Sinne 9530
Bürgerinnen 9526
verfahren 9524
Bar@@ 9513
verhindern 9491
erwarten 9482
hoch@@ 9475
Druck 9474
benötigen 9467
sch 9460
Benutzer 9457
lei@@ 9455
teilen 9438
Ma@@ 9435
Mo@@ 9435
kannst 9434
lo@@ 9434
erneut 9420
di 9411
Fällen 9409
ru@@ 9405
18 9399
ne@@ 9399
stimmen 9377
ations@@ 9373
del 9367
Monaten 9356
K 9346
berücksichtigt 9329
weisen 9328
Man@@ 9306
eh@@ 9296
gelten 9288
Höhe 9286
11 9283
Rechtsvorschriften 9276
om@@ 9274
Tat 9270
Gäste 9267
Finanzierung 9260
geworden 9259
möglichkeiten 9252
tungs@@ 9250
größte 9244
Entwicklungs@@ 9237
Januar 9230
behandelt 9224
Reform 9205
eben 9205
Ressourcen 9195
eher 9177
kurz 9169
Ex@@ 9165
freien 9165
weise 9163
entsprechenden 9150
genießen 9149
Jahrhundert 9146
wenige 9143
Heute 9140
det 9136
gefunden 9135
Natürlich 9122
Server 9118
Sozial@@ 9117
warum 9115
Design 9114
weiter@@ 9099
M 9089
ausgestattet 9086
ens@@ 9079
Zweitens 9044
wer@@ 9039
hei@@ 9038
Nr. 9027
P 9003
2002 8999
Republik 8997
Oktober 8991
Konferenz 8990
folgt 8985
lage 8980
.com 8978
vergessen 8969
tieren 8963
14 8958
Bi@@ 8949
tungen 8938
TV 8935
vertreten 8932
zumindest 8931
7@@ 8929
Arbeitnehmer 8918
Insel 8911
ca 8903
Bar 8896
Aspekte 8888
Sicht 8888
tliche 8884
1. 8883
16 8883
Ch@@ 8879
versucht 8879
eg@@ 8858
demokratischen 8852
fallen 8849
8@@ 8847
ka 8845
vi@@ 8845
Lebens@@ 8843
kosten 8843
Behandlung 8837
lösen 8834
einge@@ 8832
richtige 8829
ut@@ 8829
tan@@ 8816
ner 8804
Herausforderungen 8800
Organisation 8797
Se@@ 8792
ing@@ 8790
Berichterstatterin 8788
Parteien 8786
überhaupt 8776
Basis 8774
one 8773
Italien 8769
Angelegenheit 8767
Angelegenheiten 8764
gende 8754
Team 8751
Vertrauen 8750
schützen 8744
ap@@ 8727
mittel 8722
Werte 8721
Welt@@ 8720
Milliarden 8715
geschaffen 8689
entsprechend 8680
Vergangenheit 8675
il@@ 8668
zahlen 8668
erklärt 8665
Spanien 8654
Zur 8653
erfüllen 8651
est@@ 8642
gewesen 8639
Fach@@ 8635
Schwierigkeiten 8635
heit 8623
Lassen 8621
Arbeitsplätze 8612
gesehen 8612
Solidarität 8606
technischen 8601
endlich 8594
aufge@@ 8593
&gt; 8579
bessere 8570
L 8566
F 8565
Strand 8561
Beginn 8547
hinter 8547
nahe 8535
0 8533
Staat 8531
Tagen 8527
Spiel@@ 8525
tig 8523
Hinsicht 8522
besondere 8518
verantwortlich 8510
Windows 8504
sh@@ 8500
mo@@ 8499
Annahme 8488
verpflichtet 8488
Musik 8487
9@@ 8485
hoch 8485
Handels@@ 8483
frage 8479
Dateien 8472
genug 8471
IT 8467
Vertreter 8460
Küche 8457
Gruppen 8455
anderem 8453
Juli 8451
fe 8440
EUR 8438
Mit@@ 8434
Datei 8433
Schritte 8431
häufig 8428
Frieden 8424
Armut 8419
sofort 8416
fest@@ 8415
paar 8408
Verkehrs@@ 8394
falls 8393
her 8391
erinnern 8388
Opfer 8384
November 8382
Wochen 8382
vollständig 8381
kennen 8380
privaten 8376
lesen 8372
AG 8363
Systems 8363
60 8359
reichen 8359
Technologie 8351
Land@@ 8349
treten 8347
Forschungs@@ 8336
heutigen 8335
ach@@ 8331
amerikanischen 8330
erfolgreich 8329
GmbH 8325
Bilder 8321
Erfahrungen 8321
Hoch@@ 8321
Firma 8320
Daten@@ 8308
genden 8306
cken 8300
Verpflichtungen 8289
ine 8285
wählen 8285
außerhalb 8283
da@@ 8280
13 8274
vorgeschlagen 8269
Erstens 8263
R 8261
end@@ 8261
Nicht 8253
Staats@@ 8251
hören 8250
Verfassung 8247
darstellt 8230
trotz 8223
Inhalt 8213
Obwohl 8209
bewusst 8198
jeweiligen 8188
begrüßen 8187
erfolgt 8187
Anstrengungen 8181
Allerdings 8168
Reformen 8168
Krieg 8161
stärker 8160
globalen 8159
Viele 8158
allgemeinen 8157
Du 8155
Gästebewertungen 8155
ben@@ 8154
ft 8148
Unter 8144
ran@@ 8144
with 8144
Organisationen 8143
kan@@ 8141
Information 8140
eindeutig 8134
stets 8132
ären 8127
letzte 8122
Terrorismus 8118
aufzu@@ 8117
beste 8117
entscheiden 8117
Gra@@ 8116
Praxis 8115
genutzt 8106
Wahlen 8105
An 8102
modernen 8095
schwer 8095
Groß@@ 8091
Partei 8091
Sonder@@ 8083
wi@@ 8083
Co@@ 8081
unten 8079
Binnenmarkt 8068
tem 8066
gekommen 8061
man@@ 8060
sektor 8049
ente 8048
V 8041
scher 8039
übernehmen 8039
neues 8038
1999 8026
Selbst@@ 8020
un 8007
aler 8000
Kriterien 7995
Sitzung 7991
erwartet 7990
sechs 7988
Dollar 7987
Folge 7982
Prozent 7978
Protokoll 7972
ing 7971
nationale 7967
zahlreichen 7966
Vereinbarung 7964
bitten 7962
ell@@ 7962
ern@@ 7954
X 7951
größere 7944
historischen 7940
Einige 7938
deine 7938
folgenden 7938
April 7935
Berlin 7933
vorgelegt 7932
folgen 7930
erkennen 7929
B. 7919
do 7917
Aufgaben 7904
v 7902
ate 7900
tre@@ 7898
Denn 7897
que 7891
Mittel@@ 7889
danke 7888
bilden 7886
wahrscheinlich 7885
U 7884
= 7878
seines 7870
Haushalt 7863
Anerkennung 7859
Stabilität 7859
im@@ 7858
Wann 7851
Zustimmung 7836
weg 7836
stell@@ 7833
Ausschuß 7832
Den 7825
cher 7825
Falle 7802
Dazu 7799
Gesundheits@@ 7795
hotel 7795
Li@@ 7794
mi@@ 7783
zudem 7781
Einrichtung 7776
Gesamt@@ 7771
Instrument 7770
beide 7769
volle 7762
schaft 7759
Sektor 7757
deutschen 7747
auszu@@ 7742
teile 7742
überzeugt 7742
ina 7741
tions@@ 7738
Gipfel 7736
persönlichen 7736
€ 7735
glauben 7733
denken 7731
mer 7731
offen 7719
Urlaub 7717
dringend 7717
berücksichtigen 7715
gleich@@ 7710
ati@@ 7695
gesprochen 7695
Adresse 7692
Le@@ 7688
Flughafen 7687
Wunsch 7685
De@@ 7682
ausschließlich 7680
tete 7673
ums 7670
erlaubt 7667
wert 7661
alte 7652
hinweisen 7651
Nun 7648
sicherzustellen 7647
voll@@ 7641
kam 7634
welches 7624
zusätzliche 7624
fer 7621
Idee 7616
kaum 7614
Verwaltung 7610
Tra@@ 7605
prüfen 7605
Rei@@ 7587
abzu@@ 7585
Mitteilung 7584
Volk 7584
beginnen 7580
möglicherweise 7576
tiert 7562
hal@@ 7558
gezeigt 7557
ort 7557
Fahr@@ 7554
Systeme 7548
to@@ 7548
La 7546
Atmosphäre 7545
Osten 7541
Vorteile 7539
erwähnt 7539
unbedingt 7539
oben 7535
industrie 7534
Flug@@ 7526
Wettbewerbsfähigkeit 7525
prozess 7524
Unterkategorien 7518
Po@@ 7515
gleiche 7511
Dann 7505
tlichen 7497
Site 7495
werk 7493
Durchführung 7491
stelle 7471
Her@@ 7470
kl@@ 7466
ständig 7461
N 7459
hoffen 7459
akzeptieren 7457
bestehenden 7456
80 7453
Nutzen 7453
hält 7453
finanziellen 7451
bald 7450
ur 7449
ging 7444
Schließlich 7441
Kinder@@ 7440
zer@@ 7439
Ihres 7432
Haltung 7428
pro@@ 7425
selbstverständlich 7424
200 7422
Mon@@ 7420
ac@@ 7415
tsch@@ 7411
lagen 7410
les 7405
Technologien 7402
automatisch 7401
Vertrags 7396
entspricht 7394
so@@ 7394
tion@@ 7393
Falls 7392
ergreifen 7392
au 7387
Preis@@ 7384
anders 7377
erzielt 7373
kommenden 7369
gs 7354
getroffen 7346
ra 7346
gerecht 7338
Aufenthalt 7337
Zunächst 7330
Lo@@ 7329
mindestens 7322
wesentlich 7316
Hause 7311
Wei@@ 7308
umgesetzt 7307
Medien 7306
ck 7305
Gebäude 7303
tz@@ 7302
qu@@ 7301
Irak 7294
Ko@@ 7294
Leute 7292
jene 7291
politischer 7291
eller 7290
gel 7285
Sterne 7282
unterschiedlichen 7276
Bei@@ 7274
benutzt 7274
17@@ 7257
stimme 7255
Ist 7251
and@@ 7247
form@@ 7246
Menschenrechts@@ 7233
notwendigen 7231
Einzel@@ 7214
Restaurants 7210
Israel 7206
Vereinten 7196
men@@ 7195
Wer 7191
entsprechende 7190
Ber@@ 7189
bau 7189
ir@@ 7188
aktuelle 7187
festgelegt 7178
alität 7175
par@@ 7173
500 7159
Produkt 7154
nachdem 7153
richten 7152
Produktions@@ 7150
Augen 7142
wünschen 7138
lernen 7137
laufen 7134
abge@@ 7128
stärken 7122
Chance 7111
Tri@@ 7108
pf@@ 7100
ni@@ 7093
moderne 7091
lose 7081
ig@@ 7079
än@@ 7077
geändert 7071
chte 7065
bedarf 7063
Th@@ 7055
New 7053
zuletzt 7053
Kultur@@ 7052
Lei@@ 7052
Homepage 7047
mon@@ 7044
Neben 7037
Spieler 7037
braucht 7034
Frühstück 7033
äre 7019
platz 7018
Zusammen@@ 7014
verfolgen 7014
Funktionen 7008
Ri@@ 7003
erfüllt 7003
wären 7003
beziehen 7001
Ru@@ 6989
bau@@ 6985
tu@@ 6983
Produkten 6981
Forderung 6978
dienen 6977
senden 6974
aktiv 6971
Inter@@ 6968
Zudem 6965
erhöhen 6964
Initiativen 6963
vermeiden 6958
Ak@@ 6957
sage 6956
erzielen 6953
Mitgliedstaat 6948
Ausgaben 6946
barkeit 6946
www.@@ 6940
übernachten 6940
freie 6936
Karte 6934
dar@@ 6932
fort@@ 6932
Dis@@ 6929
Stadt@@ 6924
mehreren 6917
re 6916
Kar@@ 6915
17 6914
Computer 6913
bel@@ 6913
bestimmt 6910
betonen 6909
handeln 6906
technische 6906
sa@@ 6900
Instrumente 6894
sicherlich 6892
Einfluss 6890
wer 6887
vollen 6881
ales 6876
ster@@ 6874
Ausbildung 6860
Abschließend 6853
klare 6853
Kern@@ 6850
ma 6850
Qu@@ 6849
genannt 6844
no@@ 6837
erfahren 6836
zeiten 6836
Währung 6834
besonderen 6834
siert 6828
é 6828
Management 6820
Kor@@ 6807
rechts 6799
Kenntnis 6795
stellung 6793
lan@@ 6788
nisse 6788
Berichte 6786
Zeichen 6786
darunter 6783
Fonds 6782
erungs@@ 6782
trägt 6782
außer 6781
hi@@ 6773
entschieden 6772
Abgeordnete 6771
ssen 6761
.. 6759
siehe 6752
arbeitet 6751
Regelung 6749
wieder@@ 6749
kt 6747
arbeit 6746
z. 6739
Inhalte 6730
Stimme 6729
anderes 6726
Kur@@ 6724
beschlossen 6719
zwei@@ 6719
Monate 6716
Veränderungen 6715
verfügbar 6715
vorgesehen 6709
Anspruch 6705
Vielfalt 6692
gefordert 6691
Großbritannien 6689
Verwaltungs@@ 6681
verbessert 6676
Iran 6675
Einrichtungen 6671
Qualitäts@@ 6657
à 6657
gend 6645
Konzept 6624
konkrete 6620
Beitritt 6619
Kindern 6617
Tätigkeit 6617
Hand@@ 6612
finanzielle 6612
San 6602
tlich 6599
Produkt@@ 6597
benutzen 6597
els 6593
Einigung 6592
Über 6585
Abschluss 6583
alisierung 6580
ier@@ 6580
So@@ 6579
systems 6576
Anwendungen 6575
ismus 6574
Bad 6573
sierung 6568
erter 6566
Engagement 6561
schreiben 6559
ß 6559
H 6557
Informations@@ 6554
gew@@ 6554
Wege 6553
do@@ 6553
voller 6551
erk@@ 6550
sagt 6549
hen 6539
rechte 6537
bes@@ 6536
freue 6531
gten 6529
ah@@ 6524
Hotel@@ 6523
funktioniert 6523
inter@@ 6522
teten 6520
rä@@ 6519
fällt 6516
Familien 6513
wider@@ 6513
tra@@ 6507
durchaus 6505
Gebieten 6500
ari@@ 6499
enz@@ 6497
Herausforderung 6495
ci@@ 6491
darstellen 6487
Privat@@ 6483
Suche 6479
Besuch 6478
konzentrieren 6472
Angesichts 6470
gelangen 6466
Zeitraum 6463
klicken 6459
verkehr 6443
enten 6433
Stellungnahme 6430
möglichen 6430
entweder 6428
Achtung 6427
Modell 6427
Ad@@ 6425
Gu@@ 6419
dagegen 6415
Vi@@ 6409
endes 6400
Car@@ 6398
richtigen 6398
erklären 6393
ms 6392
Prioritäten 6391
Gemeinsamen 6389
Paris 6389
Warum 6387
Natur@@ 6386
ha@@ 6385
me@@ 6384
Dienste 6380
Rede 6378
ans 6377
freuen 6377
Griechenland 6375
Standards 6372
Wohn@@ 6372
Web 6371
Lesung 6370
Zweifel 6370
ausdrücklich 6369
euch 6365
ex@@ 6365
Stärkung 6360
Leistungen 6355
Menge 6349
Programms 6347
ant 6345
Einhaltung 6344
Fischerei@@ 6340
Jetzt 6339
Antrag 6334
Forderungen 6331
gewährleistet 6328
schi@@ 6328
Worte 6326
online 6324
betrachtet 6320
Web@@ 6319
möglichst 6315
erstellt 6309
Arbeitslosigkeit 6307
lokalen 6302
ation@@ 6301
Afrika 6300
oren 6300
ob@@ 6299
wollte 6298
po@@ 6296
bedingungen 6294
Kontakt 6290
90 6288
Japan 6287
Sk@@ 6281
Ukraine 6281
spielt 6281
Ober@@ 6278
Dennoch 6277
langen 6273
erenden 6267
mu@@ 6265
21 6263
geleistet 6263
Straße 6260
Vergleich 6259
gelegen 6256
per@@ 6256
Sommer 6254
diskutieren 6252
eingehen 6252
gewinnen 6252
Park 6246
welcher 6246
teilweise 6238
regionalen 6236
verb@@ 6236
kulturellen 6233
70 6232
Wein@@ 6232
positive 6232
Wahl@@ 6231
Sprachen 6227
geschehen 6226
mm 6224
ent 6217
Sorge 6213
ang 6210
ser 6207
1@@ 6206
len@@ 6204
Familien@@ 6201
pp@@ 6201
einiger 6198
warten 6193
zei@@ 6192
prä@@ 6190
Arbeiten 6188
PC 6187
1.@@ 6183
eng@@ 6182
ER 6181
Kunst 6181
schwierig 6179
Aufnahme 6173
wenden 6166
Teile 6165
tionen 6165
Zeiten 6162
gte 6160
jederzeit 6157
Leider 6156
starke 6154
AN@@ 6150
Zweck 6146
00@@ 6144
chen@@ 6134
speziell 6132
fall 6127
erfolgen 6124
unabhängig 6123
nächste 6122
demokratische 6121
Analyse 6116
Vielen 6115
programme 6111
Aspekt 6109
erleben 6108
verfolgt 6108
gelegt 6107
ons 6106
Au@@ 6104
Hauses 6102
feststellen 6101
sches 6098
Bild@@ 6097
Februar 6095
stoffe 6095
Partnerschaft 6092
Standard 6092
Reise@@ 6089
gegenwärtigen 6084
Mio. 6082
informieren 6080
fi@@ 6076
Schweiz 6075
teil@@ 6073
angezeigt 6070
Status 6065
achten 6065
und@@ 6060
Entwicklungen 6055
ator 6055
ses 6055
eu@@ 6053
dank 6049
gegenwärtig 6049
laden 6048
geh@@ 6040
Dokument 6036
ungsp@@ 6032
geeignet 6031
Webseite 6030
Paket 6025
hingewiesen 6023
markt 6023
Bel@@ 6018
Globalisierung 6016
Or@@ 6012
führenden 6004
Stand 6003
Überwachung 6001
bel 6000
erscheint 5992
Banken 5987
angesprochen 5982
19 5981
profitieren 5974
tätig 5968
unterstütze 5966
Kunst@@ 5959
Indien 5958
CD 5957
liebe 5955
gestalten 5953
entstehen 5952
Ja 5947
22 5946
jeweils 5946
dennoch 5944
WTO 5943
Priorität 5940
Angaben 5939
no 5938
wenigen 5938
Hintergrund 5933
Kunden@@ 5933
Agrar@@ 5931
benötigt 5929
lin@@ 5926
Irland 5921
ungs- 5921
übrigen 5921
ßen 5920
fordert 5919
losen 5918
Polen 5917
Schutz@@ 5913
Verpflichtung 5909
folgende 5909
Berg@@ 5908
Problemen 5907
unterschiedliche 5904
legt 5901
Beschäftigungs@@ 5897
Debian 5890
Wissen 5887
usw. 5886
Su@@ 5885
Euro@@ 5883
Con@@ 5882
mann 5881
ok@@ 5880
Richtlinien 5879
daten 5879
Meiner 5878
Schul@@ 5874
enn@@ 5874
II 5873
erstellen 5870
ie@@ 5869
lau@@ 5867
Tier@@ 5866
veröffentlicht 5864
Fortschritt 5863
Pi@@ 5863
W 5857
Bewertung 5856
führte 5856
Gleichzeitig 5850
Märkte 5850
acht 5837
Brüssel 5835
besuchen 5835
Texte 5834
Regelungen 5830
einsetzen 5828
überprüfen 5828
absolut 5825
ften 5823
19@@ 5818
eingeführt 5812
erforderlichen 5809
á@@ 5808
Mitte 5804
sichern 5802
Gegen@@ 5801
Herstellung 5796
raum 5795
läuft 5794
Energie@@ 5790
ce 5784
ou@@ 5784
Innovation 5782
Politiker 5780
mer@@ 5780
täglich 5779
anischen 5775
Zeit@@ 5774
weiterer 5773
Personal 5769
vorliegenden 5769
Rechnung 5765
Wel@@ 5761
eingerichtet 5761
vorhanden 5755
Grenz@@ 5750
Gesetz 5749
Österreich 5748
20@@ 5746
positiv 5746
Mitteln 5745
Worten 5742
heiten 5739
Jahrhunderts 5736
Stellen 5735
Beteiligung 5733
Kosovo 5733
ep@@ 5728
Arten 5725
erungen 5720
umfasst 5709
Anteil 5705
teil 5703
UN 5700
umfassende 5697
Formen 5696
art 5696
Meter 5692
miteinander 5690
Entwurf 5689
Linux 5688
offensichtlich 5687
Do@@ 5686
verbundenen 5683
gebiet 5677
werte 5677
ien 5670
ER@@ 5668
{ 5667
deten 5664
w 5664
sicherheit 5661
ess@@ 5660
persönlich 5656
ertes 5649
verlassen 5645
Geschäftsordnung 5641
27 5640
Elemente 5638
Sa@@ 5638
französischen 5636
est 5634
Maße 5632
fahr@@ 5631
links 5630
spricht 5629
Kompromiss 5628
beteiligt 5626
Barcelona 5623
Erklärungen 5620
Prinzip 5619
Verkehr 5619
Kritik 5617
Moment 5616
Europäer 5613
stellte 5609
jüngsten 5608
August 5605
Sport@@ 5605
aufmerksam 5605
Bedürfnisse 5604
britischen 5601
größeren 5594
Sinn 5591
ven 5588
wesentlichen 5587
Kommunikation 5584
15@@ 5583
alismus 5581
Risiken 5580
internationaler 5574
stre@@ 5572
300 5571
Agentur 5570
Ideen 5569
schutz@@ 5561
Gründe 5560
Fest@@ 5554
bestätigt 5554
Hersteller 5552
nennen 5545
Regel 5543
sämtliche 5540
ori@@ 5537
zufrieden 5532
Video 5531
zentrale 5530
Vielzahl 5528
ierung 5528
Booking.com 5526
ana 5526
angeboten 5521
Garten 5520
betrachten 5520
politisch 5518
dient 5512
mittel@@ 5508
nationaler 5508
geschützt 5504
Grundsatz 5500
Umfang 5500
ho@@ 5498
stattfinden 5498
Beihilfen 5495
kaufen 5495
Abend 5494
gelöst 5490
Besucher 5487
schließen 5487
ler@@ 5485
Aktionen 5484
garantiert 5482
bo@@ 5475
Entschließungsantrag 5473
ad 5472
Ni@@ 5466
Prä@@ 5465
lichem 5458
1998 5456
Am@@ 5454
tiges 5453
zug 5450
rechtlichen 5449
keinerlei 5448
London 5446
Agenda 5443
Empfehlungen 5442
Installation 5441
staatlichen 5441
ologie 5439
ausreichend 5436
solcher 5434
Absatz 5433
Verhältnis 5430
Hoffnung 5426
länger 5425
ca. 5421
Stil 5420
starken 5416
Fraktionen 5414
Gebiete 5405
West@@ 5404
testen 5402
Botschaft 5400
Bu@@ 5399
Treffen 5398
land@@ 5397
schlagen 5396
zentrum 5390
ph@@ 5381
überall 5377
globale 5374
tsp@@ 5374
EN@@ 5373
fahrt 5371
Druck@@ 5369
Realität 5367
anlagen 5367
unbe@@ 5367
tik@@ 5361
stehenden 5357
Ö@@ 5357
Außen@@ 5352
gang 5352
fähigkeit 5350
Bank 5349
vorgeschlagenen 5348
Komfort 5345
wirken 5344
Risiko 5342
La@@ 5338
Mor@@ 5336
finde 5335
Ereignisse 5332
Unternehmens@@ 5331
Klein@@ 5327
Flexibilität 5326
Mitgliedern 5321
großes 5318
su@@ 5318
Monat 5317
Niveau 5317
erhält 5312
nachhaltige 5312
groß 5309
kraft 5309
cht@@ 5308
Terrasse 5297
danach 5297
erfordert 5295
einfache 5293
tä@@ 5290
tik 5287
allgemeine 5285
Lu@@ 5284
Liberalisierung 5283
Zei@@ 5283
rei@@ 5282
spezielle 5276
ta 5276
tr@@ 5276
schönen 5275
du@@ 5274
garantieren 5272
Kirche 5271
ss@@ 5268
co 5267
reden 5266
san@@ 5265
res 5263
verloren 5262
ST@@ 5261
ausschuss 5261
elles 5260
Verständnis 5259
ungs 5252
Leistung 5247
betroffenen 5246
mm@@ 5246
Klima@@ 5245
daraus 5240
enz 5238
Geld@@ 5236
Grunde 5235
gruppen 5234
Führung 5232
d. 5228
entsprechen 5228
festgestellt 5226
ren 5226
übertragen 5226
angeht 5219
beinhaltet 5216
länder 5216
Gegenteil 5215
vorschlagen 5214
gegründet 5213
Wer@@ 5212
ES 5209
} 5209
h. 5208
uner@@ 5208
Eindruck 5206
Betrieb 5201
nahme 5200
No@@ 5197
go 5196
Erhöhung 5194
gef@@ 5194
rechten 5193
schutz 5193
stra@@ 5192
rück@@ 5190
Beschreibung 5187
betroffen 5185
einverstanden 5181
Gas@@ 5180
16@@ 5179
35 5177
schaften 5173
feld 5171
abgeschlossen 5170
lä@@ 5169
tisch 5168
Aufbau 5165
Königreich 5162
gem@@ 5160
geschieht 5160
Patienten 5159
Luft@@ 5157
Methode 5154
Infrastruktur 5152
Gesetzgebung 5150
Koordinierung 5149
Titel 5149
Auto 5145
bezeichnet 5143
erhöht 5140
Gegensatz 5139
from 5138
satz 5138
zählen 5138
Jeder 5137
Nord@@ 5134
Diskriminierung 5131
23 5129
Unabhängigkeit 5126
steigen 5123
mittels 5122
strategie 5120
trag@@ 5111
zuvor 5111
Mi@@ 5106
rat 5102
Überprüfung 5100
Größe 5098
Voraussetzungen 5098
Ho@@ 5092
See 5092
Phase 5090
1,@@ 5089
He@@ 5086
Bundes@@ 5083
Internationalen 5081
Gen@@ 5078
wirtschaft 5078
Prüfung 5074
informiert 5073
Br@@ 5072
zen@@ 5071
gehalten 5066
besseren 5063
besitzt 5061
Sal@@ 5059
mp@@ 5059
Name 5057
einzigen 5056
gutes 5054
wichtigste 5054
End@@ 5052
punkt 5052
Hinweis 5050
gruppe 5043
Business 5042
Teilen 5040
reagieren 5034
manchmal 5032
echte 5031
ität 5025
All 5024
wodurch 5023
Klimawandel 5022
IT@@ 5021
Reaktion 5020
Tre@@ 5020
mel@@ 5020
Tradition 5015
beginnt 5014
gu@@ 5014
kre@@ 5014
sor@@ 5013
son 5012
Sehenswürdigkeiten 5009
ich@@ 5008
speziellen 5007
bewegen 5002
Wirkung 5001
haften 4996
produktion 4995
zusätzlich 4992
diskutiert 4991
empfehlen 4991
# 4990
Villa 4990
go@@ 4990
you 4990
Ebenso 4989
aren 4987
lig 4987
Durch@@ 4983
rü@@ 4982
greifen 4979
tn@@ 4979
geschrieben 4978
Universität 4977
Kontroll@@ 4976
hauptsächlich 4975
reisen 4972
Not@@ 4971
ör@@ 4969
digen 4968
Netzwerk 4967
Sanktionen 4966
einander 4966
ES@@ 4962
reich@@ 4962
mag 4958
IN@@ 4957
haus 4953
AR@@ 4952
Anpassung 4952
Hälfte 4950
betont 4950
Innen@@ 4949
zugleich 4949
relativ 4947
Grundrechte 4946
jungen 4945
tel@@ 4945
Mindest@@ 4942
Bestandteil 4941
Zahlen 4940
ren@@ 4939
ters 4939
Mann 4936
andererseits 4936
Willen 4932
erende 4930
lungs@@ 4929
Film 4927
Technik 4927
j 4927
ländlichen 4927
sicherstellen 4925
2.@@ 4920
positiven 4914
cke 4913
kürzlich 4910
Klicken 4908
ständigen 4908
Fähigkeit 4906
10@@ 4905
Museum 4903
$ 4899
glichen 4898
Betriebs@@ 4896
jährlich 4892
Zahlungs@@ 4891
reicht 4889
sieren 4889
Begriff 4886
Q@@ 4886
Per@@ 4884
Vorteil 4884
derzeitigen 4883
Einklang 4882
Vertrags@@ 4882
alt 4877
vollkommen 4873
Bank@@ 4872
Amsterdam 4871
kur@@ 4868
EG 4867
seitens 4866
spezifischen 4864
Fälle 4863
Dimension 4862
Nutzer 4862
Bedarf 4861
ia 4861
isch@@ 4861
Gar@@ 4858
Welche 4853
onen 4852
regionale 4852
stimmt 4850
war@@ 4850
arten 4849
bezieht 4846
International 4843
Strategien 4843
emp@@ 4843
ischem 4842
lich@@ 4841
min@@ 4840
BIP 4839
mü@@ 4838
Mark@@ 4837
Voll@@ 4837
Fuß 4834
Ger@@ 4833
trifft 4831
Anlagen 4829
Bedenken 4826
sse 4815
tri@@ 4814
Hei@@ 4813
Männer 4812
komplett 4812
ino 4809
Tatsächlich 4807
nissen 4807
Gesetze 4802
zustimmen 4799
damals 4798
UN@@ 4796
Firmen 4794
Unterschiede 4794
gra@@ 4793
Übereinkommen 4793
bekannten 4791
welchen 4790
Musik@@ 4788
guter 4787
Versuch 4786
akzeptiert 4786
sobald 4786
neu@@ 4784
praktisch 4784
Struktur 4783
Diskussionen 4782
Meeres@@ 4782
zeit@@ 4782
Option 4781
nis@@ 4781
Dienst 4780
vielmehr 4779
Kollege 4775
schneller 4771
Post@@ 4767
ausschusses 4767
verlieren 4765
persönliche 4761
for@@ 4760
1997 4758
unternommen 4755
Umständen 4748
weiteres 4747
Methoden 4744
verstärkt 4744
Amerika 4742
Plan 4742
Portugal 4741
Berücksichtigung 4740
Links 4739
Ordnung 4736
Grundsätze 4735
Ratspräsident 4735
Pal@@ 4734
gezogen 4732
werke 4732
Vorbereitung 4731
äu@@ 4729
abhängig 4728
Fotos 4727
Kraft@@ 4726
ec@@ 4726
Gott 4722
mögliche 4720
Anliegen 4718
beschäftigt 4718
Seine 4716
gestern 4715
gewisse 4715
fühlen 4713
Leitlinien 4712
anten 4712
entwicklung 4709
Si@@ 4706
weltweiten 4706
Wirtschafts- 4705
befassen 4698
konkreten 4697
AL@@ 4696
Reise 4696
Bal@@ 4691
Kapital@@ 4691
lt 4690
bern 4689
komm@@ 4689
gewählt 4688
Trotz 4686
zunehmend 4684
Öl@@ 4684
Nacht 4682
Cor@@ 4681
lung 4681
Bis 4680
sto@@ 4679
iz@@ 4678
service 4677
betreffen 4675
kostenlos 4673
spezifische 4673
Kan@@ 4672
seien 4670
ve 4670
ergeben 4668
Bildungs@@ 4667
nochmals 4665
Waren 4663
Bewegung 4657
Min@@ 4656
junge 4652
mes 4651
pi@@ 4650
zufolge 4648
Sport 4644
Städte 4643
regelmäßig 4632
welt 4632
Fischerei 4631
Gefühl 4631
Nachdem 4630
verk@@ 4629
Absch@@ 4628
Erde 4627
dr@@ 4627
Charakter 4626
Verträge 4623
net 4623
Ausland 4619
Entwicklungsländern 4616
he 4614
Beifall 4612
ei 4611
Aussicht 4610
beachten 4609
Zwei@@ 4608
management 4608
Generation 4607
System@@ 4604
ys 4604
To@@ 4603
behandeln 4603
ierte 4603
Haup@@ 4600
hand@@ 4600
u. 4600
tel 4598
umfassenden 4597
Verbrechen 4594
anerkannt 4594
dritten 4594
geöffnet 4594
14@@ 4593
früher 4593
Grenze 4591
Inseln 4585
wichtiges 4583
barer 4582
berühmten 4582
Vielleicht 4581
sonst 4580
herzlich 4578
verlangen 4578
Effizienz 4577
Wieder@@ 4576
fra@@ 4576
ann@@ 4575
Laufe 4574
haft 4574
Völker 4571
bar@@ 4570
traditionellen 4568
einzelne 4565
pl@@ 4564
Studie 4563
Maßnahme 4562
Landwirte 4561
Beim 4559
Licht 4558
DE 4555
grundlegenden 4555
hafte 4555
Dokumente 4553
liefern 4552
Schlüssel@@ 4551
AT@@ 4549
see 4548
Unternehmens 4547
Ti@@ 4546
Lebensmittel@@ 4545
Teil@@ 4540
Untersuchung 4540
Voraussetzung 4540
ks 4536
keiner 4535
einerseits 4534
Rechts 4532
Teilnahme 4532
last 4531
berei@@ 4529
rufen 4529
une 4529
Ä@@ 4529
AS@@ 4528
Antworten 4528
Weitere 4528
sm@@ 4528
zeichnet 4527
übernommen 4527
Empfehlung 4525
stoff 4525
Aufgrund 4524
nötig 4520
This 4518
fonds 4517
ün@@ 4516
Liefer@@ 4515
nis 4515
ür@@ 4514
anbieten 4512
dienste 4510
seite 4510
45 4509
Nahen 4508
deutsche 4508
Club 4507
berg 4507
tät 4507
Westen 4506
gelungen 4506
FR 4505
basiert 4503
mar@@ 4502
Wegen 4501
Unterkunft 4498
heraus@@ 4498
Tiere 4491
ehemaligen 4490
Services 4489
niemand 4489
co@@ 4488
wiederum 4487
ehr@@ 4486
stes 4486
ds 4484
Absicht 4482
künftig 4480
staatliche 4477
uren 4472
he@@ 4471
Des@@ 4468
Ku@@ 4466
höhere 4466
istischen 4463
genauso 4461
Delegation 4459
Sprach@@ 4458
elt 4454
ist@@ 4453
deiner 4445
staaten 4445
Eigen@@ 4444
Wahrheit 4444
Friedens@@ 4442
Agrarpolitik 4441
Mehr 4441
breite 4438
Allgemeinen 4435
glich 4435
sam@@ 4435
World 4429
amerikanische 4428
etz@@ 4428
bildet 4427
ches 4427
í@@ 4427
stoff@@ 4425
Verhalten 4423
menschlichen 4422
angemessen 4421
schöne 4420
cher@@ 4418
Ju@@ 4416
Geist 4415
19. 4413
Definition 4412
Mein 4412
fung 4412
Kre@@ 4411
bildung 4411
ideal 4411
private 4410
regeln 4408
Test@@ 4407
zweifellos 4407
leistungs@@ 4406
ideale 4405
Tagung 4404
ernst 4403
York 4402
hergestellt 4401
El@@ 4399
Regime 4399
wesentliche 4399
mitteln 4398
tut 4397
va 4396
schwierigen 4395
Rezeption 4394
IS@@ 4392
rasch 4392
karte 4391
dlich 4389
gkeit 4389
room 4389
Gel@@ 4388
War@@ 4388
ener 4387
Ratsvorsitz 4385
bezug 4383
Pan@@ 4381
Por@@ 4375
Wettbewerbs@@ 4375
Buch 4373
jemand 4367
lu@@ 4367
Nachfrage 4359
Abkommens 4358
Zustand 4358
av@@ 4353
entwickelten 4352
Freude 4351
Vom 4348
ligen 4348
Ferner 4346
Normen 4345
Sti@@ 4345
gefördert 4344
Veranstaltungen 4343
Versch@@ 4343
Dr. 4341
sieben 4341
bedeuten 4340
Center 4331
fand 4331
Anti@@ 4329
hervor@@ 4329
legung 4329
Schäden 4327
Internet@@ 4326
Op@@ 4325
liste 4321
tritt 4319
gem 4318
Angebote 4313
Kombination 4313
Schaden 4307
21. 4305
wissenschaftlichen 4304
gene 4302
etc. 4301
Freunde 4300
Verfügbarkeit 4299
Apartments 4298
vier@@ 4296
grundlegende 4295
höchste 4295
Teilnehmer 4292
NATO 4291
hoher 4290
ini@@ 4287
international 4287
umzusetzen 4287
soweit 4285
genen 4284
inen 4284
län@@ 4283
schätzen 4283
lö@@ 4282
ckt 4281
derartige 4280
For@@ 4277
Stunde 4277
Sehr 4276
tigkeit 4271
Erwartungen 4270
ou 4270
sofern 4268
ast@@ 4267
Waffen 4261
des@@ 4260
erg@@ 4260
fte 4260
Gedanken 4259
Schweden 4258
Angriff 4256
organisation 4251
Volks@@ 4249
zusätzlichen 4248
Dadurch 4246
sionen 4245
Download 4242
Überzeugung 4242
Bürger@@ 4241
Hin@@ 4241
Strukturfonds 4240
führende 4240
wirtschaftlicher 4239
aufzunehmen 4238
Harmonisierung 4237
Wirklichkeit 4237
Lebens 4236
Verbesserungen 4235
Liebe 4233
ard 4233
Farben 4231
Ohne 4228
Süd@@ 4228
gh@@ 4226
Z 4225
por@@ 4222
erheblich 4221
begann 4220
eng 4220
kurzem 4220
kämpfen 4220
allgemein 4218
ppen 4218
Pflicht 4216
ton 4216
Altstadt 4215
betreffenden 4214
lebens@@ 4214
Kom@@ 4213
Eigenschaften 4212
entscheidend 4209
ziemlich 4209
anstatt 4208
begonnen 4207
bekämpfen 4207
1996 4206
italienischen 4206
Ur@@ 4205
fassen 4205
Format 4203
Haus@@ 4203
en- 4201
Anfragen 4198
32 4197
künftigen 4197
niemals 4195
weshalb 4193
Datenbank 4192
näher 4190
inzwischen 4189
Entwicklungsländer 4187
Klimaanlage 4186
Experten 4185
kulturelle 4185
Krankheiten 4184
ordnung 4184
Emissionen 4183
historische 4183
Zugriff 4181
ef@@ 4181
essen 4181
wasser@@ 4181
Landschaft 4179
Ne@@ 4179
erscheinen 4176
Festlegung 4175
ergriffen 4175
Mittelpunkt 4174
sion 4171
Ta@@ 4168
lungen 4168
ländern 4167
bt 4166
erer 4166
chinesischen 4165
Mess@@ 4164
chs 4164
Drittländern 4163
Microsoft 4163
enst@@ 4163
fordere 4163
Minister 4161
met@@ 4161
stadt 4161
abgelehnt 4160
Einstellung 4157
Verhandlungs@@ 4157
Nor@@ 4154
Strukturen 4153
aufgefordert 4153
entgegen@@ 4153
Best@@ 4147
gratulieren 4147
ingen 4147
Telefon 4146
umwelt@@ 4146
iger 4144
Farb@@ 4143
dete 4143
Code 4140
UNO 4139
Änderungsanträgen 4139
bu@@ 4138
dung 4138
sel@@ 4137
qualität 4136
sions@@ 4136
Auftrag 4135
very 4135
Stellung 4134
behörden 4132
Unterschied 4131
Mal@@ 4128
Mitgliedschaft 4128
Projekt@@ 4128
Ziel@@ 4128
Steuern 4125
produkte 4125
falsch 4124
Arbeitsplätzen 4123
Beispiele 4123
KMU 4123
Ruhe 4122
zer 4122
Vorschlägen 4121
istische 4121
Atom@@ 4120
trotzdem 4119
Übereinstimmung 4116
gest@@ 4111
@ 4109
interessiert 4109
wirksam 4108
Innen 4107
freiheit 4107
Werk@@ 4106
bestand 4106
Fra@@ 4105
Ski@@ 4105
gliche 4104
ner@@ 4104
unmittelbar 4102
hängt 4101
leiden 4101
Karten 4100
offenen 4100
Kenn@@ 4099
Spiele 4099
Berufs@@ 4098
Material 4098
Formular 4096
riesigen 4095
nachhaltigen 4094
Ratspräsidentschaft 4093
eiten 4088
heraus 4087
nung 4085
tere 4083
lautet 4081
ver 4081
Bahnhof 4080
ierten 4080
Verringerung 4078
verlangt 4078
2020 4076
westlichen 4076
zentralen 4076
20. 4075
rate 4075
75 4074
Google 4074
Rumänien 4074
kleiner 4074
zugunsten 4074
Besch@@ 4073
Dar@@ 4073
Zimmern 4072
af@@ 4072
we@@ 4072
sehe 4070
Doppel@@ 4066
Lehr@@ 4066
vo@@ 4065
Bus@@ 4063
ik 4062
Körper 4061
Tod 4061
bemüht 4061
Sitz 4060
wunder@@ 4060
Mehr@@ 4059
weg@@ 4059
bahn 4058
preis 4057
CO2 4055
Justiz 4055
Konflikt 4055
formen 4055
AC@@ 4053
atoren 4050
hilft 4050
hervorheben 4048
Ob 4046
Süden 4046
Bau 4045
Kategorie 4045
schafft 4045
Rad@@ 4043
natürlichen 4042
Punkten 4041
teilnehmen 4041
Fi@@ 4039
beglückwünschen 4038
ausgezeichneten 4037
hol@@ 4035
angemessene 4034
van 4034
zieht 4034
bauen 4033
durchzuführen 4032
St. 4029
vorzu@@ 4029
spanischen 4028
eter 4026
Du@@ 4025
annehmen 4025
Holz@@ 4023
verändert 4023
Standard@@ 4022
bequem 4022
Schule 4021
Außenpolitik 4018
Afghanistan 4017
Pa@@ 4016
elten 4016
are@@ 4015
wagen 4015
sorgt 4011
funktionieren 4009
ursprünglichen 4009
führer 4008
ed 4007
stand@@ 4007
Ausführungen 4005
Drittens 4005
Nein 4005
ris@@ 4005
verabschiedet 4002
Beweis 4000
Hauptstadt 3999
26 3998
stoffen 3998
ige 3997
tenden 3997
Serie 3996
Roma 3995
Regierungs@@ 3992
Chinas 3991
zuständigen 3991
Klima 3990
San@@ 3990
ette 3988
berechtigt 3983
tt@@ 3983
stellungen 3982
tion 3980
verstanden 3980
komme 3979
verursacht 3979
öffnen 3979
Architektur 3978
Kooperation 3978
zeichen 3977
Anlage 3976
Ba@@ 3975
täts@@ 3974
weist 3974
² 3974
Dem@@ 3972
28 3971
Leistungs@@ 3970
Geb@@ 3967
führ@@ 3966
Ban@@ 3965
Zentralbank 3965
schicken 3964
sinnvoll 3964
Pre@@ 3963
behalten 3962
besitzen 3962
Vereinbarungen 3961
om 3961
ausgezeichnete 3956
Kind 3954
fel@@ 3954
Gleichgewicht 3953
eröffnet 3953
Angst 3952
Materialien 3947
verringern 3947
Aussch@@ 3946
Com@@ 3946
pre@@ 3946
Stadtzentrum 3945
gabe 3942
Prinzipien 3941
Kunde 3940
notwendige 3940
vieler 3940
Problems 3939
IC@@ 3937
installiert 3937
dritte 3936
na 3935
Weiter@@ 3934
Faktoren 3932
klaren 3930
vorgenommen 3930
Kann 3929
willkommen 3929
Freiheiten 3928
Minderheiten 3927
straße 3925
DVD 3924
Plenum 3924
Gästen 3923
rein@@ 3923
zuerst 3922
eigenes 3920
gre@@ 3920
vollständige 3920
echten 3919
höher 3917
Details 3915
2. 3913
ausgesetzt 3913
Regierungskonferenz 3912
fälle 3912
enti@@ 3910
hervorragende 3910
Einbeziehung 3909
fach@@ 3907
Verbraucher@@ 3903
beträgt 3903
nte 3903
abkommen 3902
stan@@ 3902
its 3901
Ausnahme 3900
erlauben 3900
spiel 3899
Partnern 3898
schlägt 3897
bericht 3896
äl@@ 3896
gegangen 3891
Reform@@ 3889
Verkauf 3889
Fre@@ 3882
Militär@@ 3882
ls 3882
unver@@ 3882
entwurf 3881
Charta 3880
Projekten 3880
Verteidigung 3879
reich 3879
Ziffer 3876
Sonnen@@ 3875
kostet 3873
einfachen 3872
Maß 3871
form 3870
ruhigen 3870
hinter@@ 3869
tive 3869
RE@@ 3868
Verbot 3867
zählt 3866
IP 3864
Kat@@ 3862
Straf@@ 3860
zt 3858
ini 3857
Austausch 3856
russischen 3856
tt 3855
Gesellschaften 3854
früheren 3853
pa@@ 3851
dliche 3849
Küste 3846
Politiken 3846
Drogen@@ 3844
Boden 3843
Forum 3843
Fähigkeiten 3841
tigung 3841
fre@@ 3840
wor@@ 3840
sichere 3839
Ka@@ 3838
systemen 3838
zugänglich 3838
,00 3836
Nutz@@ 3836
hr@@ 3836
schnelle 3836
Gesch@@ 3834
Fer@@ 3832
beschränkt 3832
rechts@@ 3831
eri@@ 3830
letztlich 3829
ano 3828
Dem 3826
Institution 3826
Sorgen 3823
Ha@@ 3822
Kommunikations@@ 3822
Immobilien@@ 3819
Programmen 3819
cks 3819
Mikro@@ 3816
Einwanderung 3814
Zentral@@ 3814
bereiche 3813
erhältlich 3813
ste@@ 3812
ub@@ 3810
Arbeitsmarkt 3809
Y 3809
bestätigen 3809
institutionellen 3809
öffentlich 3809
Vorschlags 3808
buchen 3808
bild 3807
Beratung 3806
rechtliche 3805
erweitert 3802
Tages@@ 3801
durchführen 3801
Abschnitt 3800
anische 3799
Spar@@ 3798
Werk 3798
neuesten 3798
EL@@ 3797
fin@@ 3797
fl@@ 3796
Winter@@ 3795
Alternative 3794
Verbindungen 3793
Kal@@ 3792
lat@@ 3791
11. 3788
begrüßt 3786
haltung 3786
Gespräche 3785
Fernseh@@ 3784
teren 3784
Element 3783
Handeln 3783
verleihen 3783
geprüft 3782
gespielt 3782
Konsens 3779
Schwerpunkt 3777
leiten 3777
98 3776
Mag@@ 3775
unmöglich 3775
Nachfolgend 3774
vers@@ 3774
ven@@ 3773
vorlegen 3773
Mu@@ 3771
mehr@@ 3771
höchsten 3769
ft@@ 3765
Tisch 3764
tens 3764
Kamera 3763
Kopf 3763
ker@@ 3762
age 3760
frei@@ 3760
Le 3759
Ost@@ 3759
Link 3758
verhindert 3758
entstanden 3756
Energi@@ 3755
gezwungen 3755
hilfe 3755
inn@@ 3755
Vol@@ 3754
Har@@ 3752
aktive 3752
ide@@ 3752
ausgesprochen 3750
not 3750
Marktes 3749
wachsen 3749
Gerichtshof 3747
schafts@@ 3744
Eurozone 3743
dir 3741
entdecken 3740
ativen 3739
Sub@@ 3738
Beziehung 3736
assen 3734
nahm 3733
tim@@ 3732
il 3731
Ausführung 3730
Zielen 3730
tiv@@ 3730
zimmer 3729
Bemerkungen 3728
Umgang 3728
gearbeitet 3728
gehende 3728
gerichtet 3728
geltenden 3727
nor@@ 3727
schön 3727
ier 3725
Mobilität 3724
sodass 3724
Wird 3722
etten 3722
organisiert 3722
organisationen 3721
Nachrichten 3720
scheinen 3720
vorschriften 3719
Gast@@ 3717
erleichtern 3717
starten 3716
ment@@ 3715
gli@@ 3714
solange 3714
sischen 3712
Vorgehen 3708
ferner 3708
13@@ 3707
01 3706
Kosten@@ 3706
Norden 3706
Gebrauch 3704
kurze 3702
passiert 3701
produziert 3701
Asien 3700
dienst 3697
eins 3696
fa@@ 3696
Anbieter 3695
hinzufügen 3695
jenen 3695
Netz 3694
einheitlichen 3693
grün@@ 3693
werfen 3693
bl@@ 3691
tlicher 3691
aufnehmen 3690
fehlt 3690
bemühen 3689
Pat@@ 3688
Tor@@ 3687
bezahlen 3687
zahl@@ 3687
All@@ 3686
wann 3686
zes 3685
Beiträge 3683
Bucht 3683
definiert 3683
sicher@@ 3683
Ges@@ 3682
preise 3680
Chancen 3679
Fenster 3679
verehrte 3677
entlang 3676
Gestaltung 3672
Motor@@ 3672
Bedrohung 3671
that 3671
Besorgnis 3670
höheren 3670
igen 3670
mitten 3670
we 3670
Win@@ 3669
Tourismus 3666
verschiedener 3666
wollten 3665
Dra@@ 3664
Maschinen 3662
Signal 3662
rein 3662
Sach@@ 3660
extrem 3660
ausgeschlossen 3659
wesen 3658
Eltern 3655
Wissenschaft 3654
Hostels 3653
Garantie 3652
dlichen 3652
prozesses 3652
OS 3649
nieder@@ 3649
Fu@@ 3648
EL 3647
Websites 3647
ark@@ 3647
Kauf@@ 3646
stri@@ 3645
fern 3644
ote 3643
übernimmt 3643
verurteilt 3640
Sektoren 3639
bin@@ 3639
breiten 3638
page 3636
Wien 3635
ett 3634
nten 3634
lag 3633
britische 3631
Erholung 3629
kenn@@ 3628
Hilfs@@ 3627
Plan@@ 3627
1995 3626
musste 3626
° 3623
äußern 3623
Straßen 3622
erhebliche 3621
welt@@ 3621
Einkommen 3619
Spezi@@ 3619
Hohen 3617
Pap@@ 3614
einig 3614
nahmen 3613
ats 3611
IS 3610
Wider@@ 3610
werten 3610
aktivieren 3609
Super@@ 3608
welchem 3608
Schluss 3607
entscheidende 3607
Tur@@ 3606
dürfte 3605
gsten 3604
Geräte 3603
Hal@@ 3603
è@@ 3602
Gr@@ 3601
ro 3601
überzeugen 3601
eingesch@@ 3600
Deswegen 3599
Künstler 3597
lie@@ 3596
our 3595
Fl@@ 3594
strategischen 3594
2011 3593
bestehende 3592
Jedes 3591
Optionen 3591
Wohlstand 3590
Mensch 3589
esen 3589
amen 3587
Staat@@ 3586
mt 3585
Sozi@@ 3584
beruht 3584
Identität 3583
schönsten 3582
Werbung 3577
rau@@ 3577
Kräfte 3576
Luft 3576
Untersuchungen 3575
tin 3575
Komponenten 3574
lige 3573
Dort 3572
Also 3571
setzung 3568
0,@@ 3566
Lin@@ 3566
präsentiert 3564
str@@ 3564
Fort@@ 3563
Nicht@@ 3563
sei@@ 3563
verstärken 3563
Video@@ 3562
tor@@ 3562
gesellschaft 3560
™ 3560
tten 3559
cker 3557
gr@@ 3557
Hel@@ 3556
fläche 3556
direkten 3555
aussprechen 3554
LE@@ 3553
Kontrollen 3552
Schlussfolgerungen 3552
verändern 3552
erinnert 3551
heutige 3550
son@@ 3550
National@@ 3549
gewährt 3549
Ausgangspunkt 3548
AKP 3545
Insbesondere 3545
pe@@ 3545
sorgfältig 3544
Klasse 3543
Umfeld 3542
kurzen 3540
zusammenarbeiten 3539
Bereitstellung 3537
Planung 3537
anlage 3537
halt 3537
Jahres@@ 3536
fähig 3536
SP@@ 3534
Verbreitung 3534
ili@@ 3534
nunmehr 3534
400 3532
Zusatz@@ 3532
jegliche 3532
verdient 3531
bestimmen 3530
City 3528
kanischen 3528
Des 3527
Kl@@ 3525
EZB 3523
ass@@ 3521
abgestimmt 3520
br@@ 3519
Vorsitz 3518
Beschluss 3517
entscheidender 3517
ll@@ 3516
schließt 3516
beigetragen 3515
pr@@ 3515
Te@@ 3514
übrigens 3513
ausgeführt 3512
tief@@ 3512
Chi@@ 3509
wal@@ 3509
Erzeugnisse 3508
ban@@ 3504
Plattform 3501
fällen 3501
effektiv 3499
laut 3497
schlecht 3495
ständige 3495
Vorstellung 3494
De 3493
jener 3492
Golf 3491
Syn@@ 3491
reduzieren 3490
reiche 3490
vorher 3488
Flu@@ 3487
nahezu 3485
ße 3485
gender 3484
sprachen 3484
ic@@ 3483
Veröffentlichung 3482
bestimmter 3482
Krankheit 3481
Rechtsgrundlage 3481
Aktion 3480
wiederholen 3480
Übersetzung 3480
RO@@ 3479
Selbst 3477
druck 3477
ise 3477
Förder@@ 3476
Staates 3474
Multi@@ 3473
Veranstaltung 3473
Start 3472
fs 3472
Alter 3466
Kapitel 3466
är 3466
Wi@@ 3465
gebiete 3462
zy@@ 3460
Katastrophe 3459
derer 3459
finanziert 3458
150 3457
har@@ 3457
Gro@@ 3456
Met@@ 3455
Geschäfte 3454
El 3453
Gi@@ 3452
größer 3451
Ambiente 3450
beschäftigen 3450
ara 3448
lig@@ 3448
Bemerkung 3447
fäl@@ 3447
tig@@ 3446
Winter 3444
markt@@ 3443
sicht 3443
Me@@ 3442
Männern 3442
ets 3442
sucht 3442
tierung 3442
dert 3441
eingereicht 3441
kamen 3441
Mangel 3440
außerordentlich 3440
Transport@@ 3439
spiel@@ 3438
Studien 3437
Einstellungen 3436
Morgen 3433
betreffend 3433
betrieben 3432
interessante 3432
lösung 3432
verhalten 3431
Gründung 3430
Zwecke 3430
Jo@@ 3429
chs@@ 3429
dan@@ 3429
lokale 3427
vorhandenen 3427
Vision 3426
theit 3425
versorgung 3425
Ausstellung 3423
aussch@@ 3422
kosten@@ 3422
mut@@ 3422
Pu@@ 3421
Beschlüsse 3420
Glaubwürdigkeit 3420
Zivilgesellschaft 3420
tierten 3420
Ausgabe 3415
Englisch 3413
kla@@ 3413
res@@ 3413
sierten 3412
Noch 3411
Pra@@ 3410
sprach 3409
nden 3408
ungefähr 3408
99 3407
gestaltet 3407
2,@@ 3404
this 3404
Costa 3403
Entscheidungs@@ 3402
entsteht 3401
fu@@ 3400
kom@@ 3400
liefert 3400
äch@@ 3398
elte 3397
unverzüglich 3396
Go@@ 3395
Farbe 3394
rech@@ 3394
beteiligen 3393
ev@@ 3393
stu@@ 3392
Rau@@ 3391
umgeben 3391
Wirtschaftswachstum 3388
Nieder@@ 3387
sätze 3387
Zoll@@ 3385
fe@@ 3385
Ben@@ 3384
kol@@ 3384
Bestellung 3383
Datenschutz@@ 3383
Dorf 3383
läßt 3383
machte 3382
3. 3380
Sen@@ 3379
Studenten 3379
anbelangt 3379
tiven 3379
Flüchtlinge 3378
direkte 3378
Ansichten 3377
eignet 3376
Konsequenzen 3375
Wein 3375
az@@ 3375
ron@@ 3375
aufen 3374
verkaufen 3374
PL 3372
Wachstums@@ 3372
gespeichert 3372
Korruption 3369
š@@ 3369
Bas@@ 3368
wahr@@ 3367
Selbstverständlich 3366
ó@@ 3366
investieren 3365
position 3365
Buch@@ 3363
sa 3363
Bus 3362
Hafen 3361
sicheren 3361
Kontext 3360
einrichtungen 3360
Ausstattung 3359
lebt 3359
12@@ 3358
23@@ 3358
anwesend 3357
dungs@@ 3357
wünsche 3357
Gerichte 3356
gebieten 3356
genannte 3356
95 3355
holen 3355
stellten 3355
wa@@ 3353
Ra@@ 3352
Brasilien 3350
tur@@ 3350
Reduzierung 3349
beraten 3349
erlebt 3349
zurückzu@@ 3349
niveau 3346
sta@@ 3346
d.h. 3345
bislang 3344
eingehalten 3344
sozialer 3344
installieren 3343
Auto@@ 3341
ersetzt 3341
genügend 3341
vorbereitet 3341
dre@@ 3340
einzigartige 3340
ff 3340
Hinter@@ 3339
Sollte 3339
Zwischen@@ 3338
zieren 3338
Badezimmer 3337
begrenzt 3337
französische 3337
Zwei 3336
getragen 3335
Transport 3334
PT 3333
schauen 3333
mal@@ 3332
ersch@@ 3331
Nachricht 3330
ss 3330
Überlegungen 3329
Gleich@@ 3328
einbezogen 3325
enk@@ 3325
serviert 3325
ktionen 3324
Haftung 3323
standards 3323
Ungarn 3321
wiederholt 3320
grundsätzlich 3319
angebracht 3318
pres@@ 3318
herrscht 3317
Kollegin 3315
Dom@@ 3314
Gewicht 3314
Stimmen 3314
verkehrs 3314
Jede 3313
Schlafzimmer 3313
Browser 3312
ativ 3312
ther@@ 3312
liegenden 3311
bus 3310
Stück 3309
recht@@ 3309
Kol@@ 3308
einfacher 3308
ktion 3308
vorstellen 3308
selbst@@ 3307
Alles 3306
Foto 3306
solches 3306
erfolgreiche 3304
hängen 3304
out 3304
Besonders 3303
Kredit@@ 3303
Spa 3303
raten 3302
Gewährleistung 3301
erei 3301
zw@@ 3301
ließ 3298
stehende 3296
ba@@ 3294
Genehmigung 3293
Straßen@@ 3290
schlag 3290
langfristige 3287
gan@@ 3286
offiziellen 3286
Positionen 3285
wissenschaftliche 3283
Polizei 3282
Auge 3281
Finanzierungs@@ 3281
bereitgestellt 3279
Bahn 3278
stände 3278
up 3278
beg@@ 3275
gewissen 3275
Gefahren 3274
verteidigen 3274
angegebenen 3273
künftige 3273
mittleren 3273
ante 3272
OR@@ 3271
bedeut@@ 3271
AD@@ 3270
Bulgarien 3270
Dienstleistungs@@ 3269
Zi@@ 3269
öl@@ 3269
Dek@@ 3267
Finanzkrise 3265
2013 3264
menschliche 3264
Ab 3263
Ren@@ 3263
arbeits@@ 3263
Pakete 3262
Schulen 3262
Pol@@ 3261
Pro 3260
Verfassungs@@ 3260
WLAN 3260
Einheit 3256
Rest 3256
kte 3256
97 3255
verbringen 3254
Beg@@ 3252
Gegenstand 3252
Vorhaben 3252
con@@ 3252
arbei@@ 3251
Enterprise 3250
Rot@@ 3250
ors 3250
Pool 3247
gemeinschaftlichen 3247
lang@@ 3247
ings 3246
innovative 3246
ig 3245
organisieren 3241
internen 3239
Entlastung 3238
institutionelle 3237
con 3236
technik 3236
Buchung 3235
Praktiken 3235
wirtschaftlich 3235
Währungs@@ 3234
ade 3232
gro@@ 3231
Webseiten 3230
Versionen 3227
Vo@@ 3227
sinn@@ 3227
ßt 3227
Gegend 3226
Gerechtigkeit 3224
za 3223
EC@@ 3220
konfrontiert 3220
min 3219
gebaut 3218
stolz 3218
Übergangs@@ 3218
meist 3217
..... 3216
Darum 3216
18. 3215
Wünsche 3215
ore 3215
ziele 3215
win@@ 3214
Energien 3212
Verletzung 3212
del@@ 3212
leistung 3212
Kilometer 3211
uss 3211
Dusche 3209
Mitarbeitern 3209
Anschluss 3207
Sicherung 3206
letztendlich 3206
Eisenbahn@@ 3205
Erstellung 3205
Regierungschefs 3205
Sommer@@ 3205
probleme 3205
ach 3203
ek 3202
Fo@@ 3201
Anstieg 3199
Prozesses 3199
illegalen 3199
ppe 3198
vorzulegen 3198
Kurs 3196
29 3195
gemein@@ 3194
vorgeschlagene 3193
verkauft 3192
Ü@@ 3192
bereichen 3191
großem 3191
stein 3191
effizient 3190
Systemen 3189
aufs 3189
einzusetzen 3189
elektronischen 3189
gewonnen 3189
Krisen@@ 3187
geboren 3186
kul@@ 3186
ET@@ 3185
dende 3185
gs@@ 3185
hervor 3185
leistungen 3185
preis@@ 3185
erfolgreichen 3184
Sollten 3183
zukünftigen 3183
behaupten 3182
individuellen 3182
Preisen 3181
vermitteln 3180
versichern 3180
wohnen 3180
Ausmaß 3178
militärischen 3176
via 3176
entschlossen 3175
unterstreichen 3175
individuelle 3174
ure 3174
kraft@@ 3173
allzu 3172
Ware 3169
steuern 3169
teilt 3168
Medien@@ 3167
Zuständigkeit 3167
militärische 3167
etc 3165
tw@@ 3165
unge@@ 3165
schwer@@ 3164
Schlüssel 3163
weitgehend 3163
0.@@ 3160
bedeutende 3159
ähnliche 3159
Organe 3158
sprache 3158
enheit 3157
München 3156
zuständig 3155
Red 3154
überprüft 3152
tiv 3151
zulassen 3151
digung 3150
flü@@ 3150
ps 3149
ziel@@ 3149
Ablehnung 3148
abstimmen 3147
Kauf 3146
u.a. 3145
wirksame 3145
Nachbarn 3143
situation 3143
tende 3143
Im@@ 3142
Lebensmittel 3142
drei@@ 3142
vorgesehenen 3142
96 3141
Casino 3141
strategische 3141
,@@ 3140
informationen 3140
Abschaffung 3138
gar@@ 3137
Firmen@@ 3136
Stoffe 3136
Ei@@ 3135
sion@@ 3135
Widerspruch 3134
Freizügigkeit 3133
Bri@@ 3131
material 3130
spreche 3130
Neue 3128
Mut 3127
unterzeichnet 3127
Erfüllung 3126
dich 3126
Verlust 3124
verbinden 3123
ID 3118
Kroatien 3117
geboten 3117
ausschuß 3116
4.@@ 3114
Geh@@ 3113
app@@ 3113
31 3112
anti@@ 3112
ko 3111
Perspektive 3110
Deutschen 3109
Dauer 3108
Player 3108
laufenden 3108
betreiben 3107
Sonne 3106
beschrieben 3106
Binnenmarktes 3104
Mrd. 3102
Anlass 3101
ausgerichtet 3101
Bra@@ 3100
Haushaltsplan 3100
manche 3100
Ã 3100
fo@@ 3099
freut 3099
Mel@@ 3097
Je 3095
Oder 3095
Medi@@ 3094
geräte 3094
gestattet 3094
Freunden 3093
Städten 3093
angesehen 3092
Fisch@@ 3091
ähnlich 3091
enzen 3090
wohl@@ 3090
Verk@@ 3088
Aktionsplan 3087
Denk@@ 3087
dig 3086
maschinen 3085
sum@@ 3085
zuge@@ 3085
Belgien 3084
Grand 3084
bet@@ 3084
miss@@ 3084
Betrag 3083
Prozesse 3083
inklusive 3083
Beh@@ 3080
Gleichstellung 3079
Trotzdem 3077
verfügbaren 3076
leg@@ 3075
30@@ 3074
dischen 3073
eres 3073
Rund@@ 3072
Vorausschau 3072
Sam@@ 3070
Situationen 3069
ersetzen 3069
oni@@ 3069
Handels 3068
Viertel 3068
ack@@ 3068
mischen 3067
Volksgesundheit 3065
beantworten 3065
änden 3065
lieb@@ 3064
sis 3063
sub@@ 3063
stat@@ 3062
vol@@ 3062
Sol@@ 3061
dige 3061
Grünen 3060
Wohl@@ 3058
Gericht 3057
Märkten 3056
tierte 3056
funktion@@ 3055
iten 3055
Grad 3054
tro@@ 3054
vieles 3054
Lö@@ 3053
Tätigkeiten 3053
mat@@ 3053
Befugnisse 3052
Volkes 3052
gestellten 3052
verein@@ 3052
tor 3051
Group 3050
Marke 3049
Schi@@ 3049
integriert 3049
Massen@@ 3048
Studio 3047
konzentriert 3047
tischer 3047
unabhängigen 3047
Konflikte 3045
entwickelte 3045
Pläne 3044
gerät 3044
perfekt 3044
räume 3044
Rom 3043
anschließen 3042
messen 3041
weiten 3041
3.@@ 3040
CO@@ 3038
aktiven 3038
nt 3036
48 3034
Redner 3034
erzeugt 3034
scht 3034
zukünftige 3034
Arbeit@@ 3033
Software@@ 3033
Struktur@@ 3032
projekte 3032
Eigentum 3030
chtung 3030
fan@@ 3030
Amt 3029
50@@ 3028
auftreten 3028
beobachten 3028
politisches 3028
Einkaufs@@ 3027
ernsthaft 3026
sü@@ 3026
tier@@ 3024
hren 3021
pen@@ 3020
amp@@ 3018
Werke 3017
heim@@ 3015
traditionelle 3015
verteilt 3015
Kriegs@@ 3014
atische 3014
bekannte 3014
http 3013
mitteilen 3013
EADS 3011
Meines 3011
hervorgehoben 3011
Kontakte 3009
bri@@ 3009
offene 3009
reduziert 3009
rel@@ 3008
zeichnen 3007
tigt 3006
My@@ 3005
Post 3004
Kulturen 3003
Wo 3002
mussten 3002
Open 3001
Tro@@ 2999
Konto 2998
vern@@ 2998
langfristig 2997
wonach 2997
Far@@ 2995
jährige 2995
eck 2992
jetzigen 2992
problem 2992
Distribution 2991
festzulegen 2991
schul@@ 2991
mach@@ 2990
Schiff@@ 2989
com 2989
cu@@ 2989
punkte 2989
Gemein@@ 2988
Zusätzlich 2988
gewähren 2988
Rechtsstaatlichkeit 2987
id 2987
nachdrücklich 2986
gründen 2985
krise 2985
verdienen 2984
Gerade 2982
grenzen 2982
ungsverfahren 2982
geraten 2981
station 2981
humanitäre 2980
jährigen 2980
Schiffe 2979
5. 2978
ISO 2978
Führ@@ 2976
Tour 2975
Rechten 2974
Stein@@ 2974
Sauna 2973
richtet 2973
Barroso 2972
dankbar 2972
a. 2971
Eis@@ 2970
Veränderung 2970
Menü 2968
sten@@ 2968
Schwer@@ 2967
Wohnung 2967
bisherigen 2966
struktur 2966
vorliegende 2965
gebeten 2963
Modelle 2962
15. 2960
Fischer 2960
fahrer 2960
effiziente 2959
Manager 2958
kette 2957
gedacht 2955
rus@@ 2955
werk@@ 2955
Menschen@@ 2954
wachsenden 2954
Ser@@ 2953
Berichten 2952
Poli@@ 2952
erreichbar 2952
kontrolle 2952
steigt 2952
The@@ 2949
hoffentlich 2949
Bio@@ 2948
Währungsunion 2948
unabhängige 2948
ursprünglich 2948
160 2947
Öl 2947
gungen 2946
how 2946
Balkon 2945
Letz@@ 2945
ausgaben 2945
einzuführen 2945
märkte 2945
deswegen 2944
Bre@@ 2943
Kriminalität 2943
einheitliche 2943
Respekt 2942
erin 2942
langsam 2942
absch@@ 2940
wahren 2940
Industri@@ 2939
Vorlage 2939
4. 2938
beschränken 2936
Film@@ 2935
überein 2935
Abhängigkeit 2934
behoben 2934
vollständigen 2934
PHP 2933
decken 2932
gelassen 2932
unterscheiden 2932
6.@@ 2931
Investitions@@ 2931
gesetz@@ 2931
zeug@@ 2931
Bush 2930
Lieferung 2930
dis@@ 2930
ken@@ 2929
Blog 2928
inform@@ 2928
les@@ 2928
Strom@@ 2927
Beteiligten 2925
Branche 2925
Fol@@ 2925
beendet 2924
gelingt 2924
richtlinie 2924
Gemeinsame 2923
Dan@@ 2921
Mittelmeer 2920
staat 2920
gemeinschaft 2919
Bereitschaft 2918
deckt 2918
MS 2917
ergibt 2917
festgelegten 2917
gegen@@ 2917
sierte 2917
wasser 2917
Ganz 2915
gn@@ 2915
terung 2915
Ferien@@ 2914
Gang 2914
Würde 2914
Lan@@ 2912
gerich@@ 2912
praktische 2912
Übernachtung 2912
33 2911
Rückkehr 2911
sische 2911
übersch@@ 2911
Essen 2910
Neben@@ 2910
.... 2909
Weiteren 2909
chter 2909
enthaltenen 2909
erfordern 2909
Fahrzeuge 2908
wo@@ 2908
zugrunde 2908
buch 2907
zahl 2907
asi@@ 2906
liefer@@ 2906
erfreut 2905
Glück 2904
Mas@@ 2904
fertig 2904
kontrollieren 2904
programms 2904
Allianz 2903
umsetzen 2902
Band 2900
Runde 2900
dungen 2900
konferenz 2900
Feld 2898
Jahrzehnten 2898
burg 2898
geln 2898
täglichen 2897
Test 2896
angebot 2896
bil@@ 2895
but 2895
spar@@ 2895
Miss@@ 2894
zung 2894
Armee 2893
Fern@@ 2893
Gal@@ 2893
lieber 2893
zentren 2891
wie@@ 2890
angeb@@ 2889
fördert 2889
gefallen 2889
CH@@ 2888
dienst@@ 2888
gens 2887
modified 2886
Station 2885
nde 2885
uri@@ 2885
ziert 2884
...... 2883
stischen 2883
Kri@@ 2882
34 2881
ns 2881
Messe 2880
ak 2880
geäußert 2880
Bur@@ 2879
IWF 2878
Führer 2877
ee 2877
angepasst 2875
brechen 2875
Verteilung 2874
Ebenen 2873
ling 2871
mus 2871
Vertrages 2869
Wählen 2869
angegeben 2869
ative 2869
Schulden 2868
erwähnen 2867
Programm@@ 2866
Ursachen 2866
hierbei 2866
standen 2866
Nummer 2865
fr@@ 2865
kor@@ 2865
uli@@ 2865
08 2864
enorme 2864
Öffnung 2864
seh@@ 2861
Support 2860
wirkt 2860
3D 2858
Kanada 2856
ang@@ 2856
Agenturen 2855
ase 2854
verbindet 2854
Hol@@ 2853
Sein 2853
besorgt 2853
Kontinent 2851
mil@@ 2851
eingegangen 2850
zurückzuführen 2850
Berichterstatters 2849
bestimmungen 2849
Faktor 2848
Hu@@ 2848
Arbeitsplatz 2847
Raum@@ 2847
stärkere 2847
externen 2846
gestärkt 2845
sah 2845
unterliegen 2845
ha 2844
ve@@ 2844
Mis@@ 2843
stands 2843
überaus 2843
Donnerstag 2842
Dritten 2842
Live 2842
äm@@ 2842
Wal@@ 2841
Zahlungen 2841
interessant 2841
Videos 2840
bares 2840
erkannt 2838
Dafür 2837
Revolution 2837
Vereinfachung 2837
bewältigen 2837
th 2837
1994 2836
vereinbart 2836
version 2836
17. 2835
Gerät 2835
verwende 2833
Star 2832
antworten 2832
senken 2832
Beseitigung 2831
Know 2830
besonderer 2830
alt@@ 2829
tur 2829
Deutsche 2828
einzigartigen 2828
Investoren 2827
überwinden 2827
Debatten 2826
gegenwärtige 2826
Wandel 2824
09 2823
Nahrungsmittel@@ 2823
türkischen 2823
zuzu@@ 2823
64 2822
Col@@ 2822
Frankfurt 2821
Parlamente 2820
Sind 2820
were 2819
Tausende 2816
ik@@ 2816
lus@@ 2815
Opposition 2814
Personal@@ 2813
sogenannten 2813
Vater 2811
bad 2811
kli@@ 2811
Amerikaner 2810
nutz@@ 2810
ly 2808
optimale 2808
vertrag 2807
Hor@@ 2806
geschichte 2806
ließen 2806
sern 2806
Spaß 2805
Cal@@ 2804
Kapital 2803
Tran@@ 2803
anhand 2803
Gelder 2802
zus@@ 2802
behörde 2801
griechischen 2801
Bahn@@ 2800
Wirtschaftskrise 2800
methoden 2799
36 2798
sichtbar 2798
Belarus 2797
egt 2797
At@@ 2796
Erinnerung 2796
Lauf@@ 2794
aller@@ 2793
ologische 2793
herunterladen 2792
umfassend 2792
Verarbeitung 2790
Körper@@ 2789
fort 2789
sparen 2789
Wesentlichen 2788
kern 2788
RA@@ 2787
Straßburg 2786
lauf@@ 2786
time 2786
beru@@ 2785
Tages 2783
bedanken 2783
nah@@ 2782
schweren 2782
stä@@ 2782
freundlich 2781
letzter 2781
Mechanismen 2780
smus 2780
ut 2779
negativen 2778
plan@@ 2778
speichern 2776
Potenzial 2775
hohem 2775
normalen 2774
tal@@ 2774
Steuerung 2772
dauert 2772
hervorragenden 2772
offen@@ 2772
Marketing 2771
PPE 2771
Touristen 2770
Geschäft 2768
Senkung 2768
Einwohner 2767
Erhaltung 2767
Zusammenhalt 2767
Gesam@@ 2766
Wind@@ 2766
gefragt 2765
natürliche 2765
ack 2764
kleines 2764
langfristigen 2764
verboten 2764
Standort 2762
Zypern 2762
55 2761
Umweltschutz 2761
Sachen 2760
Hü@@ 2759
anschließend 2759
verantwortungs@@ 2759
Boden@@ 2758
Pakistan 2758
umfangreiche 2758
Großteil 2757
fen@@ 2757
Fran@@ 2756
Sicherheitspolitik 2756
gesellschaften 2756
hingegen 2756
kontaktieren 2756
verwaltung 2756
wechsel@@ 2756
Andere 2754
ado 2754
geprägt 2754
handel 2754
inmitten 2753
auffordern 2752
normalerweise 2752
wunderschönen 2752
zwingen 2752
alisiert 2750
oh@@ 2750
lenken 2749
ry 2749
Wähler 2748
trä@@ 2748
untersucht 2748
Madrid 2747
Dec@@ 2746
sichergestellt 2745
angewendet 2744
beenden 2742
brachte 2742
Mandat 2741
angemessenen 2741
dische 2741
Pas@@ 2739
Werbe@@ 2739
Handlungs@@ 2738
cia 2738
gehenden 2738
Jugend 2737
derzeitige 2737
Such@@ 2736
alisieren 2736
wen@@ 2736
Kampagne 2735
Suiten 2735
asse 2735
verweisen 2735
Dialogs 2734
ativer 2734
bekommt 2734
empfangen 2734
tei@@ 2734
A5 2733
Heizung 2733
Kopenhagen 2733
geeignete 2733
letz@@ 2733
log@@ 2733
rat@@ 2733
tag 2733
Lizenz 2732
Park@@ 2732
Staats- 2732
best@@ 2732
füllen 2732
ländliche 2732
entspannen 2731
finanzieren 2731
07 2730
Bars 2730
tief 2729
line 2728
Ac@@ 2727
glaub@@ 2727
individuell 2726
unentgeltlich 2726
Frist 2724
Generationen 2724
Freitag 2722
ates 2722
nützlich 2721
Quellen 2720
froh 2720
zweitens 2720
gaben 2719
voraus@@ 2719
Leitung 2718
irischen 2718
have 2717
si 2717
gestaltung 2716
leichter 2716
minister 2716
Kandidaten 2715
Gehminuten 2714
Niederlanden 2714
Papier 2713
Regulierung 2713
produzieren 2713
stattfindet 2712
Ausflüge 2711
realer 2711
erstmals 2709
entgegen 2707
Marken 2706
erhielt 2706
dra@@ 2704
Les@@ 2703
stieg 2703
tar@@ 2703
Umweltfragen 2702
Zeitung 2702
existiert 2702
heißen 2702
Fehler@@ 2701
hab@@ 2701
600 2700
Internationale 2699
berichten 2699
hochwertige 2699
konkret 2699
oll@@ 2699
fall@@ 2698
korrekt 2698
Dokumenten 2697
16. 2696
MO@@ 2695
Sü@@ 2695
Todesstrafe 2695
denjenigen 2695
wendet 2694
Ir@@ 2693
lands 2693
leich@@ 2693
Cam@@ 2692
Provinz 2692
plätze 2691
Quelle 2690
lauf 2690
effektive 2689
unk@@ 2688
äh@@ 2686
geplant 2685
lan 2685
ya 2685
Fü@@ 2684
sach@@ 2684
sammeln 2684
Rich@@ 2683
drücken 2683
Volkswirtschaften 2682
Rat@@ 2681
aden 2681
plan 2680
lösungen 2679
Kurz@@ 2678
Sammlung 2678
bal@@ 2678
dargestellt 2678
Bestimmung 2677
PDF 2677
kar@@ 2677
Char@@ 2676
Ter@@ 2676
Stärke 2675
sektors 2675
bereiten 2674
spek@@ 2674
unterschiedlich 2674
verfahrens 2674
fanden 2673
schnellen 2673
tern@@ 2673
tte 2673
0.000 2672
Datei@@ 2672
USB 2672
amm@@ 2672
diert 2672
palästinensischen 2670
Bes@@ 2669
Herz 2669
Büro 2667
DI@@ 2667
ku@@ 2667
Presse 2666
Asyl@@ 2665
Brenn@@ 2665
ada 2664
ki 2664
Gemeinschaften 2663
Hindernisse 2663
Mission 2662
mor@@ 2662
vornehmen 2662
anz 2661
Ph@@ 2660
Schulden@@ 2660
müsste 2660
800 2658
Lok@@ 2658
Premierminister 2658
Andererseits 2656
GAP 2656
Kohäsionspolitik 2656
Rahmen@@ 2656
rechnen 2656
Küsten@@ 2655
eigen@@ 2655
ese 2654
häuser 2654
Mechanismus 2652
Ste@@ 2652
Tonnen 2652
Wirtschaftspolitik 2651
up@@ 2651
37 2650
Sei@@ 2650
Verlauf 2650
Net@@ 2649
gewi@@ 2649
erst@@ 2648
europäisches 2647
integrierten 2647
Ägypten 2647
benen 2646
buch@@ 2646
wär@@ 2646
festen 2645
forschung 2645
untersuchen 2645
Obama 2644
entscheidenden 2644
ffen 2643
hung 2643
keinem 2642
Mexiko 2641
Dingen 2640
Mus@@ 2639
viel@@ 2638
zukommen 2637
Fin@@ 2636
Mir 2636
Passwort 2636
ausgezeichnet 2636
mögen 2636
selten 2636
sä@@ 2636
schwei@@ 2635
sol@@ 2635
pri@@ 2634
6. 2633
bereitet 2632
humanitären 2632
Drittel 2631
park 2631
führten 2630
gkeiten 2630
Newsletter 2629
Vertretern 2629
Elektro@@ 2628
Versammlung 2628
Willkommen 2628
hier@@ 2628
5.@@ 2627
una 2627
Telefon@@ 2626
ic 2626
Geschwindigkeit 2625
Lie@@ 2625
Mittelmeer@@ 2625
denk@@ 2625
hierfür 2623
karten 2623
müssten 2623
Anwendungs@@ 2622
Schengen 2622
bedeutenden 2622
kehr@@ 2622
kt@@ 2622
aufgebaut 2621
AM@@ 2620
Santa 2619
gei@@ 2619
Gast 2617
Außen- 2616
zeichn@@ 2616
Sh@@ 2615
erweitern 2615
unden 2615
diesbezüglich 2614
überlassen 2614
derung 2613
hän@@ 2612
schei@@ 2612
Wander@@ 2611
lichkeiten 2611
region 2611
Geschmack 2610
Star@@ 2610
aner 2610
ski 2610
Nachhaltigkeit 2609
Schweizer 2609
enge 2609
Ki@@ 2608
produk@@ 2608
gleichermaßen 2606
offizielle 2606
Energieeffizienz 2605
Maschine 2605
kri@@ 2605
modell 2605
Gold 2604
Kern 2604
Sektors 2604
hel@@ 2603
kontrolliert 2603
Augenblick 2602
erklärte 2602
weite 2602
Urteil 2601
Arbeitnehmern 2600
geleitet 2600
illegale 2600
gewünschten 2599
chinesische 2598
gut@@ 2598
prozesse 2598
Industrie@@ 2597
Netz@@ 2597
pol@@ 2597
präsentieren 2597
gefährdet 2596
steigern 2596
voraus 2595
festzustellen 2593
rechtzeitig 2593
John 2592
Umwel@@ 2592
Verwirklichung 2592
bestellen 2592
losigkeit 2592
folge 2591
Plat@@ 2589
spiele 2589
Schon 2588
kräfte 2588
Schw@@ 2586
hart 2586
• 2586
Innovationen 2585
Verb@@ 2583
leb@@ 2583
pfen 2583
Kompetenz 2582
armen 2582
Beide 2581
Kranken@@ 2581
Luxemburg 2581
Versorgung 2581
same 2581
Beachtung 2580
passt 2580
your 2580
Macht@@ 2579
anzunehmen 2578
Blut@@ 2577
Dass 2577
Landes@@ 2577
Polizei@@ 2577
freundlichen 2577
Demokraten 2576
Finde 2576
Projekts 2576
Ratschlag 2576
qualitativ 2576
Gemeinde 2574
vorbei 2573
zo@@ 2573
gelesen 2572
qui@@ 2572
tenen 2572
bezahlt 2571
ella 2571
weltweite 2571
Modernisierung 2570
Termin@@ 2570
soeben 2570
ulation 2570
gungs@@ 2569
Errichtung 2568
Kommissions@@ 2568
Ton@@ 2568
Verbraucherschutz 2568
teils 2568
Sta@@ 2567
Stimm@@ 2567
schwierige 2567
wirkliche 2567
star@@ 2566
wür@@ 2566
MP@@ 2565
Mac@@ 2565
entspann@@ 2565
könnt 2565
genaue 2564
Fernsehen 2563
fein@@ 2563
7. 2562
Genießen 2561
digitalen 2561
IM@@ 2560
Erst 2559
Weg@@ 2558
infolge 2558
wettbewerbs@@ 2558
Stiftung 2557
Ergebnissen 2556
Zone 2556
Frei@@ 2555
regelung 2555
trägen 2555
Parameter 2553
Pf@@ 2553
Journalisten 2552
ations 2552
befasst 2552
tage 2552
Akteure 2551
Reisen 2551
fal@@ 2551
ord@@ 2551
tag@@ 2551
begleitet 2550
Computer@@ 2549
indi@@ 2549
zieh@@ 2549
angewandt 2548
mittlerweile 2548
Best 2547
Registrierung 2547
Wil@@ 2547
los@@ 2547
programmen 2547
ti 2544
Parkplatz 2543
Souveränität 2542
spor@@ 2542
Argumente 2540
SE@@ 2540
wesentlicher 2540
43 2539
nummer 2539
Fein@@ 2538
altet 2538
effek@@ 2538
sport 2538
Sor@@ 2537
cm 2537
ergänzt 2537
freundliche 2537
kten 2537
Glauben 2536
sam 2536
Lag@@ 2535
WC 2535
Widerstand 2535
Pri@@ 2534
Tabak@@ 2534
dro@@ 2534
gewählten 2534
person@@ 2533
Ausarbeitung 2532
Reservierung 2532
Wirksamkeit 2532
Schreiben 2531
ders 2530
enthalt 2530
fs@@ 2529
¤ 2529
Inflation 2527
Orte 2527
PS 2527
gesetzlichen 2527
optim@@ 2527
Apartment 2526
Kategorien 2526
Produk@@ 2526
groß@@ 2526
Ausweitung 2525
leitung 2525
Übrigen 2525
ant@@ 2524
außen 2524
blei@@ 2524
far@@ 2524
10. 2523
Stra@@ 2523
geregelt 2523
Darstellung 2522
Jugendlichen 2522
Spitzen@@ 2522
alter 2522
fun@@ 2522
isen 2521
stätigkeit 2521
Regi@@ 2520
Hohe 2519
Tal@@ 2519
kontextuellen 2519
reg@@ 2519
Grün@@ 2518
zü@@ 2518
Partner@@ 2517
Sel@@ 2517
Wa@@ 2517
ba 2517
ll 2517
Bade@@ 2516
ame 2516
grenz@@ 2516
ME@@ 2515
schen@@ 2515
era 2514
bank 2513
entdeckst 2513
frühen 2513
views 2513
Bearbeitung 2512
weisung 2512
42 2511
Bru@@ 2511
Fehl@@ 2511
Listings 2511
bewahren 2511
ins@@ 2511
itäts@@ 2511
13. 2510
25@@ 2510
Abendessen 2510
High 2510
pen 2510
stück 2510
12. 2509
Handel@@ 2509
anda 2508
beeinflussen 2507
Führungs@@ 2506
IN 2506
festlegen 2506
zentral 2506
Aufsichts@@ 2505
Somit 2504
Stre@@ 2504
Wur@@ 2503
sterben 2502
Dritte 2501
Präsenz 2501
empfohlen 2501
hinzufugen 2501
Auftrags@@ 2500
flu@@ 2500
ite 2500
kümmern 2500
Haben 2499
Hardware 2499
Wiederaufbau 2499
komplette 2499
wert@@ 2499
erzeugen 2498
zunehmen 2498
grammatisch 2497
verletzt 2497
kontextuell 2496
melden 2496
ECU 2495
US@@ 2495
eben@@ 2494
eingestellt 2494
Bedürfnissen 2492
Bibliothek 2492
afrikanischen 2492
stellungs@@ 2492
Schlusselphrase 2491
Schlusselwort 2491
langer 2491
Ansch@@ 2490
Höchst@@ 2490
Jugend@@ 2490
Update 2490
aufzubauen 2490
bewerten 2490
gener@@ 2490
hö@@ 2490
ona 2490
aufgezahlt 2489
spezi@@ 2489
Ankunft 2487
sat@@ 2487
ga@@ 2485
klassischen 2485
praktischen 2485
Finnland 2484
entes 2483
Bet@@ 2482
Symbol 2482
zerstört 2482
65 2481
Anbetracht 2481
heben 2479
schla@@ 2479
stische 2478
MA@@ 2477
National 2477
beseitigen 2477
rt 2476
älteren 2476
és 2476
á 2475
8. 2474
Spezial@@ 2474
momentan 2473
verringert 2473
Anwender 2472
Vorsitzenden 2472
vorgelegten 2472
Kreditkarte 2471
Resort 2470
Shop 2469
ausüben 2468
Ausbildungs@@ 2467
Montag 2467
Werten 2466
chti@@ 2466
ole 2466
wil@@ 2466
Mutter 2465
behält 2465
demo@@ 2465
gekennzeichnet 2465
lichsten 2465
mangel@@ 2465
tau@@ 2464
tigkeiten 2463
Russlands 2462
enormen 2462
oftmals 2462
Hinweise 2461
Bil@@ 2460
Uni@@ 2460
vari@@ 2460
ée 2460
ansprechen 2459
entdeckt 2459
offenbar 2459
wirtschafts@@ 2459
verkehrs@@ 2458
kennt 2457
wahr 2457
wege 2457
Beitritts@@ 2456
Kontakt@@ 2455
tal 2455
Serbien 2453
Tests 2453
jedenfalls 2453
Gest@@ 2452
beinhalten 2452
viertel 2452
Flash 2451
werken 2451
Ara@@ 2450
Betriebe 2449
König 2449
pan@@ 2449
Vereinigte 2448
Zahlung 2448
Überblick 2448
Spielen 2447
sprach@@ 2447
1992 2446
Autom@@ 2446
Ster@@ 2446
arbeitete 2446
eingebracht 2446
Übertragung 2446
.de 2445
psych@@ 2445
Sitz@@ 2444
produkten 2444
Stand@@ 2442
öh@@ 2442
Patent@@ 2440
Wochenende 2439
Gesetzes@@ 2438
schwere 2438
eventuell 2437
räumen 2437
sitzen 2435
38 2434
vorzunehmen 2434
Schönheit 2433
eingeleitet 2433
toren 2432
tö@@ 2432
Übergang 2431
EU@@ 2430
stammen 2429
Freund 2428
stammt 2428
strukturen 2428
eit 2427
förder@@ 2427
hierzu 2427
ir 2427
ober@@ 2427
Han@@ 2426
Minute 2426
Top 2425
selben 2425
wirk@@ 2425
Amts@@ 2424
Syrien 2424
Volkspartei 2424
Zuge 2423
gener 2423
vorge@@ 2423
Lizenz@@ 2422
Nizza 2422
lin 2422
parlamentarischen 2422
vorher@@ 2422
Autos 2421
gesellschaftlichen 2421
Parkplätze 2420
zahlungen 2420
Schla@@ 2419
7.@@ 2418
Herbst 2418
Zimmer@@ 2418
ane 2418
lischen 2418
stimm@@ 2418
setz@@ 2417
Mädchen 2414
Prodi 2414
fes@@ 2414
Argument 2413
gere 2413
Schiff 2412
igkeit 2412
Feu@@ 2411
Wor@@ 2411
Eingang 2410
Prozeß 2410
SA@@ 2410
gelangt 2410
gemeinsames 2410
Nah@@ 2409
Tu@@ 2409
kat@@ 2409
Herz@@ 2408
lik@@ 2408
yp@@ 2408
Entschlossenheit 2407
Ide@@ 2407
anwenden 2407
verst@@ 2407
Truppen 2405
Zug 2405
gek@@ 2405
wort 2405
Verteidigungs@@ 2404
egal 2404
eigener 2404
ka@@ 2404
komfortable 2404
maschine 2404
Fil@@ 2403
Gol@@ 2403
Zwar 2403
anzubieten 2403
sisch 2403
Konvent 2402
ologischen 2402
Mand@@ 2401
Sieg 2401
mö@@ 2401
wider 2401
aufbauen 2400
port@@ 2400
verstehe 2400
14. 2399
Hil@@ 2399
Michael 2399
Ratifizierung 2399
lim@@ 2399
derten 2397
ki@@ 2397
verständlich 2397
24@@ 2396
ick 2396
vorliegen 2396
Betten 2395
Trans@@ 2395
Entspannung 2394
ink@@ 2392
Vis@@ 2391
hinweg 2391
landwirtschaftlichen 2391
linken 2391
flo@@ 2390
fähigen 2390
gesp@@ 2389
chtet 2388
Bor@@ 2387
ergänzen 2387
trat 2387
Liber@@ 2386
Sobald 2386
esch@@ 2386
perfekte 2386
Aussage 2385
Quali@@ 2385
tum 2385
Politik@@ 2384
pe 2384
LA@@ 2383
Vorstellungen 2383
überwachen 2383
quote 2381
ungser@@ 2381
xen 2380
ön@@ 2380
Fuß@@ 2379
eck@@ 2379
pu@@ 2379
reise 2379
Bedien@@ 2378
Lern@@ 2378
fri@@ 2377
30. 2376
Zer@@ 2376
stal@@ 2376
Teams 2375
Tür 2375
alisi@@ 2375
Detail 2374
Planeten 2374
Versicherungs@@ 2374
mis@@ 2373
reagiert 2373
Air 2372
digt 2372
Ausbau 2371
Lang@@ 2371
medi@@ 2371
Milch@@ 2370
abend 2370
anzeigen 2370
gestatten 2370
Kyoto 2368
eten 2367
nicht@@ 2367
ruhig 2367
software 2367
Deutsch 2366
Erreichung 2366
gestiegen 2366
Wissenschaftler 2365
zig 2365
Cas@@ 2364
liger 2364
ziger 2364
zogen 2364
ansehen 2363
gangs 2363
Prozess@@ 2362
ausgewählt 2362
dens 2362
spät 2362
ativ@@ 2361
chtigen 2361
umgehen 2361
9. 2360
Krieges 2360
legte 2359
Garantien 2358
Street 2358
hau@@ 2358
can 2357
grenzüberschreitenden 2357
keineswegs 2357
neun 2357
Grundlagen 2356
Lateinamerika 2356
erteilt 2356
85 2354
inner@@ 2354
linie 2354
rop@@ 2354
vorgestellt 2354
Komp@@ 2353
geblieben 2353
schw@@ 2353
nächster 2351
projekt 2351
Direkt@@ 2350
Weiterentwicklung 2348
Dänemark 2347
Entwickler 2347
Ob@@ 2347
Sohn 2347
Alt@@ 2346
dere 2346
lü@@ 2346
England 2345
Religion 2345
stärksten 2345
Benutzer@@ 2344
Gewinn@@ 2344
Val@@ 2344
Zy@@ 2344
betrieb@@ 2344
Datum 2343
Hau@@ 2343
Berliner 2342
Mö@@ 2342
Regional@@ 2342
angehen 2342
Haushalts 2341
e- 2341
gers 2340
gol@@ 2340
Abfall@@ 2339
Ansprüche 2339
Indi@@ 2339
Objek@@ 2339
italienische 2339
wächst 2339
Fe@@ 2338
Vorrang 2338
lieben 2338
pat@@ 2338
erwiesen 2337
itä@@ 2337
49 2336
ator@@ 2336
hü@@ 2336
.000 2335
Entwicklungshilfe 2335
Poly@@ 2334
Weil 2334
früh@@ 2334
Aufzug 2333
Fa@@ 2333
Verbrauchern 2333
leu@@ 2333
bur@@ 2332
02 2331
Theater 2331
ausgehen 2331
bewußt 2331
m2 2331
verurteilen 2331
Haut 2330
fil@@ 2330
ökologischen 2330
poli@@ 2329
selber 2329
sicherung 2329
Dreh@@ 2328
Durchsetzung 2328
Fahrt 2327
Flughäfen 2327
Tieren 2327
aum 2327
bes 2327
wechsel 2327
Länge 2326
enth@@ 2324
Poker 2323
Hö@@ 2322
edi@@ 2322
minim@@ 2321
39 2319
bert 2319
digungen 2319
fassung 2319
Tal 2318
Inn 2317
Mat@@ 2317
je@@ 2317
Aspekten 2316
III 2316
ga 2316
geschickt 2316
manchen 2316
grünen 2315
tene 2315
Museen 2314
Mängel 2314
Ap@@ 2313
Strecke 2313
geschlossenen 2313
negative 2313
sper@@ 2313
Lesen 2312
Martin 2312
dlicher 2312
Verzeichnis 2311
Konvention 2310
Kredi@@ 2310
Werden 2309
liber@@ 2309
Nich@@ 2308
SO@@ 2307
aktuell 2307
fizierung 2307
würdigen 2307
Na@@ 2306
Pres@@ 2306
vorschlag 2306
House 2305
breit@@ 2305
sozial@@ 2305
Tab@@ 2304
fas@@ 2304
Dokumentation 2303
automati@@ 2303
ehemalige 2303
sicht@@ 2303
Betreuung 2302
Jedoch 2302
Mau@@ 2302
chern 2302
definieren 2302
höchst 2302
Benutzung 2301
Ferienwohnung 2301
Sachver@@ 2301
wechseln 2301
Traditionen 2300
Gottes 2299
Käufer 2299
Suite 2299
politiken 2299
modern 2298
06 2297
Existenz 2297
herrlichen 2297
interne 2297
licht 2297
lädt 2297
dauer 2296
Satz 2295
Schloss 2295
bild@@ 2295
regionen 2295
Kr@@ 2294
ausgegeben 2294
besucht 2294
knapp 2294
ändert 2294
Drei@@ 2293
dor@@ 2293
enes 2293
hinzu@@ 2293
optimal 2292
Spitze 2291
arabischen 2291
gefährlich 2291
wand@@ 2291
net@@ 2290
stung 2290
art@@ 2289
beteiligten 2289
dat@@ 2289
hast 2289
hinzu 2289
3,@@ 2288
Behörde 2288
Aut@@ 2287
Institut 2287
effizienter 2287
enter 2287
Maria 2286
Oberfläche 2286
gerechte 2286
Design@@ 2285
ständen 2285
Denken 2284
Fassung 2284
baus 2284
enger 2284
grosse 2284
derart 2283
flug@@ 2283
Är@@ 2282
jahr 2281
voran@@ 2281
8.@@ 2280
Card 2280
ander@@ 2280
beabsichtigt 2280
tz 2280
Pflanzen 2279
ato 2279
bedroht 2279
entsch@@ 2278
sab@@ 2278
plus 2277
mehrfach 2276
Herkunfts@@ 2275
sur 2275
Nichtraucherzimmer 2274
satz@@ 2274
stärk@@ 2274
zusetzen 2274
Bord 2273
Kompetenzen 2273
rich@@ 2273
s- 2273
Posi@@ 2272
bedürf@@ 2272
-- 2271
Email 2271
befürworten 2271
gebildet 2271
umfassen 2271
Effekt 2269
Besuchen 2268
Identi@@ 2268
NICHT 2268
Beschränkungen 2267
Ehre 2267
aut 2267
berechnet 2267
wach@@ 2267
Del@@ 2266
aff@@ 2266
sal@@ 2266
IL@@ 2265
Slowakei 2265
gänge 2265
hr 2265
DA@@ 2264
Gibt 2263
Protokolls 2263
Klarheit 2262
Prüf@@ 2262
Wechsel@@ 2262
feh@@ 2262
licherweise 2262
Niederlande 2261
Revision 2260
200@@ 2259
Lohn@@ 2259
Paul 2259
Holz 2257
konsequent 2257
las 2257
nehme 2257
Anmeldung 2255
Versprechen 2255
Festival 2254
Shi@@ 2254
Steigerung 2254
beantwortet 2254
beibehalten 2254
funktion 2254
bett 2253
entfernen 2253
versteht 2253
ahn@@ 2252
wirklichen 2252
Hamburg 2251
ID@@ 2251
merk@@ 2251
Gold@@ 2250
digitale 2250
ola 2250
Can@@ 2249
alistischen 2249
branche 2249
errichtet 2249
kop@@ 2249
öffentlicher 2249
las@@ 2248
volles 2248
anzuwenden 2247
gegebenenfalls 2247
Vordergrund 2246
bek@@ 2246
2012 2245
Ther@@ 2245
generell 2245
teilung 2245
ökonomischen 2245
Statistiken 2244
Reg@@ 2243
mitglieder 2243
urlaub 2243
nutzt 2242
paket 2242
1990 2241
Einer 2241
geliefert 2241
ley 2241
richtung 2241
Maschinen@@ 2240
Radio 2240
desto 2240
schau@@ 2240
Schicksal 2239
erstens 2239
herzustellen 2239
Berg 2238
Häuser 2238
ele 2238
eth@@ 2238
sozi@@ 2238
ting 2238
tätigen 2238
\ 2237
erend 2237
oten 2237
Katalog 2236
Vier@@ 2236
Hier@@ 2235
netz 2235
nungs@@ 2235
wendung 2235
Media 2234
ai@@ 2234
südlichen 2234
tiere 2234
Golf@@ 2233
erheblichen 2233
.00 2232
Tel@@ 2232
Aufhebung 2231
erteilen 2231
veröffentlichen 2231
Nachdruck 2230
Universitäten 2229
Wahrung 2229
Typ 2228
Zweiten 2228
akt 2228
regionaler 2228
Lernen 2227
behauptet 2227
gerufen 2227
ty 2227
schwedischen 2226
vertritt 2226
wachsende 2226
Chancengleichheit 2225
Wol@@ 2225
einf@@ 2225
Europe 2224
Offenheit 2224
mäßig 2224
Speisen 2223
Pass@@ 2222
Back@@ 2221
Rückgang 2221
Tau@@ 2221
genauer 2221
vollem 2221
Häfen 2220
vorsieht 2220
Lebensmittelsicherheit 2219
Vorgehensweise 2219
bra@@ 2219
com@@ 2219
grossen 2219
quellen 2219
herr@@ 2218
jährlichen 2218
Peter 2217
auswirken 2217
1993 2216
Auflösung 2216
Erfolge 2216
Dynamik 2213
erheben 2213
langem 2213
zweiter 2213
Georgien 2212
enzi@@ 2212
schem 2212
Frühstücksbuffet 2211
greift 2211
03@@ 2210
Fang@@ 2210
IA 2210
Zimmerbeschreibung 2210
fuer 2210
hohes 2210
schrift 2210
Fortsetzung 2209
gesetzten 2209
strukturi@@ 2209
Kennzeichnung 2207
Ministerpräsident 2207
fü@@ 2207
Bereits 2206
Sowohl 2206
zahlt 2206
Boot 2205
RO 2205
grund 2205
ED@@ 2204
Kommissionspräsident 2204
ON@@ 2204
Putin 2204
Genau 2203
angenehmen 2203
gewidmet 2203
Soldaten 2202
Nachbar@@ 2201
Zeitplan 2201
erhoben 2201
klasse 2201
Fluss 2200
Mer@@ 2200
Zielsetzungen 2200
kal@@ 2200
täten 2200
25. 2199
Hostelsclub 2199
fli@@ 2199
Vorsch@@ 2198
ag 2197
anerkennen 2197
fol@@ 2197
Liberalen 2196
Netze 2196
betrieb 2196
hilfreich 2196
respektieren 2196
spezialisiert 2195
250 2194
betriebe 2194
bs 2194
endet 2194
tert 2194
ände 2194
Immobilien 2193
Problematik 2193
Son@@ 2193
stattgefunden 2193
zäh@@ 2193
UR@@ 2192
Wichtigkeit 2192
aktiviert 2192
beispiel@@ 2191
Eu@@ 2190
klein 2190
läu@@ 2190
NL 2189
lte 2189
widmen 2188
zugeben 2188
Eines 2187
Minderheit 2187
Anmerkungen 2186
Betracht 2186
Lam@@ 2186
ah 2186
benutz@@ 2185
fehlen 2185
gent@@ 2185
kräf@@ 2185
angenommenen 2184
setzte 2184
ai 2183
klassi@@ 2183
Gegner 2182
schutzes 2182
Autobahn 2181
fle@@ 2181
größeres 2181
günsti@@ 2181
CA@@ 2180
Unterkünfte 2180
ausländischen 2180
has 2180
mechanismen 2180
niedrigen 2180
Text@@ 2179
loser 2178
passen 2178
professionelle 2178
Berge 2177
Cookies 2177
Philosophie 2177
fortsetzen 2177
Amerikas 2176
ay 2176
isi@@ 2176
Rent@@ 2175
Weltwirtschaft 2175
typischen 2175
verwendeten 2175
Ausrichtung 2174
Offen@@ 2174
erarbeitet 2174
ologischer 2174
41 2173
Airbus 2173
Berich@@ 2172
Geheim@@ 2172
Kaffee 2172
deck@@ 2172
dieren 2172
mark@@ 2172
use 2172
Gebühren 2171
größter 2171
mung 2171
vel@@ 2171
od@@ 2170
Fläche 2169
Sand@@ 2169
begegnen 2169
schriftliche 2169
üsse 2169
miß@@ 2168
pool 2168
verbreitet 2168
Dro@@ 2167
intensiv 2167
unmittelbarer 2167
03 2166
beweisen 2166
ecken 2166
freier 2166
trags@@ 2166
Himmel 2165
Office 2165
44 2164
Men@@ 2164
ähnlichen 2164
Bl@@ 2163
fahrzeuge 2163
lers 2163
schung 2163
Fremdenverkehr 2162
Kno@@ 2162
chemische 2162
Kommentare 2161
Können 2161
rooms 2161
tatsächlichen 2161
usw 2161
endgültige 2160
falsche 2160
klären 2160
ums@@ 2160
uneingeschränkt 2160
Einen 2159
bemerk@@ 2159
innovativen 2159
nungen 2159
rit@@ 2159
schm@@ 2159
verabschieden 2159
1000 2158
Bürokratie 2158
Wo@@ 2158
erforderliche 2158
ett@@ 2158
Aussagen 2157
Zunahme 2157
Rechnungs@@ 2156
31. 2155
Anreize 2155
Verordnungen 2155
üb@@ 2155
kohär@@ 2154
solch 2154
stor@@ 2154
turen 2154
05 2153
russische 2153
Bestätigung 2152
dateien 2152
Modul 2151
Tool 2151
jüngste 2151
Jean 2150
hinzugefügt 2150
sied@@ 2150
anzupassen 2149
bit@@ 2149
Regel@@ 2148
erweisen 2148
General 2147
att@@ 2147
dene 2147
Besitz 2146
Erarbeitung 2146
Nord 2146
Skype 2146
deutliche 2146
mei@@ 2146
planen 2146
ül@@ 2145
drängen 2144
formuliert 2144
Verfahrens 2143
Wettbewerbs 2143
betra@@ 2143
überrascht 2143
Alternativen 2142
JavaScript 2142
Schn@@ 2142
Sonntag 2142
sierungs@@ 2142
Ursache 2141
fang 2141
Bro@@ 2140
Abbau 2139
Erst@@ 2139
adi@@ 2139
mati@@ 2139
tagen 2139
ue 2139
Export@@ 2138
Kli@@ 2138
PA 2138
Werkzeug 2138
Bücher 2137
schule 2137
offiziell 2135
Ausgrenzung 2134
Risiko@@ 2134
Ruf 2134
Viel@@ 2134
gesucht 2134
Betrieb@@ 2133
Java 2133
fairen 2133
iel@@ 2133
instrument 2132
könne 2132
steten 2132
IG@@ 2131
Klimawandels 2131
Räume 2131
Rech@@ 2130
Ablauf 2129
Roh@@ 2129
gemeinsamer 2129
Mach@@ 2128
fügen 2128
hundert 2128
uni@@ 2128
Terroristen 2127
ate@@ 2127
chn@@ 2127
Erwachsene 2126
Q 2126
davor 2126
innere 2126
vertrau@@ 2126
yn@@ 2126
Nehmen 2125
gewicht 2125
verursachen 2125
Spezialitäten 2123
Verabschiedung 2123
integrierte 2123
mechanismus 2123
spanische 2123
ement 2122
förderung 2122
künst@@ 2122
Orten 2121
bewegt 2121
ht 2121
richtungen 2121
Den@@ 2120
Glas@@ 2120
Nichtraucherzonen 2120
Uns 2120
angekündigt 2120
bewertet 2120
denden 2120
existieren 2120
ökonomische 2120
Raums 2119
Verfahrens@@ 2119
staff 2119
Forsch@@ 2118
Landwirtschafts@@ 2118
regi@@ 2118
üblichen 2118
Betrifft 2117
standes 2117
vertraut 2117
Bon@@ 2116
Dat@@ 2116
wirft 2116
Drogen 2115
Zivil@@ 2115
abgesehen 2115
bergen 2115
dieselben 2115
gehei@@ 2115
Ausnahmen 2114
Bosnien 2114
Entfernung 2114
Kürze 2114
Menschheit 2114
geringen 2114
nisses 2114
Bevor 2113
harmon@@ 2113
Ausbeutung 2112
befürwortet 2112
erwähnten 2112
fähi@@ 2112
hochwertigen 2111
Objekte 2110
Sat@@ 2110
eht 2110
xi@@ 2110
Bildern 2109
ala 2109
able 2108
antes 2108
iges 2108
berühmte 2107
kel@@ 2107
nahme@@ 2107
Fahrer 2106
Rel@@ 2106
Taten 2106
geschäft 2106
Hände 2105
zugestimmt 2105
übt 2105
zustande 2103
Produktivität 2102
bro@@ 2102
Formulierung 2101
Gerichts@@ 2101
ück@@ 2101
AB@@ 2099
Wohnzimmer 2099
reibungs@@ 2099
geehrte 2098
komplexen 2098
sichert 2098
östlichen 2097
Annehmlichkeiten 2096
GNU 2096
Strand@@ 2096
besonderes 2096
elektronische 2096
gegenseitigen 2096
Bürgerbeauftragten 2095
Florenz 2095
Fru@@ 2095
Rob@@ 2094
Saint 2094
ast 2094
51 2093
Referendum 2093
Speicher@@ 2093
bearbeiten 2093
eindeutige 2093
steller 2093
Steuer 2092
hafter 2092
Ange@@ 2091
Saison 2091
Wiederherstellung 2091
durchzusetzen 2091
gesetz 2091
prinzip 2091
präzise 2091
wir@@ 2091
Haushalte 2090
Mil@@ 2090
erarbeiten 2090
gemessen 2090
sau@@ 2090
EF@@ 2089
bruch 2089
Frauen@@ 2088
Einzelheiten 2087
Mün@@ 2087
fähige 2087
ungst@@ 2087
vorliegt 2087
Kuba 2086
Rechnungshof 2086
erkennt 2086
kriterien 2086
feu@@ 2084
Bat@@ 2083
fangen 2083
omm@@ 2082
Schei@@ 2081
bekämpfung 2081
Tools 2080
zone 2080
grenze 2079
begründet 2078
derselben 2078
yst@@ 2078
Deutschlands 2077
etes 2077
Umstände 2076
streben 2076
unterschiedlicher 2076
vertrauen 2076
A4 2075
ON 2075
assi@@ 2075
verfol@@ 2075
Mul@@ 2074
euer 2074
umso 2074
verwiesen 2074
übermitteln 2074
Euch 2073
Verfolgung 2073
berichtet 2073
ressourcen 2073
Übernahme 2073
Finanzen 2072
Funktionieren 2072
Rechner 2072
hervorragend 2072
lar@@ 2072
religiösen 2072
kti@@ 2071
Schuld 2070
Vertrieb@@ 2070
kostenlose 2070
siven 2070
steuer 2070
Mc@@ 2069
Hi@@ 2068
tis 2068
Bewusstsein 2067
Eing@@ 2067
Glei@@ 2067
Lau@@ 2067
Menschenrechtsverletzungen 2067
erleichtert 2067
Einnahmen 2066
West 2066
fungen 2066
č@@ 2066
Pe@@ 2065
bedauerlich 2065
löschen 2065
ziel 2065
stätten 2064
dieselbe 2063
leistet 2063
Em@@ 2062
ester 2062
legi@@ 2062
Gemeinden 2061
Hat 2061
fla@@ 2061
technisch 2061
Außenminister 2060
Bevölkerungs@@ 2060
NRO 2060
Strände 2060
Fleisch 2059
Gei@@ 2059
Schüler 2059
bewegung 2059
spann@@ 2059
Ereignis 2058
Rezession 2058
dring@@ 2058
erstes 2058
kürz@@ 2058
änge 2058
Fischereipolitik 2057
Gruppen@@ 2057
Zwischen 2057
gie@@ 2057
techn@@ 2056
Einsatz@@ 2053
Trau@@ 2053
günstige 2053
nötigen 2053
ware 2053
700 2052
BSE 2052
Bauern 2052
Gentoo 2051
Heimat 2051
Airport 2050
Da@@ 2049
Wohnungen 2049
genau@@ 2049
lüsse 2049
stru@@ 2049
Fan@@ 2047
gehe 2047
isierung 2047
zurzeit 2047
auswählen 2046
rufe 2046
umgehend 2046
Abgeordneter 2045
Bestellungen 2045
Client 2045
Händen 2045
car@@ 2045
Brand@@ 2044
fei@@ 2044
AL 2043
günstigen 2042
ong 2042
ärmsten 2042
Audio 2041
Pla@@ 2041
Südafrika 2041
dasselbe 2041
Erlebnis 2040
Menschenrechten 2040
Wellness 2040
good 2040
klar@@ 2040
komplexe 2039
Recht@@ 2038
anzuzeigen 2038
greif@@ 2038
heits@@ 2038
Verkaufs@@ 2037
mi 2037
Diesen 2035
Innenstadt 2035
Miß@@ 2035
erlassen 2035
Binnen@@ 2034
Logik 2034
israelischen 2034
Licht@@ 2033
Migration 2033
Zerstörung 2033
eli@@ 2033
professionellen 2033
sz@@ 2033
Ausrüstung 2032
Danach 2032
Sekunden 2032
normen 2032
sc@@ 2032
Parlament@@ 2031
Zucker@@ 2031
staatlicher 2031
stoßen 2031
terin 2031
ausländische 2030
gerechtfertigt 2030
umzu@@ 2030
chi@@ 2029
einführen 2029
vermutlich 2029
Anti 2028
komple@@ 2028
SV 2027
bezeichnen 2027
demokratisch 2027
unterbrochen 2027
46 2026
Filme 2026
ech@@ 2026
Via 2025
beinahe 2025
flexibel 2025
geeigneten 2025
Г 2025
Waren@@ 2023
Werkzeuge 2023
geringer 2023
set 2023
spüren 2023
ssi@@ 2023
vermittelt 2023
zunehmende 2023
Begründung 2022
Festplatte 2022
Lieferanten 2022
Kopf@@ 2021
alem 2021
As@@ 2020
Sur@@ 2020
Album 2019
Christ@@ 2019
aktualisiert 2019
dienstleistungen 2019
medizinische 2019
Alters@@ 2018
Sc@@ 2018
engen 2018
Anträge 2017
gingen 2017
Kenntnisse 2016
erwerben 2016
steuer@@ 2016
Plaza 2015
arbeiteten 2015
beruhen 2015
technischer 2015
verschaffen 2015
Energiequellen 2014
Gewinne 2014
Handlungen 2014
ans@@ 2014
ero@@ 2014
linien 2014
location 2014
vermieden 2014
Betreiber 2013
dargelegt 2013
mächti@@ 2013
treiben 2012
verstärkte 2012
stands@@ 2011
Abteilung 2010
Emp@@ 2010
Schutzes 2010
gkeits@@ 2010
ke@@ 2010
sagten 2010
tak@@ 2010
Urlaubs@@ 2009
inneren 2009
beschleunigen 2008
bre@@ 2008
hielt 2008
ätze 2008
47 2007
Erwägung 2007
Projek@@ 2007
ablehnen 2007
endgültigen 2007
führungs@@ 2007
Marokko 2006
Beamten 2005
Insgesamt 2005
Komm@@ 2005
sicherer 2005
trau@@ 2005
zeigte 2005
änderungen 2005
gering 2004
industriellen 2004
ands 2003
mä@@ 2003
ol 2003
Aktu@@ 2002
sischer 2002
Spannungen 2001
Balkan 2000
Spaziergang 2000
Zuverlässigkeit 2000
elegante 2000
Bestell@@ 1999
Derzeit 1999
EM@@ 1999
Großen 1998
Hauptbahnhof 1998
eig@@ 1998
Einwanderer 1997
lebenden 1997
120 1996
Internetzugang 1996
ay@@ 1996
gehabt 1996
innen@@ 1996
iti@@ 1996
zun@@ 1996
Australien 1995
Dru@@ 1995
öse 1995
1989 1994
Bezeichnung 1994
Gas 1994
einstimmig 1994
früh 1994
planung 1994
renoviert 1994
stei@@ 1994
Lehrer 1993
Western 1992
einsch@@ 1992
fragt 1992
gste 1992
ruppe 1991
10.@@ 1990
Off@@ 1990
Strom 1990
alle@@ 1990
eröffnen 1990
kurse 1990
1991 1989
Hän@@ 1989
Meinungen 1989
Palette 1989
Steuerzahler 1989
not@@ 1989
tives 1989
Samstag 1988
Belastung 1987
Eröffnung 1987
ater 1987
zugelassen 1987
Beschluß 1986
Friedens 1986
Lounge 1986
ena 1986
glaubt 1986
terungen 1986
trags 1986
österreichischen 1986
04 1985
Motor 1985
mas@@ 1985
alistische 1984
pul@@ 1984
GB 1983
KOM 1983
MySQL 1983
einiges 1983
eintreten 1983
Beratungen 1982
Gesicht 1982
Privatsphäre 1982
Stu@@ 1982
binden 1982
organisierten 1982
Modus 1981
kritischen 1981
David 1980
Prag 1980
ey 1980
sta 1980
erleb@@ 1979
kleinere 1979
Appartements 1978
Osteuropa 1978
Immer 1977
schwieriger 1977
bü@@ 1976
Herkunft 1975
gehörigen 1975
lien 1975
Drittstaaten 1974
It 1974
umfangreichen 1974
ehrlich 1973
ros 1973
Dor@@ 1972
Seele 1972
Nachmittag 1971
beruflichen 1971
kunden 1971
teln 1971
zeugen 1971
lern 1970
agen 1969
anpassen 1969
s.@@ 1969
Fakten 1968
Reinigung 1968
Zusammensetzung 1968
atischen 1967
zentraler 1967
Mutter@@ 1966
eingeräumt 1966
Renn@@ 1965
Weltkrieg 1965
derjenigen 1965
klein@@ 1965
basi@@ 1964
erlangen 1964
Gewinn 1963
USD 1963
Venedig 1963
blicken 1963
zahlung 1963
9.@@ 1962
S.@@ 1962
ear@@ 1962
integrieren 1962
Laut 1961
geringe 1961
abgeben 1960
ernsthafte 1960
ktion@@ 1960
eigentliche 1959
Krisen 1958
gelingen 1958
alisierungs@@ 1957
ica 1957
organ@@ 1957
zugute 1957
Grundsätzen 1956
Lab@@ 1956
ausreichende 1956
Betrug 1955
Tex@@ 1955
alisten 1954
12.00 1953
Unsicherheit 1953
mag@@ 1953
Van 1952
aufnahme 1952
rie@@ 1952
Lager 1951
Verteidigungspolitik 1951
einzig 1951
mail 1951
maximal 1950
my 1950
möglichkeit 1950
schenken 1950
stützen 1950
verzichten 1950
überein@@ 1950
Mü@@ 1949
flächen 1949
ita 1949
mittlere 1949
AG@@ 1948
Mittwoch 1948
Studi@@ 1948
Tor 1948
Verlängerung 1948
resul@@ 1948
Doppelzimmer 1947
ere@@ 1947
24. 1946
Beurteilung 1946
gestartet 1946
listen 1946
retten 1946
Felder 1945
Wald@@ 1945
Fal@@ 1944
Summe 1944
Vit@@ 1944
ars 1943
aufgestellt 1943
basis 1943
druck@@ 1943
Ca@@ 1942
Feststellung 1942
Nation 1942
Versuche 1942
stil@@ 1942
Inkrafttreten 1941
genießt 1941
handels@@ 1941
rechtlich 1941
gehandelt 1940
zent@@ 1940
Pil@@ 1939
angenehm 1939
zeichneten 1939
Übersicht 1939
52 1938
ata 1938
kombiniert 1938
zwölf 1938
ón 1938
angebote 1937
keiten 1937
Stufe 1936
beschließen 1936
eckt 1936
geber 1936
gelernt 1936
ment 1936
Pflichten 1935
Verfasser 1935
schlechte 1934
Rö@@ 1933
Todes@@ 1932
Rußland 1931
Tr@@ 1931
abgegeben 1931
ju@@ 1931
na@@ 1931
Einschätzung 1930
Nu@@ 1930
becken 1930
fuhr 1930
post@@ 1930
Konzer@@ 1929
altung 1929
bereit@@ 1929
inakzeptabel 1929
relevanten 1929
Bewältigung 1928
Mei@@ 1928
mb@@ 1928
AU@@ 1927
isten 1927
zwischen@@ 1927
Arbeitsgruppe 1926
Erzeugung 1926
luss@@ 1926
passieren 1926
seln 1926
Kein 1925
Rassismus 1925
züge 1925
Besteuerung 1924
Kernel 1924
Last 1924
Weiß@@ 1924
gebe 1924
kra@@ 1924
Stahl@@ 1923
User 1923
the@@ 1923
Intervention 1922
dien@@ 1922
methode 1922
Weiterhin 1921
kredi@@ 1921
Ausübung 1920
getrennt 1920
heit@@ 1920
sive 1920
vorgehen 1920
USS 1919
garten 1919
Heimat@@ 1918
Rahmenbedingungen 1918
We 1918
Wünschen 1918
basieren 1918
entstand 1918
Fon@@ 1917
Pul@@ 1917
Jugendliche 1916
Kap@@ 1916
Rennen 1916
SA 1916
ursprüngliche 1916
Autor 1915
beziehungen 1915
jeglicher 1915
Grünbuch 1914
demokratischer 1914
realen 1914
Kra@@ 1913
ov@@ 1913
respektiert 1913
wahre 1913
anforderungen 1912
iniert 1912
organisierte 1912
steh@@ 1912
Verletzungen 1911
bahn@@ 1911
bilateralen 1911
col@@ 1911
gebung 1911
gebühren 1911
globaler 1910
Ausschüsse 1909
Tauch@@ 1909
Vertretung 1909
beizutragen 1909
erneuerbaren 1909
hört 1909
vorschläge 1909
Luxus 1908
Phänomen 1908
Pop@@ 1908
SI@@ 1908
einst 1908
Private 1907
nachzu@@ 1907
tausend 1907
gefähr@@ 1906
ierungs@@ 1906
verkehr@@ 1906
wel@@ 1906
Erweiterungs@@ 1905
Fisch 1905
insofern 1905
stattdessen 1905
Anhörung 1904
Regionalpolitik 1903
gri@@ 1903
Besitz@@ 1902
sogenannte 1902
woh@@ 1902
Brücke 1901
behandlung 1901
rin@@ 1901
Hafen@@ 1900
Beschwerden 1899
EG@@ 1899
Stell@@ 1899
heutzutage 1899
kanische 1899
ré@@ 1899
Drei 1898
austausch 1898
sin@@ 1898
wander@@ 1897
Module 1896
investiert 1896
rahmen 1896
weit@@ 1896
well 1896
zentrali@@ 1896
22. 1895
Inhalten 1895
Keine 1895
empfängt 1895
gefährden 1895
irgend@@ 1895
uss@@ 1895
würdig 1895
Stat@@ 1894
absol@@ 1894
berufen 1894
orientierte 1893
Individu@@ 1892
Parlaments@@ 1892
vereint 1892
zwanzig 1892
Übereinkommens 1892
Publikum 1891
erkunden 1891
kostenlosen 1891
verpflichten 1891
Global 1890
Tan@@ 1890
Verluste 1890
küh@@ 1890
Einschränkungen 1889
Kas@@ 1889
Anwesenheit 1888
dahin 1888
PR@@ 1887
Unterzeichnung 1887
reifen 1887
starkes 1887
Gipfeltreffen 1886
Gut@@ 1886
Plas@@ 1886
effizienten 1886
ments 1886
§ 1886
abkommens 1885
funktionen 1885
yer 1885
Basi@@ 1884
Updates 1884
pra@@ 1884
AS 1883
Original@@ 1883
PL@@ 1883
einnehmen 1883
erörtert 1883
gebunden 1883
lokaler 1883
wünscht 1883
Hot@@ 1882
fikation 1882
gemütliche 1882
Subventionen 1881
Tabelle 1881
auer 1881
ehrt 1881
medizinischen 1881
zunehmenden 1881
EP 1880
Konflikt@@ 1880
TR@@ 1880
eti@@ 1880
vernünftige 1880
bedauere 1879
einstellen 1879
Erhalt 1878
Kam@@ 1878
Million 1878
Produktion@@ 1878
vereinbarten 1878
Tru@@ 1877
aufgeführt 1877
märkten 1877
Arbeitgeber 1876
Organ@@ 1876
Port@@ 1876
Richter 1876
eleganten 1875
mien 1875
überwacht 1875
Satelliten@@ 1874
Wälder 1874
bewirken 1874
griffen 1874
leidet 1874
Kurz 1873
Mehrwert 1873
auff@@ 1873
gesam@@ 1873
verzeichnen 1873
Comm@@ 1872
Dublin 1872
Energiepolitik 1872
Funktion@@ 1872
höchster 1872
Pl@@ 1871
baut 1871
Kapazität 1870
frem@@ 1870
ktions@@ 1870
Gem@@ 1869
Spektrum 1869
dy 1869
meldung 1869
Al 1868
Angriffe 1868
aussehen 1868
derartigen 1868
irische 1868
sonstige 1868
Fahrzeug 1867
Wichtig 1867
band 1867
egel@@ 1867
här@@ 1867
konstruktive 1867
sy@@ 1867
technologische 1867
Automobil@@ 1866
Themen@@ 1866
realisiert 1866
Gri@@ 1865
IC 1865
Inspek@@ 1865
Mari@@ 1865
Weine 1865
egen 1865
seu@@ 1865
zeichnung 1865
wirksamen 1864
Einkommens@@ 1862
geniessen 1862
geplanten 1862
ordnungsgemäß 1862
unterbreiten 1862
28@@ 1861
Ergänzung 1861
Wett@@ 1861
Fünf@@ 1860
dauern 1860
tigem 1860
if 1859
initiative 1859
wertung 1859
Mischung 1858
einzugehen 1858
eure 1857
polnischen 1857
Äußerungen 1857
LO@@ 1856
SS@@ 1855
get 1854
tos 1854
wies 1854
Jahr@@ 1853
geistigen 1853
lo 1853
schließe 1852
verarbeitet 1852
Konzentration 1851
gl@@ 1851
tan 1851
tex@@ 1851
Personen@@ 1850
Weltbank 1850
teste 1850
dans 1849
dy@@ 1848
menge 1848
Europol 1847
Regimes 1847
folglich 1847
kommun@@ 1847
moderner 1847
interessanten 1846
schlech@@ 1846
Hör@@ 1845
Konferenz@@ 1845
Kräften 1845
Waffen@@ 1845
rates 1845
Güter 1844
Zuständigkeiten 1844
dia 1844
Kaffe@@ 1843
Sitzungen 1843
vernünftig 1843
04@@ 1842
bezogen 1842
habt 1842
ons@@ 1842
Händler 1841
Robert 1841
schrittweise 1841
Beschäftigten 1840
Kapazitäten 1840
feste 1840
gelegenen 1840
ungeh@@ 1840
29. 1839
jemals 1839
liegende 1839
Emissions@@ 1838
Schau@@ 1838
nachdenken 1838
punkten 1838
Kab@@ 1837
Unternehmer 1837
marquis 1837
News 1836
Prävention 1836
absolute 1836
ard@@ 1836
externe 1836
famili@@ 1836
zz@@ 1836
Katastrophen 1835
Saal 1835
ath@@ 1835
ethnischen 1835
gebäude 1835
nete 1835
regel@@ 1835
ri 1835
ute 1835
verliehen 1835
ats@@ 1834
verwirklichen 1834
bedro@@ 1833
erweiterten 1833
weitaus 1833
zielt 1833
Cap@@ 1832
Wesen 1832
kleineren 1832
kurzer 1832
lossen 1832
kämp@@ 1831
origin@@ 1831
wertvolle 1831
Image 1830
nachhaltig 1830
ohnehin 1830
wan@@ 1830
ater@@ 1829
erwähnte 1829
mün@@ 1829
Beach 1828
Objekt 1828
ete 1828
gesichert 1828
leichte 1828
orientierten 1828
schnitt 1828
unterscheidet 1828
datei 1827
gebnis 1827
Leiter 1826
ehe 1826
einhalten 1826
text 1826
wand 1826
Börse 1825
Trend 1825
Subsidiarität 1824
bende 1824
ligkeit 1824
pä@@ 1824
Medikamente 1823
Red@@ 1823
wald 1823
Plätze 1822
Theorie 1822
gebraucht 1822
vertreter 1822
Ham@@ 1821
realistisch 1821
23. 1820
Tour@@ 1820
wirkungs@@ 1820
Augen@@ 1819
Human@@ 1819
Produzenten 1819
wä@@ 1819
fahrts@@ 1818
Justiz@@ 1817
ari 1817
kommerziellen 1817
SCH@@ 1816
center 1816
geschafft 1816
unterbreitet 1816
design 1815
grenzüberschreitende 1815
späteren 1815
Rotary 1814
felder 1814
ösen 1814
Hamas 1813
krimin@@ 1813
ratifiziert 1813
Handy 1812
Mac 1812
Mengen 1812
kurs 1812
viert 1812
wahl 1812
beiträgt 1811
Datenschutz 1810
ausführlich 1810
bewiesen 1810
erörtern 1810
fortgesetzt 1810
nam@@ 1810
Anzeige 1809
Edel@@ 1809
Türen 1809
gewünschte 1809
nich@@ 1809
schein@@ 1809
sign@@ 1809
west@@ 1809
erstreckt 1808
kontrollen 1808
teilzunehmen 1808
Source 1807
gewisser 1807
öffnet 1807
Ausgangs@@ 1806
abschließend 1806
iner 1806
Sek@@ 1805
Stock@@ 1805
eigentlichen 1805
Bühne 1804
Fremd@@ 1804
streng 1804
Centre 1803
dorf 1803
dé@@ 1803
traum@@ 1803
Mails 1802
NI 1802
dem@@ 1802
herum 1801
Last@@ 1800
Funktionalität 1799
freu@@ 1799
transparent 1799
68 1798
Power 1798
igungen 1798
Erbe 1797
Dach@@ 1796
Tom@@ 1796
gerechnet 1796
gewinnt 1796
Gre@@ 1795
Kau@@ 1795
Wachstums 1795
brau@@ 1795
deutet 1795
Cre@@ 1794
Wür@@ 1794
rum 1794
Mak@@ 1793
gültig 1793
popul@@ 1793
ruft 1793
erinnere 1792
esten 1792
lag@@ 1792
avi@@ 1791
lad@@ 1791
rechtfertigen 1791
Ordner 1790
Sit@@ 1790
Washington 1790
Gipfels 1789
Regen@@ 1789
Span@@ 1789
Fr@@ 1788
Kabel 1788
beeinflusst 1788
bisschen 1788
machten 1788
angeblich 1787
eingeschränkt 1787
Solche 1786
größerer 1786
mäßigkeit 1786
Foto@@ 1785
Konjunktur@@ 1785
Presse@@ 1785
Seiten@@ 1785
angewiesen 1785
beurteilen 1785
schnei@@ 1784
Arbeitnehmer@@ 1783
Missbrauch 1783
Mono@@ 1783
Vertrieb 1783
cs 1783
ütz@@ 1783
Ausblick 1782
unzu@@ 1782
Analy@@ 1781
Gut 1781
Safe 1781
gefährliche 1781
hof 1781
modi@@ 1781
onn@@ 1781
Edition 1780
Libanon 1780
VER@@ 1780
gefährlichen 1780
älter 1780
Lehren 1779
Sä@@ 1779
sonstigen 1779
Appartement 1778
HTML 1778
Palästinenser 1778
Präsentation 1778
Vermittlungs@@ 1778
abgel@@ 1778
einfach@@ 1778
gewer@@ 1778
schreibt 1778
selb@@ 1778
wa 1778
chan@@ 1777
Kongress 1776
gestellte 1776
technologischen 1776
Zürich 1775
ermutigen 1775
vorhin 1775
ausgestattete 1774
typisch 1774
vous 1774
Archi@@ 1773
Imp@@ 1773
Lasten 1773
Plus 1773
Ci@@ 1772
este 1772
finanzi@@ 1772
grundlegender 1772
kritisiert 1772
verwal@@ 1772
vo 1772
54 1771
Gepäckraum 1771
Glas 1771
Schnittstelle 1771
bekräftigt 1771
blick 1771
ruhige 1771
verarbeitung 1771
Angabe 1770
Sil@@ 1770
get@@ 1770
stil 1770
which 1770
Erfol@@ 1769
Gener@@ 1769
Leuten 1769
mäßige 1769
sech@@ 1769
Arbeitsbedingungen 1768
IF@@ 1768
char@@ 1768
eingeladen 1768
günstig 1768
let 1768
li 1768
Events 1767
Israels 1767
Merkmale 1767
Mittelmeerraum 1767
PO@@ 1767
kn@@ 1767
vergleich@@ 1767
wü@@ 1767
Rubrik 1766
Show 1766
Verträgen 1766
angel@@ 1766
eignen 1766
etzen 1766
ill@@ 1766
Export 1765
Wellness@@ 1765
auen 1765
fiel 1765
grad 1765
Überarbeitung 1765
Dikt@@ 1764
Futter@@ 1764
atz 1764
stete 1764
ärer 1764
Tief@@ 1763
fährt 1763
ines 1763
itäten 1763
Power@@ 1762
issen 1762
plötzlich 1762
nu@@ 1761
übermittelt 1761
Finanzmärkte 1760
Je@@ 1760
MB 1760
Tragödie 1760
schalten 1760
stern 1760
Aktien@@ 1759
Fans 1759
Ministerrat 1759
intensive 1759
qualifizierte 1759
teilte 1759
Aufenthalts@@ 1758
Büros 1758
Vorfeld 1758
Wind 1758
way 1758
27@@ 1757
Europ@@ 1757
Resolution 1757
bevorstehenden 1757
gemütlichen 1757
körper@@ 1757
strengen 1757
George 1756
lten 1756
Halb@@ 1755
Hä@@ 1755
rücken 1755
venti@@ 1755
28. 1754
nbsp 1754
ollen 1754
rats 1754
tauchen 1754
Gebäuden 1753
Konzepte 1753
akzeptabel 1753
72 1752
Termin 1752
aktu@@ 1752
erfasst 1752
Fluggesellschaften 1751
Für@@ 1751
Mur@@ 1751
sende 1751
Performance 1750
Woh@@ 1750
ignoriert 1750
kostengünsti@@ 1750
maximale 1750
träge 1750
spiegelt 1749
trei@@ 1749
chtige 1748
erzielten 1748
gast@@ 1748
istischer 1748
partei@@ 1748
Vorgaben 1747
Wille 1747
komfortablen 1747
ungeachtet 1747
untergraben 1747
Lü@@ 1746
Mini@@ 1746
dad 1746
sätzen 1746
unerlässlich 1746
verz@@ 1746
Erzeuger 1745
mündlichen 1745
rad 1745
sprech@@ 1745
Armen 1744
Netzwerk@@ 1744
berichte 1744
mäßigen 1744
schu@@ 1744
26. 1743
Arzneimittel 1743
Ker@@ 1743
Wiederauf@@ 1743
haf@@ 1743
liberalen 1743
quelle 1743
Abschluß 1742
Ferienwohnungen 1742
Traum 1742
Unterdrückung 1742
esischen 1742
hungen 1742
orien 1742
Spezialisten 1741
hu@@ 1741
Bewohner 1740
Staatsan@@ 1740
bedienen 1740
beliebigen 1740
klär@@ 1740
Filter 1739
aufgerufen 1739
leid 1739
Free 1738
Los 1738
Freizeit@@ 1737
Komit@@ 1737
kun@@ 1737
verbindungen 1737
C5 1736
Is@@ 1736
S. 1736
Schrift@@ 1736
box 1736
vergeben 1736
Legislativ@@ 1735
beschreibt 1735
womit 1735
zweifel@@ 1735
aturen 1734
dachte 1734
jek@@ 1734
küste 1734
änderung 1734
Gerichtshofs 1733
stoß 1733
verantwor@@ 1733
äußerster 1733
Amtszeit 1732
bigen 1732
forderte 1732
leitungen 1732
Verein@@ 1730
dend 1730
fiziert 1730
lei 1730
unzureichend 1730
12.@@ 1729
Bildschirm 1729
Express 1729
SS 1729
endem 1729
gesammelt 1728
plätzen 1728
samkeit 1728
Bilanz 1727
fik@@ 1727
grund@@ 1727
stag 1727
Beste 1726
Profil 1726
angenehme 1726
gegenseitige 1726
here 1726
tlinie 1726
Haushaltsplans 1725
Konferenzen 1725
Thomas 1725
Zw@@ 1725
basierte 1725
basierten 1725
instrumente 1725
restaurant 1725
DER 1724
Tei@@ 1724
agi@@ 1724
auswärtige 1724
empfiehlt 1724
sexuellen 1724
voneinander 1724
würdige 1724
Burg 1723
Finanzmittel 1723
Port 1723
bedenken 1723
dien 1723
erläutern 1723
European 1722
Konkurrenz 1722
Muster 1721
falschen 1721
geld 1721
lehr@@ 1721
spätestens 1721
zielen 1721
erneuerbare 1720
stro@@ 1720
TO@@ 1719
tnissen 1719
gefäl@@ 1718
spartner 1718
Form@@ 1717
Hotelsafe 1717
Kooperations@@ 1717
nation@@ 1717
onien 1717
strenge 1717
Gesprächen 1716
Wirtschaf@@ 1716
ass 1716
EB@@ 1715
Heimatland 1715
begrenzte 1715
dam@@ 1715
ks@@ 1715
produkt 1715
rup@@ 1715
Konsultation 1714
Verantwortlichen 1714
geführte 1714
kontinuierlich 1714
kritische 1714
ähr@@ 1714
Bis@@ 1713
Prin@@ 1713
Reaktionen 1713
Vorsitzender 1713
zeu@@ 1713
Gewerkschaften 1712
TE 1712
blo@@ 1712
ever@@ 1712
nü@@ 1712
Eng@@ 1711
Fla@@ 1711
Fußball@@ 1711
Gute 1711
Linien 1711
frag@@ 1711
gering@@ 1711
verw@@ 1711
einzubeziehen 1710
Marina 1709
Mazedonien 1709
digte 1709
Ag@@ 1708
Betroffenen 1708
Garten@@ 1708
Gefängnis 1708
Kreativität 1708
angebotenen 1708
beträchtliche 1708
istisch 1708
zige 1708
Anbindung 1707
Governance 1707
Str@@ 1707
Vil@@ 1707
ranken 1707
runde 1707
Sar@@ 1706
Tö@@ 1706
aden@@ 1706
drucken 1706
teilten 1706
vielfältigen 1706
automatische 1705
flexible 1705
solide 1705
Kir@@ 1704
ots 1704
wäl@@ 1704
ernste 1703
voran 1703
wunderschöne 1703
Ant@@ 1702
Branchen 1702
Koordin@@ 1702
Portal 1702
landschaft 1702
reib@@ 1702
will@@ 1702
Aktualisierung 1701
Fel@@ 1701
Renten@@ 1701
umfassen@@ 1701
Adressen 1700
B5 1700
Konfiguration 1700
Ratsvorsitzes 1700
ausstattung 1700
geladen 1700
blieb 1699
trennen 1699
verbesserte 1699
bahnen 1698
fügt 1698
Gewal@@ 1697
Scho@@ 1697
getötet 1697
Anhang 1696
Litauen 1696
geo@@ 1696
hör@@ 1696
Messe@@ 1695
Nov@@ 1695
enswert 1695
fizi@@ 1695
flexi@@ 1695
had 1695
oni 1695
belie@@ 1694
breit 1694
dün@@ 1694
vorn 1694
wendungen 1694
lichste 1693
Out@@ 1692
Schwarz@@ 1692
gerech@@ 1692
Gestatten 1691
Krieg@@ 1691
Rahmenprogramm 1691
enttäuscht 1691
92 1690
Aktien 1690
reform 1690
Mes@@ 1689
Zinsen 1689
ine@@ 1689
leben@@ 1689
mithilfe 1689
schlechten 1689
Tür@@ 1688
emen 1688
Haar@@ 1687
Wild@@ 1687
berufliche 1687
kei@@ 1687
abhängi@@ 1686
tter 1686
Einschränkung 1685
tisches 1685
Dep@@ 1684
Laden 1684
Lebensqualität 1684
bewer@@ 1684
gewünscht 1684
einzuhalten 1683
fällig 1683
negativ 1683
Aufforderung 1682
Darin 1682
detaillierte 1682
multi@@ 1682
Ähn@@ 1682
Textil@@ 1681
ssen@@ 1681
versicherung 1681
Tsch@@ 1680
fisch@@ 1680
gelegene 1680
kurzfristig 1680
zog 1680
53 1679
Tim@@ 1679
Unterlagen 1679
dynam@@ 1679
mals 1679
pal@@ 1679
sichts@@ 1679
Adobe 1678
Erfolgs@@ 1678
amt 1678
Streit@@ 1677
avec 1677
normale 1677
problemlos 1677
EC 1676
alternative 1676
vorbehalten 1676
Innerhalb 1675
Maastricht 1675
Operation 1675
geholfen 1675
val@@ 1675
zusehen 1675
ältere 1675
Geschäften 1674
Randlage 1674
lle 1674
steuerung 1674
Bewegungen 1673
Früh@@ 1673
Schle@@ 1673
Schu@@ 1673
aktualisieren 1673
Palästina 1672
gebühr@@ 1672
geräten 1672
trans@@ 1672
Aktivität 1671
Techniken 1671
droht 1671
56 1670
71 1670
Absichten 1670
Scheitern 1670
Sound 1670
prozeß 1670
tigungs@@ 1670
zustellen 1669
Köln 1668
ologisch 1668
rad@@ 1668
siv@@ 1668
terer 1668
tiefe 1667
tnis@@ 1667
2.0 1666
Geben 1666
Royal 1666
Tempo 1666
ausgewählten 1666
gesetzte 1666
nern 1666
schnell@@ 1666
ös 1666
Güter@@ 1665
Kredite 1665
Training 1665
Will@@ 1665
ausgelöst 1665
geschlagen 1665
kel 1665
mess@@ 1665
pfung 1665
zel@@ 1665
Bewertungen 1664
Fle@@ 1664
Kla@@ 1664
Original 1664
keinesfalls 1664
konsolidi@@ 1664
teuer 1664
tigte 1664
ž@@ 1664
Gebühr 1663
IV 1663
Lebensmitteln 1663
gas@@ 1663
hef@@ 1663
hinaus@@ 1663
kostenfrei 1663
q@@ 1663
verwalten 1663
Wettbewer@@ 1662
aufgaben 1662
faire 1662
produzi@@ 1662
Kohärenz 1661
alisierte 1661
inger 1661
liert 1661
nieren 1661
orientiert 1661
sauber 1661
tot@@ 1660
Freiwil@@ 1659
Föderation 1659
alisierten 1659
glei@@ 1659
vis@@ 1659
wartet 1659
59 1658
Integrations@@ 1658
Marktwirtschaft 1658
kräften 1658
Medizin 1657
alleine 1657
gendes 1657
such@@ 1657
BO@@ 1656
Dre@@ 1656
Geräten 1656
Transaktionen 1656
Eigenschaft 1655
stag@@ 1655
5,@@ 1654
PSE 1654
brech@@ 1654
by@@ 1654
schläge 1654
Island 1653
mobile 1653
sport@@ 1653
üh@@ 1653
Auslegung 1652
Berichterstattern 1652
Diam@@ 1652
Einzelnen 1652
frucht@@ 1652
Charme 1651
Luf@@ 1651
Quoten 1651
ingt 1651
ruf 1651
stücke 1651
Gespräch 1650
Jugoslawien 1650
Neues 1650
Schnell@@ 1650
diger 1650
erläutert 1650
seri@@ 1650
tru@@ 1650
General@@ 1649
Wissens@@ 1649
fizierungs@@ 1649
kritisch 1649
Geschäft@@ 1648
wör@@ 1648
Kü@@ 1647
gän@@ 1647
stecken 1647
ökologische 1647
Wald 1646
empfin@@ 1646
herstellen 1646
industri@@ 1645
Alpen 1644
Sowjetunion 1644
Stamm@@ 1644
nutzbar 1644
ret@@ 1644
Gerichten 1643
Schil@@ 1643
Wort@@ 1643
dokum@@ 1643
Log@@ 1642
größe 1642
stärkeren 1642
ty@@ 1642
86 1641
Instrumenten 1641
J 1641
OT@@ 1641
Zwangs@@ 1641
halt@@ 1641
irgendwo 1641
teilgenommen 1641
Gemäß 1640
ausgewogenen 1640
bildungs@@ 1640
reale 1640
Migrations@@ 1639
Getränke 1638
Vermittlung 1638
beach@@ 1638
meldungen 1638
statten 1638
vierte 1638
Aqu@@ 1637
Clubs 1637
Entwicklungszusammenarbeit 1637
Jahrzehnte 1636
Kernkraft@@ 1636
Lieb@@ 1636
abzielen 1636
ora 1636
real 1636
vereinfachen 1636
örtlichen 1636
HT@@ 1635
Schlaf@@ 1635
achtet 1635
beschei@@ 1635
Komplettpreise 1634
Minibar 1634
Seg@@ 1634
Zahn@@ 1634
effektiver 1634
ont 1634
vermögen 1634
Ersatz@@ 1633
Gegenwart 1633
Sozialdemokraten 1633
ello 1633
änen 1633
0er 1632
Freuen 1632
Tschechischen 1632
gewählte 1632
irgendwelche 1632
name 1632
ologi@@ 1632
qualifizierten 1632
Flugzeuge 1631
Lager@@ 1631
Verstärkung 1631
endgültig 1631
räum@@ 1631
staat@@ 1631
Banken@@ 1630
EWG 1630
Gärten 1630
Herrschaft 1630
Innovations@@ 1630
Verkehr@@ 1630
atives 1630
atten 1630
kg 1630
teure 1630
CS 1629
Dienstleistung 1629
Indem 1629
Wetter 1629
führungen 1629
gebilligt 1629
let@@ 1629
Spe@@ 1628
Vertei@@ 1628
ablen 1628
feiern 1628
tation 1628
Wirk@@ 1627
bearbeitet 1627
englischen 1627
erischen 1627
mas 1627
ot 1627
status 1627
Гј@@ 1627
66 1626
German 1625
Opfern 1625
arische 1625
city 1625
erfolgte 1625
lehnen 1625
schluss 1625
übergeben 1625
Bergen 1624
begangen 1624
fenster 1624
fried@@ 1624
treff@@ 1624
· 1624
26@@ 1623
Kabel@@ 1623
esti@@ 1623
hil@@ 1623
üt@@ 1623
Foundation 1622
eingebunden 1622
mitgeteilt 1622
portugiesischen 1622
regierung 1622
verehrten 1622
verhandeln 1622
Lehre 1621
ausführen 1621
fehler@@ 1621
gefangen 1621
steigenden 1621
ves 1621
58 1620
aro@@ 1620
eigenem 1620
ton@@ 1620
änder@@ 1620
Stabilitäts- 1619
Umsatz 1619
durchgeführten 1619
einzelstaatlichen 1619
registriert 1619
zurückkehren 1619
UNG 1618
auszuüben 1618
griff 1618
klarer 1618
konzept 1618
vertre@@ 1618
1,5 1617
Budget 1617
Zimmerservice 1617
erre@@ 1617
fertigt 1617
Islam 1616
Zufriedenheit 1616
benden 1616
big 1616
Arbeiter 1615
Metall@@ 1615
Py@@ 1615
friedlichen 1615
hilfen 1615
kamp@@ 1615
Wen@@ 1614
wenigstens 1614
Erkenntnisse 1613
Lim@@ 1613
herauszu@@ 1613
vielsei@@ 1613
BR@@ 1612
Spre@@ 1612
eil 1612
els@@ 1612
ministerium 1612
Französisch 1611
gewachsen 1611
kunden@@ 1611
Fax 1610
Mitglieds@@ 1610
denselben 1610
e.@@ 1610
gesunden 1610
innov@@ 1610
prakti@@ 1610
publi@@ 1610
räu@@ 1610
Real@@ 1609
Rein@@ 1609
Schö@@ 1609
Weiterbildung 1609
befürworte 1609
niedriger 1609
schieben 1609
enne 1608
schlage 1608
Anwen@@ 1607
Legitimität 1607
bewertung 1607
entscheidet 1606
versehen 1606
zusammenzuarbeiten 1606
öff@@ 1606
Frühjahr 1605
Insel@@ 1605
Investition 1605
chtig 1605
gesellschaftliche 1605
gutem 1605
konfli@@ 1605
olo@@ 1605
sem@@ 1605
Bot@@ 1604
Inn@@ 1604
Mod@@ 1604
enorm 1604
genehmigt 1604
zten 1604
ürzt 1604
Sony 1603
pour 1603
Konstruktion 1602
Soweit 1602
Malta 1601
angefangen 1601
hand 1601
non 1601
währ@@ 1601
Dritter 1600
can@@ 1600
seiten 1600
Fehlen 1599
Mad@@ 1599
Nation@@ 1599
Partnerschaften 1599
University 1599
heim 1599
komplex 1599
trauri@@ 1599
Überwachungs@@ 1599
Kommissare 1598
Pension 1598
Zins@@ 1598
ez 1598
lichkeits@@ 1598
27. 1597
Bom@@ 1597
DA 1597
Kluft 1597
Professor 1597
analysieren 1597
beeinträchtigt 1597
erfahr@@ 1597
oberen 1597
passende 1597
ère 1597
Anweisungen 1596
Entschließungen 1596
angeschlossen 1596
ess 1596
rechn@@ 1596
6,@@ 1595
Niemand 1595
Wir@@ 1595
¼ 1595
Beobachter 1594
Glob@@ 1594
Organen 1594
jährliche 1594
dau@@ 1593
ero 1593
err@@ 1593
landes 1593
lässig@@ 1593
parallel 1593
werks 1593
Armuts@@ 1592
IP@@ 1592
Inneres 1592
Taiwan 1592
Vorsitzende 1592
Work@@ 1592
berechtigten 1592
free 1592
kehren 1592
niederländischen 1592
Christdemokraten 1591
konzipiert 1591
plat@@ 1591
Optimierung 1590
Unterhaltung 1590
büro 1590
disch 1590
ents 1590
geführten 1590
more 1590
Alltag 1589
Realisierung 1589
ausgesch@@ 1589
boden 1589
elemente 1589
oper@@ 1589
angelegt 1588
bereitung 1588
einzurichten 1588
Flugzeug 1587
Gesellschafts@@ 1587
Miet@@ 1587
einzel@@ 1587
ignorieren 1587
schlimmer 1587
AV@@ 1586
Check 1586
Cro@@ 1586
Mail@@ 1586
charakter@@ 1586
eingereichten 1586
steckt 1586
sämtlichen 1586
Beruf 1585
Bü@@ 1585
einzelner 1585
Empfänger 1584
Künstler@@ 1584
IR@@ 1583
Libyen 1583
Pflege 1583
asen 1583
pla@@ 1583
Es@@ 1582
Ferien 1582
Start@@ 1582
Effekte 1581
SE 1581
blu@@ 1581
namen 1581
Community 1580
Konflikts 1580
off@@ 1580
ran 1580
verstoßen 1580
zell@@ 1580
antrag 1579
durchsetzen 1579
Direk@@ 1578
izi@@ 1578
ration@@ 1578
Koordination 1577
Top@@ 1577
Zugangs 1577
agentur 1577
ail@@ 1577
nütz@@ 1577
tat 1577
AD 1575
Analysen 1575
AN 1574
Bin@@ 1574
Wikitravel 1574
beschreiben 1574
ehen 1574
fahrten 1574
netz@@ 1574
verwaltet 1574
weiterzu@@ 1574
ç@@ 1574
Hektar 1573
aufrechterhalten 1573
bezogene 1573
flug 1573
gegenseitig 1573
gegenüber@@ 1573
gerichtete 1573
längst 1573
Geschlechter 1572
interessieren 1572
Fri@@ 1571
Heiligen 1571
Rand 1571
rasche 1571
ñ@@ 1571
67 1570
Abstimmungen 1570
Brau@@ 1570
Ein- 1570
Marken@@ 1570
fach 1570
gewiss 1570
kan 1570
unterwegs 1570
ó 1570
Transfer 1569
kommens 1569
wachsen@@ 1569
wenigsten 1569
Weißbuch 1568
schützt 1568
57 1567
Aufnahmen 1567
Las 1567
Massage 1567
aufweisen 1567
wofür 1567
Bedingung 1566
Kul@@ 1566
japanischen 1566
para 1566
schaden 1566
stärkt 1566
Feier@@ 1565
Gesetzes 1565
Moskau 1565
bit 1565
digten 1565
gäbe 1565
ral 1565
sicherheits@@ 1565
sitz@@ 1565
wur@@ 1565
Beendigung 1564
Meister@@ 1564
ansonsten 1564
dri@@ 1564
effektiven 1564
gefasst 1564
konstruktiven 1564
realisieren 1564
reiben 1564
verankert 1564
Genuss 1563
Motto 1563
finanzieller 1563
id@@ 1563
samen 1563
Dol@@ 1562
Instruments 1562
Stad@@ 1562
Trends 1562
alitäten 1562
elen 1562
Bezahlung 1561
Grundfreiheiten 1561
OL@@ 1561
Slowenien 1561
Verzögerungen 1561
Vorwand 1561
dig@@ 1561
eleg@@ 1561
ih@@ 1561
schungen 1561
türkische 1561
chter@@ 1560
ani 1559
hersteller 1559
information 1559
müsse 1559
Kirchen 1558
Kommissionsvorschlag 1558
Vizepräsident 1558
finanziell 1558
igten 1558
xe 1558
ypen 1558
Desktop 1557
LE 1557
Tunesien 1557
agieren 1557
blatt 1557
einziges 1557
wichti@@ 1557
Diensten 1556
Zugleich 1556
begleiten 1556
namens 1556
Anhänger 1555
beider 1555
händler 1555
Defizite 1554
Stattdessen 1554
komp@@ 1554
still@@ 1554
Puerto 1553
Textes 1553
errichten 1553
süd@@ 1553
typ@@ 1553
vorsichtig 1553
ärm@@ 1553
Arbeitsweise 1552
Tatsachen 1552
alo@@ 1552
birgt 1552
interessen 1552
zigen 1552
Übersetzungs@@ 1552
Arbeitskräfte 1551
IB@@ 1551
beseitigt 1551
getreten 1551
hä@@ 1551
internationales 1551
modernes 1551
monat@@ 1551
q 1551
traum 1551
vorherigen 1551
Gewinner 1550
Hof 1550
Transpor@@ 1550
eindrucks@@ 1550
parlamentarische 1550
posi@@ 1550
ron 1550
schulden 1550
bedauern 1549
gesell@@ 1549
krank@@ 1549
mern 1549
näh@@ 1549
Front 1548
Minister@@ 1548
Sy@@ 1548
t- 1548
zeigten 1548
Anregungen 1547
Referenz@@ 1547
agne 1547
schlechter 1547
ú@@ 1547
bungen 1546
kali@@ 1546
mar 1546
schn@@ 1546
Schatten 1545
aj@@ 1545
harte 1545
lock@@ 1545
verkauf 1545
Aktions@@ 1544
Albanien 1544
Kongres@@ 1544
Lich@@ 1544
Luftfahrt@@ 1544
irgendeiner 1544
zutiefst 1544
Afri@@ 1543
St 1543
Tourismus@@ 1543
breakfast 1543
kreis 1543
ska 1543
11.@@ 1542
IK@@ 1542
diensten 1542
probieren 1542
schein 1542
Aussichten 1541
bereitzustellen 1541
nord@@ 1541
richti@@ 1541
ständi@@ 1541
Rom@@ 1540
engagiert 1540
kommende 1540
tivi@@ 1540
überlegen 1540
Fragestunde 1539
Schwe@@ 1539
Vergnügen 1539
gige 1539
ströme 1539
üblich 1539
Leit@@ 1538
Vereinigung 1538
Verzögerung 1538
benannt 1538
mul@@ 1538
4,@@ 1537
erhö@@ 1537
gerichteten 1537
kultur 1537
mündliche 1537
vergleichen 1537
Beratungs@@ 1536
Designer 1536
Ereignissen 1536
intensi@@ 1536
verhandlungen 1536
Abenteuer 1535
Audio@@ 1535
Jahresbericht 1535
Rec@@ 1535
begrenzten 1535
Problem@@ 1534
Schlag@@ 1534
angehören 1534
freund@@ 1534
schwerer 1534
Eli@@ 1533
Perspektiven 1533
Rahmens 1533
hte 1533
riesige 1533
Air@@ 1532
Ausgleich 1532
Schne@@ 1532
entieren 1532
just 1532
Beweise 1531
Menschenhandel 1531
Palace 1531
Stock 1531
Süd 1531
gleicher 1531
neben@@ 1531
unde 1531
Danke 1530
Empfang 1530
Spielraum 1530
Standpunkte 1530
Wartung 1530
einig@@ 1530
erreichte 1530
ration 1530
vorherige 1530
work 1530
Corporate 1529
analy@@ 1529
burger 1529
füll@@ 1529
leiter 1529
Ernährung 1528
Kreuz@@ 1528
Ost 1528
Untersuchungs@@ 1528
ly@@ 1528
sprä@@ 1528
dlichkeit 1527
ulen 1527
vertra@@ 1527
Heil@@ 1526
Partei@@ 1526
Zusammenbruch 1526
elli@@ 1526
harmonisi@@ 1526
positionen 1526
Gelegenheiten 1525
geschäf@@ 1525
pft 1525
schnelles 1525
suche 1525
Beruf@@ 1524
Rande 1524
defizit 1524
landwirtschaftliche 1524
van@@ 1524
beitreten 1523
set@@ 1523
wünschenswert 1523
Pilot@@ 1522
gerechten 1522
mission 1522
niedrig 1522
tägliche 1522
verbrau@@ 1522
wirkungen 1522
zumal 1522
Tendenz 1521
unterstreicht 1521
äufe 1521
Effektivität 1520
bs@@ 1520
ffene 1520
88 1519
Integrität 1519
TS 1519
begreifen 1519
bezahl@@ 1519
bilder 1519
friedliche 1519
frist 1519
projek@@ 1519
Erd@@ 1518
Leid 1518
Parlamenten 1518
Administration 1517
Cou@@ 1517
anderswo 1517
behand@@ 1517
erworben 1517
Autoren 1516
Hinsichtlich 1516
dauerhafte 1516
fliegen 1516
fristig 1516
mie 1516
reine 1516
Binnenmarkts 1515
Erkenn@@ 1515
Finanziellen 1515
Mobile 1515
Vorbereitungen 1515
Halle 1514
Lösungs@@ 1514
Besonderheiten 1513
Frü@@ 1513
Vermögens@@ 1513
ungarischen 1513
unterhalten 1513
yl@@ 1513
Canon 1512
Life 1512
code 1512
familien@@ 1512
gab@@ 1512
klares 1512
streichen 1512
2015 1511
angeben 1511
bli@@ 1511
klu@@ 1511
kommerzielle 1511
schuldig 1511
Acht 1510
Ankündigung 1510
Manche 1510
ebene 1510
schaf@@ 1510
Abgesehen 1509
Moder@@ 1509
Zit@@ 1509
suite 1509
therapie 1509
zerstör@@ 1509
Informationsgesellschaft 1508
Galerie 1507
Pet@@ 1507
Vergleich@@ 1507
bene 1507
erh@@ 1507
reit@@ 1507
77 1506
Bett 1506
Fes@@ 1506
Rats@@ 1506
See@@ 1506
aufgehoben 1506
exklusiven 1506
fluss 1506
stechnik 1506
89 1505
AP@@ 1505
Dienst@@ 1505
Home 1505
chtigkeit 1505
dein 1505
erbar 1505
Gleichbehandlung 1503
MA 1503
Ran@@ 1503
haftet 1503
ni 1503
strafrech@@ 1503
© 1503
Einsch@@ 1502
ion 1502
stab@@ 1502
Ernennung 1501
Rit@@ 1501
bestens 1501
typische 1501
Reserve 1500
Stein 1500
betrag 1500
Archiv 1499
Energieversorgung 1499
Tun@@ 1499
View 1499
Virus 1499
ertem 1499
grüne 1499
schaftlichen 1499
Geschenk 1498
ermaßen 1498
hinzuweisen 1498
jahres@@ 1498
ose 1498
our@@ 1498
Trop@@ 1497
aket 1497
diskrimin@@ 1497
fizieren 1497
reiz@@ 1497
versetzt 1497
Konflikten 1496
belgischen 1496
gefällt 1496
halb@@ 1496
lück@@ 1496
mitzu@@ 1496
müßte 1496
Betriebssystem 1495
Implementierung 1495
jeweilige 1495
ulieren 1495
überwiegend 1495
Attraktionen 1494
Hochschul@@ 1494
Kin@@ 1494
Vorredner 1494
biologischen 1494
unterliegt 1494
Bisher 1493
Ehr@@ 1493
Gaza 1493
Präsidium 1493
Welthandelsorganisation 1493
Zü@@ 1493
füh@@ 1493
Breit@@ 1492
Flüchtlings@@ 1492
kompatibel 1492
löst 1492
satzes 1492
spruch 1492
taus@@ 1492
Abstand 1491
Büro@@ 1491
Christen 1491
We@@ 1491
gebrochen 1491
gewis@@ 1491
konto 1491
registrieren 1491
urs 1491
Entdecken 1490
Folglich 1490
Hilfen 1490
hiermit 1490
odi@@ 1490
verhältnisse 1490
SC@@ 1489
Stich@@ 1489
ekt 1489
vierten 1489
Comp@@ 1488
Karriere 1488
griechische 1488
hebt 1488
lam@@ 1488
vorkommen 1488
93 1487
Av@@ 1487
Pin@@ 1487
islamischen 1487
mod@@ 1487
projekten 1487
zwangsläufig 1487
Islam@@ 1486
sexuelle 1486
Doha 1485
sender 1485
stabile 1485
stischer 1485
Fahrzeug@@ 1484
deinen 1484
ix 1484
taten 1484
utz@@ 1484
Ech@@ 1483
Mehrwertsteuer 1483
Musi@@ 1483
abzielt 1483
aufwand 1483
ernden 1483
.org 1482
82 1482
frischen 1482
unkte 1482
Besitzer 1481
Tak@@ 1481
durchgesetzt 1481
ermitteln 1481
gipfel 1481
Übersetzungen 1481
Digital 1480
Gran@@ 1480
Jahrzehnt 1480
Servic@@ 1480
bricht 1480
ces 1480
vorangegangenen 1480
vorsch@@ 1480
weißen 1480
Content 1479
verständ@@ 1479
Ah@@ 1478
Berater 1478
Netzes 1478
OM@@ 1478
Ursprung 1478
amtierender 1478
anstreben 1478
leitet 1478
Anzeichen 1477
Gran 1477
Ner@@ 1477
aktivitäten 1477
aufeinander 1477
centre 1477
iere 1477
ruhiger 1477
waffen 1477
zerstören 1477
Billi@@ 1476
Flotte 1475
Ungleichheit 1475
glücklich 1475
nö@@ 1475
nützliche 1475
reguli@@ 1475
tiker 1475
vorschlägt 1475
EW@@ 1474
TI@@ 1474
finanzierung 1474
tags 1474
vermis@@ 1474
Betre@@ 1473
Mitwirkung 1473
anz@@ 1473
ensystem 1473
unmittelbaren 1473
zah@@ 1473
AR 1472
Team@@ 1472
fühlt 1472
wu@@ 1472
Abfälle 1471
Gebiet@@ 1471
kün@@ 1471
tätigkeit 1471
verschieben 1471
Ganzes 1470
spielte 1470
wozu 1470
Installations@@ 1469
diesmal 1469
glichkeit 1469
maß@@ 1469
rati@@ 1469
zahlreicher 1469
Flü@@ 1468
Gerä@@ 1468
Wahrscheinlichkeit 1468
bist 1468
natur@@ 1468
strah@@ 1468
Simbabwe 1467
inieren 1467
junger 1467
roman@@ 1467
Camp@@ 1466
Mallorca 1466
Pir@@ 1466
Reak@@ 1466
Schad@@ 1466
größtenteils 1466
otel 1466
parti@@ 1466
rou@@ 1466
Feuer 1465
Vermeidung 1465
bereitstellen 1465
geklärt 1465
hor@@ 1465
regen 1465
auseinander 1464
verbieten 1464
Unternehmen@@ 1463
inbegriffen 1463
62 1462
Besuchern 1462
Stahl 1462
Tit@@ 1462
ausgedrückt 1462
verknüpft 1462
hinein 1461
intensiven 1461
tausende 1461
ßer 1461
7,@@ 1460
Arbeitslosen@@ 1460
Aufrechterhaltung 1460
erw@@ 1460
Argentinien 1459
asiatischen 1459
gabe@@ 1459
live 1459
netze 1459
vorbe@@ 1459
Auseinandersetzung 1458
Baby@@ 1458
Berei@@ 1458
SAP 1458
denkt 1458
erbaut 1458
tes@@ 1458
Frage@@ 1457
Petitions@@ 1457
Sonn@@ 1457
museum 1457
zungen 1457
í 1457
Ursprungs@@ 1456
ema 1456
korrigieren 1456
potenti@@ 1456
Data 1455
Demokratien 1455
Fernseher 1455
Hit@@ 1455
SD@@ 1455
Seen 1455
jo 1455
schrieb 1455
test 1455
zeichnete 1455
Kön@@ 1454
Montage 1454
drück@@ 1454
gehörige 1454
schneiden 1454
XP 1453
arm@@ 1453
ausgewogene 1453
Entstehung 1452
eien 1452
gesunde 1452
klausel 1452
ssigen 1452
AIDS 1451
Dienstag 1451
Inhaber 1451
Nuklear@@ 1451
Umstrukturierung 1451
Verkäufer 1451
beu@@ 1451
idealen 1451
plant 1451
zuverlässig 1451
Atlan@@ 1450
Sim@@ 1450
Studium 1450
führender 1450
ttern 1450
Boot@@ 1449
Meg@@ 1449
erie 1449
uliert 1449
Aufruf 1448
Dringlichkeit 1448
Mont@@ 1448
Zielsetzung 1448
anzugehen 1448
ausgearbeitet 1448
personal 1448
ther 1448
Flüchtlingen 1447
PC@@ 1447
Sicherheitsrat 1447
altern@@ 1447
lohnt 1447
Cra@@ 1446
Mah@@ 1446
Oli@@ 1446
Playa 1446
Reichtum 1446
Zulassung 1446
Zusammen 1446
asp@@ 1446
besseres 1446
mente 1446
Wand@@ 1445
marktes 1445
veran@@ 1445
Budapest 1444
Hoh@@ 1444
Minderheiten@@ 1444
Territorium 1444
änder 1444
78 1443
Buchungs@@ 1443
Erreichen 1443
Mini 1443
ade@@ 1443
kro@@ 1443
mengen 1443
rägern 1443
umgekehrt 1443
zugs@@ 1443
GVO 1442
Kurse 1442
Nat@@ 1442
bedeutend 1442
chts@@ 1442
schöner 1442
weichen 1442
wesens 1442
üben 1442
Ele@@ 1441
Nachbarschaftspolitik 1441
bereichs 1441
besagt 1441
messe 1441
zeitraum 1441
Brief 1440
Dach 1440
Erste 1440
Genf 1440
Nacht@@ 1440
abel@@ 1440
ama 1440
kreu@@ 1440
objek@@ 1440
ume 1440
zukunfts@@ 1440
Öko@@ 1440
Zwecken 1439
nennt 1439
Linken 1438
Party 1438
Sha@@ 1438
Wit@@ 1438
ca@@ 1438
reduzi@@ 1438
strategien 1438
bewe@@ 1437
fertig@@ 1437
ille 1437
verleiht 1437
Annäherung 1436
BMW 1436
Infrastrukturen 1436
Rus@@ 1436
gegebenen 1436
Trennung 1435
bemerken 1435
nachzudenken 1435
umfassendes 1435
zukünftig 1435
Reich 1434
ganz@@ 1434
schmerz@@ 1434
sinn 1434
systematisch 1434
tung@@ 1434
Herr@@ 1433
analyse 1433
anstelle 1433
billi@@ 1433
verbesser@@ 1433
Flüge 1432
Metern 1432
Mittel- 1432
Ufer 1432
Zentralbanken 1432
ausgelegt 1432
bekräftigen 1432
deutlicher 1432
eff@@ 1432
herrliche 1432
lie 1432
maßgeb@@ 1432
App@@ 1431
Bedienung 1431
fundament@@ 1431
mali@@ 1431
verschoben 1431
Ali@@ 1430
Gleichheit 1430
Ostsee 1430
Solange 1430
analysiert 1430
verbot 1430
versuche 1430
Hügel 1429
Säule 1429
für@@ 1429
sitz 1429
verteilung 1429
AC 1428
Fast 1428
Stei@@ 1428
energie 1428
reibung 1428
Ausgang 1427
exklusive 1427
geltend 1427
gewöhnlich 1427
Angel@@ 1426
Behinderungen 1426
Nahrungsmittel 1426
Sicherheits- 1426
banken 1426
glück@@ 1426
längere 1426
verstärkten 1426
wahrnehmen 1426
zerti@@ 1426
Begriffe 1425
Ret@@ 1425
gebenen 1425
info 1425
Durchschnitt 1424
Indikatoren 1424
fehlende 1424
programmi@@ 1424
Inflations@@ 1423
Interessen@@ 1423
Taste 1423
bach 1423
dom@@ 1423
höh@@ 1423
investitionen 1423
schreit@@ 1423
wen 1423
ET 1422
Gau@@ 1422
Get@@ 1422
Res@@ 1422
Tickets 1422
ferenzen 1422
ßte 1422
Entspannen 1421
Informations- 1421
Karten@@ 1421
belegt 1421
fertigen 1421
Cli@@ 1420
Dum@@ 1420
Tennis@@ 1420
jo@@ 1420
Cha@@ 1419
Energies@@ 1419
Tibet 1419
aush@@ 1419
fahrzeugen 1419
sozusagen 1419
weisungen 1419
zö@@ 1419
Blut 1418
Gew@@ 1418
Pflanzen@@ 1418
cor@@ 1418
heu@@ 1418
indirekt 1418
orten 1418
schä@@ 1418
wick@@ 1418
Ausstellungen 1417
Est@@ 1417
Fristen 1417
Generalsekretär 1417
Leben@@ 1417
On@@ 1417
skosten 1417
verwand@@ 1417
vorrangig 1417
Kop@@ 1416
Mauer 1416
Südo@@ 1416
ela 1416
wis@@ 1416
deut@@ 1415
lieren 1415
mehrerer 1415
rig@@ 1415
Box 1414
Oliven@@ 1414
Statt 1414
Visa 1414
artige 1414
enter@@ 1414
gefolgt 1413
rö@@ 1413
Klassi@@ 1412
Elementen 1411
Key@@ 1411
Point 1411
Reihenfolge 1411
fünf@@ 1411
klassische 1411
moralische 1411
sle@@ 1411
SQL 1410
Ton 1410
irre@@ 1410
regelmäßigen 1410
reis@@ 1410
serv@@ 1410
stehe 1410
Datenbanken 1409
Ecke 1409
Ersatz 1409
Gefangenen 1409
Hard@@ 1409
Juden 1409
Lobby 1409
Meinungs@@ 1409
Nichtregierungsorganisationen 1409
Skla@@ 1409
Statistik 1409
betrug 1409
bung 1409
erb@@ 1409
komfortabel 1409
kompliziert 1409
unteren 1409
EVP 1408
Einwände 1408
Sper@@ 1408
Zug@@ 1408
kompletten 1408
Pr@@ 1407
Tar@@ 1407
Indonesien 1406
Unserer 1406
genauen 1406
sendet 1406
tions 1406
Flug 1405
gekauft 1405
sichti@@ 1405
verwirklicht 1405
Eigentümer 1404
Haushaltsjahr 1404
Kompromisse 1404
einzustellen 1404
ünde 1404
Arzt 1403
Person@@ 1403
Verantwortungs@@ 1403
kapit@@ 1403
koh@@ 1403
Frankreichs 1402
Komponente 1402
Leg@@ 1402
Wach@@ 1402
ico 1402
wohn@@ 1402
Internetseite 1401
Stütz@@ 1401
only 1401
prüfung 1401
schwedische 1401
verbindlich 1401
Geldpolitik 1400
Statut 1400
begab 1400
freiem 1400
kommission 1400
personenbezogenen 1400
Einheiten 1399
Kommentar 1399
Wahr@@ 1399
Wahrnehmung 1399
beglei@@ 1399
einbringen 1399
eingerichtete 1399
wirkung 1399
wäh@@ 1399
Board 1398
dreht 1398
llen 1398
stein@@ 1398
strasse 1398
vernünftigen 1398
Deb@@ 1397
HIV 1397
Stellenwert 1397
anspruchs@@ 1397
erlau@@ 1397
rahmens 1397
web@@ 1397
ès 1397
Dafürhalten 1396
Treiber 1396
cho@@ 1396
dunk@@ 1396
film 1396
reicher 1396
tigten 1396
verschiedensten 1396
ws 1396
Fahrrad@@ 1395
abgehalten 1395
einheit 1395
einheiten 1395
maß 1395
nei@@ 1395
wende 1395
Freie 1394
Schön@@ 1394
TH@@ 1394
Verhältnisse 1394
dauerhaften 1394
gesorgt 1394
igkeiten 1394
verwöhnen 1394
Fleisch@@ 1393
a.@@ 1393
abgesch@@ 1393
religiöse 1393
stet 1393
zin@@ 1393
Hans 1392
Impulse 1392
Wissen@@ 1392
gratis 1392
häusern 1392
iler 1392
schied@@ 1392
schönes 1392
tatsächliche 1392
Außengrenzen 1391
Passagi@@ 1391
Vorbild 1391
Währungen 1391
giert 1391
kommunistischen 1391
stoppen 1391
Entschädigung 1390
Mitgliedsstaaten 1390
beeinträchtigen 1390
herz@@ 1390
ies 1390
nah 1390
stätte 1390
technologie 1390
verglichen 1390
zulässig 1390
firmen 1389
ire 1389
koordinieren 1389
partner 1389
weitem 1389
kap@@ 1388
tin@@ 1388
vertei@@ 1388
Aufwand 1387
Café 1387
Ratspräsidenten 1387
Reden 1387
Tel 1387
Vista 1387
bedingt 1387
gebene 1387
jähriger 1387
lässigen 1387
versi@@ 1387
zugän@@ 1387
Diktatur 1386
Orts@@ 1386
beantragt 1386
dauerhaft 1386
gas 1386
Anreiz 1385
Befehl 1385
Ty@@ 1385
beding@@ 1385
kapital 1385
proz@@ 1385
vermu@@ 1385
verstän@@ 1385
Cu@@ 1384
Empfän@@ 1384
Event 1384
Open@@ 1384
Pau@@ 1384
dos 1384
io 1384
new 1384
Feld@@ 1383
Naturkatastrophen 1383
ams 1383
arte 1383
bürger@@ 1383
fes 1383
mangelnde 1383
ältesten 1383
63 1382
Apple 1382
Autonomie 1382
Inanspruchnahme 1382
Temperatur 1382
initi@@ 1382
starker 1382
verliert 1382
Breakfast 1381
Gefäng@@ 1381
Spek@@ 1381
Zut@@ 1381
aux 1381
chron@@ 1381
fern@@ 1381
haus@@ 1381
part 1381
xes 1381
Finanz- 1380
dänischen 1380
nehmer 1380
Automobilindustrie 1379
Cat@@ 1379
Hom@@ 1379
Pack 1379
Wiener 1379
chem@@ 1379
fair 1379
under 1379
verpflich@@ 1379
ville 1379
Bit 1378
Völkern 1378
dest@@ 1378
erhol@@ 1378
gelöscht 1378
übersetzt 1378
Chem@@ 1377
Sau@@ 1377
daten@@ 1377
industrielle 1377
ordnen 1377
punk@@ 1377
Augenmerk 1376
Reb@@ 1376
Service@@ 1376
fak@@ 1376
spre@@ 1376
wissenschaften 1376
Geschäftsbedingungen 1375
ersuchen 1375
lassung 1375
mobili@@ 1375
Kreis 1374
ous 1374
ständiger 1374
DC 1373
Studien@@ 1373
fließen 1373
tü@@ 1373
vorzuschlagen 1373
votes 1373
ze@@ 1373
ł@@ 1373
Anders 1372
korrekte 1372
94 1371
Mühe 1371
Vielmehr 1371
ance 1371
män@@ 1371
opp@@ 1371
stens 1371
Ander@@ 1370
Sozialpolitik 1370
Wasch@@ 1370
ehm@@ 1370
pp 1370
rem 1370
¶ 1370
Gemeinsam 1369
eingerichteten 1369
nördlichen 1369
schwäch@@ 1369
untereinander 1369
zeitlich 1369
Leidenschaft 1368
bauten 1368
begeistert 1368
gieren 1368
over 1368
veränder@@ 1368
Vermarktung 1367
iPhone 1367
max 1367
Neu 1366
Strasse 1366
Telekommunikations@@ 1366
Tschetschenien 1366
AK@@ 1365
Demokratisierung 1365
billigen 1365
gemeinschaftliche 1365
gerung 1365
gründlich 1365
welle 1365
wiederhole 1365
meister 1364
91 1363
Allgemeine 1363
Manchmal 1363
Migranten 1363
Panorama 1363
Rechtssicherheit 1363
Strah@@ 1363
aktiver 1363
breites 1363
deutscher 1363
geschätzt 1363
halb 1363
materialien 1363
standard 1363
uten 1363
zustand 1363
Bür@@ 1362
Ok@@ 1362
Sorgfalt 1362
Zinssätze 1362
any 1362
drin@@ 1362
faktor 1362
fasst 1362
geordneten 1362
reibungen 1362
voranzutreiben 1362
Bud@@ 1361
Mass@@ 1361
Mode 1361
Nachteil 1361
Unterhaltungs@@ 1361
allmählich 1361
lager 1361
onie 1361
weis 1361
ausgeübt 1360
ebung 1360
ellem 1360
gebühr 1360
geren 1360
geteilt 1360
niedri@@ 1360
Aufsicht 1359
Index 1359
Kathedrale 1359
Tisch@@ 1359
beantragen 1359
old 1359
Einfluß 1358
Schiffen 1358
Treib@@ 1358
Wurzeln 1358
ester@@ 1358
behindert 1357
din 1357
gelang 1357
Beobach@@ 1356
vit@@ 1356
übrig 1356
EX 1355
Erneuerung 1355
Gesamtheit 1355
König@@ 1354
beglückwünsche 1354
brauch 1354
pläne 1354
vorhaben 1354
Assi@@ 1353
Gesetzgebungs@@ 1353
Refer@@ 1353
anfangen 1353
anten@@ 1353
arbeiter 1353
dt 1353
fortzusetzen 1353
jahr@@ 1353
menü 1353
musik 1353
nice 1353
Gewährung 1352
Rio 1352
Stellungnahmen 1352
vielfältige 1352
Anmerkung 1351
Speicher 1351
hinzuzufügen 1351
igung 1351
rungen 1351
vorausgesetzt 1351
Gesetzen 1350
Samm@@ 1350
anbietet 1350
ausbildung 1350
belegen 1350
ffs 1350
fischen 1350
kurz@@ 1350
sek@@ 1350
Kompromiss@@ 1349
Marketing@@ 1349
On 1349
bewirkt 1349
board 1349
einmalige 1349
mol@@ 1349
pos@@ 1349
Folgendes 1348
einsetzt 1348
müh@@ 1348
strebt 1348
Not 1347
Quell@@ 1347
Wochen@@ 1347
bezogenen 1347
chemischen 1347
inische 1347
stör@@ 1347
transatlantischen 1347
verschwinden 1347
Rechtsan@@ 1346
fähiger 1346
quoten 1346
vorhandene 1346
vorne 1346
Aufträge 1345
Eintrag 1345
Material@@ 1345
beweist 1345
engagieren 1345
Ansätze 1344
Operationen 1344
Terror@@ 1344
Vorbehalte 1344
teilungen 1344
user 1344
Signale 1343
Solar@@ 1343
bul@@ 1343
dahingehend 1343
fache 1343
illi@@ 1343
symboli@@ 1343
Sie@@ 1342
abzulehnen 1342
begrenz@@ 1342
gleichzei@@ 1342
neueste 1342
normal 1342
ommen 1342
raums 1342
sters 1342
Features 1341
Grafiken 1341
Inf@@ 1341
Interess@@ 1341
oo@@ 1341
CHF 1340
Kopie 1340
einzigartig 1340
meter 1340
Berechnung 1339
Haf@@ 1339
Kanal 1339
befreien 1339
verträge 1339
Leistungsfähigkeit 1338
ST 1338
UND 1338
außergewöhnliche 1338
ehren 1338
kin@@ 1338
ori 1338
Ga@@ 1337
Wert@@ 1337
einzuleiten 1337
motivi@@ 1337
verhältnis 1337
Dienstes 1336
Einwohnern 1336
treibt 1336
81 1335
Unternehmer@@ 1335
bereitschaft 1335
dürften 1335
mittel- 1335
sozial 1335
start 1335
Schwimmbad 1334
besetzt 1334
meistens 1334
verbreiten 1334
vereinfacht 1334
ía 1334
Anim@@ 1333
Autorität 1333
Partnerschafts@@ 1333
Roll@@ 1333
Substanzen 1333
ble 1333
inf@@ 1333
revolution@@ 1333
städtischen 1333
zip 1333
Demokrati@@ 1332
Entwicklungspolitik 1332
IV@@ 1332
Immunität 1332
Norwegen 1332
Schwan@@ 1332
Touren 1332
erschein@@ 1332
festhalten 1332
otten 1332
Durchführungs@@ 1331
EM 1331
Formel 1331
Hierbei 1331
Hunger 1331
Kernenergie 1331
Konvents 1331
Königreichs 1331
Lad@@ 1331
Minder@@ 1331
brut@@ 1331
idealer 1331
quali@@ 1331
rischen 1331
69 1330
Konstruk@@ 1330
TA 1330
Ziels 1330
großartige 1330
tem@@ 1330
veröffentlichten 1330
ystem 1330
Dam@@ 1329
Foren 1329
Halbinsel 1329
derungen 1329
frühere 1329
gerer 1329
gesenkt 1329
multilateralen 1329
position@@ 1329
tie 1329
Anpassungen 1328
Gefan@@ 1328
Hoffnungen 1328
Maß@@ 1328
artig 1328
benötigten 1328
durchschnittlich 1328
gert 1328
Aro@@ 1327
Einbindung 1327
erreichten 1327
unterstrichen 1327
endete 1326
ling@@ 1326
mache 1326
vorzubereiten 1326
ALE 1325
Defizit 1325
PH@@ 1325
fuhren 1325
fünfzehn 1325
schaftliche 1325
veranstaltungen 1325
Impf@@ 1324
Onlin@@ 1324
Rock 1324
Städ@@ 1324
omp@@ 1324
ziehung 1324
Ausfahrt 1323
Funktions@@ 1323
Schmu@@ 1323
beliebten 1323
my@@ 1323
orte 1323
schar@@ 1323
Zuerst 1322
differenzi@@ 1322
erweiterte 1322
intern@@ 1322
letztes 1322
site 1322
73 1321
Einladung 1321
Instabilität 1321
Master 1321
Redezeit 1321
grös@@ 1321
Große 1320
Herberge 1320
Hierzu 1320
Industriepolitik 1320
MP3 1320
Nom@@ 1320
Whirlpool 1320
illegal 1320
optimalen 1320
Beachten 1319
Beitrittsverhandlungen 1319
Forst@@ 1319
James 1319
Komple@@ 1319
Mann@@ 1319
Wechsel 1319
schien 1319
61 1318
ises 1318
mo 1318
neo@@ 1318
ssige 1318
zivilen 1318
76 1317
Block@@ 1317
AT 1316
genügt 1316
inwieweit 1316
kus@@ 1316
Hab@@ 1315
Hon@@ 1315
Kle@@ 1315
Mehrere 1315
Piazza 1315
Sand 1315
Spuren 1315
angeführt 1315
bten 1315
enor@@ 1315
grundlage 1315
Landwirten 1314
Tat@@ 1314
Urheber@@ 1314
iche 1314
sieb@@ 1314
vorbereiten 1314
äden 1314
Jung@@ 1313
Kie@@ 1313
Verbrauch 1313
anlässlich 1313
imp@@ 1313
präz@@ 1313
zeichnungen 1313
Etik@@ 1312
Schlei@@ 1312
andau@@ 1312
ausmachen 1312
erinnen 1312
gg@@ 1312
unglaub@@ 1312
Aktiv@@ 1311
NO@@ 1311
Wunder 1311
inge 1311
kos 1311
verschärft 1311
Ärzte 1311
Moderne 1310
Siehe 1310
gericht 1310
grundlegend 1310
lem 1310
straßen 1310
tend 1310
untern@@ 1310
Benutzern 1309
Fußball 1309
Hongkong 1309
Nä@@ 1309
Streitkräfte 1309
ritt 1309
GR@@ 1308
Gegenstände 1308
Information@@ 1308
Meinungsäußerung 1308
Ol@@ 1308
heik@@ 1308
immerhin 1308
Temperaturen 1307
enswer@@ 1307
peri@@ 1307
zusammenzu@@ 1307
Bag@@ 1306
PRO@@ 1306
Voraus 1306
harten 1306
log 1306
sachen 1306
Anwendungsbereich 1305
DIE 1305
begrenzen 1305
ence 1305
entworfen 1305
mehrmals 1305
steigende 1305
verbin@@ 1305
wirksam@@ 1305
Ari@@ 1304
Griff 1304
Oper@@ 1304
Release 1304
Toleranz 1304
Zauber@@ 1304
bekämpft 1304
geschwindigkeit 1304
ständiges 1304
Architekten 1303
Logo 1303
einhei@@ 1303
forderungen 1303
gehend 1303
leichten 1303
sel 1303
siv 1303
stau@@ 1303
Domain 1302
Gesundheitswesen 1302
Golfplatz 1302
schaftlicher 1302
,000 1301
Artikels 1301
Green 1301
Luxus@@ 1301
abhängen 1301
bor@@ 1301
dacht 1301
häufiger 1301
reform@@ 1301
verbindliche 1301
Europäisches 1300
Orientierung 1300
entwickel@@ 1300
gesetzliche 1300
tels 1300
wandern 1300
Award 1299
Blo@@ 1299
Control 1299
Dir 1299
Rand@@ 1299
Sozialisten 1299
ausgebaut 1299
dur@@ 1299
erwar@@ 1299
geho@@ 1299
kö@@ 1299
preises 1299
schicht 1299
star 1299
New@@ 1298
Sem@@ 1298
Tochter 1298
UNESCO 1298
ary 1298
stechn@@ 1298
terten 1298
verzer@@ 1298
Anreise 1297
Ungleichheiten 1297
bte 1297
erkenn@@ 1297
format 1297
höchst@@ 1297
inne 1297
wirksamer 1297
Entschei@@ 1296
Swiss 1296
Fertigungs@@ 1295
Zahlreiche 1295
these 1295
unterhalb 1295
Freien 1294
Insofern 1294
abzuschließen 1294
akten 1294
angemessener 1294
kehr 1294
Beförderung 1293
bot@@ 1293
schätzt 1293
stabilen 1293
bedürfen 1292
betreibt 1292
diplomatischen 1292
hinterlassen 1292
iranischen 1292
lob@@ 1292
tors 1292
Bürgerrechte 1291
Chaos 1291
Real 1291
Schließung 1291
Strategi@@ 1291
Zugangs@@ 1291
ac 1291
ament 1291
anen 1291
fel 1291
gesetzlich 1291
lichung 1291
packen 1291
run@@ 1291
verbindung 1291
Fokus 1290
Konsumenten 1290
Zeitungen 1290
benachrichtigt 1290
gebrau@@ 1290
schaftlich 1290
schle@@ 1290
sensi@@ 1290
weitergegeben 1290
74 1289
Auswahl@@ 1289
Eintritt 1289
Pum@@ 1289
Rohstoff@@ 1289
Schiffs@@ 1289
ci 1289
drehen 1289
fis@@ 1289
kenntnisse 1289
stunden 1289
Diplom@@ 1288
Feuer@@ 1288
Gelände 1288
Moldau 1288
Nordkorea 1288
Variante 1288
abgeschafft 1288
besticht 1288
datum 1288
gäste 1288
malerischen 1288
tragenen 1288
9,@@ 1287
Dienststellen 1287
tner 1287
Tee 1286
Zustellbetten 1286
getestet 1286
manu@@ 1286
HD 1285
Saddam 1285
Szene 1285
esse 1285
traditionell 1285
vielfach 1285
zuverlässige 1285
Bou@@ 1284
Hostel 1284
Swimmingpool 1284
ausführliche 1284
füllt 1284
gio 1284
Katastrophen@@ 1283
Lobby@@ 1283
Zentren 1283
amerikanischer 1283
feier@@ 1283
Alp@@ 1282
Gay 1282
Prof@@ 1282
Prop@@ 1282
Thailand 1282
eur 1282
massive 1282
tags@@ 1282
Möchten 1281
Neuigkeiten 1281
Ruh@@ 1281
Stimmung 1281
aufweist 1281
berger 1281
flüsse 1281
kauf@@ 1281
lichere 1281
án 1281
EA 1280
Maßstab 1280
ausreichen 1280
Küchen@@ 1279
Schluß 1279
Schottland 1279
deutsch 1279
gratuliere 1279
versetzen 1279
Mol@@ 1278
Schlußfolgerungen 1278
Selb@@ 1278
Sämtliche 1278
Wohlbefinden 1278
abschließen 1278
bemerkt 1278
bers 1278
ffer 1278
fro@@ 1278
kompetenz 1278
union 1278
DO@@ 1277
Ganzen 1277
One 1277
Peking 1277
Schwar@@ 1277
blü@@ 1277
glicher 1277
preisen 1277
reck@@ 1277
Visum@@ 1276
diesbezüglichen 1276
wachen 1276
würdi@@ 1276
CDs 1275
Gegenwärtig 1275
ING 1275
UT@@ 1275
Verhinderung 1275
Weihnachts@@ 1275
amtierenden 1275
blockiert 1275
dynamischen 1275
gefühl 1275
trock@@ 1275
ßes 1275
Kup@@ 1274
Prü@@ 1274
Schreib@@ 1274
Versorgungs@@ 1274
anzen 1274
appen 1274
etzt 1274
gültigen 1274
rec@@ 1274
Bedrohungen 1273
Hindernis 1273
Patri@@ 1273
Verbündeten 1273
serklärung 1273
Schaf@@ 1272
abgestimm@@ 1272
ahr@@ 1272
brachten 1272
irgendeine 1272
mieten 1272
server 1272
Beispielsweise 1271
Bul@@ 1271
Dokument@@ 1271
Mailand 1271
ansch@@ 1271
ansä@@ 1271
inhal@@ 1271
Entscheidungsträger 1270
aben 1270
ektion 1270
heil@@ 1270
mensch@@ 1270
Maxim@@ 1269
anzuerkennen 1269
best 1269
Beibehaltung 1268
Fertigung 1268
Hunderte 1268
Hung@@ 1268
anmelden 1268
herrschenden 1268
meint 1268
verhandelt 1268
walt 1268
zur@@ 1268
Beträge 1267
Bla@@ 1267
Verbindungs@@ 1267
aria 1267
flüge 1267
geachtet 1267
startet 1267
Basis@@ 1266
Fischereiabkommen 1266
Folter 1266
Helsinki 1266
Komplexität 1266
Papier@@ 1266
Tot@@ 1266
cker@@ 1266
rich 1266
schulen 1266
unternehmer@@ 1266
zweck@@ 1266
Deine 1265
Gegebenheiten 1265
Pot@@ 1265
Zivilisation 1265
beunruhi@@ 1265
fang@@ 1265
koordiniert 1265
Übereinkunft 1265
äd@@ 1265
Endes 1264
Gesetz@@ 1264
Gültigkeit 1264
arme 1264
aufhören 1264
ausgehend 1264
beruf@@ 1264
bestraft 1264
niedrige 1264
vereinbarung 1264
verteilen 1264
Gemeinschaftsrecht 1263
Kohäsion 1263
Konvergenz 1263
alien 1263
amtierende 1263
ble@@ 1263
spür@@ 1263
Vertriebs@@ 1262
Zäh@@ 1262
atur 1262
konkre@@ 1262
ols 1262
regelungen 1262
schlimmsten 1262
späten 1262
system@@ 1262
träglich 1262
Bestrebungen 1261
Tipps 1261
kes 1261
wunderbare 1261
bedeutendsten 1260
eg 1260
runden 1260
worauf 1260
Überleben 1260
Alexander 1259
Netzwerke 1259
abwechslungs@@ 1259
ausgeben 1259
echter 1259
en.@@ 1259
global 1259
luxuriöse 1259
Gam@@ 1258
Stabilisierung 1258
ford 1258
Besteller 1257
Brem@@ 1257
Män@@ 1257
Ski 1257
bekanntesten 1257
erkennbar 1257
lon@@ 1257
äußer@@ 1257
IA@@ 1256
Vietnam 1256
alternativen 1256
eingeben 1256
tiefen 1256
verband 1256
Alkohol 1255
Copyright 1255
Kapitalismus 1255
Kriterium 1255
Passagiere 1255
Sortiment 1255
frisch 1255
gend@@ 1255
gü@@ 1255
krieg@@ 1255
schwan@@ 1255
versprochen 1255
Gedanke 1254
Gemüse 1254
Salzburg 1254
Uhr@@ 1254
Vertre@@ 1254
about 1254
büros 1254
dringen 1254
erschienen 1254
leiste 1254
mes@@ 1254
ränkten 1254
schweigen 1254
stützt 1254
Aufgaben@@ 1253
Diejenigen 1253
Hum@@ 1253
Pen@@ 1253
festgehalten 1253
glich@@ 1253
than 1253
Dich@@ 1252
Premium 1252
Stadtteil 1252
Säu@@ 1252
Unterstütz@@ 1252
Volkswirtschaft 1252
ausgewogen 1252
funk@@ 1252
herausge@@ 1252
mann@@ 1252
profitiert 1252
transpor@@ 1252
berau@@ 1251
lia 1251
Bir@@ 1250
Bonus 1250
CD@@ 1250
Kongo 1250
OECD 1250
berührt 1250
effizi@@ 1250
erfassen 1250
klarstellen 1250
nutzung 1250
regelmäßige 1250
wenngleich 1250
Energiever@@ 1249
Finanzielle 1249
Max 1249
Nutzungs@@ 1249
fft 1249
wechselt 1249
Fitness@@ 1248
IM 1248
Leu@@ 1248
einbeziehen 1248
luft@@ 1248
warmen 1248
Afrikas 1247
Executive 1247
Gleichwohl 1247
Kn@@ 1247
fungs@@ 1247
führend 1247
gezahlt 1247
latein@@ 1247
Direktor 1246
Nachteile 1246
OLAF 1246
Pfei@@ 1246
oria 1246
stahl 1246
strom 1246
Internation@@ 1245
Sierra 1245
persönlicher 1245
Dich 1244
High@@ 1244
Zeile 1244
schreiten 1244
Projektes 1243
energie@@ 1243
ong@@ 1243
situationen 1243
stechnologien 1243
40@@ 1242
American 1242
Aufklärung 1242
Früchte 1242
Listen 1242
Radio@@ 1242
aufre@@ 1242
hy@@ 1242
ost@@ 1242
rechnung 1242
Besu@@ 1241
ED 1241
Ern@@ 1241
Konsolidierung 1241
LT 1241
archi@@ 1241
laufende 1241
setzten 1241
Mitgliedsländer 1240
Ram@@ 1240
erneu@@ 1240
identifizieren 1240
kunst 1240
modelle 1240
stufen 1240
u.@@ 1240
verweist 1240
Finanzminister 1239
beachtet 1239
ce@@ 1239
Det@@ 1238
Risi@@ 1238
Sto@@ 1238
leidung 1238
verordnung 1238
Brü@@ 1237
Ganze 1237
HU 1237
Konzert 1237
Regulierungs@@ 1237
Schätzungen 1237
Zellen 1237
gemachten 1237
lusses 1237
schwarzen 1237
teres 1237
Betrach@@ 1236
Mich@@ 1236
inierten 1236
2,5 1235
87 1235
Charles 1235
LU@@ 1235
Parks 1235
massiven 1235
pragmati@@ 1235
sämtlicher 1235
westliche 1235
Applikationen 1234
Eink@@ 1234
Laser@@ 1234
Lun@@ 1234
gebrachten 1234
gehand@@ 1234
schaft@@ 1234
zweimal 1234
Akzeptanz 1233
Eisen@@ 1233
Entschließungsanträge 1233
Krimin@@ 1233
abzugeben 1233
bed 1233
erische 1233
europa@@ 1233
gehörte 1233
reiten 1233
Geschichten 1232
begriffen 1232
bekanntlich 1232
clean 1232
rom 1232
trenn@@ 1232
Amp@@ 1231
Autor@@ 1231
Infrastruktur@@ 1231
located 1231
passenden 1231
Ausschüssen 1230
Dörfer 1230
Km 1230
Sevilla 1230
bas@@ 1230
herrschen 1230
Edi@@ 1229
Griechenlands 1229
Minimum 1229
Palästinen@@ 1229
benutzer@@ 1229
extra 1229
vereinbaren 1229
Aff@@ 1228
Kindes 1228
Schwimm@@ 1228
authenti@@ 1228
schie@@ 1228
territorialen 1228
verlängert 1228
volumen 1228
Pack@@ 1227
aufrechtzuerhalten 1227
langjährige 1227
wertvollen 1227
zehn@@ 1227
Bay 1226
Darlehen 1226
Nachbarschaft 1226
Persön@@ 1226
Persönlichkeiten 1226
ausgenommen 1226
ausgestatteten 1226
gemä@@ 1226
optimieren 1226
schwach 1226
900 1225
Milch 1225
Siemens 1225
Stau@@ 1225
bewegungen 1225
herbei@@ 1225
spi@@ 1225
Dritt@@ 1224
Erkrankungen 1224
Fäl@@ 1224
Kohlen@@ 1224
element@@ 1224
gründe 1224
sache 1224
tiver 1224
zierten 1224
Abwicklung 1223
Begrenzung 1223
Erleben 1223
Monats 1223
Rechtsrahmen 1223
SM@@ 1223
Schlu@@ 1223
Versand@@ 1223
Vogel@@ 1223
Zeitalter 1223
drücke 1223
gezielt 1223
thal@@ 1223
vorzugehen 1223
Bauern@@ 1222
Besetzung 1222
Guide 1222
LAN 1222
Vorstand 1222
Wich@@ 1222
außer@@ 1222
erwarte 1222
ext 1222
gestrichen 1222
kle@@ 1222
tschechischen 1222
Che@@ 1221
Forscher 1221
Garan@@ 1221
Geburt 1221
Zubehör 1221
auftritt 1221
automatischen 1221
ball 1221
behindern 1221
perman@@ 1221
port 1221
zulegen 1221
zurückkommen 1221
Auflagen 1220
Rücken 1220
Wes@@ 1220
Wissens 1220
aufrufen 1220
ebt 1220
gerei@@ 1220
jenige 1220
konz@@ 1220
ord 1220
Asyl 1219
Begeisterung 1219
Herstellern 1219
Sofern 1219
drittens 1219
Bier 1218
Porto 1218
Room 1218
Sicherstellung 1218
Sozialpartner 1218
Ticket 1218
ausführ@@ 1218
nes 1218
widerspiegelt 1218
Italiens 1217
Main 1217
Schwerpunkte 1217
erweise 1217
vereinbar 1217
Ära 1217
DS@@ 1216
Plugin 1216
Wärme 1216
trieb 1216
EX@@ 1215
Echtzeit 1215
Entfer@@ 1215
Krä@@ 1215
Optim@@ 1215
Veranstaltungs@@ 1215
Zent@@ 1215
ehr 1215
gewaltige 1215
potenziellen 1215
tender 1215
überzeu@@ 1215
Š@@ 1215
Funktionsweise 1214
Joseph 1214
Level 1214
deli@@ 1214
reali@@ 1214
verlust 1214
vorgesehene 1214
Übermittlung 1214
Luftverkehrs@@ 1213
Security 1213
Thermal@@ 1213
Wäscheservice 1213
Zwischenzeit 1213
doppelt 1213
solidar@@ 1213
wirtschaf@@ 1213
Adri@@ 1212
Commerce 1212
Ed@@ 1212
KDE 1212
Störungen 1212
Versand 1212
Wetter@@ 1212
ambi@@ 1212
fertigung 1212
leh@@ 1212
ous@@ 1212
83 1211
Chinesen 1211
Festung 1211
Tem@@ 1211
Vorbe@@ 1211
XML 1211
basierend 1211
faktoren 1211
geisti@@ 1211
nähe 1211
übertrag@@ 1211
Ministerpräsidenten 1210
Phasen 1210
Super 1210
Zukunfts@@ 1210
acht@@ 1210
fru@@ 1210
sur@@ 1210
zuführen 1210
Überwindung 1210
Ess@@ 1209
Estland 1209
Künstlern 1209
Satelliten 1209
aly@@ 1209
erender 1209
fassten 1209
hunder@@ 1209
mah@@ 1209
stö@@ 1209
Bit@@ 1208
Erwerb 1208
Snow@@ 1208
kritisieren 1208
ständigkeit 1208
Arbeitszeit 1207
Kün@@ 1207
henden 1207
israelische 1207
leute 1207
optionen 1207
ungsh@@ 1207
zugreifen 1207
Birma 1206
Resultat 1206
Stuttgart 1206
ank 1206
gewal@@ 1206
ques 1206
schätz@@ 1206
Cho@@ 1205
Journ@@ 1205
Literatur 1205
Technologi@@ 1205
Wachstum@@ 1205
geeinigt 1205
höherer 1205
nd 1205
Airlines 1204
Explorer 1204
Fair@@ 1204
Patten 1204
Stan@@ 1204
Suchen 1204
unmittelbare 1204
Buchstaben 1203
außergewöhnlichen 1203
herrschaft 1203
herunter 1203
rung 1203
Der@@ 1202
Freizei@@ 1202
Jan@@ 1202
bilaterale 1202
hrt 1202
strukturellen 1202
zierte 1202
Brow@@ 1201
Egal 1201
Fitness 1201
Militär 1201
damaligen 1201
dynamische 1201
entlich 1201
imm@@ 1201
plä@@ 1201
setzungs@@ 1201
Bed@@ 1200
Mä@@ 1200
OSZE 1200
Zusagen 1200
genetisch 1200
grafischen 1200
Korea 1199
Räumen 1199
Segel@@ 1199
bereitgestellten 1199
ernannt 1199
irgendwann 1199
kampf 1199
va@@ 1199
Bemühen 1198
Central 1198
Institute 1198
Kanäle 1198
Verein 1198
dio@@ 1198
hochrangi@@ 1198
liz@@ 1198
unvergesslichen 1198
vers 1198
vollkomm@@ 1198
wuchs 1198
zuständige 1198
CE 1197
Chile 1197
Display 1197
Gremien 1197
Schnei@@ 1197
Sozialdemokratischen 1197
deb@@ 1197
della 1197
geschenkt 1197
lasten 1197
männ@@ 1197
widerspiegeln 1197
Bestände 1196
Kommissars 1196
Kompromiß 1196
Sieb@@ 1196
V. 1196
friendly 1196
han@@ 1196
legislativen 1196
signifikan@@ 1196
südlich 1196
Fabri@@ 1195
Pakt 1195
bestanden 1195
ination 1195
installi@@ 1195
kriti@@ 1195
saal 1195
Angebot@@ 1194
Basel 1194
Interventionen 1194
Klick 1194
geschlossene 1194
tum@@ 1194
Änderungs@@ 1194
Ach@@ 1193
Ul@@ 1193
Vermögen 1193
beihilfen 1193
ektor 1193
gesendet 1193
isse 1193
kaner 1193
loh@@ 1193
lös@@ 1193
sich@@ 1193
tivität 1193
übergreifende 1193
Fundament 1192
Quartal 1192
Umstellung 1192
aktivi@@ 1192
ausdrück@@ 1192
bestellt 1192
besu@@ 1192
dul@@ 1192
kü@@ 1192
lische 1192
Gewi@@ 1191
Mart@@ 1191
Stockholm 1191
beliebtesten 1191
ekten 1191
Übersch@@ 1191
Baum@@ 1190
Erstellen 1190
Folge@@ 1190
GA 1190
Kontinents 1190
Pfeiler 1190
aktionen 1190
fehler 1190
Past@@ 1189
Republi@@ 1189
bedaure 1189
gels 1189
höhe 1189
lans 1189
überdenken 1189
Nichts 1188
Olympischen 1188
Tagungs@@ 1188
Techni@@ 1188
bestände 1188
ow 1188
zügen 1188
fundi@@ 1187
gerte 1187
stam@@ 1187
verbundene 1187
è 1187
Appell 1186
Loch 1186
Rohstoffe 1186
Stränden 1186
gter 1186
halben 1186
tigungen 1186
Fahrzeugen 1185
Gastfreundschaft 1185
Michel 1185
Minde@@ 1185
Pharma@@ 1185
Saudi 1185
Spi@@ 1185
Währungsfonds 1185
artigen 1185
freundlicher 1185
mitglied 1185
partner@@ 1185
vorberei@@ 1185
ín 1185
überwälti@@ 1185
Delegationen 1184
Fak@@ 1184
facto 1184
gebnisse 1184
tagung 1184
Aufstockung 1183
Ebenfalls 1183
Einsparungen 1183
Ideal 1183
Ly@@ 1183
Nordirland 1183
Zusammenhalts 1183
formular 1183
kontra@@ 1183
ländischen 1183
mobilen 1183
nom@@ 1183
radio@@ 1183
zips 1183
Casa 1182
Netto@@ 1182
abschließ@@ 1182
dak@@ 1182
dorthin 1182
vernünf@@ 1182
GUE 1181
Mitbürger 1181
Mobil@@ 1181
Zus@@ 1181
ergänz@@ 1181
sendung 1181
DR@@ 1180
Erfassung 1180
Erkenntnis 1180
Kreatur 1180
Proz@@ 1180
Terror 1180
Zusammenfassung 1180
drängt 1180
geholt 1180
indischen 1180
läne 1180
Algerien 1179
Daraus 1179
Kommunikation@@ 1179
sk 1179
verdanken 1179
veröffentlichte 1179
84 1178
Balkan@@ 1178
Ero@@ 1178
Hypoth@@ 1178
Klaren 1178
Konservativen 1178
Sicht@@ 1178
Vel@@ 1178
acken 1178
bürgerliche 1178
einrichten 1178
formulieren 1178
geld@@ 1178
luss 1178
machung 1178
nen@@ 1178
selts@@ 1178
österreichische 1178
Blair 1177
Dest@@ 1177
Erhebung 1177
Freilassung 1177
Himm@@ 1177
Register 1177
anzusehen 1177
back 1177
eingang 1177
intelligente 1177
lief 1177
olog@@ 1177
seitdem 1177
verursachten 1177
zweif@@ 1177
Don@@ 1176
Firefox 1176
SK 1176
Verkehrsmittel 1176
Wiederein@@ 1176
Zoll 1176
achtung 1176
anstal@@ 1176
belieb@@ 1176
debatte 1176
diente 1176
kultureller 1176
stabili@@ 1176
zonen 1176
02@@ 1175
Les 1175
Löhne 1175
Rechn@@ 1175
abschluss 1175
ckte 1175
eta 1175
Bak@@ 1174
Einblick 1174
Heim@@ 1174
beobachtet 1174
gewalt@@ 1174
herunter@@ 1174
osteuropäischen 1174
scheinbar 1174
schwä@@ 1174
verantwortung 1174
Spielern 1173
Sudan 1173
Vari@@ 1173
digkeit 1173
diverse 1173
kopieren 1173
pflan@@ 1173
sichten 1173
verwandeln 1173
Höhepunkt 1172
Roman@@ 1172
Voraus@@ 1172
Zucker 1172
ammern 1172
gebor@@ 1172
gesundheits@@ 1172
jemanden 1172
mächtigen 1172
annehm@@ 1171
themen 1171
zierung 1171
AM 1170
Kalender 1170
Sou@@ 1170
doppel@@ 1170
durchschnittliche 1170
erzählt 1170
geneti@@ 1170
lagen@@ 1170
nahen 1170
Elite 1169
Politikern 1169
Sehen 1169
ecke 1169
freiwillig 1169
heb@@ 1169
350 1168
Anleger 1168
Engineering 1168
Flach@@ 1168
France 1168
Games 1168
Hintergrund@@ 1168
Karl 1168
Konzern 1168
Verbin@@ 1168
Verhaltenskodex 1168
Verpackung 1168
alter@@ 1168
enswerten 1168
förmi@@ 1168
geschützten 1168
grafische 1168
low 1168
schlim@@ 1168
sozio@@ 1168
town 1168
Hauptziel 1167
Subsidiaritätsprinzip 1167
TEN 1167
Verschlechterung 1167
Viertens 1167
erho@@ 1167
fot@@ 1167
markiert 1167
sts 1167
verteidigt 1167
wandeln 1167
zügi@@ 1167
Account 1166
Gemeinschaftsebene 1166
Interface 1166
Tag@@ 1166
abteilung 1166
beunruhigt 1166
erzielte 1166
fän@@ 1166
genommenen 1166
getroffenen 1166
gewöhnliche 1166
hoff@@ 1166
ott 1166
stärke 1166
Alpen@@ 1165
Fot@@ 1165
Rin@@ 1165
Sol 1165
ano@@ 1165
bewahrt 1165
gerin 1165
kapazität 1165
uneingeschränkte 1165
ê@@ 1165
ühle 1165
Aufstieg 1164
Intern@@ 1164
LA 1164
RSS 1164
Touristen@@ 1164
andel 1164
bus@@ 1164
bücher 1164
erzeugung 1164
selek@@ 1164
stisch 1164
transparente 1164
Lauf 1163
Schulz 1163
auto@@ 1163
klimati@@ 1163
kunft@@ 1163
problemen 1163
präsen@@ 1163
räger 1163
Kit@@ 1162
Techn@@ 1162
akzep@@ 1162
bon@@ 1162
ennen 1162
gedenkt 1162
hinnehmen 1162
moderni@@ 1162
nehm@@ 1162
offensich@@ 1162
rump@@ 1162
skep@@ 1162
ös@@ 1162
Bestimm@@ 1161
Exporte 1161
Fremden@@ 1161
Internetseiten 1161
Kameras 1161
Kühl@@ 1161
Norm 1161
Sili@@ 1161
Subjek@@ 1161
erschien 1161
great 1161
nisch 1161
positives 1161
schaff@@ 1161
struk@@ 1161
79 1160
Glo@@ 1160
Il@@ 1160
Lizenzen 1160
Rechtsprechung 1160
SY@@ 1160
Studios 1160
gewähr@@ 1160
obgleich 1160
pap@@ 1160
statt@@ 1160
Arbeiter@@ 1159
Metro@@ 1159
appelliere 1159
berühmt 1159
einhalb 1159
flexiblen 1159
pflegen 1159
sidenten 1159
Grö@@ 1158
Hy@@ 1158
Schwächen 1158
deckung 1158
fizierten 1158
hochwer@@ 1158
kus 1158
Erdbeben 1157
Jahrestag 1157
Pak@@ 1157
Schritten 1157
Teilnehmern 1157
Termine 1157
Unregelmäßigkeiten 1157
Warnung 1157
beliebt 1157
möglicher 1157
su 1157
vorherseh@@ 1157
But@@ 1156
GPS 1156
Main@@ 1156
Obst 1156
brin@@ 1156
cken@@ 1156
ehrgeizige 1156
verlängern 1156
zugang 1156
Einleitung 1155
Gesichtspunkt 1155
SU@@ 1155
Ungleich@@ 1155
biologische 1155
direkter 1155
hl 1155
sichtlich 1155
ust 1155
Standorten 1154
Up@@ 1154
berechti@@ 1154
demselben 1154
fläch@@ 1154
stellvertre@@ 1154
Allein 1153
Landschaften 1153
PP@@ 1153
Prof. 1153
Spor@@ 1153
ausgeprä@@ 1153
card 1153
luß@@ 1153
univers@@ 1153
Befürchtungen 1152
Konferenz- 1152
Meer@@ 1152
Spekul@@ 1152
Sun@@ 1152
atte 1152
oms 1152
servi@@ 1152
Biokraft@@ 1151
Esp@@ 1151
Kolumbien 1151
gewahrt 1151
privater 1151
trag 1151
v. 1151
Chin@@ 1150
Nutzern 1150
Route 1150
Stil@@ 1150
Workshops 1150
bige 1150
erbringen 1150
jün@@ 1150
problematisch 1150
Bundesrepublik 1149
Gegenden 1149
annten 1149
atik 1149
ruf@@ 1149
Ansprechpartner 1148
Nigeria 1148
agt 1148
esi@@ 1148
polizei@@ 1148
saison 1148
schwarz 1148
â@@ 1148
Bewer@@ 1147
Blue 1147
Interpretation 1147
Run@@ 1147
Warcraft 1147
aufkommen 1147
betragen 1147
legten 1147
Antrieb@@ 1146
Auslands@@ 1146
Beschränkung 1146
Poker@@ 1146
ausgebil@@ 1146
elf 1146
fehl@@ 1146
kümmert 1146
в@@ 1146
Erwachsenen 1145
Fax- 1145
Nero 1145
Tagungen 1145
ami 1145
aufgegriffen 1145
entziehen 1145
oc@@ 1145
parks 1145
streiten 1145
Freizeit 1144
Gor@@ 1144
abel 1144
ación 1144
geber@@ 1144
lieferungen 1144
ßten 1144
äum@@ 1144
Ashton 1143
Datent@@ 1143
Friendly 1143
Square 1143
anerkannten 1143
belastet 1143
kas 1143
kenne 1143
touristischen 1143
wärts 1143
.- 1142
Fülle 1142
Mark 1142
Protektionismus 1142
aufgeben 1142
derte 1142
politi@@ 1142
veranlassen 1142
verschlüssel@@ 1142
Kurs@@ 1141
Lebensbedingungen 1141
Stabilitätspakt 1141
beugen 1141
bil 1141
irgendwie 1141
Chemikalien 1140
Kohäsionsfonds 1140
Nikon 1140
Richard 1140
einräumen 1140
entsp@@ 1140
geschnitten 1140
gewann 1140
wertet 1140
Eleganz 1139
Logistik 1139
Offizi@@ 1139
ausgewählte 1139
besi@@ 1139
spieler 1139
tigsten 1139
würfe 1139
Audi@@ 1138
Bed 1138
Fischer@@ 1138
Gesetzgeber 1138
Rab@@ 1138
Rü@@ 1138
Sammel@@ 1138
Stadium 1138
ange 1138
eventuelle 1138
größ@@ 1138
shi@@ 1138
sia 1138
verletz@@ 1138
wahrgenommen 1138
don 1137
lic@@ 1137
Davon 1136
GO 1136
Inzwischen 1136
Kriege 1136
einlad@@ 1136
kommunizieren 1136
offenkundig 1136
Erleichterung 1135
Fas@@ 1135
Regierung@@ 1135
Verstöße 1135
gefahren 1135
super 1135
Kali@@ 1134
Masse 1134
Mitentscheidung 1134
Nationalpark 1134
einschlägigen 1134
rang 1134
renovierte 1134
schwachen 1134
wachstum 1134
Schlacht@@ 1133
extremen 1133
hervorzuheben 1133
schriftlichen 1133
wissens@@ 1133
ürz@@ 1133
Flächen 1132
Inform@@ 1132
Pfer@@ 1132
Privatisierung 1132
attraktive 1132
bungs@@ 1132
eo 1132
gemeint 1132
og@@ 1132
ppt 1132
tic@@ 1132
vergabe 1132
verkauf@@ 1132
130 1131
5.000 1131
ALDE 1131
Doppelbett 1131
EIB 1131
Erzeugnissen 1131
Erziehung 1131
Job 1131
Korrektur 1131
Lettland 1131
Maus@@ 1131
besorgniserre@@ 1131
wiederherzustellen 1131
Angehörigen 1130
Gemü@@ 1130
Glücks@@ 1130
Spanisch 1130
URL 1130
Verhältnis@@ 1130
Vorsicht 1130
läufigen 1130
rassi@@ 1130
BA 1129
DEN 1129
Funk@@ 1129
Interview 1129
Jahrhunderte 1129
Werde 1129
Zertifizierung 1129
ausgegangen 1129
dei 1129
denkbar 1129
eds 1129
möge 1129
ney 1129
ultur 1129
Ball@@ 1128
By@@ 1128
Gutes 1128
Haushaltsausschusses 1128
Kürzungen 1128
Quadrat@@ 1128
Spon@@ 1128
Streben 1128
berechtigte 1128
oberste 1128
packt 1128
Allgemein@@ 1127
Demokratischen 1127
Erweiterungen 1127
Möbel 1127
ank@@ 1127
merken 1127
qm 1127
tigkeits@@ 1127
ungsphase 1127
Aufteilung 1126
Gewässern 1126
Solana 1126
beheben 1126
derartiger 1126
etten@@ 1126
ftung 1126
ihrerseits 1126
juristischen 1126
ov 1126
prin@@ 1126
prozessen 1126
Rollen 1125
Wohlergehen 1125
befürchten 1125
erfahrenen 1125
sh 1125
vergleichbar 1125
Dienstleistungsrichtlinie 1124
Kamp@@ 1124
Nokia 1124
Sat 1124
antiken 1124
aufhalten 1124
autonom@@ 1124
demnächst 1124
forum 1124
medien 1124
transeuropäischen 1124
wissenschaftlich 1124
Artikeln 1123
Aufstellung 1123
FI 1123
Herzegowina 1123
Hir@@ 1123
Richtigkeit 1123
fürchte 1123
menden 1123
ologen 1123
schwe@@ 1123
schö@@ 1123
versprechen 1123
zin 1123
überra@@ 1123
Angeboten 1122
Meister 1122
Rep@@ 1122
anne 1122
Akteuren 1121
Formul@@ 1121
Gestalt 1121
Renten 1121
Verpackungs@@ 1121
anscheinend 1121
gefährlicher 1121
hang 1121
op 1121
vertrags 1121
zte 1121
Friedensprozess 1120
Geschlech@@ 1120
Institu@@ 1120
Rou@@ 1120
asien 1120
eigent@@ 1120
frische 1120
ppen@@ 1120
schrecklichen 1120
Pfad 1119
Verurteilung 1119
hinausgehen 1119
orts 1119
Digital@@ 1118
Kaiser 1118
Music 1118
Preises 1118
ausschließ@@ 1118
bearbeitung 1118
ehl 1118
gewaltigen 1118
os@@ 1118
rot 1118
verkün@@ 1118
wahlen 1118
Arena 1117
Genfer 1117
Kanz@@ 1117
School 1117
erbare 1117
8,@@ 1116
Schriftliche 1116
Spann@@ 1116
Straß@@ 1116
Vertrauens@@ 1116
Zahl@@ 1116
ando 1116
ausgestellt 1116
erzeugnisse 1116
fizierte 1116
korrigiert 1116
vorüber@@ 1116
Kleidung 1115
Verheugen 1115
ager 1115
diversen 1115
olle 1115
phase 1115
pole 1115
unternimmt 1115
Zuliefer@@ 1114
elli 1114
ermittelt 1114
ermutigt 1114
fi 1114
gangen 1114
linge 1114
ordnungen 1114
tari@@ 1114
terie 1114
völ@@ 1114
Anzeigen 1113
Schal@@ 1113
Strafe 1113
abstimmung 1113
arbeitenden 1113
dru@@ 1113
gesetzgebung 1113
herbeizuführen 1113
keits@@ 1113
liberale 1113
mutz@@ 1113
pflanzen 1113
voranzubringen 1113
180 1112
Anstatt 1112
Bandbreite 1112
Côte 1112
Evaluierung 1112
Genauigkeit 1112
Play@@ 1112
Reichweite 1112
Schuld@@ 1112
Veranstaltungsräume 1112
affen 1112
antwortet 1112
aut@@ 1112
licht@@ 1112
lierung 1112
schlicht 1112
sensiblen 1112
Ann@@ 1111
Bruder 1111
Len@@ 1111
Mitgliedstaates 1111
ehrgeizigen 1111
hielten 1111
konstruk@@ 1111
optimiert 1111
there 1111
täu@@ 1111
unterschied@@ 1111
Kontra@@ 1110
Network 1110
OK 1110
Zentrums 1110
agenturen 1110
aufgeführten 1110
beauftragt 1110
befreit 1110
konkreter 1110
kreative 1110
manager 1110
ras 1110
Ausstellungs@@ 1109
Gerne 1109
außen@@ 1109
belastung 1109
ät 1109
Alkohol@@ 1108
Aufbau@@ 1108
Rä@@ 1108
Therap@@ 1108
Wikicars 1108
abzustimmen 1108
beratung 1108
enttäu@@ 1108
erhöhte 1108
Benz@@ 1107
Botschaften 1107
Klausel 1107
Kühlschrank 1107
Menü@@ 1107
Theater@@ 1107
Verw@@ 1107
ausgeliefert 1107
dnis 1107
erhebt 1107
ethnische 1107
sn@@ 1107
strecke 1107
110 1106
Organ 1106
RE 1106
Schaden@@ 1106
Schie@@ 1106
aufrecht 1106
dan 1106
flicht 1106
konvention 1106
modernsten 1106
zel 1106
ür 1106
Auftraggeber 1105
Darauf 1105
PK@@ 1105
Pazi@@ 1105
Stro@@ 1105
arch@@ 1105
ernsten 1105
etabli@@ 1105
ferenz 1105
fig@@ 1105
gewöhnlichen 1105
handels 1105
künfte 1105
verfassungs@@ 1105
Franzosen 1104
Hochschulen 1104
föder@@ 1104
house 1104
islam@@ 1104
last@@ 1104
stable 1104
tener 1104
willigen 1104
Armen@@ 1103
Nachfolger 1103
cos 1103
geräumigen 1103
icht@@ 1103
rolle 1103
therapeu@@ 1103
Einmischung 1102
Entdeckung 1102
ann 1102
arisierung 1102
begeben 1102
close 1102
out@@ 1102
saubere 1102
angen 1101
bat@@ 1101
beeindruck@@ 1101
nachkommen 1101
slowak@@ 1101
tran@@ 1101
zeile 1101
Eck@@ 1100
Genehm@@ 1100
Konzerte 1100
Meilen 1100
Potential 1100
Reparatur 1100
Tut@@ 1100
Zutaten 1100
adresse 1100
anspruchsvolle 1100
architekton@@ 1100
aten@@ 1100
bör@@ 1100
einnahmen 1100
erheb@@ 1100
lität 1100
länge 1100
nit@@ 1100
reiches 1100
verläss@@ 1100
virtuellen 1100
weis@@ 1100
Behandlungen 1099
Fischler 1099
Gleiche 1099
Milliarde 1099
Rem@@ 1099
Tabellen 1099
Technology 1099
Vorsorge@@ 1099
ables 1099
betreffende 1099
don@@ 1099
geschah 1099
geschul@@ 1099
gischen 1099
lass 1099
traf 1099
zimmern 1099
Belastungen 1098
Datens@@ 1098
Gesundheitsversorgung 1098
Jur@@ 1098
Pestizi@@ 1098
Residence 1098
Vier 1098
d.@@ 1098
dichte 1098
ernde 1098
Medizin@@ 1097
NE@@ 1097
Rettungs@@ 1097
Tochter@@ 1097
abgedeckt 1097
ahl 1097
entscheidungen 1097
seg@@ 1097
traums 1097
zeugt 1097
с@@ 1097
Bab@@ 1096
Maus 1096
Ven@@ 1096
Werken 1096
christlichen 1096
familie 1096
ics 1096
illa 1096
Direkt 1095
Klärung 1095
Sports 1095
Vorgang 1095
belast@@ 1095
definitiv 1095
esenen 1095
и@@ 1095
Fotokopiereinrichtungen 1094
Louis 1094
Schwellen@@ 1094
Zigare@@ 1094
ages 1094
bewundern 1094
entsprechender 1094
folgendes 1094
gehalt 1094
laufend 1094
like 1094
60@@ 1093
Erwärmung 1093
Kohle 1093
Schienen@@ 1093
abhängt 1093
erung@@ 1093
fut@@ 1093
koordini@@ 1093
nachfolgenden 1093
view 1093
Bedauern 1092
Einerseits 1092
Erwägungen 1092
Wohl 1092
anmerken 1092
anwendungen 1092
platten 1092
versorgen 1092
ähnlicher 1092
Dür@@ 1091
Geschäftsführer 1091
Plattformen 1091
Publikationen 1091
Schuh@@ 1091
exakt 1091
gestal@@ 1091
gründet 1091
pass 1091
privilegi@@ 1091
stungen 1091
ées 1091
Experim@@ 1090
Fest 1090
Shops 1090
deu@@ 1090
historisch 1090
künstlerischen 1090
nachtei@@ 1090
nächstes 1090
sitzung 1090
spit@@ 1090
team 1090
thaus 1090
Behauptung 1089
ansprüche 1089
artiges 1089
auseinander@@ 1089
blicke 1089
comfortable 1089
gesetze 1089
par 1089
pas@@ 1089
verknü@@ 1089
Ausbruch 1088
Ausgewogenheit 1088
CON@@ 1088
Informationsschalter 1088
Parti@@ 1088
Sin@@ 1088
Wollen 1088
grenzt 1088
mittelständi@@ 1088
obliegt 1088
Beantwortung 1087
Galileo 1087
Gewer@@ 1087
Time 1087
berg@@ 1087
beschleunigt 1087
echt 1087
fa 1087
perfek@@ 1087
plung 1087
zusätzlicher 1087
Eigentums 1086
Hyper@@ 1086
Müller 1086
Nachrichten@@ 1086
Null 1086
Pic@@ 1086
Stoffen 1086
Vergabe 1086
angehört 1086
cre@@ 1086
übertragung 1086
CE@@ 1085
Haushaltskontrolle 1085
Kämp@@ 1085
Spiels 1085
abends 1085
alist 1085
ario 1085
beizu@@ 1085
iss@@ 1085
schaftsp@@ 1085
seinerzeit 1085
unglück@@ 1085
verweigert 1085
ön 1085
Chef 1084
Cy@@ 1084
Klim@@ 1084
NGL 1084
Trä@@ 1084
dachten 1084
fran@@ 1084
getre@@ 1084
richtlinien 1084
wissenschaftlicher 1084
Anlage@@ 1083
Berat@@ 1083
Jan 1083
Klassen 1083
Symbole 1083
afri@@ 1083
attraktiven 1083
bestrebt 1083
unweit 1083
ura 1083
wunderbaren 1083
zurufen 1083
zusammenhän@@ 1083
Ansehen 1082
bot 1082
überwachung 1082
Abend@@ 1081
Heu@@ 1081
Periode 1081
ahn 1081
arbeitungs@@ 1081
enswerte 1081
lieferung 1081
pflicht 1081
verbesserten 1081
veränderten 1081
Bewegungs@@ 1080
Bewirtschaftung 1080
Charakter@@ 1080
Dok@@ 1080
Energiem@@ 1080
Konz@@ 1080
Meinungsfreiheit 1080
Wortlaut 1080
jahres 1080
roten 1080
versammlung 1080
währung 1080
Gö@@ 1079
Lat@@ 1079
Sound@@ 1079
existi@@ 1079
yp 1079
zügig 1079
80@@ 1078
Ira@@ 1078
Lande 1078
Teils 1078
behei@@ 1078
besser@@ 1078
schwi@@ 1078
tom@@ 1078
zwecken 1078
Bestreben 1077
aci@@ 1077
ao 1077
arischen 1077
lehnt 1077
stim@@ 1077
unterstützten 1077
nein 1076
prü@@ 1076
von@@ 1076
äter 1076
Ay@@ 1075
Az@@ 1075
Hinzu 1075
Kompetenz@@ 1075
demokrati@@ 1075
gendsten 1075
griffe 1075
komplizierten 1075
pak@@ 1075
repräsentiert 1075
robu@@ 1075
Befreiung 1074
Button 1074
Fli@@ 1074
Jahre@@ 1074
Paradies 1074
Prüfungen 1074
Single 1074
Therapie 1074
exportieren 1074
freundliches 1074
luß 1074
läßlich 1074
positiver 1074
Bun@@ 1073
Texten 1073
Valencia 1073
antwor@@ 1073
aster 1073
bedeutender 1073
gesu@@ 1073
span@@ 1073
teilnehmenden 1073
versichert 1073
zir@@ 1073
G20 1072
Schwäche 1072
aran@@ 1072
geehrter 1072
Handhabung 1071
Verwand@@ 1071
bedient 1071
bekam 1071
entnehmen 1071
erhielten 1071
imstande 1071
org@@ 1071
palästinensische 1071
rek@@ 1071
sky 1071
terte 1071
Auswirkung 1070
Autovermietung 1070
Einigkeit 1070
Fron@@ 1070
Instanz 1070
Kommunismus 1070
Viren 1070
lässig 1070
siedlung 1070
zip@@ 1070
ökonom@@ 1070
Campingplatz 1069
Ergän@@ 1069
Ideologie 1069
PE 1069
Themas 1069
anony@@ 1069
englische 1069
gal@@ 1069
repräsent@@ 1069
umfassender 1069
ô@@ 1069
Breite 1068
Ferienhaus 1068
Kunststoff@@ 1068
Parlamentarier 1068
Still@@ 1068
Taxi 1068
Versicherung 1068
akte 1068
heruntergeladen 1068
hotels 1068
nä@@ 1068
Rezep@@ 1067
Schwanger@@ 1067
Unions@@ 1067
Vulkan@@ 1067
erneuerbarer 1067
holt 1067
interven@@ 1067
turel@@ 1067
verlang@@ 1067
visu@@ 1067
Ansprüchen 1066
Bevölkerungsgruppen 1066
Space 1066
Strecken 1066
Ticket@@ 1066
Zivilisten 1066
lit@@ 1066
schwächen 1066
tre 1066
Änderungsantrags 1066
Berichterstattung 1065
Motoren 1065
Set 1065
Spam 1065
VIP 1065
ausgeht 1065
beginn 1065
empfehle 1065
forder@@ 1065
igte 1065
ome 1065
shofes 1065
strengere 1065
wälte 1065
Koalition 1064
Punk@@ 1064
Unrecht 1064
Vertrag@@ 1064
anschauen 1064
berat@@ 1064
definierten 1064
gänzlich 1064
tika 1064
überschritten 1064
Benutz@@ 1063
Kampf@@ 1063
NE 1063
Welle 1063
Wirtschaft@@ 1063
esische 1063
inischen 1063
multinationalen 1063
steigerung 1063
steine 1063
trinken 1063
verzö@@ 1063
Kost@@ 1062
Lust 1062
Sogar 1062
Weiter 1062
agnen 1062
atom@@ 1062
beeindruckende 1062
betreut 1062
elung 1062
ssig 1062
untersagt 1062
uter 1062
Begleitung 1061
UM@@ 1061
allgemeiner 1061
gemeldet 1061
haltens 1061
tent@@ 1061
turm 1061
unterzeichnen 1061
Formate 1060
Füßen 1060
Gefühle 1060
Konsequenz 1060
Verts 1060
geplante 1060
lok@@ 1060
ond 1060
solle 1060
spru@@ 1060
steck@@ 1060
stufe 1060
sweise 1060
Ausnahme@@ 1059
Diplomatie 1059
Tampere 1059
Tier 1059
Unterricht 1059
adel@@ 1059
bran@@ 1059
bräu@@ 1059
exist@@ 1059
wahl@@ 1059
wünschte 1059
.net 1058
Dur@@ 1058
Kampfes 1058
Tech 1058
angesprochenen 1058
bestehend 1058
kompet@@ 1058
lindustrie 1058
vermei@@ 1058
vorsehen 1058
å@@ 1058
Labor@@ 1057
Lev@@ 1057
Musiker 1057
Schengener 1057
beziehe 1057
gelan@@ 1057
kam@@ 1057
vereinen 1057
weiterentwickelt 1057
Modellen 1056
Taliban 1056
elegant 1056
gran@@ 1056
initiativen 1056
kub@@ 1056
rahmen@@ 1056
tzei@@ 1056
verbrauch 1056
vertrieben 1056
wirst 1056
Beitrittskandidaten 1055
Eingabe 1055
Spaniens 1055
beträchtlichen 1055
ernähr@@ 1055
kontrolli@@ 1055
stetig 1055
unverändert 1055
verlor@@ 1055
verwandelt 1055
Anleitung 1054
Etagen 1054
Fotografie 1054
Konsum 1054
Milli@@ 1054
Schalt@@ 1054
Streitigkeiten 1054
Trek 1054
moralischen 1054
scho@@ 1054
soren 1054
uen 1054
willen 1054
Block 1053
Fan 1053
Kürzung 1053
Schwei@@ 1053
Unfälle 1053
gelegentlich 1053
herauszufinden 1053
italien@@ 1053
prüft 1053
tien 1053
ć 1053
Auftrag@@ 1052
Behandlungs@@ 1052
Cab@@ 1052
Drittländer 1052
Il 1052
Variablen 1052
Zuwanderung 1052
buchs 1052
übereinstimmen 1052
.-@@ 1051
Kommissionsmitglied 1051
behindertenfreundliche 1051
fachen 1051
fangs 1051
geheim@@ 1051
maßgeblich 1051
präsent 1051
stabil 1051
themati@@ 1051
unglaublich 1051
wettbewerbsfähig 1051
ünden 1051
Damals 1050
Errungenschaften 1050
Noten@@ 1050
Quer@@ 1050
Songs 1050
aussieht 1050
räte 1050
staates 1050
Heiz@@ 1049
Plug 1049
Tari@@ 1049
begrün@@ 1049
freiwillige 1049
genehm@@ 1049
historischer 1049
lichten 1049
pack@@ 1049
zyklus 1049
Akt 1048
Exper@@ 1048
Forschungs- 1048
Gy@@ 1048
Streit 1048
ausgerüstet 1048
deter 1048
Alliance 1047
Beschäftigungspolitik 1047
Bibliotheken 1047
Brüder 1047
Fund@@ 1047
Zeitschrift 1047
abilität 1047
area 1047
beurteilt 1047
sein@@ 1047
tzen 1047
verschärfen 1047
1988 1046
Cer@@ 1046
Europar@@ 1046
Prot@@ 1046
Prote@@ 1046
ausreich@@ 1046
eingeb@@ 1046
halts@@ 1046
katastrophal@@ 1046
mitzuteilen 1046
terien 1046
top@@ 1046
zwingend 1046
Ökonomen 1046
Aufpreis 1045
Auskunft 1045
Management@@ 1045
News@@ 1045
Ref 1045
Strafen 1045
Unfall 1045
Vormittag 1045
allgemein@@ 1045
besichtigen 1045
chens 1045
erholen 1045
fehlenden 1045
kostenfreien 1045
orientieren 1045
tho@@ 1045
Baden 1044
Laufzeit 1044
abe 1044
streng@@ 1044
Mehrheits@@ 1043
Monte 1043
Wandern 1043
gig 1043
ino@@ 1043
müßten 1043
pfli@@ 1043
zusammengestellt 1043
Co 1042
Fundament@@ 1042
Haushaltsmittel 1042
Tiefe 1042
ain 1042
einrichtung 1042
rede 1042
t.@@ 1042
Qualifikationen 1041
halten@@ 1041
Angestellten 1040
Busse 1040
Diskussions@@ 1040
Kodex 1040
Straftaten 1040
air 1040
beizubehalten 1040
spot@@ 1040
stuhl 1040
transparenter 1040
Drucker 1039
Experten@@ 1039
Gil@@ 1039
Konfigurations@@ 1039
Photo@@ 1039
auszubauen 1039
dierung 1039
gescho@@ 1039
graus@@ 1039
japanische 1039
konzep@@ 1039
zweier 1039
funktions@@ 1038
gelt 1038
kes@@ 1038
kunfts@@ 1038
polnische 1038
regul@@ 1038
sebene 1038
zögern 1038
Bay@@ 1037
Gerü@@ 1037
Instrument@@ 1037
Patente 1037
Seh@@ 1037
Singapur 1037
TO 1037
Umwelt- 1037
befindlichen 1037
blich 1037
ji 1037
neten 1037
Betrieben 1036
Häusern 1036
Klin@@ 1036
Rohr@@ 1036
Russen 1036
Slideshows 1036
WWU 1036
entfernten 1036
ile 1036
römischen 1036
scheu@@ 1036
widmet 1036
wägen 1036
Bewerber@@ 1035
Gestern 1035
Gewis@@ 1035
Imperi@@ 1035
Jerusalem 1035
Telekommunikation 1035
Verstoß 1035
deutlichen 1035
home 1035
other 1035
world 1035
Grafik@@ 1034
Inhalts@@ 1034
Install@@ 1034
Investitionsbank 1034
Leiden 1034
Zusch@@ 1034
gestütz@@ 1034
mittelalterlichen 1034
sofortige 1034
Auseinandersetzungen 1033
Entscheidungsfindung 1033
Münzen 1033
Umweltpolitik 1033
Zufall 1033
angestre@@ 1033
aufgezeigt 1033
beabsichti@@ 1033
echtes 1033
lebens 1033
veranstaltet 1033
verse 1033
29@@ 1032
Ausdehnung 1032
Fut@@ 1032
Kloster 1032
Viel 1032
anschließ@@ 1032
bedingten 1032
business 1032
dienstes 1032
registri@@ 1032
tür@@ 1032
unterrichtet 1032
vi 1032
CA 1031
Haiti 1031
Line 1031
Spiegel 1031
boot 1031
dest 1031
erweist 1031
erzählen 1031
geschnit@@ 1031
ierter 1031
tam@@ 1031
tour@@ 1031
versuchte 1031
vertrauens@@ 1031
zukommt 1031
Fun@@ 1030
Gepäck 1030
Konsultationen 1030
Zusage 1030
ernsthaften 1030
gleicht 1030
komb@@ 1030
passi@@ 1030
traten 1030
unden@@ 1030
unterstütz@@ 1030
vertiefen 1030
überschreiten 1030
Geg@@ 1029
Lieblings@@ 1029
allen@@ 1029
exzellente 1029
fert 1029
kunde 1029
por 1029
trug 1029
zweit@@ 1029
Anschließend 1028
Aussprachen 1028
Biom@@ 1028
Cur@@ 1028
Gü@@ 1028
Neg@@ 1028
bür@@ 1028
handelte 1028
spon@@ 1028
IX 1027
Ros@@ 1027
begehen 1027
mangelt 1027
sahen 1027
verlaufen 1027
Downloads 1026
Monti 1026
Tragen 1026
Vieh@@ 1026
er- 1026
ex 1026
individu@@ 1026
potenzielle 1026
Bestandteile 1025
EURO@@ 1025
Erläu@@ 1025
Klassen@@ 1025
Komplex 1025
Ostse@@ 1025
Prak@@ 1025
Unger@@ 1025
Vertiefung 1025
dicht 1025
geordnete 1025
revi@@ 1025
tchen 1025
umfangreich@@ 1025
Überschwemmungen 1025
Bezug@@ 1024
Eingliederung 1024
Enttäuschung 1024
First 1024
Standpunk@@ 1024
beschäf@@ 1024
breiter 1024
folgte 1024
geräumige 1024
iPod 1024
ränk@@ 1024
sla@@ 1024
sphase 1024
öst@@ 1024
Erlaubnis 1023
Rücksicht 1023
Stärken 1023
Vollendung 1023
glichkeiten 1023
under@@ 1023
FC 1022
Nationalismus 1022
Pakets 1022
ash@@ 1022
aufrichtig 1022
dringende 1022
eindeutigen 1022
einigt 1022
inn 1022
physi@@ 1022
pol 1022
samt 1022
teu@@ 1022
überarbeitet 1022
Feri@@ 1021
KG 1021
Ori@@ 1021
Quart@@ 1021
Refle@@ 1021
Sab@@ 1021
Seel@@ 1021
Stern 1021
Vertreterin 1021
auferlegt 1021
ham 1021
hen@@ 1021
insel 1021
int@@ 1021
konzer@@ 1021
smo@@ 1021
unüber@@ 1021
Anleihen 1020
Dimensionen 1020
Heraus@@ 1020
Unser@@ 1020
Völker@@ 1020
ankommt 1020
appellieren 1020
bi 1020
herkömmlichen 1020
hten 1020
weitergehen 1020
übersehen 1020
Gru@@ 1019
Marco 1019
Temperatur@@ 1019
Verzeichn@@ 1019
beherbergt 1019
hoben 1019
schich@@ 1019
schir@@ 1019
strategischer 1019
wählt 1019
DS 1018
Konsu@@ 1018
Umstrukturi@@ 1018
maxim@@ 1018
nder 1018
ordnungsgemäße 1018
sauber@@ 1018
ses@@ 1018
setzungen 1018
unzählige 1018
Clinton 1017
Engli@@ 1017
Ersten 1017
Frau@@ 1017
def@@ 1017
iens 1017
sprechende 1017
statisti@@ 1017
undes 1017
verfasst 1017
übergreifenden 1017
Chr. 1016
Fed 1016
Got@@ 1016
Israelis 1016
Montenegro 1016
Verknüpfung 1016
dol@@ 1016
hindern 1016
irakischen 1016
kirche 1016
vermieten 1016
Fuss 1015
José 1015
ME 1015
Terroran@@ 1015
europaweit 1015
gelei@@ 1015
lla 1015
malen 1015
ographie 1015
takt 1015
Düsseldorf 1014
Kart@@ 1014
M. 1014
Mie@@ 1014
Trock@@ 1014
Typ@@ 1014
bun@@ 1014
dlern 1014
ergie 1014
mut 1014
schiff 1014
station@@ 1014
stellern 1014
tter@@ 1014
verhe@@ 1014
web 1014
Buffet 1013
Krebs 1013
Schlussfolgerung 1013
Spen@@ 1013
geg@@ 1013
informellen 1013
ungere@@ 1013
ök@@ 1013
Beamte 1012
Christian 1012
Geschwindi@@ 1012
Hall 1012
Höhen@@ 1012
Lit@@ 1012
Nahrung 1012
Portfolio 1012
ROM 1012
Sichtweise 1012
Südkorea 1012
juristische 1012
kum@@ 1012
zucht 1012
Europäern 1011
Meeres 1011
Nan@@ 1011
fortgeschrit@@ 1011
freiwilligen 1011
fängt 1011
ganzes 1011
Balance 1010
CH 1010
Gegen 1010
Kalten 1010
Persönlichkeit 1010
Räumlichkeiten 1010
Zeu@@ 1010
absoluten 1010
kapitali@@ 1010
lossene 1010
tol@@ 1010
verläuft 1010
vorteil@@ 1010
Beschleunigung 1009
Jahreszeit 1009
Leser 1009
Rechtsetzung 1009
Unterscheidung 1009
anführen 1009
aufgegeben 1009
bean@@ 1009
dner 1009
formuli@@ 1009
konfigu@@ 1009
sports 1009
Messen 1008
Rüstungs@@ 1008
Verwenden 1008
augen@@ 1008
bringung 1008
geograph@@ 1008
igungs@@ 1008
konvention@@ 1008
manip@@ 1008
niedrigeren 1008
ras@@ 1008
stürzen 1008
Illu@@ 1007
SMS 1007
Terminal 1007
organisator@@ 1007
pflich@@ 1007
verarbeiten 1007
vollsten 1007
Auslieferung 1006
Cle@@ 1006
Entdeck@@ 1006
Palast 1006
Publi@@ 1006
Rap@@ 1006
Saf@@ 1006
Sig@@ 1006
Straßenverkehr 1006
Wäre 1006
ader 1006
aktion 1006
entlassen 1006
erstklassige 1006
mark 1006
rem@@ 1006
zitiere 1006
Kä@@ 1005
Schulungen 1005
akts 1005
erkt 1005
nischer 1005
perfekten 1005
rez 1005
ungarische 1005
zwecke 1005
zweites 1005
Anpassungs@@ 1004
Chat 1004
Dolomiten 1004
Edinburgh 1004
Momente 1004
Seminare 1004
rechtlicher 1004
schrei@@ 1004
shaushal@@ 1004
zwingt 1004
Haltestelle 1003
Multimedia 1003
Posten 1003
Times 1003
bindung 1003
erschwert 1003
gebern 1003
helpful 1003
jenseits 1003
nachhaltiges 1003
realistische 1003
strei@@ 1003
Dresden 1002
Einwanderungspolitik 1002
Gebäudes 1002
Mitgliedsländern 1002
bru@@ 1002
inierte 1002
services 1002
tschaft 1002
Elektronik 1001
Fi 1001
Linke 1001
SI 1001
Umstand 1001
beteiligung 1001
halbe 1001
reinen 1001
strikt 1001
wöch@@ 1001
1980 1000
AF@@ 1000
Blei@@ 1000
Finanzdienstleistungen 1000
Spannung 1000
Vertrauens 1000
been 1000
behar@@ 1000
din@@ 1000
ethischen 1000
haushalts@@ 1000
legungs@@ 1000
länger@@ 1000
strukturelle 1000
tas 1000
A. 999
Assoziierungsabkommen 999
Harmonie 999
Kampagnen 999
Lieferungen 999
Machen 999
Mittagessen 999
Place 999
acc@@ 999
acher 999
gelder 999
rationen 999
schlü@@ 999
ämp@@ 999
Fraktions@@ 998
Lagerung 998
Mitglied@@ 998
Schulung 998
Verbrech@@ 998
makro@@ 998
merkt 998
mische 998
risiko 998
ritten 998
stan 998
var 998
versorgt 998
Ale@@ 997
Anbau 997
Flo@@ 997
Infos 997
Vollständigkeit 997
cal@@ 997
day 997
einfaches 997
extreme 997
geänderten 997
iel 997
reservieren 997
thin 997
ziehungs@@ 997
Arabien 996
Misch@@ 996
aufnahmen 996
besuchte 996
chi 996
drän@@ 996
ende@@ 996
esta 996
imperi@@ 996
offener 996
stritten 996
treibung 996
voraussichtlich 996
Felsen 995
ICH@@ 995
Suites 995
anbieter 995
auszuarbeiten 995
operativen 995
tab@@ 995
Designs 994
Leb@@ 994
Rats 994
Strukturreformen 994
Verhaf@@ 994
erwarteten 994
integri@@ 994
jeglichen 994
king 994
tivere 994
ux 994
vielfäl@@ 994
Brok 993
Diagno@@ 993
Glückwunsch 993
Kapit@@ 993
Leh@@ 993
Mineral@@ 993
Pon@@ 993
Stehende 993
Verwirrung 993
erien 993
ffekt 993
fragte 993
pakete 993
schätze 993
zeitgenös@@ 993
IR 992
Präsident@@ 992
Skript 992
Ve@@ 992
Vir@@ 992
benachteiligten 992
geschäfte 992
kontinuierliche 992
sheit 992
vertrete 992
Aussehen 991
Freihandelsabkommen 991
Haut@@ 991
Kamer@@ 991
Leipzig 991
SL@@ 991
ald 991
ati 991
glücklicherweise 991
massiv 991
modus 991
nig 991
skri@@ 991
stitu@@ 991
unterstützte 991
wiesen 991
2014 990
Eis 990
Fili@@ 990
Rindfleisch 990
ais 990
beliebige 990
indert 990
kurzfristige 990
Aufnahme@@ 989
alisierungen 989
dent@@ 989
ganzhei@@ 989
gelegten 989
iso@@ 989
sident 989
trop@@ 989
verständnis 989
AND 988
Handels- 988
PAR@@ 988
auswahl 988
befaßt 988
ds@@ 988
erledigen 988
häufi@@ 988
höre 988
ministers 988
riebenen 988
rän@@ 988
strit@@ 988
verwendete 988
zuzustimmen 988
01.@@ 987
100@@ 987
Distri@@ 987
Etage 987
Gewähr 987
Speicherk@@ 987
Technologie@@ 987
ards 987
dimension@@ 987
eder@@ 987
erem 987
garanti@@ 987
geleistete 987
gos 987
gres@@ 987
magne@@ 987
sinken 987
ummer 987
unabhängiger 987
wohlhab@@ 987
Allah 986
Befürworter 986
Diagnose 986
Durchbruch 986
Hotelzimmer 986
beruhi@@ 986
ermuti@@ 986
flexibler 986
unterschiedlichsten 986
Vide@@ 985
andin@@ 985
berge 985
haltungs@@ 985
kund@@ 985
mitgliedern 985
schnellstmöglich 985
überleben 985
Arzneimitteln 984
Dien@@ 984
Herstell@@ 984
Kontak@@ 984
Marktan@@ 984
Nar@@ 984
ators 984
bevorzugen 984
bles 984
dü@@ 984
einzeln 984
einzuräumen 984
flucht 984
häufigsten 984
illegaler 984
mende 984
modells 984
ok 984
rückt 984
verfü@@ 984
AP 983
Reisenden 983
Standorte 983
Tempel 983
angem@@ 983
auszuführen 983
brenn@@ 983
einher@@ 983
file 983
hi 983
liebt 983
rechnet 983
veranlasst 983
virtuelle 983
1990er 982
Aktionsprogramm 982
Dauer@@ 982
Labour 982
Mir@@ 982
Panoram@@ 982
Wanderungen 982
enfalls 982
exo@@ 982
günstiger 982
tolle 982
trieb@@ 982
untergebracht 982
Association 981
Das@@ 981
Tanz@@ 981
Typen 981
bestätigung 981
einheimischen 981
ellen@@ 981
nachzukommen 981
night 981
salon 981
sitzt 981
tsprü@@ 981
unabdingbar 981
wirtschaftliches 981
überwunden 981
Anlaß 980
Behin@@ 980
Blumen 980
Jacques 980
LCD 980
Nationalen 980
Obergrenze 980
Weitergabe 980
einstellungen 980
ischerweise 980
isieren 980
komponenten 980
lauten 980
rent@@ 980
vorsitzenden 980
Fachleute 979
Inneren 979
Nachweis 979
Rücktritt 979
Spr@@ 979
ereien 979
erledigt 979
gesteuert 979
jenem 979
schär@@ 979
ř@@ 979
Blau@@ 978
Ernst 978
Prozessen 978
Simul@@ 978
Zehn@@ 978
bet 978
dafri@@ 978
ekte 978
großzügig 978
Gleichberechtigung 977
beanspru@@ 977
befin@@ 977
drastisch 977
intensiver 977
kündigen 977
läufig 977
stay 977
Aufschwung 976
Biotechnologie 976
Dienstleister 976
Fahrrad 976
Verfassungsvertrag 976
soll@@ 976
stattfand 976
unde@@ 976
verzeichnis 976
zugenommen 976
zweck 976
Hunder@@ 975
Palma 975
Rub@@ 975
Tä@@ 975
Verschmutzung 975
air@@ 975
aufgeteilt 975
echnik 975
gedrängt 975
marken 975
objektiv 975
rali@@ 975
ängen 975
Development 974
Kö@@ 974
Somm@@ 974
Wartungs@@ 974
brü@@ 974
entschuldigen 974
entzieht 974
gerweise 974
güter 974
mau@@ 974
portal 974
schiff@@ 974
stehend 974
wehr@@ 974
win 974
Ökonomie 974
.ch 973
Mountain@@ 973
Repräsent@@ 973
angen@@ 973
galt 973
gescheitert 973
identi@@ 973
sinnvolle 973
Erforschung 972
Frequ@@ 972
Prestige 972
eilung 972
finnischen 972
gebil@@ 972
nuklearen 972
schlug 972
verhaftet 972
übergreif@@ 972
Kandidaten@@ 971
Kinderbetreuung 971
Mehrwertsteuer@@ 971
You 971
deutsch@@ 971
gegensei@@ 971
isti@@ 971
sozialistischen 971
voranzu@@ 971
Vorteilen 970
Zurück@@ 970
anhaltenden 970
aufer@@ 970
entdeckte 970
ewi@@ 970
jah@@ 970
light 970
zuversichtlich 970
ästheti@@ 970
Aluminium 969
Erfordernisse 969
Kamin 969
Lücke 969
Radik@@ 969
Schlacht 969
Sozial- 969
einwand@@ 969
entierte 969
eria 969
ffenen 969
tiz@@ 969
vorwiegend 969
westen 969
zauber@@ 969
1986 968
Bonus@@ 968
Kontinuität 968
Schnee 968
Tennis 968
Vizepräsidentin 968
behilflich 968
diesjährigen 968
ennung 968
gross@@ 968
langfris@@ 968
they 968
überraschend 968
Automati@@ 967
C4 967
Med@@ 967
anges@@ 967
assen@@ 967
ausgewo@@ 967
bürgerlichen 967
chel@@ 967
cl@@ 967
geografischen 967
großartigen 967
katho@@ 967
keln 967
restrik@@ 967
treffend 967
Einstimmigkeit 966
Erwachsen@@ 966
Familienzimmer 966
Fische 966
beschä@@ 966
dreißig 966
gefertigt 966
orienti@@ 966
produktiv 966
umgewandelt 966
verletzen 966
Berechti@@ 965
GN@@ 965
Gum@@ 965
Konzeption 965
LED 965
No 965
Rek@@ 965
Später 965
Ten@@ 965
Wand 965
artikel 965
begannen 965
bewusstsein 965
klagt 965
nnen 965
ordnungs@@ 965
sorge 965
sorgungs@@ 965
ähn@@ 965
Behinderung 964
Finanzrahmen 964
Informationsaustausch 964
Kraftstoff@@ 964
Micro@@ 964
Solarium 964
UL@@ 964
Verschiebung 964
Wettbewerbspolitik 964
cer@@ 964
eda 964
elektrischen 964
fikations@@ 964
raff@@ 964
sse@@ 964
starb 964
ye 964
ält 964
Abstimmungs@@ 963
Amsterdamer 963
Beobachtung 963
Bezüglich 963
Handlung 963
Jazz 963
Kron@@ 963
Mannschaft 963
agen@@ 963
allgemeinem 963
ankommen 963
dramatisch 963
eistungen 963
kost@@ 963
lot 963
situ@@ 963
speisen 963
stationen 963
verbot@@ 963
Japans 962
Pel@@ 962
Protot@@ 962
Rahmenrichtlinie 962
eintritt 962
ersucht 962
grä@@ 962
rats@@ 962
rot@@ 962
verfolgung 962
verweigern 962
ysteme 962
Akademie 961
Auftreten 961
Ehe@@ 961
Radi@@ 961
Sym@@ 961
W. 961
demnach 961
ierungen 961
ku 961
nette 961
ny 961
persönliches 961
thos 961
zusammengearbeitet 961
Bestes 960
Demonstrationen 960
Fehlern 960
Gemeinschaftsrechts 960
Herzlich 960
Minim@@ 960
Research 960
Säulen 960
Tätigkeits@@ 960
Wäldern 960
explo@@ 960
hon@@ 960
legitim@@ 960
stamm@@ 960
Übersetz@@ 960
C. 959
Differenzen 959
Gewässer 959
Rückzug 959
Strei@@ 959
Tie@@ 959
angekommen 959
ausgeweitet 959
einleiten 959
einziger 959
geringfü@@ 959
inu@@ 959
kore@@ 959
qualifizierter 959
soviel 959
tierungs@@ 959
Ausgaben@@ 958
Klang@@ 958
Upgrade 958
Verspä@@ 958
appe 958
auslösen 958
ball@@ 958
grundsätzliche 958
ky 958
pfer@@ 958
tier 958
zugewiesen 958
500@@ 957
Filter@@ 957
KO@@ 957
amerikan@@ 957
beha@@ 957
fik 957
menschen@@ 957
woll@@ 957
worfen 957
Atlantik 956
Etappe 956
Festivals 956
Plätzen 956
Reich@@ 956
Santer 956
Verbraucherpolitik 956
Wagen 956
Werkzeug@@ 956
befugnisse 956
kasus 956
shand@@ 956
strecken 956
ures 956
wohin 956
Konvergenz@@ 955
Mitteilungen 955
Sied@@ 955
Tabak 955
abili@@ 955
blieben 955
geleiteten 955
intellektu@@ 955
jed@@ 955
kurbeln 955
schritt@@ 955
unlau@@ 955
Handelspolitik 954
Partition 954
angenommene 954
attraktiv 954
unverzichtbar 954
05@@ 953
Auffassungen 953
Geduld 953
Länder@@ 953
Serviceleistungen 953
Verkehrsmitteln 953
Wertpapier@@ 953
anerkennt 953
beeindruckenden 953
geschlossen@@ 953
Ambitionen 952
Besatzung 952
KE@@ 952
Psych@@ 952
Richtungen 952
Schande 952
band@@ 952
organe 952
restlichen 952
sche@@ 952
spreis 952
älen 952
A.@@ 951
Controller 951
Flusses 951
Handelsabkommen 951
Hob@@ 951
Käl@@ 951
Mein@@ 951
Pressemit@@ 951
Sec@@ 951
Toten 951
VI 951
ap 951
konver@@ 951
prim@@ 951
verab@@ 951
örung 951
Cafés 950
Male 950
SP 950
affung 950
bedien@@ 950
geringeren 950
krie@@ 950
list 950
operi@@ 950
tnismäßig 950
verantwortlichen 950
widersprüch@@ 950
Auschecken 949
Dev@@ 949
Finger@@ 949
IE 949
Metro 949
Nächte 949
Wertpap@@ 949
agten 949
anfän@@ 949
anträge 949
greifende 949
konsequ@@ 949
konsu@@ 949
kurzfristigen 949
kw 949
rent 949
schäd@@ 949
stur@@ 949
verbände 949
wovon 949
übernahm 949
к@@ 949
Vorstands@@ 948
Wall@@ 948
akzept@@ 948
euer@@ 948
heiligen 948
klingen 948
Aktion@@ 947
Darfur 947
PD@@ 947
Salz@@ 947
Schlag 947
Verlagerung 947
annimmt 947
bring@@ 947
einzigartiges 947
konzentri@@ 947
richtete 947
soziales 947
Öffnen 947
140 946
Holiday 946
Schü@@ 946
Zeilen 946
einander@@ 946
einkommen 946
gif@@ 946
schock@@ 946
Editor 945
Süß@@ 945
engere 945
ereig@@ 945
existierenden 945
flich 945
herum@@ 945
ologien 945
operative 945
steil 945
unbesch@@ 945
wäch@@ 945
zusammengefasst 945
ão 945
Daß 944
Einfach 944
Körpers 944
Obst@@ 944
anter 944
bloß 944
decke 944
etzung 944
lagerung 944
namentlich 944
neut@@ 944
slowen@@ 944
veränderte 944
Botschafter 943
Defiz@@ 943
Konzern@@ 943
Mobili@@ 943
amb@@ 943
ame@@ 943
anhaltende 943
beobach@@ 943
deuten 943
ender@@ 943
höchstem 943
ice 943
morgens 943
rangi@@ 943
räumt 943
verbindlichen 943
Brief@@ 942
GASP 942
Homo@@ 942
QU@@ 942
Road 942
Sri 942
Turni@@ 942
after 942
beleu@@ 942
dramatischen 942
einseitig 942
franzö@@ 942
graf@@ 942
kostspie@@ 942
niveaus 942
sil@@ 942
ungsermächtigungen 942
vent@@ 942
vorange@@ 942
9001 941
Dün@@ 941
Grafik 941
Resultate 941
Schnittstellen 941
erei@@ 941
excellent 941
gestrigen 941
langjährigen 941
pot 941
tic 941
Diesel@@ 940
Digit@@ 940
Label 940
SDL 940
ahl@@ 940
bein@@ 940
betten 940
ding 940
hauses 940
portugiesische 940
unnötig 940
vorgelegte 940
Liga 939
Proteste 939
gangenen 939
irgen@@ 939
krieg 939
til 939
vorgesch@@ 939
wanderung 939
Aktionsplans 938
Ank@@ 938
Anschein 938
Binnenmark@@ 938
Mehrzahl 938
Modell@@ 938
Wahlkreis 938
dd@@ 938
genheit 938
geschmackvoll 938
schnit@@ 938
tspar@@ 938
unterzogen 938
vorschlags 938
Applikation 937
Bearbeitungs@@ 937
Bestand 937
CO 937
Feind 937
IBM 937
Pfund 937
Reservierungen 937
SD 937
Song 937
Tap@@ 937
Wunsch@@ 937
aire 937
angegangen 937
auffor@@ 937
gängigen 937
minutes 937
noten 937
syn@@ 937
Auswertung 936
Auszeichnung 936
BE@@ 936
Logos 936
Mitgliedstaats 936
Turm 936
behin@@ 936
beschäftigungs@@ 936
demonstrieren 936
gezielte 936
nötige 936
schwierig@@ 936
setzbar 936
tums 936
ungen@@ 936
uts 936
Entwicklungsziele 935
Flugzeug@@ 935
Jahrhunderten 935
Kompromis@@ 935
Softwa@@ 935
beherrscht 935
gesandt 935
sammelt 935
Bol@@ 934
Jesus 934
Organismen 934
Palacio 934
Sozialfonds 934
Umfrage 934
allererst 934
erklärung 934
finanz@@ 934
geradezu 934
unternehmen@@ 934
verdeutlicht 934
Fortschritten 933
Ky@@ 933
Mani@@ 933
Sul@@ 933
bisweilen 933
doppelte 933
folgen@@ 933
Ansatzes 932
Jun@@ 932
Lenk@@ 932
Platten 932
Program@@ 932
Roten 932
Verantwortlichkeit 932
Zuver@@ 932
bewährten 932
eingenommen 932
fasste 932
nachhaltiger 932
1985 931
Plenar@@ 931
Spiegel@@ 931
ads 931
essi@@ 931
etabliert 931
hundert@@ 931
ien@@ 931
tempor@@ 931
tra 931
would 931
öl 931
1945 930
Besatz@@ 930
Extra@@ 930
Lot@@ 930
Zo@@ 930
alog@@ 930
blauen 930
een 930
firma 930
geist 930
graben 930
norm@@ 930
reformen 930
risiken 930
unterworfen 930
Beteilig@@ 929
Hussein 929
Ressource 929
Stolz 929
Verweis 929
bewaffneten 929
ermordet 929
legungen 929
lev@@ 929
olen 929
schwerwiegende 929
Badewanne 928
Geltungsbereich 928
Sandstrand 928
Tschechische 928
gemütlich 928
ordnet 928
thilfe 928
tiefer 928
ua 928
Deck@@ 927
FR@@ 927
Kommun@@ 927
Note 927
Riviera 927
ares 927
rank 927
sprung 927
umfangreiches 927
weites 927
Brust@@ 926
COD 926
Ex 926
Exempl@@ 926
Mobiltelef@@ 926
SC 926
Szenario 926
Wiederaufnahme 926
carte 926
eder 926
innovativer 926
keit 926
stren@@ 926
such 926
Öffent@@ 926
Fahrzeu@@ 925
Priv@@ 925
Zonen 925
distan@@ 925
eingehend 925
eingetreten 925
erschwing@@ 925
fortschrit@@ 925
getro@@ 925
grenzüberschreit@@ 925
holz 925
kehrt 925
loses 925
s. 925
sicherungen 925
Entwickl@@ 924
Entwicklung@@ 924
Krankenhaus 924
Rati@@ 924
Rechenschaft 924
Seu@@ 924
Tepp@@ 924
Tode 924
Waff@@ 924
Wähler@@ 924
bedingte 924
gespannt 924
gesundheitlichen 924
hinnehmbar 924
klingt 924
spunkt 924
strä@@ 924
weiß@@ 924
1987 923
Andernfalls 923
Blü@@ 923
Einzelpersonen 923
Haushaltslinie 923
Olymp@@ 923
Van@@ 923
Zeichen@@ 923
beginn@@ 923
deinem 923
enkt 923
handel@@ 923
haush@@ 923
komplexer 923
progno@@ 923
ule 923
unen 923
zivile 923
21.@@ 922
Fitnesscenter 922
Konsum@@ 922
Nähr@@ 922
Teilnehmer@@ 922
Verkehrs 922
Vernichtung 922
beträchtlich 922
det@@ 922
erbracht 922
erkrank@@ 922
graphie 922
konstitu@@ 922
lichte 922
östlich 922
06@@ 921
Boo@@ 921
Ford 921
Instand@@ 921
Paar 921
Public 921
Weihnachten 921
anspruchsvollen 921
auszuschließen 921
erklär@@ 921
gül@@ 921
impor@@ 921
reichsten 921
sektor@@ 921
verstößt 921
wörter 921
Cir@@ 920
Gehör 920
Größen 920
Koch@@ 920
Konzerne 920
Rak@@ 920
Wörter 920
biegen 920
eindeu@@ 920
hn@@ 920
human@@ 920
Captain 919
Cent@@ 919
Eisenbahn 919
Entschließungs@@ 919
I. 919
Klein- 919
Lebensdauer 919
Wohnungs@@ 919
administrativen 919
ania 919
discher 919
gründete 919
rations@@ 919
summe 919
transparenten 919
waffen@@ 919
zufügen 919
Einsatzes 918
Tarif@@ 918
erkan@@ 918
fielen 918
gigen 918
konstruktiv 918
luxuriösen 918
längeren 918
rachte 918
tragischen 918
two 918
unvergleich@@ 918
vertik@@ 918
î@@ 918
Abänderungs@@ 917
Ep@@ 917
bestimmtes 917
idylli@@ 917
liter@@ 917
raschen 917
rechtmäßig 917
ure@@ 917
Übernachtungen 917
Geno@@ 916
Gremium 916
Menschenleben 916
Pressefreiheit 916
Riesen@@ 916
Sav@@ 916
Schriften 916
Seitdem 916
Vin@@ 916
bürokrati@@ 916
misst 916
off 916
zeuge 916
Betra@@ 915
EE@@ 915
Freih@@ 915
Grundsatzes 915
Jungen 915
Professional 915
Substanz 915
ege 915
gang@@ 915
geehrten 915
gespräche 915
mußte 915
quasi 915
schriften 915
transport 915
Börsen@@ 914
ENT@@ 914
Haftungs@@ 914
Kooper@@ 914
Nahrungsmitteln 914
Reihen 914
Schwein@@ 914
Vorgänger 914
bilanz 914
chteten 914
keit@@ 914
thei@@ 914
wahrschein@@ 914
äne 914
CAD 913
Einwanderungs@@ 913
Thematik 913
bestimmung 913
int 913
legal 913
sätz@@ 913
verabschiedeten 913
veren 913
Übersetzer 913
Gesundheits- 912
NEW 912
Volumen 912
demzufolge 912
fing 912
mediterranen 912
niederländische 912
ping 912
ühlen 912
Bli@@ 911
Fotografen 911
Fremdenfeindlichkeit 911
Strö@@ 911
Waffe 911
Wi 911
Wählern 911
berechnen 911
blockieren 911
brauch@@ 911
erfolgreich@@ 911
fris@@ 911
jähr@@ 911
kräftig 911
nationales 911
soli@@ 911
tech 911
their 911
Gründer 910
Kirk 910
Tool@@ 910
Versamm@@ 910
ausgedeh@@ 910
exklu@@ 910
strich 910
tliches 910
Abwesenheit 909
Aktionäre 909
Belange 909
Christus 909
Geschäf@@ 909
Lob 909
OR 909
Religionsfreiheit 909
Rol@@ 909
Skandal 909
Varianten 909
Verschlüssel@@ 909
abhalten 909
andernfalls 909
bezo@@ 909
ehmern 909
hende 909
militär@@ 909
signi@@ 909
spr@@ 909
tasie 909
zo 909
Cast@@ 908
Dialog@@ 908
Grenzwerte 908
Küh@@ 908
TM 908
Zah@@ 908
ambition@@ 908
spunkte 908
türk@@ 908
vention 908
wischen 908
übersetzen 908
Band@@ 907
Lücken 907
Phänom@@ 907
Vorgän@@ 907
bir@@ 907
egen@@ 907
first 907
ungsergebnisse 907
vermark@@ 907
verschlechtert 907
warm 907
Atomwaffen 906
Bünd@@ 906
Prozent@@ 906
Rasse 906
aggres@@ 906
anti 906
ausdrücken 906
double 906
gangs@@ 906
häu@@ 906
interpre@@ 906
mie@@ 906
potenzi@@ 906
rief 906
vorantreiben 906
Öffentliche 906
Fac@@ 905
Gründungs@@ 905
Haupts@@ 905
Intel 905
cou@@ 905
gründliche 905
hinweg@@ 905
ketten 905
komfort@@ 905
minist@@ 905
onds 905
s.com 905
schädlich 905
sert 905
spra@@ 905
telefon@@ 905
westlich 905
Überprü@@ 905
üblicherweise 905
Beitrittsländer 904
Donau 904
Fähr@@ 904
Ras@@ 904
Wertschö@@ 904
Wärme@@ 904
ausreichenden 904
autorit@@ 904
gelö@@ 904
klick 904
kombinieren 904
logisch 904
pran@@ 904
spezifischer 904
städte 904
terweise 904
uropä@@ 904
verbreitete 904
Daniel 903
Filmen 903
Gehäuse 903
Schwäch@@ 903
Stern@@ 903
Stufen 903
Telefonnummer 903
betrachte 903
eingeschlossen 903
elektronischer 903
leger 903
ritt@@ 903
sin 903
Beihilfe 902
Handbuch 902
Solidaritätsfonds 902
archie 902
elligkeit 902
engagi@@ 902
euren 902
fter 902
funktionierenden 902
identifiziert 902
kä@@ 902
risi@@ 902
warnt 902
Ass@@ 901
Barack 901
Fahren 901
Haushaltsausschuss 901
Langzeit@@ 901
Organis@@ 901
Oster@@ 901
Reader 901
Unterstützungs@@ 901
Zul@@ 901
ago@@ 901
erstattet 901
feldern 901
ish@@ 901
kommerzi@@ 901
krei@@ 901
pf 901
samer 901
schot@@ 901
schwarze 901
Erfahrungs@@ 900
Fro@@ 900
Reisende 900
Sarkozy 900
Tauchen 900
bevorzugt 900
echn@@ 900
freies 900
haltenen 900
open 900
place 900
statistischen 900
strahlung 900
Arbeitsprogramm 899
Dringlichkeits@@ 899
Hannover 899
Oper 899
Präsidentschaftswahlen 899
Sequ@@ 899
Spri@@ 899
Stä@@ 899
Wunder@@ 899
beitritts@@ 899
beziehungsweise 899
brauchs 899
debattieren 899
herausragende 899
most 899
utes 899
zufällig 899
Flexibili@@ 898
Multi 898
Soft 898
Trainings@@ 898
Vaku@@ 898
Zertifikat 898
atisch 898
ausfallen 898
außergewöhnlich 898
einschränken 898
eu 898
gefaßt 898
kapazitäten 898
lagern 898
och 898
rer 898
schädlichen 898
standardi@@ 898
übergehen 898
Abfahrt 897
Europa@@ 897
Mar 897
Schir@@ 897
Sicherheitsrates 897
UC@@ 897
Vorgänge 897
aufgreifen 897
grei@@ 897
index 897
infrastruktur 897
lagerungen 897
legislative 897
neun@@ 897
sung 897
Bügelservice 896
Einfuhr 896
PCs 896
Schlus@@ 896
Toskana 896
befes@@ 896
genügen 896
inneh@@ 896
jenes 896
mauern 896
sien 896
skraft 896
stanzen 896
verbleibenden 896
Inhaf@@ 895
Samsung 895
Schauen 895
benennen 895
bester 895
miet@@ 895
pflanz@@ 895
schte 895
sorgfäl@@ 895
verspricht 895
Änderungsvorschläge 895
üpp@@ 895
BS 894
Daneben 894
Dossier 894
FA@@ 894
FS 894
Grüne 894
Industrien 894
Layout 894
Minist@@ 894
Sech@@ 894
Verbrauch@@ 894
Wellnessbereich 894
anzeige 894
brasili@@ 894
gebucht 894
lings 894
stattfindenden 894
widersprechen 894
zeuger 894
Austausch@@ 893
Einträge 893
Gütern 893
Modells 893
Nutzungsbedingungen 893
Weltmarkt 893
ausmacht 893
flan@@ 893
komplizierte 893
maßnahme 893
Materials 892
Ratspräsidentin 892
Verdacht 892
club 892
einsehen 892
ey@@ 892
gewalts@@ 892
privat 892
read 892
relevant 892
streit@@ 892
ungsum@@ 892
Ausfuhr@@ 891
Gesetzgeb@@ 891
Inc 891
Messung 891
Skrip@@ 891
Sky@@ 891
Verhand@@ 891
ausch 891
erstaun@@ 891
punkt@@ 891
relevante 891
repar@@ 891
10.000 890
Consulting 890
Feedback 890
Fischereisektor 890
HP 890
Legitim@@ 890
Patent 890
Verlu@@ 890
Wachstumspakt 890
anstehenden 890
anteil 890
aufgeworfen 890
eingetragen 890
geltende 890
lier 890
militärischer 890
schten 890
stagung 890
verlei@@ 890
С@@ 890
Arbeitsplatz@@ 889
Frühling 889
Gehen 889
Lärm 889
Nachtleben 889
Rechnungshofs 889
Sant 889
Wat@@ 889
Wiederbelebung 889
beides 889
beschränkungen 889
eger@@ 889
festlegt 889
immen@@ 889
öne 889
außenpolitischen 888
definierte 888
ement@@ 888
herrschende 888
ital 888
notwendi@@ 888
renommierten 888
vielerlei 888
wohnt 888
zurückgreifen 888
Aktualität 887
Eth@@ 887
Kontin@@ 887
Madeira 887
Villen 887
erfolgreicher 887
erhöhten 887
erlangt 887
flotte 887
later@@ 887
po 887
reak@@ 887
reserven 887
wissen@@ 887
ünsti@@ 887
е@@ 887
Erholungs@@ 886
Import 886
Impuls 886
Mär@@ 886
Programmier@@ 886
Rücküber@@ 886
Verbesser@@ 886
arm 886
benachbarten 886
besetzten 886
bestmögliche 886
entwicklungen 886
gliches 886
maßen 886
rank@@ 886
schlägen 886
schrieben 886
unwahrscheinlich 886
zellen 886
ühr@@ 886
Bananen 885
Maßstäbe 885
Muslime 885
Sender 885
Verkauf@@ 885
Zivilbevölkerung 885
aal 885
anerkannte 885
arium 885
digungs@@ 885
fallenden 885
gesetzes 885
glaubwürdig 885
lossenen 885
muster 885
pass@@ 885
pfe 885
physikali@@ 885
schwache 885
transportiert 885
utz 885
verschwunden 885
verträ@@ 885
DIN 884
Gastronomie 884
Geschäftsreisende 884
Jobs 884
Rechtsvorschrift 884
Ring 884
Sinn@@ 884
Superior 884
angegriffen 884
institute 884
kompati@@ 884
lokal 884
orn 884
vorübergehend 884
wohnheiten 884
Sho@@ 883
Südtirol 883
Visi@@ 883
Well@@ 883
entstehenden 883
erwartete 883
gültige 883
herzlichen 883
vergangen 883
weitreich@@ 883
Ausgleichs@@ 882
Fris@@ 882
Haft@@ 882
Sus@@ 882
aufgetreten 882
jahre@@ 882
kanal 882
vorgebracht 882
Invasion 881
befriedi@@ 881
cel@@ 881
dal@@ 881
diplomatische 881
entgegenzu@@ 881
zau@@ 881
Boutique 880
Erinnerungen 880
GE 880
KS 880
Quad@@ 880
Summen 880
elektron@@ 880
facilities 880
farbe 880
fällige 880
kunft 880
plans 880
seid 880
then 880
unberühr@@ 880
unterricht 880
vorankommen 880
übri@@ 880
Dokuments 879
Flair 879
Geschäftspar@@ 879
Hemm@@ 879
Komment@@ 879
Schattenberichterstat@@ 879
ausdrückliche 879
daraufhin 879
emm@@ 879
essel 879
Ansonsten 878
Apart@@ 878
Brot 878
LateRooms.com 878
Oase 878
Universal@@ 878
chers 878
eingebrachten 878
ließ@@ 878
mus@@ 878
ordentlich 878
reißen 878
weilen 878
Appart@@ 877
Indiens 877
Ke@@ 877
Kro@@ 877
Kuli@@ 877
Lamp@@ 877
Mio 877
Spenden 877
Terrorismusbekämpfung 877
Verbrau@@ 877
Völkerrecht 877
arkt 877
besserer 877
bevölkerung 877
doppelten 877
erschaft 877
erschö@@ 877
gekehrt 877
konstitutionelle 877
prior@@ 877
widerspricht 877
Malware 876
Metho@@ 876
Verantwortlichkeiten 876
Züge 876
aku@@ 876
befand 876
beschriebenen 876
cat@@ 876
detaillierten 876
produktiven 876
Day 875
Kollegi@@ 875
Kreis@@ 875
Pixel 875
Sicher 875
Volk@@ 875
angekün@@ 875
autori@@ 875
esa 875
fahren@@ 875
gehender 875
geringere 875
met 875
terrasse 875
verur@@ 875
Billionen 874
Diszipl@@ 874
Erdgeschoss 874
Kommen 874
Nationalstaaten 874
Phan@@ 874
Servern 874
Stable 874
Versuchen 874
angemess@@ 874
brand@@ 874
cc@@ 874
getrennte 874
jü@@ 874
kön@@ 874
onas 874
sprachige 874
wertes 874
wol@@ 874
Apo@@ 873
Dorf@@ 873
Finger 873
Jeden 873
Kino 873
Oft 873
Pflan@@ 873
Richtlinien@@ 873
egenheiten 873
entschied 873
intern 873
kontro@@ 873
national 873
pfeiler 873
schiffe 873
schritt 873
shop 873
älteste 873
ärz@@ 873
Abhängi@@ 872
J. 872
Luftverkehr 872
Navigation 872
UM 872
Ungleichgewichte 872
Verhütung 872
diplom@@ 872
herausgestellt 872
teur 872
v.@@ 872
vorsorge 872
Ängste 872
Andreas 871
Blu@@ 871
CEO 871
Dau@@ 871
Generaldirektion 871
Hav@@ 871
Meerblick 871
Sitzungsperiode 871
Sum@@ 871
VI@@ 871
abzubauen 871
ehrte 871
hierher 871
strand 871
terroristischen 871
titel 871
toleri@@ 871
töten 871
widri@@ 871
Bildes 870
Dienstleist@@ 870
EP@@ 870
English 870
Fischbestände 870
Handelsbeziehungen 870
Notwendi@@ 870
Zuschauer 870
gravier@@ 870
inhaltlich 870
jugosla@@ 870
spektrum 870
wiederhol@@ 870
ästi@@ 870
17.@@ 869
Adress@@ 869
Authenti@@ 869
Bern@@ 869
Lav@@ 869
Mitgefühl 869
Niederlage 869
bilanz@@ 869
fleisch@@ 869
gekürzt 869
ity 869
ms@@ 869
verhängt 869
Gur@@ 868
Merk@@ 868
Stück@@ 868
abzuschaffen 868
betro@@ 868
down 868
eingesetzten 868
experten 868
ham@@ 868
ink 868
jk 868
philosoph@@ 868
ränkte 868
verlin@@ 868
Anstrengung 867
Bedauerlicherweise 867
Fis@@ 867
Misstr@@ 867
Naturschutz@@ 867
Preisstabilität 867
Profil@@ 867
Umweltschutz@@ 867
Verfü@@ 867
aloge 867
einheitliches 867
g. 867
mitunter 867
sah@@ 867
stür@@ 867
verbrechen 867
Engagements 866
Investment@@ 866
Mord 866
Strafgerichtshof 866
Ziffern 866
abler 866
bo 866
bre 866
chambres 866
dokumentiert 866
nerin 866
sammlung 866
sicherte 866
worüber 866
zuteil 866
д@@ 866
90er 865
End 865
Erzeug@@ 865
Europarat 865
Mund 865
Prognosen 865
Prozentsatz 865
Speicherung 865
Verlei@@ 865
ausstellung 865
bed@@ 865
beeindruckt 865
niert 865
offers 865
seits 865
vermin@@ 865
verschieden 865
üssen 865
Bruttoinlands@@ 864
COM 864
Gewalt@@ 864
Speed 864
alarmi@@ 864
artik@@ 864
bekann@@ 864
institutionen 864
lizen@@ 864
radikale 864
1979 863
British 863
Geltung 863
Green@@ 863
Herangehensweise 863
Kinnock 863
Meldung 863
Vernunft 863
ationale 863
auszuweiten 863
hervorgeht 863
höchstens 863
lis 863
schil@@ 863
stage 863
verwen@@ 863
Erscheinung 862
Japan@@ 862
Rettung 862
Schwellenländer 862
Stoff@@ 862
anna 862
ecks 862
menschlicher 862
weitergeleitet 862
zurückzukehren 862
Black 861
Erwähnung 861
Internetanschluss 861
Medium 861
Reserven 861
Vereinig@@ 861
aufgabe 861
begünstigt 861
blin@@ 861
endsten 861
jüdischen 861
kers 861
musi@@ 861
schenko 861
senkung 861
stattungen 861
vergrößern 861
when 861
и 861
Fluggesellschaft 860
Mön@@ 860
Sitzungs@@ 860
biger 860
bisherige 860
erwor@@ 860
gl 860
jeher 860
misch 860
num@@ 860
springen 860
stem 860
wesentliches 860
3000 859
Anfänger 859
Beam@@ 859
Branchen@@ 859
Führungsrolle 859
GH 859
Liter 859
Magazin 859
Net 859
Politikbereiche 859
Schaltfläche 859
Schönheits@@ 859
Zeugen 859
beschädigt 859
bezir@@ 859
emotion@@ 859
isiert 859
natürlicher 859
perat@@ 859
stel@@ 859
telefonisch 859
territoriale 859
tro 859
univer@@ 859
weigert 859
Abfall 858
Briten 858
Hochzeits@@ 858
Schokolade 858
Stornierungen 858
Venezuela 858
disziplin@@ 858
etts 858
his 858
winden 858
Deut@@ 857
Eltern@@ 857
Fir@@ 857
Kämpfe 857
LAN@@ 857
Stress 857
ava 857
begriff 857
bestehender 857
draußen 857
ehrgeizi@@ 857
eld 857
erfol@@ 857
erkläre 857
lung@@ 857
zugeschnitten 857
Dampfbad 856
Fall@@ 856
Kette 856
Olympus 856
Paket@@ 856
Sicher@@ 856
Streichung 856
entwicklungs@@ 856
faßt 856
inkl 856
langes 856
respek@@ 856
spürbar 856
them@@ 856
thema 856
tim 856
Gedächtnis 855
Gross@@ 855
Initiativ@@ 855
Lärm@@ 855
abseh@@ 855
dazu@@ 855
ign@@ 855
igt 855
schätzungen 855
Acc@@ 854
Ad 854
Ausschuss@@ 854
Bedar@@ 854
Beschlusses 854
Frühjahr@@ 854
Geburtstag 854
Ged@@ 854
Germany 854
Käse 854
Meldungen 854
Schichten 854
amp 854
fremden 854
geordnet 854
gewirkt 854
hänge 854
paßt 854
verwir@@ 854
Österreichs 854
Überdies 854
Ausgehend 853
Beitritts 853
Betrei@@ 853
Embry@@ 853
Holland 853
King 853
Quark 853
alp@@ 853
bloße 853
diesbezügliche 853
exportiert 853
gebot 853
klam@@ 853
[...]
