the 5881329
, 4756265
. 3907206
of 3073528
and 2720255
to 2640950
in 1900383
a 1674362
is 1374535
that 1117267
for 990123
on 787086
@-@ 738147
with 662449
be 657235
are 637928
The 619352
I 597482
this 573094
as 571746
it 509763
we 502615
have 478617
by 467518
not 465418
which 414632
you 410786
will 408480
&quot; 382365
from 363681
or 350962
at 348465
- 346143
has 345303
an 341892
&apos;s 336291
( 325351
) 322457
European 298465
can 284266
our 272050
all 271741
: 247024
also 245552
was 240919
its 206870
would 202563
your 199011
but 198742
We 198312
more 191981
their 188582
been 186292
In 180965
Mr 180088
one 177556
should 177356
This 172236
It 169410
Commission 167624
must 160117
&apos; 155006
they 147207
President 146496
there 143856
do 143487
other 141122
new 140997
like 140351
only 136945
very 136807
time 136474
about 133712
/ 133631
these 126234
? 124332
us 123935
Union 123512
so 123500
up 121168
who 120044
Parliament 116380
if 115791
Europe 114271
no 112091
people 108360
any 107983
States 107535
out 106775
countries 105847
Member 105414
into 105245
report 104837
such 102618
what 102347
; 98416
Council 97941
EU 97491
need 97481
well 97209
than 96831
my 94456
were 93559
use 93225
when 93061
important 91567
now 91278
some 90690
make 89079
work 89051
them 88790
because 88382
first 88111
between 87874
most 87528
many 86105
take 84076
his 83946
way 79907
support 79424
! 78999
made 77759
A 77684
policy 77342
those 76851
years 76287
information 74652
world 74649
two 74452
If 73777
just 73454
... 72459
am 72378
over 71896
being 71563
able 70140
s 69734
where 69133
had 68312
system 67925
even 67788
may 66568
he 66332
re@@ 66317
year 65732
un@@ 65596
right 65570
economic 64133
order 63982
political 63860
market 63599
part 62241
hotel 61692
% 61269
rights 60613
possible 59951
development 59630
here 59463
same 59351
area 59302
As 58829
see 58388
own 58281
through 58269
against 58114
good 58081
could 57708
therefore 57671
country 57642
how 57352
place 57332
want 56793
within 56156
then 55777
You 55004
much 54863
does 54712
both 54609
after 54572
There 54317
public 53871
For 53674
in@@ 53455
under 53378
point 52896
social 52269
used 52236
fact 51869
without 51402
say 51285
international 51279
find 50764
high 50567
ing 50402
2 50301
believe 50216
de 50061
1 49866
still 49637
number 49510
future 49508
long 49297
me 49147
services 49029
know 48997
already 48832
free 48107
last 47838
today 47690
ed 47526
That 47131
different 47120
view 47033
But 46624
think 46593
cannot 46375
course 46110
great 45950
too 45929
human 45710
financial 45652
set 45652
end 45601
Commissioner 45597
case 45574
process 45454
before 45429
available 45354
level 45281
o 44625
products 44044
debate 43948
proposal 43747
issue 43274
national 43239
i 42863
data 42846
question 42480
said 42178
example 42172
quality 42121
Hotel 41809
situation 41732
means 41402
3 41265
clear 40379
S@@ 40297
Committee 40260
day 40249
measures 40159
get 40019
since 39965
particular 39916
service 39772
es 39678
citizens 39562
However 39549
y 39209
including 39065
during 38942
e 38799
common 38774
energy 38735
agreement 38694
based 38484
help 38284
offers 38140
every 38018
best 37833
taken 37362
give 37282
areas 37250
c@@ 37166
C@@ 37127
problem 37043
ensure 37005
each 36912
put 36860
access 36764
small 36625
business 36371
next 36336
far 35984
three 35937
P@@ 35765
security 35764
provide 35700
problems 35666
cooperation 35287
Our 35225
few 35206
further 35132
necessary 35122
why 34902
large 34702
vote 34692
again 34669
change 34610
go 34552
given 34468
come 34304
s@@ 34175
&#91; 34147
position 34032
ation 33986
hope 33889
&#93; 33739
law 33700
room 33698
however 33694
shall 33636
offer 33595
4 33550
city 33394
On 33392
action 33279
United 32923
real 32831
er 32798
All 32723
needs 32626
p@@ 32545
back 32519
T@@ 32423
al 32375
And 32339
protection 32262
while 32196
group 32122
Community 31855
less 31836
Mrs 31760
trade 31751
better 31670
company 31613
B@@ 31551
rooms 31541
A@@ 31437
To 31430
whether 31338
ers 31328
power 31328
current 31293
With 31242
particularly 31194
5 31158
always 31092
state 31051
life 31040
Group 30985
What 30978
form 30848
terms 30819
legal 30722
down 30698
working 30606
d@@ 30602
her 30592
making 30494
At 30380
using 30264
They 30231
present 30151
issues 30140
become 30026
House 30013
full 29902
10 29867
m 29749
production 29715
result 29640
ate 29500
together 29367
M@@ 29339
sector 29284
women 29260
D@@ 29218
did 29120
conditions 29006
certain 28997
role 28977
G@@ 28928
another 28881
open 28755
health 28718
government 28705
When 28642
o@@ 28458
de@@ 28446
ated 28412
These 28408
main 28291
children 28278
systems 28264
US 28235
basis 28207
en@@ 28188
second 27978
budget 27956
respect 27955
companies 27951
b@@ 27944
special 27880
matter 27795
industry 27669
&amp; 27543
around 27455
per 27395
done 27380
crisis 27371
account 27226
control 27202
whole 27190
E@@ 27183
decision 27183
especially 27168
located 27117
&apos;t 27076
specific 27028
global 27001
F@@ 26994
rapporteur 26987
H@@ 26978
L@@ 26790
various 26737
create 26462
third 26461
million 26382
research 26322
N@@ 26298
stay 26295
resolution 26262
term 26243
dis@@ 26220
continue 26213
K@@ 26047
line 25981
directive 25943
e@@ 25911
growth 25862
programme 25802
regard 25793
region 25740
gentlemen 25711
called 25676
rules 25565
itself 25523
v@@ 25433
non 25405
really 25286
t 25246
y@@ 25221
going 25217
page 25207
experience 25111
major 25081
something 25056
site 25038
old 24942
fully 24916
least 24914
look 24897
institutions 24879
management 24680
wish 24646
t@@ 24588
Treaty 24576
project 24558
local 24549
V@@ 24518
single 24470
general 24395
d 24360
water 24355
Madam 24354
hand 24267
ask 24259
ted 24134
subject 24064
ts 24035
towards 23964
centre 23898
increase 23888
ating 23872
environment 23818
often 23811
following 23738
O@@ 23732
f@@ 23718
Germany 23688
g@@ 23651
once 23614
aid 23580
m@@ 23553
economy 23492
thank 23416
transport 23399
welcome 23365
resources 23274
several 23263
start 23231
days 23200
opportunity 23152
list 23129
China 23110
approach 23067
R@@ 23028
di@@ 23003
Members 22999
money 22934
forward 22870
things 22862
con@@ 22838
20 22781
interest 22777
rather 22772
German 22729
agree 22672
an@@ 22672
close 22661
proposals 22609
framework 22460
amendments 22427
i@@ 22398
behalf 22364
ting 22357
call 22344
individual 22287
name 22287
u@@ 22189
W@@ 22078
ladies 22050
off 22010
State 21988
field 21950
range 21939
yet 21857
No 21842
adopted 21842
product 21811
2009 21802
policies 21797
30 21775
away 21774
progress 21734
&#124; 21597
price 21590
food 21563
little 21561
taking 21561
software 21555
private 21552
might 21541
legislation 21498
solution 21480
safety 21476
modern 21460
activities 21452
al@@ 21410
k@@ 21409
n@@ 21371
until 21309
family 21294
ti@@ 21265
costs 21234
opinion 21221
favour 21138
period 21138
allow 21121
li@@ 21115
quite 21096
having 21038
effective 21037
6 21036
found 21017
a@@ 20976
So 20963
among 20927
members 20924
short 20892
provided 20855
points 20846
reason 20720
ly 20709
him 20671
key 20649
responsibility 20636
concerned 20600
side 20585
7 20584
technology 20575
personal 20573
value 20551
difficult 20486
strategy 20317
greater 20249
ates 20224
importance 20167
others 20139
excellent 20102
&apos;@@ 20053
society 20039
include 20020
air 19935
above 19934
attention 19930
projects 19891
ra@@ 19822
known 19813
environmental 19811
results 19795
play 19788
let 19780
principle 19772
ch@@ 19707
I@@ 19684
groups 19677
building 19642
content 19638
due 19608
simply 19594
makes 19591
le 19531
home 19510
left 19505
p 19504
ations 19486
ar@@ 19473
application 19467
text 19453
employment 19409
authorities 19406
8 19398
times 19346
He 19318
customers 19241
words 19202
recent 19198
light 19190
clearly 19189
c 19176
en 19137
questions 19115
15 19015
Russia 18977
standards 18951
One 18874
risk 18852
addition 18798
achieve 18795
l 18791
serious 18765
co@@ 18749
provides 18717
proposed 18660
age 18631
deal 18556
After 18552
step 18541
show 18540
interests 18500
version 18469
essential 18419
democracy 18409
z@@ 18409
si@@ 18401
ro@@ 18376
x 18252
regulation 18230
j@@ 18193
k 18168
internal 18151
regions 18123
on@@ 18109
design 18077
.@@ 18075
voted 18045
meeting 18039
pages 17952
longer 17949
democratic 17919
efforts 17908
ri@@ 17904
le@@ 17894
h@@ 17865
training 17803
implementation 17796
rate 17784
cultural 17782
freedom 17771
technical 17767
address 17728
website 17710
currently 17696
ago 17695
bring 17669
12 17664
past 17647
required 17633
kind 17621
complete 17614
l@@ 17579
needed 17561
responsible 17559
competition 17550
peace 17541
months 17525
parties 17518
markets 17517
easy 17509
related 17497
negotiations 17496
der 17426
contact 17395
involved 17387
World 17380
2010 17365
er@@ 17320
EUR 17312
themselves 17303
Internet 17267
natural 17259
J@@ 17232
enjoy 17227
positive 17194
2008 17185
location 17169
u 17151
solutions 17108
ent 17104
force 17103
b 17092
sure 17085
user 17056
wide 17022
developing 16945
fundamental 16921
requirements 16907
cost 16903
cases 16887
enough 16841
along 16831
Presidency 16829
town 16803
funds 16774
developed 16756
states 16734
minutes 16696
ings 16688
se 16688
directly 16656
changes 16645
feel 16642
she 16637
als 16622
nature 16617
low 16566
or@@ 16556
young 16550
regional 16545
four 16530
education 16484
led 16483
foreign 16476
C 16426
extremely 16345
thing 16334
strong 16318
upon 16291
sea 16285
climate 16278
man 16272
em@@ 16266
date 16258
workers 16217
events 16160
improve 16154
person 16146
consider 16113
comes 16092
heart 16063
never 16056
via 16036
history 16026
investment 15923
war 15922
keep 15917
th@@ 15869
land 15830
thus 15823
effect 15811
true 15789
share 15752
as@@ 15744
network 15730
el@@ 15719
st@@ 15698
prices 15693
tax 15688
50 15683
staff 15666
es@@ 15659
procedure 15655
central 15649
beautiful 15642
century 15623
house 15609
ar 15608
majority 15601
actually 15569
accept 15546
appropriate 15546
views 15538
either 15531
w@@ 15476
understand 15466
though 15462
reform 15443
lead 15436
success 15419
pay 15397
3@@ 15394
at@@ 15387
el 15356
total 15328
idea 15319
held 15318
seen 15315
Turkey 15294
2007 15284
event 15239
art 15208
International 15185
request 15182
created 15165
im@@ 15162
lot 15133
online 15125
additional 15123
care 15105
run 15105
almost 15100
ever 15093
relations 15077
according 15068
certainly 15065
pre@@ 15055
n 15042
context 15029
meet 15029
From 15012
France 14999
la 14951
live 14939
soon 14926
tions 14917
concerns 14915
language 14914
please 14913
2000 14905
capital 14858
agreements 14852
visit 14833
top 14821
significant 14806
aware 14785
D 14783
impact 14748
doing 14729
r@@ 14725
Re@@ 14713
Please 14702
type 14694
programmes 14674
guarantee 14656
red 14645
des 14632
living 14631
committee 14628
9 14620
five 14603
ous 14603
New 14598
existing 14593
decisions 14591
receive 14572
plan 14559
communication 14556
mentioned 14535
am@@ 14482
file 14479
over@@ 14461
direct 14455
everything 14442
French 14427
Government 14427
military 14402
takes 14385
men 14382
turn 14323
guests 14303
road 14290
concerning 14269
knowledge 14236
add 14219
included 14197
objectives 14178
sh@@ 14161
jobs 14156
car 14150
looking 14142
reasons 14139
initiative 14105
ad@@ 14053
near 14045
Z@@ 14032
try 14005
users 13987
25 13985
America 13981
writing 13980
final 13972
remain 13966
act 13964
standard 13959
designed 13952
facilities 13945
h 13942
reach 13936
apply 13888
Lisbon 13864
week 13862
U@@ 13841
across 13840
governments 13835
rates 13827
ability 13820
throughout 13811
connection 13788
community 13785
4@@ 13763
population 13755
values 13727
demand 13722
team 13719
re 13718
parts 13709
works 13699
24 13683
agricultural 13676
euro 13612
11 13607
outside 13593
fight 13584
nothing 13584
objective 13578
party 13573
concern 13569
American 13558
member 13546
took 13536
amount 13535
sense 13527
unique 13508
By 13498
integration 13482
space 13471
program 13467
hard 13457
100 13449
leading 13434
ally 13429
moment 13403
established 13377
practice 13362
benefit 13359
media 13358
How 13351
ine 13347
although 13336
early 13336
inter@@ 13321
later 13320
Court 13310
ways 13282
Affairs 13271
partners 13260
regarding 13258
basic 13257
develop 13243
model 13229
Al@@ 13218
ve 13194
ac@@ 13158
_ 13155
stage 13146
indeed 13142
etc 13128
et 13105
reports 13102
sp@@ 13101
aim 13100
face 13093
completely 13084
move 13082
S 13073
Let 13061
keyword 13058
ant 13051
customer 13051
performance 13048
dialogue 13046
situated 13033
features 13023
seems 12994
ans 12990
package 12987
km 12950
po@@ 12936
nuclear 12932
Finally 12910
body 12909
achieved 12898
music 12868
My 12831
est 12807
Office 12791
hours 12788
culture 12774
prevent 12772
famous 12765
focus 12748
mean 12732
Y@@ 12729
potential 12724
consumers 12723
goods 12719
2006 12712
traditional 12691
it@@ 12684
Since 12642
lack 12640
quickly 12640
amendment 12629
ab@@ 12606
big 12589
active 12576
X@@ 12570
principles 12558
night 12554
table 12543
allows 12520
check 12517
station 12509
entire 12508
commitment 12504
function 12502
ic 12499
includes 12492
half 12485
x@@ 12470
increased 12460
bar 12456
Article 12451
agreed 12420
lo@@ 12417
treatment 12414
In@@ 12396
ex@@ 12390
+ 12384
send 12357
received 12342
levels 12335
recently 12335
ist 12334
perhaps 12309
read 12293
border 12290
book 12274
matters 12272
South 12264
beach 12244
professional 12239
card 12222
built 12215
ideal 12213
os 12208
contains 12201
18@@ 12186
job 12186
per@@ 12180
successful 12170
g 12161
higher 12154
huge 12120
self 12120
sustainable 12119
everyone 12109
East 12107
promote 12105
Con@@ 12102
whose 12101
co 12094
answer 12090
mind 12073
applications 12066
below 12051
* 12048
web 12047
game 12017
carried 12015
return 11992
TV 11988
enable 11988
restaurant 11984
board 11974
actions 11971
follow 11969
joint 11966
presented 11966
choice 11951
original 11951
ds 11944
stop 11936
simple 11930
response 11921
res 11917
se@@ 11908
B 11890
billion 11881
material 11873
beginning 11868
Therefore 11863
increasing 11853
reduce 11836
bo@@ 11815
June 11813
balance 11808
oil 11802
files 11801
creation 11786
effects 11771
equipment 11767
May 11746
op@@ 11740
aspects 11729
opportunities 11715
ty 11713
highly 11710
funding 11706
possibility 11705
pressure 11704
exchange 11687
enlargement 11685
be@@ 11683
image 11675
Here 11663
tion 11641
capacity 11622
is@@ 11596
priority 11578
civil 11566
direction 11545
test 11542
external 11541
asked 11516
vi@@ 11504
T 11502
added 11484
00 11470
2@@ 11451
bi@@ 11444
note 11440
sed 11420
coming 11399
previous 11389
mail 11379
les 11378
ding 11352
shown 11339
perfect 11337
ma@@ 11336
protect 11333
rest 11332
Africa 11324
reached 11305
ance 11303
closed 11300
O 11292
speak 11275
shows 11273
forms 11272
consumer 11270
equipped 11262
remains 11230
supply 11227
prepared 11225
stability 11208
thanks 11193
An 11185
setting 11180
behind 11177
comfortable 11176
Now 11147
mo@@ 11147
und 11129
complex 11122
5@@ 11111
press 11108
� 11090
Bank 11082
fair 11081
pool 11072
40 11050
supported 11042
ors 11030
considered 11029
Convention 11024
assistance 11022
providing 11004
industrial 11001
ten 10991
holiday 10980
series 10979
Of 10967
Spain 10963
cause 10961
rule 10958
office 10937
categories 10928
2005 10914
movement 10897
friendly 10894
regulations 10883
tic 10879
computer 10864
regards 10854
decided 10843
Central 10840
choose 10827
breakfast 10810
ap@@ 10808
efficient 10802
Some 10798
tra@@ 10789
ver@@ 10787
creating 10786
qu@@ 10776
pro@@ 10771
ce 10768
former 10768
ary 10760
$ 10758
Italy 10758
um 10745
relation 10743
ci@@ 10737
latest 10737
style 10699
18 10698
compromise 10676
discussion 10670
December 10666
independent 10661
came 10612
ec@@ 10604
ves 10604
limited 10600
commercial 10595
violence 10593
size 10591
relevant 10587
® 10582
places 10564
pleased 10564
z 10527
materials 10512
sites 10511
Minister 10509
te 10509
que 10504
sing 10479
procedures 10463
bed 10461
ses 10458
contribution 10447
gives 10437
2004 10430
operation 10420
double 10411
provisions 10404
brought 10403
internet 10386
fishing 10363
similar 10333
purpose 10328
September 10315
benefits 10294
item 10290
sound 10290
activity 10287
Berlin 10274
6@@ 10272
statement 10267
labour 10265
tive 10252
draft 10229
14 10226
agenda 10223
message 10212
steps 10210
criteria 10208
di 10206
walk 10204
E 10188
search 10186
First 10183
structure 10179
travel 10172
leave 10168
instead 10152
Mediterranean 10138
transparency 10133
easily 10131
distribution 10127
effort 10115
front 10112
r 10108
poverty 10106
instruments 10094
document 10088
16 10084
status 10082
giving 10070
credit 10066
British 10064
challenges 10058
English 10055
solidarity 10045
consequences 10044
Republic 10041
property 10038
th 10038
ourselves 10035
Rights 10019
UN 10018
car@@ 10015
elections 10005
2003 9998
safe 9997
medium 9978
six 9978
sub 9966
gas 9957
Today 9956
produced 9951
code 9949
equal 9948
details 9943
to@@ 9929
source 9923
conflict 9917
cross 9916
don 9915
January 9914
center 9914
legislative 9880
om@@ 9868
conference 9859
task 9852
star 9842
stand 9830
express 9829
tri@@ 9823
damage 9818
floor 9811
forces 9810
produce 9790
lines 9780
tell 9770
2001 9756
March 9755
reviews 9745
P 9740
require 9740
popular 9739
terrorism 9716
paid 9710
allowed 9702
13 9699
reality 9697
speed 9680
finally 9676
construction 9671
growing 9668
ones 9649
ke 9648
Mar@@ 9646
October 9642
nor 9640
ground 9638
ch 9634
largest 9634
concept 9616
study 9611
video 9606
link 9601
000 9599
summer 9584
ties 9579
integrated 9576
charge 9567
colleagues 9559
.com 9552
reading 9548
An@@ 9533
te@@ 9531
establish 9517
Ro@@ 9510
par@@ 9499
7@@ 9495
Ar@@ 9489
Service 9482
Furthermore 9460
ling 9459
documents 9452
tomorrow 9439
accommodation 9437
written 9435
option 9420
crucial 9414
Directive 9410
saying 9409
ise 9408
avoid 9407
partner 9403
Development 9400
ou@@ 9400
congratulate 9398
ins 9391
ons 9383
General 9381
efficiency 9378
0@@ 9377
draw 9376
applied 9369
sub@@ 9350
implemented 9341
requires 9324
started 9302
lives 9299
8@@ 9296
organisations 9286
payment 9286
leaders 9276
word 9274
review 9270
talk 9267
Amendment 9258
Co@@ 9255
interesting 9249
elements 9246
enter 9246
Italian 9240
ity 9240
et@@ 9237
monitoring 9226
Party 9225
beyond 9222
G 9201
reduction 9195
relating 9181
goes 9172
voting 9168
ze 9167
Israel 9161
July 9161
tool 9146
analysis 9139
employees 9139
DE 9132
ded 9132
atmosphere 9122
accession 9111
ment 9108
processes 9103
class 9092
immediately 9092
hotels 9091
types 9071
practical 9059
ol@@ 9053
official 9048
IT 9047
su@@ 9047
Spanish 9033
ator 9031
submitted 9018
North 9007
anti 9007
farmers 9004
section 8998
ha@@ 8996
click 8994
carry 8991
powers 8989
Many 8988
island 8986
under@@ 8978
post 8965
sectors 8960
rich 8954
instrument 8949
variety 8929
2002 8923
November 8923
tools 8922
Although 8920
minimum 8916
da 8910
ag@@ 8904
9@@ 8900
M 8889
gra@@ 8883
banks 8879
waste 8860
death 8859
do@@ 8817
happy 8816
challenge 8808
ms 8805
extent 8796
ter 8795
build 8789
wi@@ 8788
expect 8785
bus 8775
ism 8767
reference 8761
Fund 8759
ders 8758
comprehensive 8757
highest 8752
base 8741
cut 8726
persons 8726
ideas 8717
useful 8715
school 8710
mention 8703
Moreover 8702
historical 8702
begin 8699
reforms 8698
National 8696
businesses 8696
X 8695
annual 8694
Windows 8679
guest 8674
secure 8672
strategic 8663
poor 8662
hold 8655
Even 8654
implement 8644
weeks 8642
€ 8630
ta@@ 8617
despite 8609
links 8601
scale 8590
ge@@ 8589
adopt 8580
caused 8575
Indeed 8573
Western 8571
digital 8571
namely 8570
ul@@ 8567
server 8562
technologies 8560
raised 8545
download 8536
ot@@ 8532
la@@ 8521
0 8515
Secondly 8511
borders 8508
operating 8508
ne@@ 8507
numerous 8506
innovation 8503
lower 8500
accordance 8490
sc@@ 8490
starting 8482
drive 8480
alone 8478
During 8474
wine 8470
R 8468
scientific 8452
rise 8433
sts 8426
initiatives 8420
Chinese 8403
doubt 8399
no@@ 8399
month 8389
structural 8389
ed@@ 8371
currency 8363
mobile 8343
cohesion 8335
Ireland 8334
sent 8326
daily 8306
probably 8303
fall 8302
While 8299
child 8299
ces 8298
historic 8298
rec@@ 8298
Russian 8296
debt 8296
é@@ 8284
60 8277
methods 8268
ready 8268
became 8264
regime 8258
affected 8250
gu@@ 8242
ess 8240
April 8239
anything 8227
maximum 8219
L 8218
sometimes 8217
absolutely 8216
scope 8216
bit 8213
influence 8213
unemployment 8208
transfer 8200
representatives 8199
f 8194
so@@ 8190
expressed 8188
round 8188
thought 8187
calls 8184
Your 8177
trying 8177
com@@ 8167
&apos;ll 8162
ur@@ 8159
w 8156
friends 8153
demands 8152
increasingly 8145
late 8145
accepted 8142
confidence 8139
offered 8135
worldwide 8133
17 8126
gh@@ 8122
method 8122
apartment 8121
published 8120
ge 8116
for@@ 8113
1999 8108
ina 8103
Conference 8100
lies 8098
advantage 8094
ality 8094
illegal 8091
vital 8090
justice 8089
sales 8088
fine 8073
ni@@ 8071
Iraq 8069
chance 8062
committed 8056
offering 8052
ments 8050
options 8050
distance 8048
= 8047
news 8042
priorities 8038
machine 8037
heard 8032
overall 8030
mis@@ 8026
ent@@ 8021
ators 8020
maintain 8016
learn 8012
K 8005
interested 8001
lost 7989
approved 7987
innovative 7987
extra 7984
intended 7983
critical 7981
Thank 7971
infrastructure 7965
ence 7956
emissions 7951
talking 7945
die 7943
join 7933
head 7923
pi@@ 7923
languages 7916
administration 7907
conclusion 7906
Nations 7905
wanted 7894
village 7884
proper 7881
stress 7871
relationship 7869
circumstances 7856
processing 7855
alternative 7850
En@@ 7847
ad 7846
ensuring 7839
F 7836
cities 7822
victims 7822
Austria 7818
plans 7814
worked 7814
crime 7811
ful 7811
likely 7801
st 7794
release 7791
ter@@ 7783
mon@@ 7781
-@@ 7777
del 7775
Do 7773
gi@@ 7766
competitive 7765
clients 7764
opening 7764
uses 7759
sports 7750
fields 7749
Greece 7748
risks 7748
income 7747
pass 7746
II 7743
pe@@ 7737
target 7737
tabled 7736
effectively 7731
fi@@ 7730
up@@ 7716
contribute 7712
encourage 7709
res@@ 7698
decide 7694
man@@ 7687
got 7679
ry 7676
improved 7671
il@@ 7666
Is 7662
pa@@ 7662
reduced 7652
out@@ 7643
agriculture 7635
players 7620
Japan 7619
21 7616
UK 7612
Security 7602
ck@@ 7602
budgetary 7593
goal 7588
participation 7587
contract 7585
cover 7583
restaurants 7565
Bo@@ 7559
aimed 7552
fish 7549
La 7544
changed 7544
met 7543
bu@@ 7542
morning 7542
son 7542
India 7531
ski 7521
bank 7519
airport 7516
comments 7514
fellow 7514
says 7508
images 7500
Public 7497
mainly 7485
ler 7484
green 7480
whom 7474
us@@ 7472
park 7468
ra 7461
ative 7448
Iran 7425
80 7419
placed 7417
ving 7409
assessment 7406
exist 7405
mountain 7405
planning 7400
Only 7398
precisely 7398
19 7395
ren@@ 7395
apartments 7387
institutional 7386
correct 7382
partnership 7375
West 7371
discussed 7360
specifically 7359
hi@@ 7358
sources 7356
discuss 7341
laws 7337
fast 7336
strengthen 7336
running 7328
immigration 7320
200 7310
Room 7310
supports 7310
People 7303
stated 7302
ents 7297
player 7293
discrimination 7290
enterprises 7287
discussions 7275
22 7272
wrong 7265
protected 7259
traffic 7255
families 7254
developments 7253
games 7253
ho@@ 7249
ten@@ 7248
manner 7246
selection 7243
motion 7240
defined 7238
ir@@ 7231
Agreement 7226
Th@@ 7224
ber@@ 7221
introduced 7221
measure 7217
rural 7214
More 7203
Di@@ 7199
guidelines 7188
Car@@ 7185
film 7184
financing 7182
suitable 7181
zed 7180
represents 7175
ic@@ 7164
serve 7159
wants 7157
ets 7150
nice 7142
becoming 7139
powerful 7139
V 7133
500 7132
{ 7130
box 7121
sufficient 7119
automatically 7117
sign 7117
tor 7113
Paris 7111
da@@ 7106
else 7098
introduction 7095
improving 7089
train 7089
Ad@@ 7087
competitiveness 7087
Middle 7085
referred 7085
Asia 7081
limit 7080
sk@@ 7077
Centre 7071
ship 7068
broad 7060
ps 7060
closely 7056
ure 7051
speaking 7050
managed 7044
covered 7040
fisheries 7036
administrative 7034
Mo@@ 7027
Pro@@ 7026
yourself 7023
phone 7022
quiet 7020
monetary 7018
police 7012
detailed 7002
animals 7000
thousands 6994
considerable 6992
supporting 6991
clean 6990
27 6989
appear 6988
exactly 6978
sized 6976
sitting 6975
loss 6974
linked 6967
ati@@ 6956
presidency 6955
coordination 6952
relate 6951
separate 6951
minute 6947
sive 6946
installation 6943
represent 6942
v 6942
GmbH 6940
economies 6936
visitors 6935
email 6933
inc@@ 6928
electronic 6925
session 6923
networks 6915
purposes 6905
parliamentary 6903
king 6899
speech 6892
listed 6882
signed 6881
functions 6880
delivery 6879
ca 6878
menu 6878
Park 6873
happen 6873
ru@@ 6871
entry 6863
provision 6851
Economic 6845
summit 6843
Ma@@ 6840
Policy 6840
generation 6835
hour 6833
Why 6829
Web 6820
ages 6817
thinking 6816
} 6814
wing 6813
sion 6810
ep@@ 6809
evening 6805
www.@@ 6805
otherwise 6803
duty 6802
facing 6800
earlier 6796
ging 6796
AG 6785
parking 6784
den@@ 6783
ut@@ 6781
Ch@@ 6778
feature 6775
du@@ 6769
bad 6768
plant 6768
bodies 6766
lu@@ 6766
H 6757
suggest 6757
1.@@ 6754
shopping 6752
London 6738
map 6735
Cor@@ 6731
authority 6730
Its 6729
comm@@ 6725
17@@ 6724
ies 6718
end@@ 6714
usually 6706
San 6702
operations 6702
pl@@ 6690
record 6687
extensive 6685
swimming 6685
properly 6682
Social 6681
remember 6679
difficulties 6678
comfort 6672
positions 6667
den 6664
garden 6661
Brussels 6658
expected 6650
ously 6649
organisation 6646
ia 6642
ph@@ 6641
collection 6640
sions 6638
threat 6637
ali@@ 6636
modified 6635
domestic 6633
understanding 6633
politics 6628
N 6627
dealing 6627
founded 6626
ical 6625
seem 6620
followed 6612
cu@@ 6607
Then 6603
worth 6597
trust 6590
degree 6587
port 6584
getting 6579
path 6572
spirit 6568
ev@@ 6562
entirely 6557
00@@ 6555
consideration 6553
programs 6550
animal 6537
students 6535
promoting 6529
ters 6525
Unfortunately 6521
ing@@ 6516
ably 6514
combat 6513
sen@@ 6511
February 6510
street 6510
experts 6508
presence 6508
refer 6507
flexibility 6505
humanitarian 6499
23 6486
began 6482
cor@@ 6481
&apos;re 6479
average 6467
City 6462
medical 6456
fund 6454
love 6449
establishment 6448
regular 6448
ka 6446
flexible 6443
bar@@ 6427
white 6422
University 6421
Ukraine 6416
failure 6407
save 6403
Poland 6397
applies 6389
hear 6388
opposition 6388
opened 6380
implementing 6374
reducing 6368
seriously 6365
paper 6360
adoption 6357
me@@ 6352
played 6352
sur@@ 6350
informed 6348
PC 6342
difference 6334
fiscal 6332
defence 6326
aims 6325
spend 6321
finance 6317
ys 6317
track 6315
criminal 6310
origin 6306
Kingdom 6305
appears 6295
Each 6292
practices 6292
selected 6292
sti@@ 6291
Czech 6290
tourism 6289
Europeans 6285
Not 6283
Switzerland 6277
components 6277
connected 6275
fo@@ 6270
il 6267
terrace 6265
camera 6260
marketing 6255
screen 6255
St@@ 6252
fixed 6251
election 6250
Firstly 6249
70 6244
90 6243
vehicles 6239
Gu@@ 6234
actual 6234
aspect 6234
net 6233
ard 6227
balanced 6224
born 6219
differences 6217
est@@ 6217
au@@ 6216
ale 6213
ying 6210
respond 6201
attempt 6199
stable 6190
union 6187
producers 6183
ak@@ 6181
ES 6180
bathroom 6178
Ex@@ 6174
Sea 6172
plants 6170
Rooms 6169
exclusive 6166
God 6165
der@@ 6163
spending 6162
Because 6159
Y 6156
structures 6149
mar@@ 6148
Lo@@ 6147
client 6145
south 6145
statements 6145
consumption 6144
1@@ 6143
myself 6143
ness 6143
votes 6143
Just 6137
playing 6137
Justice 6134
buy 6131
meetings 6131
metres 6130
won 6129
negative 6127
Barcelona 6126
larger 6126
propose 6126
dangerous 6122
recognition 6120
concrete 6115
0.@@ 6113
happened 6113
purchase 6112
Human 6111
,000 6110
Debian 6108
tourist 6105
&gt; 6101
ma 6095
easier 6094
ari@@ 6092
normal 6089
reasonable 6083
asylum 6082
war@@ 6079
genuine 6076
hands 6075
served 6075
agencies 6062
Q@@ 6058
unacceptable 6054
advanced 6051
becomes 6050
ahead 6049
sa@@ 6047
raise 6046
forget 6045
WTO 6040
ban 6036
go@@ 6032
col@@ 6030
calling 6027
Ri@@ 6025
EC 6020
evidence 6019
ana 6014
ne 6014
introduce 5999
numbers 5997
generally 5996
prior 5996
buildings 5993
estate 5993
select 5992
fear 5991
mission 5991
Bar@@ 5988
impossible 5985
membership 5979
August 5978
pre 5978
guarantees 5977
immediate 5974
un 5972
seek 5971
elected 5963
According 5957
ese 5956
ob@@ 5952
trading 5945
unfortunately 5945
can@@ 5942
gave 5942
sport 5937
Amsterdam 5923
associated 5911
peaceful 5908
instance 5907
campaign 5904
acts 5903
establishing 5901
houses 5897
improvement 5878
Once 5872
ks 5872
wa@@ 5872
telephone 5870
Also 5865
items 5864
continued 5862
gain 5860
cards 5858
zing 5858
High 5853
ches 5853
fresh 5853
Pre@@ 5852
Free 5848
USA 5845
inside 5844
carefully 5843
ology 5840
walking 5839
spent 5838
experienced 5834
voice 5830
ish 5829
closer 5827
Po@@ 5825
stock 5816
shared 5809
urgent 5809
went 5807
fied 5804
machines 5802
Kosovo 5801
CD 5794
picture 5793
cs 5787
Services 5785
Prime 5782
territory 5781
core 5779
War 5778
sides 5778
Democrats 5776
African 5773
detail 5770
Regulation 5760
ck 5759
continues 5759
strongly 5756
é 5752
Turkish 5750
des@@ 5750
enormous 5748
desire 5745
figures 5745
conclusions 5743
era 5743
anyone 5739
commitments 5733
outcome 5732
perspective 5732
inform 5731
Le@@ 5726
Christian 5725
leader 5724
he@@ 5722
truly 5721
Palestinian 5720
cal 5709
changing 5707
told 5707
display 5704
religious 5704
models 5703
rightly 5703
sensitive 5697
fire 5693
wishes 5690
comp@@ 5688
Com@@ 5685
contrary 5681
database 5680
winter 5680
convinced 5677
failed 5676
bear 5675
Linux 5667
announced 5665
Li@@ 5662
export 5662
cur@@ 5653
obtain 5652
participate 5652
weapons 5651
Irish 5648
Yet 5645
unto 5641
mi@@ 5639
greatest 5632
insurance 5632
element 5630
typical 5630
Such 5625
wonderful 5625
candidate 5618
photo 5615
drawn 5614
allowing 5613
tasks 5613
paragraph 5607
ants 5606
300 5600
Euro 5596
exercise 5590
fl@@ 5587
transparent 5587
passed 5583
availability 5582
described 5580
remind 5580
Most 5576
manage 5576
Nevertheless 5574
warm 5574
forced 5573
combination 5572
factors 5572
Swiss 5570
studies 5570
honourable 5567
Lu@@ 5564
har@@ 5558
controls 5555
Vi@@ 5554
Trade 5552
definition 5551
institution 5551
Research 5550
ble 5550
equality 5549
achieving 5546
payments 5545
unless 5539
disease 5538
format 5538
á@@ 5538
Green 5536
tradition 5528
ambitious 5527
Booking.com 5520
sort 5517
firm 5514
ie 5513
charged 5512
Constitution 5509
Be@@ 5507
fying 5504
permanent 5502
Guest 5497
ta 5486
19@@ 5482
himself 5482
obligations 5482
tu@@ 5474
translation 5470
possibilities 5467
lin@@ 5466
character 5465
ently 5465
De@@ 5464
expenditure 5464
intervention 5463
Mon@@ 5462
tour 5462
advance 5459
beds 5459
targets 5458
kitchen 5457
vo@@ 5456
packages 5454
Foreign 5452
Due 5449
sets 5447
individuals 5444
Greek 5443
comment 5442
Un@@ 5436
reliable 5436
ver 5432
1998 5425
ast@@ 5424
colleague 5419
entitled 5418
organised 5415
W 5414
20@@ 5412
GDP 5411
governance 5411
Portugal 5407
initial 5401
claims 5400
laid 5394
Health 5392
learning 5391
attractive 5390
unable 5389
fun 5388
Eastern 5387
obviously 5386
.. 5380
neither 5380
28 5375
ER 5375
enables 5369
granted 5368
26 5366
deep 5365
Par@@ 5364
va 5363
contain 5362
independence 5357
compared 5356
district 5355
Board 5353
vision 5351
ats 5347
ges 5347
article 5345
gen@@ 5344
yesterday 5342
moving 5335
season 5333
shop 5326
av@@ 5325
eg@@ 5325
continuing 5324
um@@ 5324
limits 5322
courses 5319
combined 5317
installed 5317
registered 5317
strengthening 5313
names 5311
totally 5309
She 5308
middle 5308
AN@@ 5304
2.@@ 5299
His 5298
cars 5296
Netherlands 5294
completed 5294
pointed 5292
corporate 5286
skills 5281
expression 5279
advertising 5278
promotion 5278
dy 5275
stands 5272
merely 5270
prevention 5263
exhibition 5256
recommendations 5248
brand 5245
substantial 5245
asking 5244
devices 5243
Airport 5241
grounds 5227
black 5223
mechanism 5223
goals 5222
decades 5219
Another 5217
kept 5215
extended 5213
obvious 5210
cre@@ 5209
platform 5208
button 5184
Sch@@ 5179
win 5178
ics 5176
consensus 5174
responsibilities 5174
Summit 5173
zation 5171
bringing 5169
court 5169
conclude 5165
binding 5163
seeking 5163
situations 5163
attack 5157
reservation 5157
architecture 5151
putting 5147
ig@@ 5144
eb@@ 5141
recovery 5136
31 5133
Every 5132
communities 5132
thereby 5132
zone 5128
science 5125
monitor 5123
sale 5123
Inter@@ 5121
ner 5121
wood 5120
released 5119
attacks 5117
bur@@ 5115
claim 5114
acc@@ 5110
rapid 5110
mass 5109
ines 5107
Thus 5103
acceptable 5101
refugees 5096
ber 5091
15@@ 5090
pleasant 5090
ens 5088
super@@ 5088
York 5087
consistent 5081
storage 5078
35 5076
condition 5075
biggest 5074
ste@@ 5071
factor 5070
door 5068
break 5067
resort 5063
shops 5061
pictures 5060
agency 5057
television 5057
write 5056
U 5053
tried 5052
weight 5049
addressed 5048
arms 5045
compliance 5045
capable 5043
Su@@ 5039
color 5034
deliver 5033
Agency 5030
nation 5025
sis 5018
contained 5017
sanctions 5015
successfully 5015
install 5013
memory 5013
extend 5012
discussing 5010
advice 5009
cuisine 5005
ino 5002
maintenance 5002
signal 5001
operate 5000
causes 4999
background 4997
north 4992
ice 4983
Those 4980
sting 4975
ological 4973
elegant 4971
constantly 4969
investments 4969
chosen 4965
vehicle 4964
dimension 4963
alism 4962
ingly 4961
mark 4961
fuel 4958
nations 4957
guaranteed 4955
Business 4953
ancient 4950
organization 4949
qualified 4942
AT@@ 4940
piece 4938
Can 4934
ven@@ 4930
Ac@@ 4927
Dis@@ 4927
testing 4927
perfectly 4925
med 4923
seven 4922
spacious 4919
IN@@ 4918
accessible 4908
ships 4907
planned 4903
mechanisms 4902
talks 4900
mm 4897
dedicated 4894
Romania 4890
explain 4889
surface 4889
ised 4885
keeping 4884
industries 4881
dynamic 4879
adequate 4875
Latin 4871
determined 4871
meters 4870
ade 4864
interface 4863
10@@ 4857
diversity 4857
IT@@ 4853
urge 4852
phase 4851
Sweden 4849
saw 4847
stone 4847
ass@@ 4846
surrounding 4845
recommend 4844
Environment 4843
Minutes 4841
trans@@ 4841
valid 4832
29 4824
beaches 4823
physical 4822
AR@@ 4821
delay 4820
competence 4816
leadership 4815
ring 4813
exp@@ 4811
ore 4810
EC@@ 4808
hot 4807
railway 4807
identity 4805
evaluation 4804
resulting 4800
sha@@ 4799
1997 4798
host 4796
Are 4795
mutual 4795
Click 4792
arrival 4790
leads 4788
foot 4785
sun 4784
update 4783
examples 4782
someone 4781
id 4778
dealt 4776
mer@@ 4776
category 4775
print 4775
consultation 4773
technological 4772
politicians 4770
Management 4762
conduct 4762
approval 4761
contents 4761
disposal 4761
device 4760
à 4757
aircraft 4755
45 4753
spread 4752
16@@ 4751
Rules 4749
cra@@ 4741
patients 4741
guide 4735
affect 4730
treated 4727
unit 4724
ba@@ 4722
Austrian 4720
association 4715
nearly 4715
multi 4714
tests 4714
IC@@ 4713
brings 4712
manufacturing 4711
relax 4710
representative 4709
lose 4702
Euro@@ 4698
object 4695
older 4695
primary 4695
burden 4694
Association 4693
tors 4693
ger 4690
Federal 4689
sal@@ 4689
recognise 4688
Museum 4683
tor@@ 4682
flight 4678
emphasise 4672
coast 4669
flow 4668
Vienna 4663
primarily 4662
System 4661
waiting 4658
regret 4657
bl@@ 4653
coffee 4644
drugs 4644
helpful 4643
medi@@ 4643
beauty 4642
fer@@ 4640
previously 4640
rejected 4636
story 4635
accounts 4634
registration 4633
shower 4632
discover 4629
engine 4629
outstanding 4626
existence 4624
window 4623
remove 4622
oral 4615
approximately 4614
resolve 4614
highlight 4612
driving 4610
speakers 4610
faced 4607
tur@@ 4605
por@@ 4604
bra@@ 4603
letter 4601
trip 4601
artists 4600
booking 4600
ER@@ 4598
Great 4595
race 4595
standing 4595
river 4593
orders 4586
reply 4585
liability 4584
participants 4584
turned 4583
Tra@@ 4582
taxes 4582
improvements 4581
AS@@ 4578
Ber@@ 4578
disaster 4576
represented 4576
ton 4575
ce@@ 4571
Both 4570
compensation 4570
nearby 4568
significantly 4567
smaller 4564
urban 4564
Gra@@ 4560
obligation 4560
holidays 4558
delegation 4556
knows 4555
FR 4554
attitude 4553
Man@@ 4551
cl@@ 4550
helping 4550
reception 4548
species 4544
Center 4542
ists 4541
meaning 4540
spaces 4537
appeal 4534
truth 4534
smoking 4531
rent 4529
fin@@ 4527
Red 4524
amongst 4524
cally 4524
ws 4524
fraud 4522
affairs 4519
suffering 4514
Despite 4513
prepare 4511
renewable 4510
intention 4509
rail 4505
Energy 4504
pen@@ 4504
wealth 4504
ja 4503
requested 4502
tly 4501
ely 4498
Chamber 4497
ve@@ 4496
danger 4494
combating 4492
IS@@ 4490
comply 4490
AL@@ 4488
ster 4488
title 4486
church 4485
mobility 4485
Information 4482
ak 4482
# 4481
fighting 4481
square 4479
consists 4477
manufacturers 4474
entered 4470
om 4467
solve 4466
profit 4465
controlled 4464
na 4463
Any 4461
Britain 4460
dra@@ 4459
route 4459
tics 4459
von 4459
emphasis 4455
ini 4453
reflect 4452
substances 4451
ths 4449
firstly 4448
pri@@ 4447
AC@@ 4446
books 4446
mandate 4445
diseases 4438
ori@@ 4438
ST@@ 4437
steel 4435
Programme 4434
fail 4433
im 4432
millions 4430
strength 4429
schools 4427
constructive 4424
syn@@ 4423
notice 4422
serves 4421
touch 4421
EN@@ 4420
St. 4420
officials 4420
mountains 4418
kinds 4416
Ab@@ 4410
expectations 4407
peoples 4406
Afghanistan 4402
versions 4401
forest 4400
Dutch 4399
marked 4395
recognised 4395
relaxing 4395
glass 4393
landscape 4393
all@@ 4391
ano 4391
involving 4390
RE@@ 4385
Paper 4384
directives 4384
Thanks 4383
delivered 4381
protecting 4381
14@@ 4373
&apos;ve 4372
treaty 4367
ined 4366
tes 4365
Microsoft 4364
acting 4364
exists 4361
Find 4360
arrangements 4359
br@@ 4359
satellite 4358
launched 4355
NATO 4354
ite 4348
drawing 4347
Restaurant 4346
luxury 4346
involvement 4345
default 4342
Other 4341
fac@@ 4336
surrounded 4336
attractions 4334
copy 4333
fication 4333
Instead 4330
extension 4330
Ministers 4328
opposed 4328
register 4328
president 4327
aries 4321
rapporteurs 4321
shape 4320
southern 4319
opposite 4318
ES@@ 4317
respective 4317
liberalisation 4315
requests 4313
finding 4312
criticism 4310
ched 4307
Per@@ 4305
Strategy 4305
largely 4304
whatever 4303
Pi@@ 4301
UN@@ 4300
multiple 4300
ian 4297
ended 4293
operators 4293
Before 4292
naturally 4290
Monetary 4289
ran@@ 4288
relatively 4288
presentation 4286
dri@@ 4285
holding 4282
Market 4277
hand@@ 4277
gre@@ 4276
debates 4273
Safety 4272
reaching 4271
stations 4270
store 4267
pleasure 4264
happens 4261
Club 4259
felt 4259
not@@ 4259
Charter 4254
j 4250
Bar 4249
Software 4247
personally 4243
regulatory 4243
figure 4241
producing 4241
applicable 4240
Or@@ 4238
advantages 4238
discharge 4238
repeat 4237
equally 4233
gets 4230
heavy 4228
eight 4227
feeling 4227
latter 4227
mid 4226
expertise 4225
defend 4220
photos 4219
ff@@ 4217
1996 4215
happening 4214
error 4213
tim@@ 4213
temporary 4202
au 4200
author 4195
collective 4194
van 4192
length 4190
Private 4189
inflation 4187
restrictions 4186
í@@ 4186
32 4184
amounts 4179
No@@ 4178
ur 4177
contributions 4176
gender 4175
lake 4175
Sp@@ 4171
contemporary 4170
expensive 4168
constant 4167
prove 4167
Mor@@ 4164
strategies 4162
Sa@@ 4160
appreciate 4159
hostels 4159
confirmed 4158
Financial 4157
sell 4155
cks 4152
@ 4150
continent 4150
ff 4150
mode 4149
sted 4149
ought 4147
Swedish 4144
increases 4144
Home 4143
determine 4142
Rome 4141
worse 4141
texts 4138
min@@ 4137
Located 4136
covers 4135
whilst 4135
back@@ 4134
resolutions 4134
club 4133
Se@@ 4132
opinions 4132
parliaments 4132
experiences 4131
tical 4131
tan@@ 4130
ann@@ 4125
berg 4125
proof 4125
healthy 4123
onto 4121
MEPs 4120
fruit 4119
ker 4118
awareness 4116
inv@@ 4115
sol@@ 4114
valuable 4114
fu@@ 4110
2020 4109
carbon 4109
bath 4106
conflicts 4105
bro@@ 4103
quick 4102
bars 4100
mann 4097
lic@@ 4094
fit 4091
eye 4090
ved 4090
recommendation 4089
Two 4088
cing 4084
furnished 4082
centres 4081
plus 4080
requirement 4080
stra@@ 4080
Bi@@ 4079
locations 4077
units 4075
Ladies 4072
massive 4072
define 4071
75 4070
uni@@ 4069
emerging 4066
resi@@ 4066
skin 4065
terrorist 4063
passengers 4062
websites 4058
head@@ 4057
browser 4056
engineering 4056
investors 4056
Control 4052
contracts 4051
radio 4047
involve 4046
runs 4045
willing 4043
handling 4040
els 4039
Cyprus 4036
helps 4036
output 4035
wed 4035
intend 4032
migration 4032
welfare 4031
except 4030
minority 4030
ye 4030
ethnic 4029
sexual 4028
subsidies 4028
Go@@ 4026
IP 4026
met@@ 4023
facilitate 4021
fill 4021
privacy 4021
cycle 4018
To@@ 4015
DVD 4014
helped 4013
Grand 4012
e.g. 4012
exclusively 4012
waters 4012
sold 4011
moved 4009
Note 4008
Si@@ 4008
mu@@ 4007
buffet 4006
SMEs 4005
ery 4005
ear@@ 4004
ars 4002
issued 3994
organizations 3992
effectiveness 3988
sec@@ 3986
Company 3983
Mi@@ 3983
articles 3981
corruption 3981
ou 3980
Where 3976
For@@ 3975
Rule 3974
yes 3974
fe@@ 3973
Korea 3972
Last 3972
i.e. 3972
Tri@@ 3970
gone 3969
audio 3968
Arab 3966
gar@@ 3966
reserves 3965
identify 3962
Bulgaria 3961
chain 3960
depends 3960
operational 3958
precise 3956
vel@@ 3955
Croatia 3952
acy 3950
pollution 3950
soft 3950
sto@@ 3950
volume 3950
ement 3949
automatic 3947
recommended 3947
preparation 3945
IS 3943
du 3941
Alliance 3940
proved 3940
ward 3940
charges 3938
ther@@ 3938
imposed 3935
obtained 3935
ultimately 3934
meat 3927
Given 3926
removed 3926
wait 3926
che 3925
judicial 3925
alisation 3923
tru@@ 3923
ering 3922
Israeli 3917
communications 3916
Lake 3915
discovered 3914
water@@ 3909
Ni@@ 3904
her@@ 3902
suite 3901
cutting 3900
Her@@ 3898
facts 3898
Lord 3895
Google 3893
work@@ 3893
creates 3892
ically 3892
trafficking 3892
jo@@ 3891
understood 3888
men@@ 3886
customs 3885
functioning 3885
focused 3883
CO@@ 3880
leaving 3878
Roma 3876
destination 3873
golf 3873
emergency 3872
5.@@ 3871
cal@@ 3870
launch 3869
creative 3866
spring 3866
cul@@ 3865
grateful 3864
electricity 3861
firms 3861
counter 3860
assist 3858
bilateral 3858
cheap 3858
ours 3858
grant 3856
named 3855
Luxembourg 3854
universal 3854
ced 3852
remaining 3852
wind 3852
pping 3850
sen 3848
objects 3847
extreme 3846
hundreds 3845
confirm 3844
declaration 3844
fy 3843
maintained 3843
™ 3843
occasion 3835
reserve 3835
ft 3832
glad 3832
block 3831
looks 3831
seeing 3829
ya 3828
Brazil 3824
Check 3819
and@@ 3819
eyes 3818
Schengen 3817
cent 3815
exceptional 3813
impression 3813
parents 3812
OS 3809
dly 3806
Over 3802
statistics 3801
alised 3800
committees 3800
Institute 3799
command 3799
submit 3798
vast 3798
Qu@@ 3797
deals 3796
reject 3795
abroad 3794
Cal@@ 3793
Enjoy 3793
Pact 3790
spa 3789
Foundation 3788
perform 3786
conducted 3784
stri@@ 3783
divided 3782
Amendments 3781
assets 3779
offices 3777
ro 3776
demonstrate 3772
transition 3771
down@@ 3770
justified 3770
minorities 3769
oc@@ 3768
° 3763
visa 3762
RO@@ 3761
ron@@ 3759
ral 3758
Under 3757
ends 3756
credibility 3754
demonstrated 3753
characteristics 3749
immigrants 3748
temperature 3748
ged 3747
demanding 3746
topic 3745
we@@ 3742
6.@@ 3741
grow 3741
maintaining 3741
hit 3738
delighted 3737
noted 3737
za 3737
ports 3733
trees 3733
98 3732
Japanese 3729
Villa 3726
friend 3724
Art 3723
Procedure 3723
ration 3719
faster 3717
crimes 3716
somewhat 3716
Polish 3715
Applause 3714
visible 3712
ongoing 3711
pension 3708
absolute 3707
concluded 3706
streets 3706
adopting 3705
Book 3704
ching 3704
answers 3703
marks 3701
Soviet 3700
tackle 3700
bri@@ 3699
Take 3698
ang 3698
lay 3698
password 3698
PT 3697
3.@@ 3695
hor@@ 3695
Use 3694
determination 3693
are@@ 3689
constitutional 3689
impressive 3689
ah 3685
ots 3685
Munich 3684
connections 3684
ei@@ 3684
Their 3683
Breakfast 3680
stronger 3680
deficit 3677
strict 3675
Question 3672
boat 3672
involves 3670
compatible 3668
actively 3667
intellectual 3665
Funds 3664
convenient 3664
overcome 3662
ures 3659
taste 3658
legitimate 3657
blue 3656
Time 3654
follows 3654
museum 3654
signs 3654
4.@@ 3653
residence 3653
proud 3650
taxation 3650
Ba@@ 3648
phrase 3647
blood 3645
Perhaps 3642
contrast 3642
Copenhagen 3641
dec@@ 3638
01 3637
Portuguese 3634
-- 3633
speaker 3632
declared 3631
atic 3629
charming 3627
watch 3626
respected 3624
subsidiarity 3623
bre@@ 3622
regularly 3618
bedroom 3615
mer 3615
Gi@@ 3614
row 3612
feed 3611
indicated 3611
journey 3611
So@@ 3605
star@@ 3605
citizen 3601
satisfied 3600
dishes 3599
dependent 3597
globalisation 3596
ek 3595
organized 3595
messages 3594
1995 3591
competent 3591
Belarus 3590
eu@@ 3590
ple@@ 3588
encouraging 3587
edge 3586
load 3586
Structural 3585
finished 3585
careful 3584
chemical 3584
ess@@ 3580
wall 3577
roads 3576
ID 3572
accompanied 3572
sm@@ 3570
2011 3568
White 3568
doors 3567
hardware 3566
drug 3565
displayed 3560
mp@@ 3560
dates 3558
tr@@ 3558
Best 3557
couple 3557
meant 3557
tional 3557
sters 3556
multi@@ 3555
flat 3551
vulnerable 3551
conditioning 3550
vers 3550
Do@@ 3547
frequently 3546
inclusion 3545
heritage 3544
noise 3543
Baltic 3541
PL 3541
plenary 3540
13@@ 3539
rapidly 3539
Hotels 3537
constitution 3537
east 3537
je@@ 3536
bound 3534
fies 3533
eastern 3532
possibly 3531
tested 3530
contacts 3529
rising 3528
scheme 3528
colour 3527
partly 3524
tures 3521
Can@@ 3520
Col@@ 3520
exports 3520
impose 3520
Nice 3519
furniture 3518
resistance 3518
Pakistan 3517
cold 3517
Le 3516
assume 3515
Vice 3514
familiar 3510
newly 3510
the@@ 3508
Costa 3505
ach@@ 3504
definitely 3503
banking 3502
showing 3501
ular 3501
99 3499
died 3498
loc@@ 3497
brief 3496
cap@@ 3495
argument 3494
collaboration 3494
lets 3494
raw 3494
Frankfurt 3492
spoken 3492
entertainment 3490
Canada 3488
EL@@ 3488
Protection 3488
ir 3488
400 3487
reported 3486
widely 3485
joined 3483
seat 3479
Am@@ 3478
doesn 3476
earth 3476
El@@ 3475
elsewhere 3475
pieces 3475
decisive 3473
printing 3473
proposing 3473
destruction 3472
los 3472
mor@@ 3472
30@@ 3471
23@@ 3468
apart 3468
owners 3468
regarded 3467
occasions 3466
Thirdly 3465
proposes 3464
je 3463
band 3461
cable 3458
license 3458
resolved 3458
saving 3458
ga@@ 3457
bottom 3456
lists 3456
profile 3456
ser@@ 3454
app@@ 3453
ó@@ 3452
prefer 3451
occur 3450
Pa@@ 3449
referendum 3449
excessive 3448
counter@@ 3447
lasting 3447
expansion 3446
sky 3444
flo@@ 3441
our@@ 3441
Belgium 3437
bs 3436
ell@@ 3436
outdoor 3436
Hungary 3435
ming 3435
air@@ 3434
Yes 3433
correctly 3433
quarter 3430
ty@@ 3428
clo@@ 3427
passenger 3427
cuts 3426
settings 3425
leisure 3421
ture 3420
150 3419
afternoon 3419
examine 3419
tobacco 3417
drivers 3416
hin@@ 3416
listen 3414
oriented 3414
satisfaction 3414
depending 3413
depth 3412
cking 3410
em 3409
Au@@ 3407
transactions 3407
driver 3404
configuration 3403
AD@@ 3402
ory 3402
land@@ 3401
provider 3399
dan@@ 3398
father 3398
preparing 3398
ju@@ 3395
Non 3394
updated 3394
settlement 3393
Whether 3392
prosperity 3391
starts 3391
Action 3389
identified 3389
Nos 3387
desired 3385
Day 3383
politically 3383
Rec@@ 3381
housing 3381
interpretation 3381
properties 3381
returned 3381
sight 3381
fee 3380
presents 3380
educational 3379
tic@@ 3378
woman 3378
invite 3375
foundation 3373
pursue 3373
ACP 3371
Get 3371
ising 3371
bor@@ 3370
sian 3370
expert 3369
channels 3367
documentation 3366
fil@@ 3366
northern 3366
absence 3365
Kar@@ 3364
95 3362
library 3361
SP@@ 3360
tours 3360
weather 3360
generated 3359
log 3359
maritime 3359
invest 3357
puts 3357
shares 3356
behaviour 3353
Data 3352
cies 3352
suffer 3352
ns 3351
replace 3351
voluntary 3347
Mexico 3346
amp@@ 3346
fre@@ 3346
west 3346
alization 3345
dining 3345
mat@@ 3344
remote 3344
Fi@@ 3343
dinner 3341
savings 3339
gs 3335
heating 3335
Bush 3334
appointed 3332
Sh@@ 3331
bedrooms 3331
ending 3331
pped 3330
Framework 3329
elling 3328
Without 3326
classic 3325
Second 3322
moral 3322
techniques 3322
imports 3320
Bu@@ 3319
12@@ 3317
bly 3317
THE 3314
iz@@ 3314
percent 3313
spot 3313
visited 3313
Welcome 3312
Women 3312
considering 3309
stance 3309
Assembly 3307
ECB 3307
award 3306
employed 3306
nevertheless 3306
freedoms 3305
applying 3303
sugar 3303
sharing 3302
mostly 3300
owner 3300
performed 3298
walls 3298
Ho@@ 3297
duties 3297
abuse 3295
metal 3295
assure 3294
forum 3294
tion@@ 3293
1,@@ 3292
He@@ 3292
stored 3292
gener@@ 3290
distributed 3284
transportation 3284
containing 3282
personnel 3282
aged 3281
ca@@ 3281
Obama 3280
che@@ 3279
corresponding 3279
John 3275
inhabitants 3275
OR@@ 3273
ant@@ 3273
formed 3273
2013 3269
copyright 3268
substance 3268
ast 3267
trend 3267
negotiating 3266
MS 3265
Open 3265
ency 3265
productivity 3265
wn 3265
suppliers 3262
Desk 3261
Islamic 3261
com 3260
component 3260
ein 3260
Will 3259
exception 3258
fla@@ 3258
intensive 3258
fashion 3257
Hungarian 3256
cat@@ 3256
enhance 3254
harmonisation 3254
poli@@ 3254
surroundings 3254
arguments 3253
wor@@ 3253
complicated 3251
proceed 3251
societies 3250
Well 3249
arrive 3249
pose 3249
providers 3249
Agriculture 3248
Report 3248
realistic 3248
wonder 3247
bul@@ 3246
gold 3246
ght 3244
heat 3244
CO2 3242
falls 3242
courts 3241
ordinary 3241
El 3240
sending 3239
La@@ 3235
solely 3235
Americans 3233
flights 3232
VAT 3231
surely 3231
LE@@ 3229
representation 3228
sum 3227
Saint 3226
usual 3226
7.@@ 3225
milk 3225
solid 3225
97 3224
Legal 3223
extraordinary 3223
generate 3223
pu@@ 3223
Star 3222
wo@@ 3222
farm 3221
gri@@ 3221
manufacturer 3221
master 3221
az@@ 3219
Shi@@ 3218
asing 3218
p.m. 3218
replaced 3218
carrying 3216
channel 3216
western 3216
De 3214
Following 3214
blog 3213
equ@@ 3213
val@@ 3213
das 3211
plays 3211
exciting 3210
char@@ 3209
islands 3209
pla@@ 3209
COM 3208
weak 3208
division 3207
army 3205
Square 3204
cooperate 3204
² 3203
Egypt 3200
slow 3200
sta@@ 3200
formal 3199
youth 3199
depend 3197
match 3197
EL 3196
allocated 3196
succeed 3196
Air 3194
ko@@ 3193
wines 3193
ticket 3192
Friday 3189
Mal@@ 3187
ens@@ 3187
ss 3187
patent 3186
promised 3185
def@@ 3183
tel@@ 3179
Northern 3178
count 3178
Stability 3177
functional 3177
valley 3176
necessarily 3174
Auditors 3172
Station 3171
Secretary 3170
castle 3169
Special 3168
drink 3168
united 3167
zi@@ 3167
battle 3166
enabled 3164
Barroso 3160
frame 3159
secret 3159
barriers 3157
cash 3156
farming 3156
ine@@ 3156
career 3153
professionals 3153
proven 3152
supplies 3152
sauna 3151
Socialist 3149
fantastic 3149
pe 3149
ay 3148
exit 3148
Thursday 3147
difficulty 3145
greatly 3142
raising 3142
ational 3141
mother 3139
fra@@ 3138
recorded 3137
Within 3134
constitute 3134
safeguard 3134
ensures 3132
preventing 3132
significance 3132
appearance 3131
Transport 3130
Page 3129
Strasbourg 3129
Du@@ 3126
domain 3126
owned 3125
awarded 3124
96 3122
ach 3122
lessons 3122
renovated 3122
sel@@ 3122
enabling 3121
str@@ 3121
Description 3120
Street 3120
af@@ 3120
hom@@ 3120
ss@@ 3120
labelling 3113
ki@@ 3111
toward 3111
trial 3111
ara 3110
attempts 3110
sought 3110
.... 3109
Prague 3108
lie 3108
packaging 3108
cri@@ 3106
forthcoming 3106
suggested 3106
addresses 3104
facility 3104
pr@@ 3104
fulfil 3103
legally 3101
thousand 3101
relaxation 3100
proceedings 3096
Har@@ 3095
audi@@ 3095
consent 3093
nu@@ 3093
http 3092
Ver@@ 3090
concepts 3088
dic@@ 3088
anti@@ 3087
introducing 3087
tro@@ 3087
ishing 3085
sa 3084
sovereignty 3083
comparison 3082
cru@@ 3082
productive 3082
Palace 3081
Q 3081
flows 3080
micro@@ 3079
eurozone 3078
subjects 3076
alized 3075
forests 3075
decade 3074
department 3072
Spa 3071
Dr. 3070
obliged 3070
sustainability 3070
swe@@ 3070
ining 3069
pan@@ 3069
Madrid 3068
Sal@@ 3068
paying 3067
tickets 3067
supervision 3066
fore@@ 3064
firmly 3063
updates 3063
slightly 3061
theme 3061
balcony 3060
hundred 3060
revision 3060
disasters 3056
gap 3056
adults 3055
spoke 3054
ill 3053
armed 3052
religion 3052
48 3051
Design 3050
soci@@ 3050
del@@ 3049
hall 3049
qui@@ 3048
explore 3047
hair 3047
ministers 3046
directed 3045
suggestions 3045
Serbia 3042
accurate 3042
ill@@ 3042
ning 3042
pres@@ 3042
EADS 3041
import 3040
specified 3039
artist 3038
coordinated 3036
fle@@ 3036
con 3035
Facilities 3034
Ru@@ 3034
undoubtedly 3034
Congress 3033
stocks 3033
obstacles 3032
routes 3032
bridge 3031
suites 3029
estimated 3028
exploitation 3027
gained 3027
supposed 3027
Code 3026
Tip 3025
und@@ 3025
towns 3024
eventually 3020
arise 3017
Commissioners 3016
decorated 3016
receiving 3016
ISO 3015
exclusion 3015
ella 3014
Ra@@ 3013
Jo@@ 3011
corner 3010
dignity 3010
contributed 3008
straight 3007
PPE 3006
zes 3006
cy@@ 3005
diverse 3003
endorse 3002
Putin 3001
resource 3001
Or 3000
ales 3000
tourists 3000
interior 2999
realise 2999
hu@@ 2997
wider 2997
directory 2996
traditions 2996
drop 2995
US@@ 2994
suffered 2994
visiting 2994
whereas 2994
welcomed 2993
ame 2991
disabled 2989
AL 2988
beings 2988
Like 2987
cast 2987
ash@@ 2986
adapt 2985
periods 2985
university 2984
ll 2983
pers 2981
Having 2980
supplier 2980
fitness 2979
ley 2976
zz@@ 2976
Finland 2975
topics 2975
1990 2974
centuries 2974
remarks 2974
sheet 2974
Atlantic 2973
cia 2973
Bal@@ 2972
Technology 2969
restructuring 2968
violations 2968
Old 2964
si 2964
lat@@ 2963
33 2962
tically 2961
Very 2960
electric 2960
reflected 2960
id@@ 2959
refers 2959
hardly 2958
losses 2958
labor 2956
ls 2956
Balkans 2954
shipping 2954
parliament 2953
Global 2952
ben@@ 2952
nights 2952
sch@@ 2952
believes 2949
ECU 2948
Enterprise 2948
input 2948
sation 2948
IMF 2947
turning 2947
virtual 2947
notes 2944
disk 2943
investigation 2943
reflects 2942
severe 2942
sm 2942
treat 2941
cont@@ 2940
rep@@ 2940
reservations 2940
ah@@ 2939
restricted 2939
clause 2937
module 2937
ser 2937
Chi@@ 2936
permitted 2935
faith 2934
theory 2932
1st 2931
assess 2930
Gar@@ 2929
programming 2929
approve 2928
blo@@ 2928
invited 2928
Asian 2926
post@@ 2925
Agenda 2924
Roman 2923
winning 2922
explained 2921
ki 2921
cosy 2919
vacation 2919
Guests 2918
decline 2918
IM@@ 2917
movements 2917
penalty 2916
rock 2915
planet 2914
twenty 2913
ads 2910
prime 2909
van@@ 2909
leaves 2908
windows 2908
elled 2907
regardless 2907
Church 2905
Z 2905
patient 2904
everyday 2903
yed 2903
EN 2901
Ju@@ 2900
scene 2900
selling 2900
lounge 2899
web@@ 2899
atory 2898
recognized 2896
River 2894
enhanced 2894
driven 2893
entrance 2891
strengthened 2891
considerably 2890
sphere 2890
ping 2888
plenty 2888
fourth 2887
optim@@ 2886
une 2886
finish 2883
motor 2883
ok@@ 2883
Comp@@ 2882
label 2882
Media 2881
courage 2881
imagine 2881
filled 2878
liberal 2876
Cre@@ 2875
missing 2873
Tor@@ 2872
conc@@ 2872
shift 2872
worst 2872
conventional 2869
pp@@ 2869
64 2866
spectacular 2865
3D 2863
stylish 2863
welcomes 2863
1994 2862
alist 2862
indicate 2860
Food 2859
dness 2859
emb@@ 2858
Act 2857
gen 2857
vessels 2856
roll 2855
34 2853
wrote 2852
hearing 2851
Monday 2850
philosophy 2850
08 2849
Year 2849
continuous 2849
lift 2849
artistic 2848
therapy 2847
cancer 2846
threats 2846
isation 2845
undertaken 2843
Does 2841
gardens 2841
appropriations 2838
prospects 2838
teams 2838
See 2836
ited 2836
ize 2836
none 2836
generations 2835
Cam@@ 2833
MA@@ 2832
acknowledge 2832
profits 2832
fishermen 2831
rely 2831
enterprise 2830
excluded 2830
protocol 2830
sensible 2830
sli@@ 2830
overview 2828
ING 2826
Organisation 2826
everybody 2826
ov@@ 2826
Besides 2825
ire 2821
MP@@ 2820
PHP 2820
acceptance 2820
dollar 2819
restore 2819
MO@@ 2818
covering 2818
gli@@ 2818
promise 2818
bas@@ 2817
homes 2817
shadow 2816
worthy 2816
• 2816
ado 2814
dream 2814
&apos;m 2813
managing 2813
pillar 2813
budgets 2812
description 2812
publication 2811
sun@@ 2811
aside 2810
magnificent 2810
checks 2809
killed 2809
ET@@ 2806
CAP 2805
ga 2805
cells 2802
od@@ 2801
parameters 2801
reaction 2801
root 2801
targeted 2801
š@@ 2801
mix 2800
specialist 2800
liber@@ 2799
IN 2798
departure 2797
wear 2797
concentrate 2794
gallery 2794
NGOs 2793
handle 2790
ong 2790
Georgia 2788
deeply 2788
connect 2787
mini 2787
Comm@@ 2786
bio@@ 2785
modules 2783
Regional 2781
boost 2780
urgently 2780
Me@@ 2778
minister 2777
ased 2775
uri@@ 2775
bike 2774
listings 2773
renowned 2773
sections 2773
09 2772
mental 2771
pro 2771
tables 2771
weekend 2771
rental 2770
errors 2765
fly 2764
colours 2763
Ti@@ 2762
Through 2761
universities 2761
Geneva 2758
accident 2758
aff@@ 2758
lots 2758
album 2757
ell 2757
films 2757
intends 2757
organic 2757
36 2756
Law 2756
Ombudsman 2755
functionality 2755
pra@@ 2755
territorial 2755
fairly 2754
reconstruction 2752
freely 2751
sufficiently 2751
Syria 2750
proportion 2749
roots 2749
Ste@@ 2748
55 2747
tree 2747
Santa 2746
Dra@@ 2745
Ne@@ 2743
kers 2743
ranging 2743
ished 2742
transmission 2742
dr@@ 2741
Should 2740
imp@@ 2739
Sunday 2738
saved 2735
instructions 2733
diplomatic 2731
trends 2730
showed 2729
ern@@ 2728
confirmation 2727
lan@@ 2727
nine 2727
internationally 2724
push 2724
Ko@@ 2723
pun@@ 2723
A5 2722
England 2722
Site 2722
ered 2722
RA@@ 2721
destroyed 2721
remained 2720
deposit 2719
ences 2719
tation 2719
Tourism 2717
eh@@ 2717
fa@@ 2717
cent@@ 2716
poses 2715
ger@@ 2713
coherent 2712
countryside 2712
pal@@ 2712
Ta@@ 2711
subsequent 2710
birth 2707
fleet 2707
xes 2707
Budgets 2706
logical 2706
struggle 2706
Lastly 2704
relates 2701
ban@@ 2700
deb@@ 2700
dead 2699
crises 2697
adapted 2696
50@@ 2695
USB 2695
Bra@@ 2693
Who 2691
Val@@ 2690
highlighted 2688
skiing 2688
AM@@ 2685
07 2684
ately 2684
lau@@ 2682
wards 2682
Consequently 2681
heading 2680
learned 2678
Cas@@ 2677
candidates 2677
arising 2676
equivalent 2676
clubs 2674
convergence 2674
oning 2673
essentially 2672
neighbouring 2672
funded 2671
tou@@ 2671
belief 2670
8.@@ 2669
Denmark 2668
presenting 2668
combine 2667
9.@@ 2666
mistake 2666
phenomenon 2666
600 2665
Protocol 2665
War@@ 2665
ada 2664
kernel 2664
Black 2663
Mac@@ 2663
collected 2662
sole 2662
rare 2661
pm 2660
una 2660
Br@@ 2658
Consumer 2656
quotas 2656
ease 2655
ub@@ 2655
gro@@ 2653
miles 2652
manager 2651
wage 2650
trac@@ 2649
Treaties 2648
Mer@@ 2646
Front 2644
U.S. 2644
considers 2644
hostel 2644
burg 2643
pat@@ 2643
Culture 2642
belong 2642
pul@@ 2642
Belgian 2639
briefly 2637
villages 2637
Express 2636
looked 2635
stages 2635
insist 2634
reliability 2634
willingness 2634
appeared 2633
assembly 2633
ecological 2632
football 2632
upper 2632
joining 2631
ke@@ 2631
parallel 2630
relative 2630
stat@@ 2630
800 2628
fees 2628
layer 2628
contextual 2627
serving 2627
tend 2627
forth 2626
lin 2626
cleaning 2624
cultures 2624
eng@@ 2623
len@@ 2623
Notes 2622
Constitutional 2621
stars 2621
Plan 2619
affects 2619
processed 2619
ey 2618
pure 2618
aci@@ 2617
female 2617
referring 2617
sion@@ 2617
Bor@@ 2616
ables 2616
classes 2616
occurred 2615
ai 2611
consequence 2611
efficiently 2611
engage 2611
pos@@ 2611
speci@@ 2611
ware 2611
Online 2610
ek@@ 2610
ham@@ 2609
luxurious 2608
supplied 2607
LA@@ 2606
consulting 2606
widespread 2606
drinks 2605
implications 2605
Systems 2603
boot 2603
transferred 2603
geographical 2602
37 2601
SA@@ 2600
honour 2600
Education 2598
characters 2598
engaged 2598
mit 2598
prisoners 2597
ona 2596
thermal 2596
lovely 2595
rel@@ 2595
Pal@@ 2594
arrived 2594
warning 2594
massage 2593
PDF 2591
art@@ 2591
missions 2591
Festival 2590
ti 2590
clarify 2588
dy@@ 2587
chair 2585
succeeded 2585
Executive 2584
mel@@ 2582
revenue 2582
seeks 2582
ba 2581
pressing 2579
recognize 2579
computers 2578
cked 2576
achievement 2575
ect 2574
enti@@ 2574
highlights 2572
portfolio 2572
adds 2571
hill 2571
Inn 2570
guided 2570
int 2570
Bri@@ 2569
favourable 2568
spec@@ 2568
lands 2567
lock 2565
ON 2564
originally 2562
secondly 2562
sounds 2562
causing 2561
satisfy 2561
Cooperation 2560
Mu@@ 2560
Wi@@ 2560
environmentally 2559
holds 2559
integrate 2559
Fundamental 2558
accidents 2555
insi@@ 2555
lived 2554
promises 2554
AS 2553
Fi 2553
incentives 2553
ride 2553
Situated 2552
non@@ 2552
tively 2552
Wi 2550
meaningfully 2549
ome 2549
shed 2549
Bre@@ 2547
encouraged 2547
vit@@ 2547
poorest 2546
Hamburg 2545
wal@@ 2545
ion 2543
operates 2543
aging 2541
multilateral 2541
Prodi 2540
bers 2540
uniform 2540
sou@@ 2537
Im@@ 2535
anniversary 2535
unfair 2535
--@@ 2534
ha 2534
stake 2533
equi@@ 2532
tennis 2531
sit 2530
CH@@ 2529
form@@ 2528
preserve 2527
sum@@ 2527
harmful 2526
director 2525
explanation 2525
aviation 2523
scientists 2522
Real 2521
manufacture 2521
radical 2521
regulated 2521
governing 2520
victory 2520
49 2517
hopes 2515
symbol 2515
virtually 2515
entering 2513
Card 2511
III 2511
Smoking 2510
eri@@ 2510
grown 2510
resulted 2510
á 2510
Island 2509
execution 2509
incorporated 2509
ratification 2509
compulsory 2508
percentage 2508
Hu@@ 2507
Royal 2507
adding 2507
heads 2507
tre@@ 2506
unity 2505
42 2504
legitimacy 2504
contextually 2503
TH@@ 2502
grammatically 2502
ster@@ 2502
aling 2501
edi@@ 2501
enforcement 2501
enjoyed 2501
purely 2501
euros 2499
printed 2498
sia 2498
amended 2497
negotiation 2497
hal@@ 2495
cious 2494
compact 2494
attached 2493
addressing 2492
für 2492
gradually 2492
ko 2492
produces 2492
dies 2490
executive 2489
ghts 2488
unforgettable 2488
43 2486
bearing 2486
everywhere 2486
chi@@ 2484
videos 2484
Indian 2483
stabili@@ 2483
lunch 2482
trips 2482
1992 2481
Char@@ 2481
dict@@ 2481
Pri@@ 2480
damages 2480
reserved 2480
Beach 2477
User 2477
individually 2477
Tour 2476
Town 2476
asset 2476
iled 2476
zu 2476
eli@@ 2475
wellness 2475
Fisheries 2474
chairman 2472
festival 2472
sup@@ 2472
dispute 2471
ID@@ 2470
ai@@ 2470
suit 2470
dark 2469
cle@@ 2468
Danish 2466
alcohol 2466
reporting 2466
Nor@@ 2465
extending 2465
Kyoto 2464
switch 2464
ins@@ 2463
Director 2462
utmost 2462
ini@@ 2460
snow 2460
anywhere 2459
poly@@ 2459
Min@@ 2458
collect 2457
strictly 2457
Industry 2455
normally 2455
stream 2455
DA@@ 2454
Tre@@ 2454
UR@@ 2454
associations 2453
prison 2453
Box 2452
Peter 2452
AND 2451
choices 2450
panel 2450
Australia 2448
quote 2448
vis 2448
Muslim 2447
sex 2447
with@@ 2446
Venice 2445
delicious 2445
dry 2443
medicines 2442
ment@@ 2442
Te@@ 2441
troops 2441
65 2440
King 2440
travelling 2440
whereby 2439
emp@@ 2438
factory 2438
Employment 2437
eat 2437
eliminate 2436
agents 2435
fans 2435
makers 2435
surprise 2435
cho@@ 2434
graphic 2434
hum@@ 2433
School 2431
Tur@@ 2431
expense 2431
Sub@@ 2430
designs 2430
airports 2429
schemes 2429
pick 2428
info 2427
Earth 2424
ven 2424
24@@ 2423
meets 2422
Paul 2421
bit@@ 2421
Common 2417
gers 2417
At@@ 2416
convention 2416
faces 2416
solar 2415
spite 2415
ulate 2415
Among 2414
Saturday 2414
CA@@ 2413
IA 2412
financed 2412
urgency 2412
ata 2411
observed 2410
index 2409
treatments 2409
rating 2408
cell 2407
operated 2407
inadequate 2406
servers 2406
Exchange 2403
liable 2403
satisfactory 2403
Cuba 2402
Pas@@ 2402
arian 2402
tea 2402
coun@@ 2401
\ 2400
conciliation 2400
min 2400
wireless 2400
ang@@ 2399
codecision 2399
violation 2398
38 2397
Nor 2397
participating 2397
airlines 2396
amed 2396
my@@ 2396
25@@ 2395
evident 2395
alongside 2394
catch 2393
cer@@ 2393
retain 2393
Christmas 2392
ole 2392
Intergovernmental 2391
Michael 2391
foot@@ 2391
utili@@ 2390
museums 2389
constitutes 2387
narrow 2387
formats 2386
operator 2386
neighbours 2385
plastic 2385
begins 2384
ordered 2384
soil 2384
ress 2383
collapse 2382
acquired 2381
debating 2381
Server 2380
Fo@@ 2379
musical 2379
200@@ 2378
ands 2378
zero 2378
cher 2377
custom@@ 2376
las 2375
genuinely 2374
specialists 2374
ash 2373
miss 2372
ste 2372
twice 2372
zer 2372
Vol@@ 2371
Cri@@ 2370
passing 2370
ay@@ 2369
edited 2368
Family 2367
ex 2367
Federation 2366
PR@@ 2365
Ser@@ 2365
Vo@@ 2365
marine 2365
mere 2365
tal 2365
economically 2364
producer 2364
restored 2364
85 2361
Civil 2361
DI@@ 2361
Sk@@ 2361
surprised 2361
federal 2360
approaches 2359
repeated 2359
Authority 2357
openness 2357
accounting 2356
sovereign 2356
ato 2353
fewer 2353
Fe@@ 2352
Internal 2351
graphics 2351
lia 2351
bal@@ 2350
PL@@ 2349
deserves 2348
script 2347
02 2346
moreover 2346
Islands 2345
reputation 2345
OF 2344
actors 2344
capabilities 2344
edition 2344
ME@@ 2343
timetable 2342
considerations 2340
loans 2340
Subject 2339
engines 2339
Would 2338
Good 2337
Valley 2337
bel@@ 2337
shot 2337
Using 2336
movie 2336
permit 2336
Er@@ 2334
LO@@ 2334
Customer 2333
inn@@ 2333
Next 2331
alities 2331
guaranteeing 2331
vice 2330
condemn 2329
repeatedly 2329
06 2328
revolution 2328
seconds 2328
chapter 2327
expand 2327
letters 2327
Deutsche 2326
itable 2326
SE@@ 2325
relationships 2325
varied 2325
hospitality 2324
mal@@ 2324
sand 2324
desirable 2323
03 2322
seats 2322
teaching 2322
Ap@@ 2320
Gro@@ 2320
ap 2320
mit@@ 2319
uted 2319
Forum 2318
alists 2318
organise 2317
Based 2315
ink 2315
sh 2315
teachers 2315
floors 2314
intentions 2314
stic 2314
yer 2314
foundations 2313
Slovakia 2312
medicine 2312
val 2312
read@@ 2311
romantic 2311
composition 2310
welcoming 2310
Palestinians 2309
cell@@ 2309
journalists 2306
inf@@ 2305
records 2304
Mr. 2303
iling 2303
inspired 2303
sta 2303
underlying 2303
Resort 2302
desk 2301
ane 2300
repair 2300
foremost 2299
gr@@ 2299
Lin@@ 2298
commit 2298
suggests 2298
Dublin 2297
campaigns 2297
studio 2296
Dec@@ 2295
speeches 2295
External 2294
usage 2294
Manager 2293
concentration 2292
Further 2291
Music 2291
ie@@ 2291
sophisticated 2291
tracks 2291
attend 2290
amending 2289
mouse 2289
Martin 2288
presidential 2288
songs 2288
vol@@ 2288
Golf 2286
NL 2286
broader 2286
ED 2285
unnecessary 2285
39 2283
Hi@@ 2283
pensions 2283
sible 2283
tragic 2283
Bay 2282
ene 2282
phones 2282
kl@@ 2281
lar@@ 2281
olive 2280
kilometres 2279
tragedy 2279
m2 2278
scheduled 2278
vely 2276
electoral 2275
exposed 2275
Acc@@ 2274
ON@@ 2274
province 2274
exact 2273
pace 2273
Meeting 2272
Sec@@ 2272
intelligent 2272
occupation 2272
prize 2272
Casino 2271
mine 2271
blocks 2270
eded 2269
developers 2268
dol@@ 2268
examined 2268
wild 2268
filter 2267
voters 2266
ball 2264
bonus 2264
combines 2264
ises 2264
manual 2263
oni@@ 2263
song 2263
tered 2263
revi@@ 2262
Growth 2261
hon@@ 2261
TO 2260
hiking 2260
arch@@ 2259
conferences 2259
begun 2258
underground 2258
.00 2257
ani 2257
cas@@ 2257
ownership 2257
visual 2257
ned 2256
withdraw 2255
mouth 2254
ol 2253
pot@@ 2253
ran 2253
Bel@@ 2251
Ben@@ 2251
motor@@ 2251
thorough 2251
picturesque 2250
wh@@ 2250
compete 2249
completion 2249
stick 2248
2012 2247
panoramic 2247
ri 2247
stuff 2247
Bosnia 2246
s.@@ 2246
gl@@ 2245
respects 2245
student 2245
Heads 2244
IL@@ 2242
ethical 2242
remarkable 2241
View 2240
dence 2240
examination 2240
ries 2240
ambi@@ 2239
bes 2239
shortly 2239
ultimate 2239
Op@@ 2238
off@@ 2238
opens 2238
Chairman 2237
importantly 2236
losing 2236
ung@@ 2236
ica 2234
signing 2233
ola 2232
Ci@@ 2231
1993 2230
Morocco 2230
horse 2230
clarity 2229
appointment 2228
sights 2228
amenities 2227
apparent 2227
pretty 2227
communicate 2226
dramatic 2226
sorry 2226
acted 2225
falling 2225
hence 2225
jointly 2225
Hall 2223
magazine 2223
oppose 2222
prospect 2222
empty 2221
Fl@@ 2219
ot 2219
riding 2219
44 2218
Pro 2218
inner 2218
prec@@ 2217
cm 2215
initially 2215
19th 2213
Gal@@ 2213
Sun@@ 2213
yard 2212
RO 2210
liked 2210
Java 2208
girls 2208
doubts 2207
hidden 2207
EM@@ 2205
upgrade 2204
28@@ 2203
Gaza 2203
ship@@ 2202
hur@@ 2201
ination 2201
JavaScript 2200
sees 2200
ert 2198
gue 2198
nor@@ 2198
gn@@ 2197
ked 2196
uting 2196
custom 2195
recording 2195
05 2194
ath 2194
transitional 2194
USD 2193
Is@@ 2191
observe 2191
recall 2191
sessions 2191
affecting 2190
lec@@ 2190
speciali@@ 2189
describe 2188
Castle 2187
checked 2187
sake 2187
Sur@@ 2186
partial 2186
wave 2186
Van 2184
Rotary 2183
references 2183
complaints 2181
dual 2181
Terms 2180
log@@ 2180
permission 2180
stores 2180
smooth 2179
250 2178
Mc@@ 2178
PS 2178
camp 2178
deficits 2178
logic 2178
pilot 2178
sely 2178
bin@@ 2177
comple@@ 2177
Greens 2176
bright 2176
Representative 2175
Skype 2175
disc@@ 2175
Off@@ 2171
informal 2170
Apart 2169
Partnership 2169
ni 2169
solved 2169
viable 2169
populations 2168
slo@@ 2168
Bur@@ 2166
ris@@ 2165
strike 2165
lab@@ 2164
lobby 2164
representing 2164
ulation 2164
stressed 2163
uncertainty 2163
Network 2161
boats 2161
ello 2161
constructed 2160
convenience 2160
Have 2159
Wednesday 2159
chan@@ 2159
concert 2159
fan@@ 2159
revised 2159
Be 2158
afford 2158
minor 2158
violent 2158
27@@ 2157
ist@@ 2157
nation@@ 2156
iting 2155
tionally 2155
granting 2154
accordingly 2153
textile 2153
03@@ 2151
Trans@@ 2150
cker 2149
clicking 2148
Cap@@ 2147
Hong 2147
credible 2147
ingredients 2147
run@@ 2147
specialized 2147
feet 2146
afraid 2144
Via 2143
Hol@@ 2142
41 2141
Kong 2141
NI 2141
enn@@ 2141
A4 2140
Mat@@ 2140
ction 2140
rit@@ 2140
Gentoo 2138
ites 2138
Net@@ 2137
AG@@ 2136
Player 2136
Three 2136
colors 2136
mixed 2136
vocational 2136
boards 2135
broken 2135
istic 2135
till 2135
Project 2134
adjustment 2134
deadline 2134
deaths 2134
greenhouse 2134
Storage 2133
judge 2132
secondary 2132
declare 2131
collabor@@ 2130
folder 2130
ous@@ 2130
shi@@ 2130
taxpayers 2130
navigation 2129
sle@@ 2129
enjoys 2128
preferred 2128
Set 2126
ari 2126
wers 2125
Mag@@ 2124
subsequently 2124
ards 2123
believed 2123
destroy 2123
alise 2122
amazing 2121
coastal 2121
governmental 2121
recession 2121
Ca@@ 2120
meal 2119
Garden 2117
ace 2117
aqu@@ 2117
pol@@ 2116
debated 2115
AB@@ 2113
Presidents 2113
casino 2112
honest 2112
instantly 2112
negotiated 2112
ation@@ 2110
terrible 2110
Gre@@ 2109
Life 2109
conditioned 2109
ef@@ 2109
Games 2108
ells 2108
keys 2106
managers 2106
coal 2105
comparable 2105
deserve 2105
cou@@ 2103
viewed 2103
assurance 2102
Together 2101
IC 2100
Ob@@ 2100
Flash 2099
Support 2099
integrity 2099
clock 2098
delays 2098
fax 2098
ignore 2098
tin 2098
Hostelsclub 2097
oldest 2097
ratified 2097
whatsoever 2097
tivity 2096
spectrum 2095
surveillance 2095
certainty 2094
Single 2093
argue 2092
cel@@ 2092
Don 2091
bet 2091
alternatives 2090
bing 2090
superior 2090
Quality 2089
TR@@ 2089
fifth 2089
Pol@@ 2088
SO@@ 2088
civilian 2088
jurisdiction 2087
noon 2087
ts@@ 2087
Children 2085
ared 2085
expenses 2085
promoted 2085
PO@@ 2084
seemed 2084
Win@@ 2083
atives 2083
trained 2083
undertake 2083
David 2082
healthcare 2082
posed 2080
Sc@@ 2078
mes 2078
overlooking 2078
refused 2078
Left 2077
Maastricht 2077
devoted 2077
stories 2077
Otherwise 2076
maybe 2076
renewed 2076
portal 2075
Ha@@ 2074
forgotten 2073
Sam@@ 2072
bonds 2072
expanded 2072
transfers 2072
removal 2071
simultaneously 2071
teen 2071
enting 2069
loading 2068
ond 2068
refuse 2068
basically 2067
didn 2067
justify 2067
electrical 2066
fer 2066
pas@@ 2066
ruling 2066
las@@ 2065
optimal 2065
nobody 2064
villa 2063
translated 2062
viol@@ 2061
ass 2060
preparations 2060
tens 2060
és 2060
voc@@ 2059
700 2058
territories 2058
expressly 2056
q 2056
GNU 2055
focusing 2055
suspended 2055
indicators 2054
ain 2053
certified 2053
ich@@ 2053
Hel@@ 2052
Jean 2052
answered 2052
inspection 2052
listening 2051
person@@ 2051
Speci@@ 2050
akes 2049
autumn 2049
beneficial 2049
certification 2049
roof 2049
04 2048
beef 2047
bureaucracy 2047
mini@@ 2047
bought 2046
exc@@ 2046
nit@@ 2046
Han@@ 2045
reali@@ 2045
thanking 2045
Investment 2044
explicitly 2044
orientation 2044
Airbus 2043
false 2043
ili@@ 2043
employers 2042
ening 2042
Moscow 2041
Section 2041
beer 2041
ils 2040
ized 2040
ide@@ 2039
stunning 2039
audience 2038
nationals 2038
newsletter 2038
theatre 2038
calm 2037
hole 2037
loaded 2037
Jewish 2036
negotiate 2036
tual 2036
Sol@@ 2035
ading 2035
dig@@ 2035
assigned 2034
ization 2034
47 2032
emerged 2032
native 2032
paths 2032
Product 2030
frequency 2030
indoor 2030
rop@@ 2030
suited 2030
abilities 2029
cope 2027
ish@@ 2026
observation 2026
relief 2025
allocation 2024
distinction 2024
Fu@@ 2023
vis@@ 2023
admit 2021
ams 2021
dge 2021
mas@@ 2021
Joint 2020
publish 2020
studied 2020
worrying 2020
formation 2019
oring 2019
researchers 2019
ler@@ 2018
necessity 2018
turns 2018
Lan@@ 2017
intervene 2017
dist@@ 2016
transaction 2016
Hor@@ 2015
ney 2015
principal 2015
20th 2014
51 2014
wise 2014
arrangement 2013
escape 2013
insufficient 2013
lo 2013
sizes 2013
dance 2012
spe@@ 2011
OR 2010
ero@@ 2010
soldiers 2009
wooden 2009
reflection 2007
č@@ 2007
gran@@ 2006
ye@@ 2006
1991 2005
Europol 2004
SI@@ 2004
behavior 2004
prevented 2004
tar@@ 2004
doub@@ 2003
inter 2003
Finnish 2002
array 2002
Fin@@ 1999
ack 1999
ceiling 1999
adult 1998
alled 1998
120 1997
Rural 1997
SA 1997
bigger 1997
manufactured 1997
focuses 1996
technique 1996
telecommunications 1996
dialog 1995
string 1995
Award 1994
Plaza 1994
closing 1994
dia 1994
TS 1993
height 1993
soul 1993
splendid 1993
achievements 1992
adventure 1991
ories 1991
Hour 1989
demonstrates 1989
fails 1989
win@@ 1989
Lebanon 1988
humanity 1988
hot@@ 1987
chemicals 1986
moments 1986
10.@@ 1985
authors 1985
2nd 1983
Ministry 1983
undermine 1983
1989 1981
BSE 1981
amm@@ 1981
accuracy 1980
classical 1979
As@@ 1978
Third 1978
threatened 1978
ania 1977
ase 1977
bathrooms 1977
competences 1977
fix 1977
postal 1977
citizenship 1976
mark@@ 1976
cy 1975
eds 1975
ances 1974
modify 1974
Democratic 1973
bon@@ 1973
ena 1973
measurement 1973
rated 1973
unanimously 1973
MySQL 1972
ette 1972
harm 1972
installations 1971
na@@ 1971
potentially 1971
supplementary 1971
46 1970
Sha@@ 1969
discount 1969
freight 1969
inten@@ 1969
mistakes 1969
shor@@ 1969
wages 1969
Cup 1968
consistently 1968
son@@ 1968
Fer@@ 1967
dem 1967
dimensions 1966
posts 1966
terrorists 1966
trouble 1966
Burma 1965
cement 1965
continuously 1965
enjoying 1965
dering 1964
26@@ 1962
finds 1962
judgment 1962
AIDS 1961
Area 1961
characteristic 1960
quantity 1960
tonnes 1960
boasts 1959
cool 1959
withdrawal 1959
Iranian 1958
cam@@ 1958
coordinate 1958
defining 1958
Yugoslavia 1957
bug 1957
residential 1957
hes 1956
by@@ 1955
delete 1955
don@@ 1955
ental 1955
pools 1955
dem@@ 1954
stopped 1954
wars 1954
George 1953
Ter@@ 1953
cancellation 1952
commerce 1952
hills 1952
buying 1951
contributing 1948
Pe@@ 1947
agrees 1947
unions 1946
pressed 1945
applicant 1944
Bro@@ 1943
meals 1943
protest 1943
timely 1943
Lithuania 1942
.de 1941
Maria 1941
Similarly 1941
Studio 1941
assi@@ 1941
ath@@ 1941
ly@@ 1941
mechanical 1941
procurement 1941
variable 1941
Pacific 1940
blame 1939
gross 1939
fell 1938
notified 1937
Department 1936
Several 1936
conversion 1936
belongs 1935
tom@@ 1935
catalogue 1933
ita 1933
stones 1933
survey 1933
fir@@ 1931
iron 1931
charm 1930
earn 1930
evaluate 1930
privileged 1930
branch 1929
conservation 1929
mandatory 1929
Florence 1928
neighbourhood 1928
papers 1928
signals 1927
authorised 1925
imported 1925
residents 1925
52 1924
angle 1924
identification 1924
lively 1923
thri@@ 1923
virus 1922
treaties 1921
calendar 1920
conventions 1920
patents 1920
sample 1920
Suite 1919
experiencing 1919
imposing 1919
St 1917
accessories 1917
cancelled 1917
elderly 1917
arti@@ 1916
chairs 1916
parti@@ 1916
pursued 1916
Taiwan 1915
eding 1915
notably 1915
unemployed 1915
affordable 1914
leg@@ 1914
breach 1913
occupied 1912
arrest 1911
Power@@ 1910
arbitrary 1910
qualifications 1909
Holiday 1908
hei@@ 1908
innovations 1908
react 1908
vary 1908
Ara@@ 1906
Die 1906
Washington 1905
blu@@ 1905
fascinating 1905
fran@@ 1905
returns 1905
whenever 1905
Fri@@ 1904
GB 1904
sleep 1903
desktop 1901
Alps 1900
missed 1899
systematic 1899
Read 1898
Until 1898
cli@@ 1898
ind 1898
Ku@@ 1897
bureaucratic 1897
rou@@ 1897
Up 1896
dro@@ 1896
ratio 1896
tigh@@ 1896
Make 1895
San@@ 1894
Socialists 1894
q@@ 1894
J 1893
biodiversity 1893
medieval 1893
ort 1893
Apartments 1891
Ban@@ 1891
anda 1891
fuels 1891
IF@@ 1890
Team 1890
contrac@@ 1890
machinery 1890
stand@@ 1890
eled 1889
placing 1889
cookies 1888
Multi@@ 1887
farms 1887
PA 1886
disputes 1886
quar@@ 1886
contractual 1885
transit 1885
arranged 1884
port@@ 1884
rig@@ 1884
smart 1884
Bureau 1883
fur@@ 1883
ere 1882
Youth 1881
automotive 1881
preserved 1881
purchased 1879
ron 1878
indicates 1877
imm@@ 1876
layout 1876
pain 1872
duration 1871
emphasised 1871
DA 1870
Fra@@ 1869
Mac 1869
drafting 1869
zones 1869
ón 1868
BO@@ 1867
officially 1867
publishing 1867
tis 1867
ambition 1866
knew 1866
squ@@ 1866
visits 1866
Power 1865
rational 1865
wheel 1865
Deposit 1864
consistency 1864
generous 1864
plan@@ 1864
throw 1863
equity 1862
play@@ 1862
cro@@ 1861
Medi@@ 1860
asser@@ 1859
crops 1858
fan 1858
plug 1858
Des@@ 1857
fallen 1857
migrants 1857
Palestine 1856
purchasing 1856
Communist 1855
Prize 1855
baby 1855
adi@@ 1854
alike 1853
realize 1853
intelligence 1852
precision 1852
amb@@ 1851
yst@@ 1851
advise 1850
esc@@ 1850
elec@@ 1849
marquis 1849
moves 1849
dollars 1848
perspectives 1848
premium 1848
threshold 1848
Slovenia 1847
composed 1847
pur@@ 1847
certificate 1846
logistics 1846
fications 1844
initiated 1844
interinstitutional 1844
winner 1844
dal 1843
gift 1843
precious 1843
Parliamentary 1842
apparently 1842
motorway 1842
undertakings 1842
Liberal 1841
Mas@@ 1841
ligh@@ 1841
rein@@ 1841
substantially 1841
Argentina 1840
My@@ 1839
sor@@ 1839
trans 1839
finances 1838
regulate 1838
04@@ 1837
Cro@@ 1837
ll@@ 1837
warming 1837
holder 1836
tangible 1836
tened 1836
tough 1836
Pap@@ 1835
cian 1835
newspaper 1835
revealed 1835
ala 1834
bel 1834
ky 1834
rever@@ 1834
AT 1833
S.@@ 1833
regimes 1833
brands 1832
Obviously 1831
Olympic 1831
ac 1831
tering 1831
yp@@ 1830
Far@@ 1829
Robert 1829
Hamas 1826
specially 1826
vo 1825
Mil@@ 1824
convince 1823
nur@@ 1823
tech 1823
retail 1822
gate 1821
inclusive 1821
lev@@ 1821
opt 1821
1.5 1819
replacement 1819
1000 1818
Vil@@ 1818
aus 1818
senior 1818
Ger@@ 1817
intensi@@ 1817
structured 1817
Car 1816
academic 1816
dial 1816
dumping 1816
fulfilled 1816
incentive 1816
Elevator 1815
expanding 1815
han@@ 1815
wherever 1815
bay 1814
confident 1813
warmly 1813
Download 1812
IG@@ 1812
Malta 1812
Society 1812
Video 1812
comprises 1812
drives 1812
heavily 1812
Citizens 1811
declarations 1811
featuring 1811
flu@@ 1811
fol@@ 1811
nonetheless 1810
publications 1810
raises 1809
stor@@ 1809
acquisition 1808
globalization 1808
partnerships 1808
attended 1807
demographic 1807
reg@@ 1807
findings 1806
Mobile 1803
Nonetheless 1803
releases 1803
EA 1802
essence 1802
pattern 1802
quest 1802
schedule 1802
IR@@ 1801
gains 1801
progressive 1801
Luggage 1800
centers 1800
ideally 1800
subscribe 1800
dated 1799
excursions 1799
sign@@ 1799
Standard 1798
We@@ 1798
ate@@ 1798
interactive 1798
Defence 1797
conf@@ 1797
frequent 1797
organize 1797
oth 1797
kno@@ 1796
lam@@ 1796
Tom@@ 1795
slopes 1795
Dom@@ 1794
Web@@ 1794
cameras 1794
expressing 1794
kes 1794
ther 1794
wording 1794
Iraqi 1793
dad 1793
fears 1793
gan@@ 1793
justi@@ 1793
worry 1793
dan 1792
outs 1792
sentence 1792
ick 1791
68 1790
Co 1790
Heating 1790
LE 1790
logo 1790
spare 1790
talked 1790
è@@ 1790
Plan@@ 1789
but@@ 1789
inde@@ 1789
specify 1789
tribute 1789
Libya 1787
enlarged 1787
sil@@ 1787
ute 1787
shortcomings 1786
destinations 1785
emission 1785
transformation 1785
controversial 1784
proc@@ 1784
CON@@ 1782
TO@@ 1782
mar 1782
2,@@ 1781
Full 1781
Ph@@ 1781
suggestion 1781
OT@@ 1780
antly 1780
archive 1780
eted 1780
tory 1780
meantime 1779
onic 1779
SD@@ 1778
pair 1778
va@@ 1778
EF@@ 1777
Islam 1777
wife 1777
SV 1775
measuring 1775
progres@@ 1775
Cologne 1773
atively 1773
handed 1773
restrict 1773
borne 1772
e.g 1772
estimate 1772
para 1772
Dan@@ 1771
Labour 1771
handled 1770
poll@@ 1770
Poker 1769
sho@@ 1769
Del@@ 1768
exhibitions 1768
regrettable 1768
ups 1768
2.0 1767
IP@@ 1767
parks 1767
performing 1767
superb 1767
Out 1766
breaking 1766
condemned 1766
transatlantic 1766
exchanges 1765
Macedonia 1764
assured 1764
creature 1764
duc@@ 1764
lesson 1764
racism 1764
zo@@ 1764
54 1763
Clearly 1763
ny 1763
pursuant 1763
tower 1763
dependence 1762
fate 1762
72 1761
lim@@ 1761
tension 1761
tiz@@ 1761
Scotland 1760
spo@@ 1760
travellers 1760
pays 1759
prosec@@ 1759
slowly 1759
Zurich 1758
tab@@ 1758
ble@@ 1757
creativity 1757
ier 1757
ov 1756
Budgetary 1755
consequently 1755
split 1755
patterns 1754
,@@ 1753
Por@@ 1753
claimed 1753
ignored 1752
lon@@ 1752
ques 1752
Pu@@ 1751
airline 1750
occurs 1750
poker 1750
power@@ 1750
Ms 1749
arrange 1749
intense 1749
avoided 1748
eth@@ 1748
gaining 1747
AM 1746
Lam@@ 1746
disp@@ 1746
flying 1746
ped 1746
posi@@ 1746
atri@@ 1745
eth 1745
outset 1745
preliminary 1745
SS 1744
eve 1744
allies 1743
bol@@ 1742
cab@@ 1742
genetic 1742
diving 1741
integral 1741
victim 1741
Southern 1740
notion 1740
photographs 1739
rejection 1739
sunny 1739
Marina 1738
announce 1738
ard@@ 1738
feedback 1738
Bas@@ 1737
C5 1737
Nordic 1737
practically 1737
Albania 1736
Pra@@ 1736
The@@ 1736
adjust 1736
dd@@ 1736
biological 1735
ici@@ 1735
statistical 1734
yo@@ 1734
autonomy 1733
metro 1733
AV@@ 1732
crew 1732
lowest 1732
unusual 1732
Tro@@ 1731
dominant 1731
emerge 1731
sustained 1731
Small 1730
chose 1730
codes 1730
Main 1729
aring 1729
posted 1729
silence 1729
acknowledged 1728
Met@@ 1727
discipline 1727
SC@@ 1726
Shop 1726
diver@@ 1726
drinking 1726
pharmaceutical 1726
connec@@ 1725
oni 1724
tone 1724
tropical 1724
blind 1723
ession 1723
160 1722
Declaration 1722
Poli@@ 1722
inequality 1722
minim@@ 1722
platforms 1722
CS 1721
clothing 1721
caught 1720
lights 1720
Budapest 1719
dog 1719
dor@@ 1719
torture 1719
wa 1719
elle 1718
fi 1718
passion 1718
53 1717
amend 1717
reinforce 1717
vic@@ 1717
Ren@@ 1716
Salzburg 1716
Space 1716
downloaded 1716
busy 1715
chat 1715
typically 1715
unknown 1715
hab@@ 1714
sively 1714
HTML 1713
marking 1713
ton@@ 1713
tw@@ 1713
fare 1712
EX@@ 1711
Meanwhile 1711
Men@@ 1711
Adobe 1710
BR@@ 1710
simplification 1710
wake 1710
Website 1709
drafted 1709
penalties 1709
publicly 1709
Digital 1708
controlling 1708
quota 1708
thy 1708
B5 1707
fitted 1707
contra@@ 1705
observers 1705
estimates 1704
survival 1704
coverage 1703
failing 1703
Conditions 1701
Academy 1700
rela@@ 1700
differ 1699
eing 1699
explains 1699
exposure 1699
simplify 1699
56 1698
dent 1698
monitored 1698
defense 1696
hoped 1696
program@@ 1696
tips 1696
86 1694
refer@@ 1694
confusion 1693
Da@@ 1692
cancel 1692
indirect 1692
tolerance 1692
arity 1691
steam 1691
wer 1691
Direc@@ 1690
Sil@@ 1690
headquarters 1690
shuttle 1690
specifications 1690
71 1689
chief 1689
isolated 1689
measured 1689
rap@@ 1689
Pres@@ 1688
bot@@ 1688
accepting 1687
holders 1687
licence 1687
unfortunate 1687
keeps 1686
ska 1686
reductions 1685
unlike 1685
ust 1685
indication 1684
arts 1683
incorporate 1683
lacking 1683
receives 1683
reiterate 1683
ums 1683
ett@@ 1682
premises 1682
ken 1681
hesitate 1680
21st 1679
ero 1679
itation 1679
keen 1679
tem@@ 1679
undertaking 1679
Zimbabwe 1678
IV 1677
SE 1677
pact 1677
fold 1676
painting 1676
unlikely 1676
Search 1675
&apos;d 1674
respectively 1674
West@@ 1673
boxes 1673
centrali@@ 1673
dating 1673
responses 1673
settled 1673
Wei@@ 1672
Uni@@ 1671
prestigious 1671
MB 1670
lic 1670
ony 1670
Beijing 1669
Budget 1669
Fre@@ 1669
Indonesia 1669
Which 1669
thoroughly 1669
asi@@ 1668
consolidation 1668
develops 1668
need@@ 1668
pursuing 1668
belonging 1667
buses 1667
ile 1667
surprising 1667
tt@@ 1667
complexity 1666
flag 1666
Ge@@ 1665
eting 1665
segment 1665
Place 1664
copies 1664
yl@@ 1664
yn@@ 1664
Pan@@ 1663
ills 1663
reverse 1663
deemed 1662
fought 1662
oned 1662
temp@@ 1662
Sony 1661
alo@@ 1661
displays 1661
eries 1661
indi@@ 1661
kan 1661
lighting 1661
Stockholm 1660
converted 1660
exceptions 1660
fs 1660
infringement 1660
consult 1659
defending 1659
tin@@ 1659
Camp@@ 1658
AD 1657
Al 1657
Organization 1657
Tunisia 1657
encies 1657
robust 1657
Wa@@ 1656
convert 1656
economics 1656
owing 1656
plane 1656
Sou@@ 1655
e.@@ 1655
ean 1655
icon 1655
radi@@ 1655
Plus 1654
Port 1654
acquire 1654
plate 1654
Gr@@ 1653
eless 1653
ples 1653
underline 1653
decent 1652
ensured 1652
59 1651
ential 1651
tackling 1651
Everyone 1650
PC@@ 1650
mur@@ 1650
respecting 1650
disappointed 1649
ground@@ 1649
ora 1648
closure 1647
mul@@ 1647
reli@@ 1647
stops 1647
tionary 1647
motions 1646
zu@@ 1645
Hence 1644
heated 1644
lement 1644
lovers 1644
smo@@ 1644
tia 1644
66 1643
Select 1643
Sudan 1643
ases 1643
auto@@ 1643
mobili@@ 1643
Thomas 1642
CE 1641
concerts 1641
dat@@ 1641
inst@@ 1641
Opera 1640
sheets 1640
aire 1639
camps 1639
cot@@ 1638
denti@@ 1638
architectural 1637
hospital 1637
shareholders 1637
Las 1636
allo@@ 1636
belie@@ 1636
bill 1636
staying 1636
unds 1636
Access 1635
micro 1635
Water 1634
backed 1634
implies 1634
accepts 1633
cr@@ 1633
ests 1633
executed 1632
interim 1632
mm@@ 1632
telling 1632
92 1631
EMU 1631
badly 1631
interaction 1631
noticed 1631
tries 1631
Charles 1630
MA 1630
governed 1630
inquiry 1630
strange 1630
Gulf 1629
Out@@ 1629
Tibet 1629
actor 1629
artificial 1629
guard 1629
nom@@ 1628
exceed 1627
cer 1626
unt 1626
Series 1625
founding 1625
monuments 1625
survive 1625
Nov@@ 1624
Sta@@ 1624
continuation 1624
hel@@ 1624
sailing 1624
stem 1624
0s 1623
stays 1623
whi@@ 1623
News 1622
Tuesday 1622
Milan 1621
tery 1621
ambitions 1620
forming 1620
silver 1620
trains 1620
Canon 1619
EEC 1619
decre@@ 1619
12.@@ 1618
GN@@ 1618
denied 1618
designer 1618
literature 1618
AP@@ 1617
pack@@ 1617
profound 1617
ros 1617
unstable 1617
auf 1616
describes 1616
dominated 1616
grants 1616
Personal 1614
wind@@ 1614
ints 1613
maps 1613
san@@ 1613
churches 1612
Science 1611
aded 1611
backing 1611
magic 1611
thro@@ 1611
favourite 1610
adjusted 1608
Kur@@ 1607
Tu@@ 1607
downloading 1607
rem@@ 1607
uring 1607
eter 1606
holes 1606
Above 1605
Ka@@ 1605
acquis 1605
clearer 1605
listened 1605
taxi 1605
tured 1605
Guide 1604
Wil@@ 1604
iti@@ 1604
Eff@@ 1603
choosing 1603
fires 1603
relaxed 1603
snow@@ 1603
Peace 1602
characterised 1602
compare 1602
delicate 1601
skilled 1601
tening 1601
alliance 1600
circle 1600
conjunction 1600
inform@@ 1600
ok 1600
Point 1599
gam@@ 1599
hing 1599
unprecedented 1599
ark@@ 1598
collec@@ 1598
fiable 1598
Master 1597
constitu@@ 1597
Anonymous 1596
abolition 1596
degrees 1596
lied 1595
sandy 1595
capture 1594
catering 1594
column 1593
AC 1592
Millennium 1592
sk 1592
adap@@ 1591
mb@@ 1591
Est@@ 1590
hol@@ 1590
refugee 1590
18th 1589
Open@@ 1589
mo 1589
shaped 1589
sporting 1589
aches 1588
adher@@ 1588
entries 1588
sem@@ 1588
activated 1587
discrimin@@ 1587
harmony 1587
hear@@ 1587
recycling 1587
aming 1586
securities 1586
automation 1585
horizontal 1585
ED@@ 1584
ner@@ 1584
authorisation 1583
bases 1583
tailored 1583
a.@@ 1582
doctors 1582
li 1582
accountability 1581
prohibited 1581
· 1581
alarm 1580
bat@@ 1580
sw@@ 1580
watching 1580
Em@@ 1579
challenging 1579
evi@@ 1579
foods 1579
ut 1579
dangers 1578
minds 1578
banned 1577
bid 1577
yers 1577
App@@ 1576
Cat@@ 1576
accommodate 1576
ama 1576
seekers 1576
Industrial 1575
coinci@@ 1575
editor 1575
explo@@ 1575
invitation 1575
reduces 1575
58 1574
deny 1573
guidance 1573
hed 1573
temperatures 1573
workshop 1573
67 1572
manifest@@ 1572
tious 1572
unch 1572
workshops 1572
analy@@ 1571
plain 1571
homo@@ 1570
battery 1569
evolution 1569
ily 1569
tells 1569
det@@ 1568
fam@@ 1568
requiring 1568
rubber 1568
ired 1567
sin 1567
Norway 1566
announcement 1566
assessments 1566
suff@@ 1566
Naturally 1565
signature 1565
currencies 1564
invested 1564
vac@@ 1564
Wall 1563
parameter 1563
2.5 1562
Go 1562
departments 1562
Travel 1561
booked 1561
engineers 1561
prev@@ 1561
College 1559
Road 1559
edit 1559
favorite 1559
Moldova 1558
analyses 1558
linguistic 1558
roughly 1558
TI@@ 1557
aj@@ 1557
ample 1557
solving 1557
Na@@ 1556
spots 1556
stood 1556
constraints 1555
sla@@ 1555
proximity 1554
Lau@@ 1553
damaged 1553
separately 1553
tra 1553
AR 1552
demonstration 1552
laser 1552
oo@@ 1552
surplus 1552
Apartment 1551
unanimous 1551
Saudi 1550
celebrate 1550
hydro@@ 1550
murder 1550
preventive 1550
racing 1550
visitor 1550
57 1549
assumed 1549
brain 1549
concentrated 1549
thoughts 1549
ail 1548
book@@ 1548
kg 1548
tz 1548
appreciated 1547
pack 1546
preferences 1546
ç@@ 1546
ened 1545
PRO@@ 1544
accused 1544
authentic 1544
conver@@ 1544
investigate 1544
projec@@ 1544
stakeholders 1544
circulation 1543
consulted 1543
conve@@ 1543
subsidiary 1543
coherence 1542
environments 1542
inher@@ 1542
tives 1542
BC 1541
Choose 1541
Experience 1541
Mur@@ 1541
black@@ 1541
fli@@ 1541
specialities 1541
suddenly 1541
Rot@@ 1540
characterized 1540
male 1540
quantities 1540
alogue 1539
sy@@ 1539
.org 1538
DC 1538
Sho@@ 1538
Wor@@ 1538
branches 1538
enemy 1538
movies 1538
ñ@@ 1538
ó 1538
calculated 1537
abandoned 1536
adaptation 1536
twin 1536
congratulations 1535
Blue 1534
Puerto 1534
Right 1534
compatibility 1534
tain 1534
tape 1534
Everything 1533
enthusiasm 1533
eo 1533
mi 1533
servi@@ 1533
exec@@ 1532
pru@@ 1532
Additionally 1531
ET 1531
attract 1531
derived 1531
sn@@ 1531
turing 1531
birds 1530
investing 1530
lined 1530
revenues 1530
rub@@ 1530
Gold 1529
izing 1529
searching 1529
1980 1528
continually 1528
explicit 1528
modest 1528
railways 1528
socio 1528
dictatorship 1527
fault 1527
furthermore 1527
CE@@ 1526
Vietnam 1526
approx 1526
ente 1526
reconciliation 1526
supervisory 1526
teacher 1526
albeit 1525
compar@@ 1525
differently 1525
exploit 1525
coalition 1524
damaging 1524
tre 1524
weigh@@ 1524
aking 1523
sanc@@ 1523
excess 1522
att@@ 1521
feels 1521
investigations 1521
powered 1521
Contact 1520
Live 1520
demanded 1520
ester 1520
inations 1519
super 1519
cooking 1518
initi@@ 1518
lig@@ 1518
lor@@ 1518
optical 1518
short@@ 1518
vor@@ 1518
Fac@@ 1517
evil 1517
mining 1517
pending 1517
photography 1517
secured 1517
stimulate 1517
sus@@ 1517
2015 1516
rose 1516
semi 1516
Cent@@ 1515
Rather 1514
appreciation 1514
dar@@ 1514
lending 1513
les@@ 1513
partition 1513
contributes 1512
stag@@ 1512
agent 1511
defects 1511
pione@@ 1511
tac@@ 1511
upcoming 1511
James 1510
knowing 1510
adequately 1509
automated 1509
clarification 1509
instability 1509
vin@@ 1509
88 1508
Spe@@ 1508
conviction 1508
realized 1508
wat@@ 1508
habit@@ 1507
ez 1506
identical 1506
terminal 1506
Sometimes 1505
filling 1505
incomes 1505
í 1505
BMW 1504
Kr@@ 1504
Mis@@ 1504
chen 1504
diplom@@ 1504
regi@@ 1504
decentrali@@ 1503
scre@@ 1503
stringent 1503
3rd 1502
Pl@@ 1502
harbour 1502
optional 1502
hire 1501
infrastructures 1501
justification 1501
modes 1501
terror 1501
Fax 1500
Start 1500
alle@@ 1500
ful@@ 1500
laying 1500
pot 1500
lier 1499
multimedia 1499
deser@@ 1498
paradise 1498
isn 1497
backs 1496
intergovernmental 1496
themes 1495
Fran@@ 1494
demo@@ 1494
essed 1494
AN 1493
OM@@ 1493
sers 1493
Apple 1492
PSE 1492
genetically 1492
obtaining 1492
divide 1491
sincerely 1491
OL@@ 1490
competitors 1490
dged 1490
fe 1490
pic@@ 1490
AU@@ 1489
alize 1489
prominent 1489
scenario 1489
ela 1488
isolation 1488
struck 1488
tel 1488
62 1487
bag 1487
illing 1487
rati@@ 1487
admi@@ 1486
direc@@ 1486
sam@@ 1486
sharp 1486
Add 1485
Climate 1485
Rap@@ 1485
deleted 1485
© 1485
adv@@ 1484
Cha@@ 1483
Tru@@ 1482
humans 1482
77 1481
Super@@ 1481
activ@@ 1481
doctor 1481
dom@@ 1481
incredible 1481
ée 1481
enhan@@ 1480
hi 1480
ico 1480
Press 1479
directions 1479
eller 1479
grand@@ 1479
household 1479
permanently 1479
tun@@ 1479
Currently 1478
breaks 1478
halt 1478
removing 1478
Order 1477
capacities 1477
grade 1477
inated 1477
interpreted 1477
newspapers 1477
quot@@ 1477
shel@@ 1477
ultra 1477
Could 1476
Mel@@ 1476
SAP 1476
grand 1476
ideological 1476
irre@@ 1476
Regarding 1475
Rental 1475
Sar@@ 1475
ians 1475
specialised 1475
History 1474
IB@@ 1474
fundamentally 1474
performances 1474
connecting 1473
fifteen 1473
motivated 1473
physi@@ 1473
advocate 1472
checking 1472
hard@@ 1472
93 1471
Edition 1471
HIV 1471
Technical 1470
conditional 1470
opponents 1470
striking 1470
translations 1470
peri@@ 1469
sad 1469
ee 1468
tot@@ 1468
witness 1468
ł@@ 1468
Los 1467
partially 1467
returning 1467
Program 1466
Sem@@ 1466
argued 1466
lessly 1466
lt 1466
sound@@ 1466
crystal 1465
patri@@ 1465
aled 1464
enz@@ 1464
lakes 1464
89 1463
EU@@ 1463
aw@@ 1463
chocolate 1463
inevitable 1463
ouring 1463
Muslims 1462
eine 1462
aching 1461
dep@@ 1461
mag@@ 1461
82 1460
cheese 1460
fron@@ 1460
ishes 1460
s. 1460
sement 1460
sensor 1460
transformed 1460
gence 1459
peak 1459
rin@@ 1459
explanations 1458
mirror 1458
optimum 1458
participated 1458
practi@@ 1458
rage 1458
Estonia 1457
Part 1457
bone 1457
crossing 1457
impetus 1457
monthly 1457
rid 1457
vari@@ 1457
Rom@@ 1456
moderate 1456
atten@@ 1455
promotes 1455
strive 1455
LU@@ 1454
gradual 1454
venture 1454
Doha 1453
ergy 1453
gement 1453
scep@@ 1453
deleg@@ 1452
vent 1452
SC 1451
abuses 1451
influ@@ 1451
jo 1451
pan 1451
subscri@@ 1451
taught 1451
Show 1450
Tim@@ 1450
avi@@ 1450
combining 1450
bears 1449
grave 1449
hypo@@ 1449
winners 1449
Chechnya 1448
formula 1448
gh 1448
passes 1448
ologically 1447
rescue 1447
arm 1446
cop@@ 1446
dimin@@ 1446
Cra@@ 1445
Dor@@ 1445
Modern 1445
proliferation 1445
score 1445
ier@@ 1444
independently 1444
leather 1444
iPhone 1443
notification 1443
permits 1443
socially 1443
Gen@@ 1442
avoiding 1442
maxim@@ 1442
abo@@ 1441
ú@@ 1441
fri@@ 1440
inevitably 1440
aces 1439
nis@@ 1439
Thailand 1438
ab 1438
dges 1438
set@@ 1438
Tel@@ 1437
retirement 1437
Communication 1436
Gran 1436
Training 1435
bak@@ 1435
dam@@ 1435
distribute 1435
alising 1434
ater 1434
restoration 1434
XP 1433
vegetables 1433
78 1432
LA 1432
editing 1432
NO@@ 1431
announ@@ 1431
colonial 1431
hunger 1431
tensions 1431
Che@@ 1429
Process 1429
bach 1429
democracies 1429
hosts 1429
outlined 1429
reinforced 1429
Working 1428
bird 1428
employee 1428
ems 1428
harmonised 1428
sten@@ 1428
Content 1427
Image 1427
Kor@@ 1427
pil@@ 1427
workforce 1427
Saddam 1426
excellence 1426
globally 1426
ord 1426
ori 1426
oria 1426
advances 1425
openly 1425
vil@@ 1425
login 1424
neutral 1424
nowadays 1424
setup 1424
translate 1424
Cu@@ 1423
Golden 1423
alive 1423
arrested 1423
radiation 1423
shore 1423
Res@@ 1422
officers 1422
Alpine 1421
CHF 1419
Danube 1419
dental 1419
mod@@ 1419
origin@@ 1419
ze@@ 1419
ail@@ 1418
austerity 1418
donors 1418
eligible 1418
11.@@ 1417
rolling 1417
seminars 1417
hide 1416
SQL 1415
delayed 1415
hazardous 1415
indispensable 1415
separated 1415
Visit 1414
eness 1414
observations 1414
frag@@ 1412
minimal 1412
recover 1412
tho@@ 1412
trademarks 1412
DO@@ 1411
advis@@ 1411
champ@@ 1411
promising 1411
summary 1411
toler@@ 1411
40@@ 1410
arm@@ 1410
lob@@ 1410
su 1410
well@@ 1410
Cy@@ 1409
Ol@@ 1409
activate 1409
configure 1409
etric 1409
flowers 1409
forums 1409
twelve 1409
unlimited 1409
Client 1408
Work 1408
entities 1408
ham 1408
salt 1408
systematically 1408
tight 1408
tool@@ 1408
divi@@ 1407
mem@@ 1407
pin 1407
symbolic 1407
Cold 1406
HD 1406
acceler@@ 1406
threatening 1406
hopefully 1405
iness 1405
net@@ 1405
separation 1405
tain@@ 1405
spiritual 1404
League 1403
adverse 1403
bility 1403
cheaper 1403
resolving 1403
struc@@ 1403
stry 1403
Ltd 1401
Mont@@ 1401
flash 1401
golden 1401
novel 1401
receipt 1401
urs 1401
ère 1401
Tyrol 1400
bread 1400
breathtaking 1400
complement 1400
criterion 1400
dé@@ 1400
ich 1400
imperative 1400
labels 1400
ords 1400
simplified 1400
Ham@@ 1399
Sel@@ 1399
Statute 1399
arians 1399
blocked 1399
civili@@ 1399
revol@@ 1399
Allow 1398
Change 1398
Friendly 1398
quarters 1398
resumed 1398
stating 1398
archi@@ 1397
audit 1397
gathered 1397
kit 1397
realised 1397
ST 1396
databases 1396
judges 1396
ols 1396
pleas@@ 1396
ante 1395
capability 1395
capitalism 1395
dings 1395
indigenous 1395
boo@@ 1394
deeper 1394
garage 1394
interference 1394
Finance 1393
cali@@ 1393
invo@@ 1393
repression 1393
ues 1393
Christians 1392
craft 1392
discovery 1392
endor@@ 1392
ack@@ 1391
mas 1391
rupt 1391
wel@@ 1391
camp@@ 1390
interview 1390
NEW 1389
bathing 1389
boundaries 1389
controller 1389
envisaged 1389
gases 1389
scenery 1389
uns 1389
disagree 1388
engagement 1388
restrictive 1388
reviewed 1388
sing@@ 1388
conscious 1387
ford 1387
integrating 1387
mailing 1387
par 1387
warranty 1387
Cle@@ 1386
Criminal 1386
Py@@ 1386
rigorous 1386
toilet 1386
piano 1385
separ@@ 1385
Air@@ 1384
High@@ 1384
Supervisory 1384
a.m. 1384
criminals 1384
embedded 1384
objec@@ 1384
shr@@ 1384
Discover 1383
fic@@ 1383
inning 1383
EP 1382
commission 1382
countless 1382
venue 1382
Pen@@ 1381
kill 1381
oms 1381
ruled 1381
Cathedral 1380
kids 1380
tiv@@ 1380
63 1379
Den@@ 1379
New@@ 1379
hr@@ 1379
ote 1379
tial 1379
troub@@ 1379
wis@@ 1378
cen@@ 1377
cum@@ 1377
feelings 1377
fits 1377
gar 1377
orious 1377
procedural 1377
ras 1377
Her 1376
amp 1376
aria 1376
ker@@ 1376
scrutiny 1376
ji 1375
CEO 1374
tages 1374
Rel@@ 1373
Spring 1373
ailed 1373
consisting 1373
ep 1373
gel 1373
grew 1373
subjected 1373
suspension 1373
thumbnail 1373
centrally 1372
ography 1372
SM@@ 1371
mines 1371
pride 1371
safely 1371
Fle@@ 1370
celebrated 1370
civilians 1370
complic@@ 1370
deep@@ 1370
entrepreneurs 1370
pointing 1370
Annual 1369
alling 1369
Nigeria 1368
glob@@ 1368
indirectly 1368
94 1367
IGC 1367
Pat@@ 1367
Petitions 1367
evol@@ 1367
roles 1367
charter 1366
gy@@ 1366
PP@@ 1365
bert 1365
touched 1365
Solidarity 1364
delivering 1364
ea 1364
stimulus 1364
Region 1363
Stuttgart 1363
arises 1363
examining 1363
PM 1362
limitations 1362
Vista 1361
adjustments 1361
finest 1361
installing 1361
synchron@@ 1361
compromises 1360
disastrous 1360
eigh@@ 1360
regul@@ 1360
sums 1360
vicinity 1360
interventions 1359
oked 1359
paintings 1359
perpet@@ 1359
speaks 1359
91 1358
Mau@@ 1358
TA 1358
ami 1358
care@@ 1358
Mark 1357
congratulating 1357
lawyers 1357
OK 1356
ign@@ 1356
implic@@ 1356
infl@@ 1356
trails 1356
alls 1355
generating 1355
transmitted 1355
abstained 1354
asks 1354
carrier 1354
dre@@ 1354
extends 1354
safeguarding 1354
utions 1354
Location 1353
Sun 1353
elite 1353
gon 1353
Newspapers 1352
await 1352
ey@@ 1352
supporters 1352
weapon 1352
statute 1351
tex@@ 1351
Jews 1350
stein 1350
tremendous 1350
unanimity 1350
Mari@@ 1349
Wal@@ 1349
conveniently 1349
presentations 1349
Rio 1348
feder@@ 1348
rat@@ 1348
ENT 1347
Hans 1347
cket 1347
counts 1347
existed 1347
influenced 1347
laboratory 1347
profitable 1347
sensitivity 1347
vine 1347
Bon@@ 1346
Chief 1346
pillars 1346
About 1345
Jerusalem 1345
killing 1345
resistant 1345
voices 1345
Bol@@ 1344
Four 1344
UC@@ 1344
landscapes 1344
profiles 1344
verse 1344
behold 1343
excuse 1343
founder 1343
girl 1343
Gor@@ 1342
Pla@@ 1342
Written 1342
innocent 1342
monopoly 1342
neo 1342
shock 1342
74 1341
Don@@ 1341
distinguished 1341
ticul@@ 1341
tless 1341
Playa 1340
Trek 1340
ci 1340
circuit 1340
ool 1340
worker 1340
Professor 1339
ital 1339
Caribbean 1338
Chancellor 1338
Empire 1338
enhancing 1338
oting 1338
waves 1338
69 1337
Rob@@ 1337
SU@@ 1337
appe@@ 1337
continental 1337
determining 1337
eable 1337
exclude 1337
lla 1337
reads 1337
render 1337
Bad 1336
besides 1336
entity 1336
Romanian 1335
culinary 1335
mes@@ 1335
op 1335
calculation 1334
eria 1334
Det@@ 1333
writer 1333
81 1332
Disabled 1332
sch 1332
admission 1331
annually 1331
ght@@ 1331
trademark 1331
California 1330
Hei@@ 1330
Star@@ 1330
cos 1330
foster 1330
mers 1330
rows 1330
strikes 1330
Reg@@ 1329
grass 1329
sofa 1329
top@@ 1329
walks 1329
73 1328
portra@@ 1328
utility 1328
WC 1327
earned 1327
eta 1327
sat@@ 1327
subscription 1327
affili@@ 1326
guides 1325
refusal 1325
Cross 1324
Line 1324
anders 1324
clean@@ 1324
gear 1324
int@@ 1324
refined 1324
affir@@ 1323
districts 1323
gg@@ 1323
illi@@ 1323
gol@@ 1322
Cho@@ 1321
cip@@ 1321
endorsed 1320
offset 1320
ía 1320
61 1319
Latvia 1319
Professional 1319
hearts 1319
homepage 1319
linking 1319
protests 1319
yellow 1319
communist 1318
hy@@ 1318
viewing 1318
abandon 1317
absurd 1317
convincing 1317
lifestyle 1317
margin 1317
tariff 1317
bloo@@ 1316
ageing 1315
cans 1315
corporations 1315
plac@@ 1315
rivers 1315
visas 1315
Mul@@ 1314
cher@@ 1314
umb@@ 1314
UT@@ 1313
attempting 1313
distributors 1313
ema 1313
encounter 1313
incident 1313
Fair 1312
Radio 1312
autonomous 1312
bles 1312
chances 1312
immunity 1312
inspiration 1312
lens 1312
magnetic 1312
Unlike 1311
assessed 1311
harmon@@ 1311
reproduction 1311
worried 1311
Joseph 1310
fal@@ 1310
ji@@ 1310
mounted 1310
show@@ 1310
delegations 1309
ial 1309
16th 1308
MP3 1308
alu@@ 1308
consultations 1308
shing 1308
unilateral 1308
weekly 1308
Corporate 1307
Sport 1307
Ther@@ 1307
dest 1307
fabric 1307
cements 1306
cooling 1306
decrease 1306
enter@@ 1306
fes@@ 1306
scra@@ 1306
formally 1305
lays 1305
cycling 1304
emphasi@@ 1304
tains 1304
Tr@@ 1303
Unless 1303
designers 1303
distant 1303
intern@@ 1303
prop@@ 1303
securing 1303
Val 1302
mon 1302
supplement 1302
Cohesion 1301
Chile 1300
Fil@@ 1300
fire@@ 1300
gent 1300
haven 1300
joy 1300
prevents 1300
endeavour 1299
endless 1299
omed 1299
ong@@ 1299
qualities 1299
sincere 1299
tile 1299
HU 1298
Kal@@ 1298
Korean 1298
Reserve 1298
SS@@ 1298
organiz@@ 1298
sin@@ 1298
tonight 1298
cinema 1297
consolidate 1297
day@@ 1297
ices 1297
pull 1297
ules 1297
attach 1296
carries 1296
interfaces 1296
stro@@ 1296
washing 1296
OECD 1295
Pack 1295
UNESCO 1295
exploited 1295
geo@@ 1295
maintains 1295
surfing 1295
76 1294
Much 1294
moder@@ 1294
oll@@ 1294
Christ 1293
limiting 1293
overwhelming 1293
sympathy 1293
aggressive 1292
cit@@ 1292
detention 1292
fertili@@ 1292
insu@@ 1292
lion 1292
perf@@ 1292
resorts 1292
younger 1292
clu@@ 1291
rain 1291
Alexander 1290
analyse 1290
author@@ 1290
compens@@ 1290
duction 1290
eff@@ 1290
thin 1290
ano@@ 1289
enters 1289
gather 1289
gged 1289
ple 1289
obstacle 1288
reaches 1288
width 1288
Helsinki 1287
afterwards 1287
designated 1287
symp@@ 1287
Jan@@ 1286
dorf 1286
paragraphs 1286
plugin 1286
reaffir@@ 1286
Dep@@ 1285
Gui@@ 1285
domin@@ 1285
exploring 1285
dreams 1284
gging 1284
yield 1284
Holy 1283
irs 1283
liquid 1283
Gay 1282
hectares 1282
ink@@ 1282
Sor@@ 1281
divisions 1281
finishing 1281
panels 1281
workplace 1281
Nature 1280
Ak@@ 1279
Natural 1279
ix 1279
Allah 1278
Liber@@ 1278
Products 1278
ades 1278
deciding 1278
encomp@@ 1278
graphical 1278
lying 1278
mass@@ 1278
pop 1278
Blair 1277
Hon@@ 1277
clothes 1277
commonly 1277
electronics 1277
ingen 1277
luck 1277
married 1277
Administration 1276
Mad@@ 1276
Staff 1276
Whilst 1276
ater@@ 1276
carriers 1276
gym 1276
libraries 1276
nic@@ 1276
preservation 1276
punishment 1276
responding 1276
thinks 1276
asp@@ 1275
consist 1275
defeat 1275
technically 1275
vacuum 1275
0.00 1274
29@@ 1274
authorized 1274
circum@@ 1274
demonstrations 1274
filters 1274
Ari@@ 1273
Congo 1273
wan@@ 1273
Child 1272
Suites 1272
ruption 1272
5th 1271
Come 1271
anism 1271
exacerb@@ 1271
tip 1271
cease 1270
900 1269
ails 1269
anger 1269
consolidated 1269
illa 1269
meaningful 1269
broad@@ 1268
perceived 1268
plates 1268
Over@@ 1267
deployment 1267
discretion 1267
ood 1267
Singapore 1266
modernisation 1266
reactions 1266
talent 1266
OLAF 1265
Residence 1265
clauses 1265
energies 1265
macroeconomic 1265
perception 1265
somewhere 1265
Sy@@ 1264
facilit@@ 1264
skill 1264
sweet 1264
Š@@ 1264
kilometers 1263
IV@@ 1262
audiovisual 1262
ele 1262
irrespective 1262
KDE 1261
alt 1261
bags 1261
max 1261
notic@@ 1261
wishing 1261
character@@ 1260
esses 1260
ratify 1260
Basel 1259
broadly 1259
brother 1259
incorrect 1259
hau@@ 1258
preference 1258
safer 1258
02@@ 1257
condi@@ 1257
unified 1257
Against 1256
Big 1256
Round 1256
costly 1256
detection 1256
imbalances 1256
regre@@ 1256
reveal 1256
Algeria 1255
Simply 1255
gio 1255
ideology 1255
poin@@ 1255
proves 1255
Ki@@ 1254
Wireless 1254
cep@@ 1254
emphasize 1254
households 1254
mus@@ 1254
outermost 1254
wn@@ 1254
confirms 1253
mand@@ 1253
rarely 1253
scenes 1253
1990s 1252
democratically 1252
mp 1252
olo@@ 1252
ry@@ 1252
ually 1252
Library 1251
Ocean 1251
dust 1251
guilty 1251
safeguards 1251
styles 1251
wire 1251
wisdom 1251
deci@@ 1249
extrac@@ 1249
group@@ 1249
hosting 1249
Rem@@ 1248
hof 1248
spell 1248
Tran@@ 1247
mile 1247
predic@@ 1247
thereof 1247
Fa@@ 1246
shoes 1246
Head 1245
complaint 1245
downtown 1245
silent 1245
Aqu@@ 1244
Between 1244
Cultural 1244
Language 1244
Warcraft 1244
Eu@@ 1243
FOR 1243
Galileo 1243
Neither 1243
Post@@ 1243
aiming 1243
far@@ 1243
selecting 1243
tig@@ 1243
deadlines 1242
gaming 1242
loan 1242
problematic 1242
tube 1242
Ky@@ 1241
ft@@ 1241
fulness 1241
gres@@ 1241
mal 1241
validity 1241
SP 1240
fragile 1240
macro 1240
mol@@ 1240
pushed 1240
Test 1239
seminar 1239
thirty 1239
Anti 1238
asses 1238
bath@@ 1238
oder 1238
query 1238
Colombia 1237
Jesus 1237
alter 1237
bands 1237
marriage 1237
reasonably 1237
ung 1237
Green@@ 1236
Lat@@ 1236
Wikitravel 1236
breeding 1236
cycles 1236
races 1236
ín 1236
Innovation 1235
Mail 1235
dramatically 1235
ghter 1235
spi@@ 1235
60@@ 1234
Islam@@ 1234
glo@@ 1234
impro@@ 1234
ME 1233
disabilities 1233
revolutionary 1233
87 1232
USS 1232
nutri@@ 1232
tab 1232
Cab@@ 1231
differenti@@ 1231
eco 1231
locally 1231
tendency 1231
Privacy 1230
critique 1230
disciplinary 1230
legislat@@ 1230
tioning 1230
Rei@@ 1229
bits 1229
commodity 1229
teach 1229
Flo@@ 1228
GPS 1228
Objective 1228
conce@@ 1228
immense 1228
insight 1228
oh@@ 1228
assessing 1227
clinical 1227
invites 1227
Anti@@ 1226
Gallery 1226
Partner 1226
collections 1226
delivers 1226
edly 1226
feasible 1226
medicinal 1226
processor 1226
tually 1226
DP 1225
coins 1225
diplomacy 1225
fic 1225
tracking 1225
Piazza 1224
contest 1224
ouse 1224
pushing 1224
recognises 1224
Country 1223
Je@@ 1223
Prin@@ 1223
Sol 1223
climbing 1223
donor 1223
med@@ 1223
remedy 1223
appearing 1222
gel@@ 1222
theoretical 1222
Bat@@ 1221
Decision 1221
fruits 1221
prot@@ 1221
fossil 1220
multip@@ 1220
pipeline 1220
ville 1220
herself 1219
identifying 1219
practic@@ 1219
stering 1219
Adriatic 1218
cattle 1218
vali@@ 1218
EX 1217
GP 1217
debts 1217
dioxide 1217
witnessed 1217
xed 1217
100@@ 1216
Ei@@ 1216
Hostel 1216
Net 1216
Sen@@ 1216
belt 1216
boarding 1216
renewal 1216
symbols 1216
License 1215
attempted 1215
exceptionally 1215
forestry 1215
inger 1215
pretext 1215
tiny 1215
Bio@@ 1214
Democracy 1214
enforce 1214
headed 1214
protective 1214
trail 1214
Anyone 1213
Explorer 1213
FI 1213
Mus@@ 1213
mented 1213
ocean 1213
án 1213
ambience 1212
desc@@ 1212
multinational 1212
sur 1212
ual 1212
Solana 1211
economists 1211
pour 1211
profession 1211
Nero 1210
accompanying 1210
bian 1210
escal@@ 1210
personality 1210
wished 1210
Arts 1209
Bag@@ 1209
Reform 1209
fed 1209
indications 1209
lian 1209
oper@@ 1209
praise 1209
simul@@ 1209
ö@@ 1209
admitted 1208
awards 1208
dos 1208
eating 1208
ilt 1208
beat 1207
definitions 1207
deli@@ 1207
fing 1207
loved 1207
yang 1207
3,@@ 1206
colon@@ 1206
glu@@ 1206
limitation 1206
tness 1206
Ukrainian 1205
ects 1205
hop@@ 1205
trials 1205
vineyards 1205
Double 1204
Sig@@ 1204
a.m 1204
ection 1204
erial 1204
prompt 1204
15th 1203
Cer@@ 1203
Heritage 1203
XML 1203
arriving 1203
aus@@ 1203
incidents 1203
Ashton 1202
comforts 1202
rhetoric 1202
Annex 1201
Being 1201
Casa 1201
stit@@ 1201
weakness 1201
wra@@ 1201
dairy 1200
painful 1200
prerequisite 1200
tage 1200
understandable 1200
Dru@@ 1199
tz@@ 1199
titles 1198
CD@@ 1197
Montenegro 1197
Though 1197
ective 1197
nar@@ 1197
EP@@ 1196
Fed 1196
fulfilling 1196
gal@@ 1196
giant 1196
inci@@ 1196
woods 1196
District 1195
cla@@ 1195
disappear 1195
rank 1195
stu@@ 1195
GA 1194
adverti@@ 1194
dogs 1194
dru@@ 1194
insur@@ 1194
printer 1194
tioned 1194
17th 1193
HO@@ 1193
blocking 1193
globe 1193
persu@@ 1193
Sierra 1192
lifting 1192
4th 1191
IM 1191
broadcasting 1191
counting 1191
intim@@ 1191
oes 1191
cargo 1190
Nikon 1189
OSCE 1189
Tower 1189
classification 1189
formul@@ 1189
new@@ 1189
preserving 1189
retri@@ 1189
80@@ 1188
C. 1188
Mah@@ 1188
Siemens 1188
execute 1188
cross@@ 1187
lity 1187
verify 1187
wanting 1187
alpine 1186
hyper@@ 1186
var 1186
Dresden 1185
Provi@@ 1185
Ram@@ 1185
advised 1185
certificates 1185
Ay@@ 1184
Firefox 1184
mount 1184
rob@@ 1184
universe 1184
Ag@@ 1183
QU@@ 1183
cotton 1183
drew 1183
encourages 1183
eption 1183
liquidity 1183
Again 1182
SK 1182
psych@@ 1182
sco@@ 1182
complementary 1181
distinguish 1181
prints 1181
pt 1181
ric 1181
tn@@ 1181
wei@@ 1181
Sim@@ 1180
aux 1180
matches 1180
modification 1180
spreading 1180
arri@@ 1179
cache 1179
elli 1179
musicians 1179
remin@@ 1179
cc@@ 1178
foodstuffs 1178
reb@@ 1178
concludes 1177
introduces 1177
master@@ 1177
p.m 1177
precautionary 1177
pressures 1177
sends 1177
settle 1177
Ö@@ 1177
Tar@@ 1176
attitudes 1176
concessions 1176
earthquake 1176
eive 1176
emotional 1176
floods 1176
genocide 1176
shooting 1176
CDs 1175
S. 1175
Top 1175
crus@@ 1175
cus 1175
daughter 1175
lows 1175
mid@@ 1175
83 1174
Bed 1174
Pet@@ 1174
bus@@ 1174
continuity 1174
distinct 1174
persecution 1174
visibility 1174
warrant 1174
84 1173
Haiti 1173
Herzegovina 1173
PAR@@ 1173
Str@@ 1173
booth 1173
initiate 1173
law@@ 1173
lou@@ 1173
mineral 1173
ord@@ 1173
protectionism 1173
ranges 1173
Arabia 1172
Clinton 1172
Louis 1172
activists 1172
improves 1172
rs 1172
IX 1171
ROM 1171
oli@@ 1171
organs 1171
textiles 1171
Mark@@ 1170
Relations 1170
Terrace 1170
boy 1170
legacy 1170
scar@@ 1170
Neu@@ 1169
convic@@ 1169
elegance 1169
Ed@@ 1168
Riviera 1168
break@@ 1168
inappropriate 1168
toxic 1168
Freedom 1167
Kurdish 1167
Max 1167
asting 1167
clas@@ 1167
customized 1167
dered 1167
persi@@ 1167
thi@@ 1167
tons 1167
Political 1166
Rhine 1166
aving 1166
inspections 1166
quantitative 1166
Cl@@ 1165
Indi@@ 1165
SY@@ 1165
ald 1165
brutal 1165
coordinating 1165
ept 1165
pricing 1165
draws 1164
stly 1164
transnational 1164
uter 1164
advisory 1163
calcul@@ 1163
credits 1163
penet@@ 1163
Nobel 1162
configured 1162
loo@@ 1162
mad 1162
persuade 1162
poorer 1162
termin@@ 1162
vessel 1162
Fortunately 1161
carte 1161
reimbur@@ 1161
Equ@@ 1160
Likewise 1160
eil 1160
inequalities 1160
stroll 1160
theast 1160
A. 1159
Lag@@ 1159
Wellness 1159
quali@@ 1159
stically 1159
unt@@ 1159
alty 1158
stayed 1158
variables 1158
villas 1158
intent 1157
posing 1157
responded 1157
seas 1157
sibility 1157
stence 1157
BA 1156
Cir@@ 1156
Coast 1156
Mart@@ 1156
packed 1156
ray 1156
PE 1155
billions 1155
construct 1155
documented 1155
origins 1155
Bridge 1154
Dry 1154
EIB 1154
barrier 1154
encing 1154
A.@@ 1153
Les 1153
Ur@@ 1153
conservative 1153
enemies 1153
fasc@@ 1153
num@@ 1153
static 1153
Kra@@ 1152
Patten 1152
camping 1152
emergence 1152
iler 1152
psychological 1152
shell 1152
vable 1152
Articles 1151
Capital 1151
Land@@ 1151
peripheral 1150
sett@@ 1150
Slovak 1149
council 1149
gra 1149
itali@@ 1149
palace 1149
seaside 1149
Michel 1148
ceremony 1148
conscience 1148
essing 1148
legendary 1148
margin@@ 1148
mixture 1148
tournament 1148
valued 1148
Especially 1147
correction 1147
facilitating 1147
fun@@ 1147
officer 1147
orian 1147
ret@@ 1147
List 1146
anyway 1146
chamber 1146
newest 1146
protects 1146
stresses 1146
visu@@ 1146
DR@@ 1145
Laundry 1145
Roman@@ 1145
ès 1145
Hague 1144
bo 1144
pursuit 1144
350 1143
insert 1143
insul@@ 1143
lica 1143
menus 1143
uty 1143
1970 1142
CA 1142
completing 1142
eliminating 1142
etc. 1142
horses 1142
privileges 1142
DS@@ 1141
Lim@@ 1141
conducting 1141
weaknesses 1141
GMOs 1140
Sie 1140
cin@@ 1140
mitig@@ 1140
organising 1140
reader 1140
Under@@ 1139
Whatever 1139
grid 1139
inland 1139
resol@@ 1139
sav@@ 1139
tan 1139
Corporation 1138
RSS 1138
Village 1138
ancy 1138
definite 1138
irregularities 1138
layers 1138
reminded 1138
rounds 1138
speculation 1138
della 1137
ids 1137
upload 1137
Revolution 1136
Richard 1136
Young 1136
cooperative 1136
invoice 1136
relevance 1136
ando 1135
disadvantaged 1135
displaced 1135
dossier 1135
repercussions 1135
withdrawn 1135
Schulz 1134
bis@@ 1134
organisms 1134
samples 1134
Liberals 1133
Post 1133
boom 1133
harder 1133
illness 1132
main@@ 1132
Ticket 1130
bi 1130
dive 1130
exemption 1130
keyboard 1130
ope 1130
preparatory 1130
successes 1130
topical 1130
transported 1130
PH@@ 1129
classified 1129
confidentiality 1129
elev@@ 1129
eling 1129
onian 1129
rup@@ 1129
sau@@ 1129
temporarily 1129
tied 1129
Bulgarian 1128
Look 1128
rear 1127
rice 1127
vising 1127
ALE 1126
Easy 1126
Edinburgh 1126
Ober@@ 1126
complimentary 1126
evaluated 1126
featured 1126
invasion 1126
dress 1125
elimination 1125
sightseeing 1125
ski@@ 1125
Depending 1124
din 1124
exam@@ 1124
tackled 1124
ume 1124
aston@@ 1123
diversi@@ 1123
launching 1123
retained 1123
VIP 1122
bla@@ 1122
licensed 1122
threaten 1122
turn@@ 1122
с@@ 1122
Syn@@ 1121
chair@@ 1120
seed 1120
shots 1120
sorts 1120
LCD 1119
accountable 1119
aro@@ 1119
bin 1119
crimin@@ 1119
Russians 1118
attraction 1118
developer 1118
diagnosis 1118
Cleaning 1117
deliberately 1117
Inc 1116
UL@@ 1116
anticipated 1116
eur 1116
healing 1116
retro@@ 1116
serial 1116
§ 1116
DS 1115
bal 1115
bugs 1115
couples 1115
defines 1115
listing 1115
photo@@ 1115
refurbished 1115
transform 1115
warran@@ 1115
ž@@ 1115
broadcast 1114
dity 1114
nutrition 1114
ALDE 1113
Environmental 1113
Mountain 1113
asts 1113
Valencia 1112
Ven@@ 1112
burning 1112
contradiction 1112
maker 1112
tag 1112
thirds 1112
banana 1111
buyer 1111
commands 1111
convey 1111
lum@@ 1111
portion 1111
taining 1111
Bru@@ 1110
Hussein 1110
Pic@@ 1110
Sac@@ 1110
enshrined 1110
liberalization 1110
patch 1110
pine 1110
Med@@ 1109
Sav@@ 1109
classi@@ 1109
devi@@ 1109
fat 1109
productions 1109
Catholic 1108
и@@ 1108
All@@ 1107
employ 1107
positively 1107
studying 1107
acci@@ 1106
detect 1106
liberty 1106
mess@@ 1106
overnight 1106
traditionally 1106
Looking 1105
Organ@@ 1105
Verheugen 1105
buttons 1105
timing 1105
utor 1105
Canary 1104
Cli@@ 1104
bold 1104
chi 1104
modifications 1104
objections 1104
PD@@ 1103
Wikicars 1103
tible 1103
volumes 1103
Nokia 1102
advan@@ 1102
counted 1102
tal@@ 1102
Times 1101
aspirations 1101
baggage 1101
batteries 1101
heim 1101
lifelong 1101
pedi@@ 1101
ull 1101
Engineering 1100
educ@@ 1100
inviting 1100
mption 1100
settlements 1100
vertical 1100
Cur@@ 1099
LT 1099
Nothing 1099
confidential 1099
interven@@ 1099
metals 1099
ners 1099
pragmatic 1099
socialist 1099
Germans 1098
Recently 1098
aks 1098
alleged 1098
79 1097
AP 1097
bicycle 1097
comb@@ 1097
diet 1097
policymakers 1097
rot@@ 1097
Building 1096
Photocopying 1096
aluminium 1096
commend 1095
downloads 1095
favor 1095
fut@@ 1095
momentum 1095
readers 1095
tran@@ 1095
.net 1094
fically 1094
pig@@ 1094
priori@@ 1094
shortage 1094
ación 1093
brea@@ 1093
ede 1093
ordering 1093
Account 1092
Supp@@ 1092
hairdryer 1092
meter 1092
moon 1092
recru@@ 1092
ais 1091
coding 1091
imperi@@ 1091
midst 1091
mood 1091
ops 1091
Continu@@ 1090
URL 1090
tunnel 1090
Want 1089
accessibility 1089
disappeared 1089
dt 1089
fastest 1089
fav@@ 1089
gambling 1089
highway 1089
kar@@ 1089
On@@ 1088
accessed 1088
gical 1088
instant 1088
wholly 1088
1980s 1087
Class 1087
Conc@@ 1087
design@@ 1087
resist 1087
sequence 1087
there@@ 1087
AK@@ 1086
Close 1086
Fal@@ 1086
affair 1086
ckers 1085
cular 1085
high@@ 1085
landing 1085
purchases 1085
relie@@ 1085
shorter 1085
var@@ 1085
Pack@@ 1084
sooner 1084
terraces 1084
bond 1083
deck 1083
devastating 1083
gathering 1083
regulating 1083
Army 1082
Kon@@ 1082
fers 1082
fundament@@ 1082
hunting 1082
wel 1082
Fischler 1081
admire 1081
otel 1081
scripts 1081
sleeping 1081
Users 1080
complied 1080
formerly 1080
jum@@ 1080
premi@@ 1080
retention 1080
selec@@ 1080
acknowled@@ 1079
compet@@ 1079
earnings 1079
statutory 1079
thesis 1079
Tampere 1078
alogues 1078
comfortably 1078
instances 1078
mothers 1078
Mallorca 1077
container 1077
thou 1077
Samsung 1076
educated 1076
lical 1076
subjec@@ 1076
è 1076
ESS 1075
deterior@@ 1075
gaps 1075
grams 1075
ium 1075
matic 1075
ux 1075
Oper@@ 1074
Solutions 1074
Zi@@ 1074
ax@@ 1074
propaganda 1074
Exhibition 1073
alarming 1073
capitalist 1073
compiled 1073
singer 1073
stream@@ 1073
wedding 1073
110 1072
Dam@@ 1072
nationalism 1072
ounce 1072
ph 1072
resp@@ 1072
smallest 1072
Bir@@ 1071
Marketing 1071
contem@@ 1071
deployed 1071
tariffs 1071
artic@@ 1070
check@@ 1070
disadvantage 1070
jec@@ 1070
jet 1070
strongest 1070
Afghan 1069
Chan@@ 1069
EM 1069
Leipzig 1069
Mountains 1069
auto 1069
embargo 1069
institute 1069
literally 1069
nets 1069
prevail 1069
sheep 1069
surfaces 1069
ati 1068
directors 1068
kit@@ 1068
worlds 1068
NE@@ 1067
beside 1067
industri@@ 1067
optimized 1067
qualification 1067
recti@@ 1067
surgery 1067
AF@@ 1066
GUE 1066
MEP 1066
Vel@@ 1066
alli@@ 1066
decoration 1066
definitive 1066
galleries 1066
livestock 1066
paint 1066
partic@@ 1066
pedestrian 1066
pit@@ 1066
stricter 1066
vibrant 1066
beneficiaries 1065
class@@ 1065
diesel 1065
economical 1065
ements 1065
experiments 1065
installer 1065
lei@@ 1065
predictable 1065
quoted 1065
tiveness 1065
Airlines 1064
Ref 1064
Upon 1064
concent@@ 1064
shame 1064
vig@@ 1064
CC 1063
bic 1063
envis@@ 1063
forever 1063
hat 1063
inary 1063
realities 1063
viruses 1063
CR@@ 1062
Land 1062
Taliban 1062
ambiguous 1062
compla@@ 1062
lap@@ 1062
pay@@ 1062
smoke 1062
vulnerability 1062
Along 1061
Dol@@ 1061
Pr@@ 1061
blan@@ 1061
concep@@ 1061
depic@@ 1061
ern 1061
ref@@ 1061
180 1060
Globalisation 1060
Ori@@ 1060
Pin@@ 1060
altitude 1060
coach 1060
entary 1060
hoping 1060
cians 1059
furnishings 1059
licences 1059
virtu@@ 1059
Future 1057
Oc@@ 1057
Trump 1057
detected 1057
six@@ 1057
в@@ 1057
constituency 1056
eliminated 1056
financially 1056
Additional 1055
Marco 1055
apped 1055
confronted 1055
correspond 1055
detriment 1055
gon@@ 1055
grain 1055
human@@ 1055
issuing 1055
milit@@ 1055
road@@ 1055
sty@@ 1055
Consi@@ 1054
Update 1054
accommodations 1054
auch 1054
hip 1054
Resolution 1053
Sarkozy 1053
cat 1053
lad@@ 1053
question@@ 1053
reveals 1053
shoulder 1053
suits 1053
tro 1053
assumption 1052
orial 1052
tism 1052
Light 1051
dening 1051
painted 1051
respon@@ 1051
tender 1051
tle 1051
toys 1051
yo 1051
Contrac@@ 1050
ace@@ 1050
altogether 1050
ears 1050
pris@@ 1050
sustain 1050
Arti@@ 1049
fitting 1049
incurred 1049
legitim@@ 1049
mut@@ 1049
pap@@ 1049
real@@ 1049
routine 1049
som@@ 1049
transpor@@ 1049
HP 1048
Hom@@ 1048
Still 1048
enfor@@ 1048
noble 1048
organ 1048
precedent 1048
prin@@ 1048
thrown 1048
Force 1047
formulated 1047
gia 1047
publi@@ 1047
geared 1046
gla@@ 1046
outline 1046
parent 1046
replacing 1046
utter 1046
3.5 1045
500@@ 1045
Certainly 1045
compli@@ 1045
outer 1045
ranks 1045
segments 1045
vel 1045
Age 1044
Ant@@ 1044
Long 1044
compensate 1044
lateral 1044
lend 1044
Warsaw 1043
aders 1043
screening 1043
Guinea 1042
Not@@ 1042
Porto 1042
biotechnology 1042
establishes 1042
indic@@ 1042
kin@@ 1042
mitting 1042
og@@ 1042
spam 1042
zy@@ 1042
1988 1041
Dr 1041
Il 1041
Man 1041
Quite 1041
aboli@@ 1041
ckets 1041
crop 1041
eping 1041
frames 1041
guiding 1041
VI 1040
beautifully 1040
grey 1040
possession 1040
Stra@@ 1039
barely 1039
lifts 1039
mounting 1039
pho@@ 1039
popularity 1039
turnover 1039
Egyptian 1038
minded 1038
tations 1038
Goals 1037
Ul@@ 1037
bis 1037
burdens 1037
measurements 1037
varying 1037
Santer 1036
stell@@ 1036
sz@@ 1036
130 1035
Croatian 1035
automobile 1035
chip 1035
dened 1035
duly 1035
municipal 1035
overseas 1035
vals 1035
capita 1034
cure 1034
failures 1034
restriction 1034
democratisation 1033
depl@@ 1033
enza 1033
long@@ 1033
nearest 1033
negoti@@ 1033
vegetable 1033
Timor 1032
cultivation 1032
ein@@ 1032
ingu@@ 1032
negligence 1032
Docum@@ 1031
aults 1031
buffer 1031
nbsp 1031
shut 1031
Develop@@ 1030
Pool 1030
decides 1030
hospitals 1030
osity 1030
slide 1030
stan@@ 1030
Forest 1029
NOT 1029
aer@@ 1029
collecting 1029
criticisms 1029
dres@@ 1029
fusion 1029
humane 1029
tionality 1029
unter 1029
accoun@@ 1028
advocates 1028
bund@@ 1028
cabin 1028
dropped 1028
forecasts 1028
tuna 1028
Bus@@ 1027
Film 1027
Iceland 1027
Incre@@ 1027
ré@@ 1027
anne@@ 1026
attacked 1026
clari@@ 1026
exquisite 1026
html 1026
imagination 1026
injury 1026
luggage 1026
broadband 1025
entation 1025
intimate 1025
lay@@ 1025
opera 1025
prohi@@ 1025
ruins 1025
verb@@ 1025
Call 1024
Mol@@ 1024
destabili@@ 1024
erup@@ 1024
memories 1024
pling 1024
stru@@ 1024
Later 1023
algorith@@ 1023
lan 1023
treating 1023
Credit 1022
SI 1022
aband@@ 1022
ferred 1022
journalist 1022
pity 1022
ppy 1022
sei@@ 1022
Tour@@ 1021
lage 1021
Börse 1020
Caucasus 1020
appropriately 1020
bac@@ 1020
baths 1020
breast 1020
defended 1020
hec@@ 1020
por 1020
recipient 1020
severely 1020
slight 1020
Save 1019
aver@@ 1019
electro@@ 1019
fis@@ 1019
voltage 1019
Diam@@ 1018
astic 1018
circul@@ 1018
clarified 1018
deter@@ 1018
exotic 1018
isi@@ 1018
punished 1018
signatures 1018
Fon@@ 1017
cation 1017
ented 1017
random 1017
Ah@@ 1016
Serbian 1016
accompany 1016
arena 1016
cut@@ 1016
een 1016
rel 1016
Spirit 1015
dear 1015
demonstrating 1015
discriminatory 1015
enforced 1015
experiment 1015
judiciary 1015
ling@@ 1015
confront 1014
factories 1014
loads 1014
manually 1014
passport 1014
sever@@ 1014
â@@ 1014
Athens 1013
Bis@@ 1013
ao 1013
cathedral 1013
ferry 1013
goo@@ 1013
materi@@ 1013
congress 1012
eck 1012
nicht 1012
uniqu@@ 1012
End 1011
ares 1011
cost@@ 1011
denom@@ 1011
distinctive 1011
dying 1011
hen@@ 1011
shes 1011
uncertain 1011
Venezuela 1010
decor@@ 1010
legisl@@ 1010
Elec@@ 1009
Monti 1009
ag 1009
dently 1009
donation 1009
hygiene 1009
infection 1009
injection 1009
inser@@ 1009
irresponsible 1009
nec@@ 1009
sand@@ 1009
Summer 1008
ali 1008
lacks 1008
portable 1008
secular 1008
ura 1008
Brok 1007
Côte 1007
Instruments 1007
Medical 1007
ax 1007
chains 1007
ected 1007
escap@@ 1007
thor@@ 1007
undermining 1007
Deb@@ 1006
Ret@@ 1006
Technologies 1006
Tem@@ 1006
accomplished 1006
chaos 1006
encountered 1006
ka@@ 1006
night@@ 1006
sus 1006
Far 1005
Initiative 1005
TE 1005
Version 1005
clim@@ 1005
generates 1005
postponed 1005
substitute 1005
tailor 1005
Below 1004
contamination 1004
cus@@ 1004
illegally 1004
vague 1004
vian 1004
weak@@ 1004
boys 1003
dark@@ 1003
gering 1003
teenth 1003
tos 1003
Arena 1002
Liberties 1002
chart 1002
criticised 1002
expects 1002
od 1002
optimistic 1002
vers@@ 1002
Nu@@ 1001
Palma 1001
Zealand 1001
devote 1001
ethics 1001
rehabilitation 1001
stret@@ 1001
successor 1001
ão 1001
Bl@@ 1000
Madeira 1000
anim@@ 1000
appalling 1000
etri@@ 1000
etry 1000
festivals 1000
identi@@ 1000
oured 1000
queries 1000
snacks 1000
Institu@@ 999
Micro@@ 999
cream 999
iPod 999
lining 999
tank 999
Dolomites 998
Questions 998
Theatre 998
accommod@@ 998
corresponds 998
dei 998
einer 998
excluding 998
haus 998
pesticides 998
privati@@ 998
spra@@ 998
IBM 997
Meas@@ 997
aul@@ 997
chers 997
enjoyable 997
erg@@ 997
establishments 997
fair@@ 997
transposition 997
updating 997
Dri@@ 996
Large 996
Sales 996
Yesterday 996
alistic 996
closest 996
dev@@ 996
haz@@ 996
judged 996
locked 996
Mount 995
flood 995
indul@@ 995
recur@@ 995
reward 995
ue 995
Gift 994
Sri 994
Vit@@ 994
dryer 994
grat@@ 994
modular 994
mot@@ 994
mutually 994
opp@@ 994
Arctic 993
Os@@ 993
backup 993
commission@@ 993
crash 993
grace 993
nationality 993
remo@@ 993
violated 993
Cin@@ 992
Ir@@ 992
Learning 992
autom@@ 992
dest@@ 992
iring 992
jun@@ 992
polis 992
saf@@ 992
13th 991
Comple@@ 991
Lab@@ 991
Universal 991
biofuels 991
catalog 991
dable 991
din@@ 991
subsi@@ 991
verification 991
2014 990
Basi@@ 990
Pur@@ 990
acute 990
blow 990
harmonise 990
panorama 990
tanks 990
til@@ 990
tivities 990
vent@@ 990
worthwhile 990
zzo 990
Balkan 989
Israelis 989
competing 989
mild 989
omm@@ 989
solo 989
xi@@ 989
CS@@ 988
Tel 988
attending 988
block@@ 988
entails 988
FR@@ 987
Game 987
Mir@@ 987
adapting 987
ested 987
heav@@ 987
individu@@ 987
misleading 987
scandal 987
swi@@ 987
Airconditioning 986
Banquet 986
auction 986
coupled 986
ecommerce 986
esta 986
jeopardi@@ 986
magazines 986
occurring 986
proofed 986
somehow 986
wheels 986
05@@ 985
abolished 985
bio 985
intensity 985
locate 985
Advanced 984
Bot@@ 984
Captain 984
Competition 984
Mar 984
Plat@@ 984
Sin@@ 984
coastline 984
feeding 984
hosted 984
righ@@ 984
rous 984
sided 984
stretch 984
vi 984
Blo@@ 983
imag@@ 983
sixth 983
alia 982
coating 982
construc@@ 982
designing 982
enced 982
guitar 982
humili@@ 982
oming 982
suspect 982
uphold 982
File 981
brilliant 981
dev 981
emphasises 981
gency 981
metro@@ 981
zo 981
CO 980
archives 980
deterioration 980
drag 980
journ@@ 980
loud 980
olds 980
ć 980
CP 979
EG@@ 979
blin@@ 979
destroying 979
ellers 979
footing 979
mail@@ 979
mountain@@ 979
oasis 979
s.com 979
10th 978
C4 978
Ear@@ 978
SDL 978
mou@@ 978
rations 978
rises 978
rum 978
trillion 978
Wol@@ 977
acks 977
ament 977
assu@@ 977
bulk 977
concluding 977
discou@@ 977
dish 977
mac@@ 977
protein 977
Division 976
competitions 976
organizing 976
verified 976
alter@@ 975
cially 975
contribut@@ 975
networking 975
organ@@ 975
persistent 975
placement 975
promptly 975
stal@@ 975
architect 974
gui@@ 974
Milosevic 973
urged 973
zia 973
LED 972
balancing 972
hil@@ 972
ř@@ 972
Drive 971
accurately 971
chronic 971
dom 971
ires 971
respec@@ 971
servatory 971
simpler 971
sy 971
Directors 970
Seville 970
anc@@ 970
anno@@ 970
architects 970
cour@@ 970
exported 970
fts 970
motivation 970
privilege 970
thir@@ 970
wholeheartedly 970
Buyer 969
Darfur 969
Dem@@ 969
Tibetan 969
mails 969
phenomena 969
pper 969
recommends 969
rigid 969
weaker 969
Any@@ 968
ario 968
fest 968
marble 968
merit 968
understands 968
6th 967
Lounge 967
consultants 967
influences 967
nightlife 967
Ski 966
dient 966
inability 966
monopolies 966
neg@@ 966
posting 966
ranking 966
resident 966
A3@@ 965
Has 965
Mand@@ 965
disparities 965
inherent 965
laim@@ 965
likewise 965
multiannual 965
sons 965
transl@@ 965
Auto@@ 964
graphy 964
sectoral 964
Mach@@ 963
exert 963
formali@@ 963
seller 963
submitting 963
thwest 963
trage@@ 963
use@@ 963
Rein@@ 962
burn 962
civilisation 962
cool@@ 962
exceeded 962
possess 962
radioactive 962
recep@@ 962
stainless 962
unite 962
å@@ 962
COD 961
V. 961
awaiting 961
multitude 961
occup@@ 961
plot 961
screens 961
trigger 961
vor 961
Ale@@ 960
D. 960
birthday 960
consul@@ 960
distances 960
flower 960
notify 960
onal 960
restoring 960
tie 960
folk 959
forcing 959
free@@ 959
gratitude 959
univers@@ 959
1986 958
Fourthly 958
descriptions 958
past@@ 958
shaping 958
9001 957
Chem@@ 957
FC 957
Sax@@ 957
Source 957
achiev@@ 957
adhere 957
licensing 957
than@@ 957
tune 957
Help 956
additives 956
attracted 956
authoritarian 956
iss@@ 956
merchan@@ 956
quet 956
wonder@@ 956
ei 955
episode 955
frozen 955
logy 955
resear@@ 955
sciences 955
sl@@ 955
unequi@@ 955
BS 954
Currency 954
arities 954
encouragement 954
red@@ 954
tends 954
ticism 954
abortion 953
ached 953
io 953
nam@@ 953
proph@@ 953
vocal 953
Pon@@ 952
aesthetic 952
contradic@@ 952
passive 952
recruitment 952
ua 952
wash@@ 952
weaken 952
density 951
geable 951
geom@@ 951
lawyer 951
reiter@@ 951
ör@@ 951
7th 950
Bus 950
bridges 950
commissioned 950
conceived 950
condemnation 950
corrected 950
desert 950
disability 950
internally 950
lit@@ 950
norms 950
pets 950
tranquil 950
xenophobia 950
eda 949
lling 949
remark 949
spark@@ 949
sudden 949
undermined 949
1,000 948
Nazi 948
cky 948
expresses 948
ineffective 948
subsidiaries 948
terrain 948
Istanbul 947
Mich@@ 947
anymore 947
prof@@ 947
submission 947
techn@@ 947
varieties 947
Play 946
TM 946
critics 946
exclu@@ 946
exercises 946
home@@ 946
horri@@ 946
host@@ 946
matching 946
mig@@ 946
sensi@@ 946
sex@@ 946
void 946
Ass@@ 945
Bonn 945
Five 945
GM 945
sage 945
assemb@@ 944
esa 944
live@@ 944
organis@@ 944
refreshing 944
yea 944
Av@@ 943
Bou@@ 943
Monte 943
celebration 943
embry@@ 943
mankind 943
pes 943
stipul@@ 943
theater 943
06@@ 942
Almost 942
CL@@ 942
Level 942
positioned 942
tasty 942
Bau@@ 941
Enter 941
Publi@@ 941
cane 941
critici@@ 941
deliveries 941
forbidden 941
variations 941
Back 940
Bill 940
Il@@ 940
Intel 940
Jordan 940
LAN 940
Nord 940
alle 940
axis 940
calculations 940
exhaus@@ 940
ison 940
servants 940
stran@@ 940
thick 940
Mes@@ 939
emplo@@ 939
fathers 939
sensors 939
GR@@ 938
Installation 938
Production 938
SD 938
adjacent 938
echo@@ 938
Canadian 937
Respon@@ 937
cle 937
fici@@ 937
lit 937
reproductive 937
utes 937
conception 936
diam@@ 936
genic 936
gentle 936
lush 936
speeds 936
Ke@@ 935
Malaysia 935
PER@@ 935
confined 935
disappointment 935
locating 935
trace 935
ulated 935
administrations 934
bre 934
comitology 934
exagger@@ 934
template 934
trau@@ 934
vacc@@ 934
Accordingly 933
Cuban 933
Esp@@ 933
Hand@@ 933
NGL 933
SH@@ 933
bottle 933
distortion 933
expecting 933
harsh 933
minibar 933
nick@@ 933
outs@@ 933
shipment 933
therap@@ 933
towels 933
wearing 933
ATION 932
SL@@ 932
anch@@ 932
assumes 932
endo@@ 932
happ@@ 932
hist@@ 932
incredibly 932
kon@@ 932
motto 932
robots 932
salaries 932
stered 932
succ@@ 932
ames 931
ava 931
casting 931
shores 931
sich 931
£ 931
140 930
Key@@ 930
Railway 930
elli@@ 930
illu@@ 930
mani@@ 930
personalized 930
reflecting 930
rene@@ 930
wins 930
backdrop 929
deprived 929
ergies 929
eti@@ 929
fen@@ 929
pa 929
spot@@ 929
subsidy 929
any@@ 928
deta@@ 928
eme@@ 928
evenings 928
experimental 928
impressed 928
inte@@ 928
kov@@ 928
moratorium 928
pump 928
tful 928
Hot@@ 927
Kir@@ 927
Nav@@ 927
VE 927
arily 927
electorate 927
insecurity 927
mature 927
pass@@ 927
seeds 927
EV@@ 926
KG 926
anybody 926
appropri@@ 926
ature 926
dependency 926
fier 926
lav@@ 926
manu@@ 926
springs 926
Ford 925
Holland 925
Palacio 925
Type 925
coup 925
reformed 925
Jan 924
Tuscany 924
antique 924
approaching 924
dimensional 924
incomplete 924
indicating 924
regulators 924
tram 924
300@@ 923
Baroness 923
By@@ 923
Mit@@ 923
Scientific 923
Sup@@ 923
appoint 923
contracting 923
conven@@ 923
fel@@ 923
interpret 923
jk 923
key@@ 923
screen@@ 923
sentences 923
suspend 923
tissue 923
1945 922
1987 922
DI 922
Kno@@ 922
Local 922
Rou@@ 922
Thai 922
awa@@ 922
defect 922
foreseen 922
injured 922
jan 922
nia 922
ologies 922
timber 922
Barack 921
Super 921
abolish 921
aked 921
defen@@ 921
moul@@ 921
offences 921
opposing 921
varies 921
Learn 920
bom@@ 920
courtyard 920
disc 920
facto 920
finger 920
matched 920
seaf@@ 920
serv@@ 920
soli@@ 920
Word 919
emotions 919
favoured 919
flora 919
orient@@ 919
postp@@ 919
purchaser 919
tus 919
utable 919
Jacques 918
avec 918
deregulation 918
halls 918
ik@@ 918
lers 918
mill 918
С@@ 918
1985 917
administrator 917
chapters 917
leverage 917
municipality 917
phases 917
ssi@@ 917
unclear 917
CFSP 916
lifetime 916
Fif@@ 915
confused 915
inch 915
sel 915
stimulating 915
14th 914
Kat@@ 914
expec@@ 914
fleets 914
foreigners 914
steady 914
studios 914
therapeutic 914
threatens 914
zen 914
Syrian 913
distur@@ 913
scop@@ 913
solarium 913
writers 913
Scottish 912
aren 912
arre@@ 912
storm 912
termination 912
Customs 911
IL 911
Rock 911
boutique 911
dealer 911
ech@@ 911
unded 911
.The 910
Sab@@ 910
assuming 910
dare 910
fabulous 910
ik 910
likes 910
trendy 910
.ch 909
Gri@@ 909
Sant 909
approxim@@ 909
captured 909
manipulation 909
photographer 909
realization 909
symptoms 909
tier 909
1.2 908
Arch@@ 908
Taking 908
W. 908
drawings 908
ector 908
eva 908
exer@@ 908
supposedly 908
ycle 908
zy 908
CAD 907
Hitler 907
bookings 907
dealers 907
merits 907
modernis@@ 907
recy@@ 907
Düsseldorf 906
Ironing 906
Sports 906
bikes 906
credi@@ 906
dur@@ 906
eggs 906
eks 906
fulfill 906
recreational 906
rus@@ 906
seasonal 906
straightforward 906
swift 906
thly 906
Father 905
acid 905
basin 905
dian 905
mittedly 905
G20 904
RI 904
lot@@ 904
minors 904
path@@ 904
stant 904
strations 904
Bet@@ 903
compan@@ 903
contradictory 903
corrupt 903
infected 903
peac@@ 903
refund 903
thirdly 903
transi@@ 903
ô@@ 903
Hin@@ 902
Hou@@ 902
charging 902
disappointing 902
explanatory 902
predecessor 902
recreation 902
scienti@@ 902
Maybe 901
ae 901
ees 901
gor@@ 901
petition 901
scenarios 901
cken 900
encryption 900
tica 900
Kremlin 899
inau@@ 899
scan 899
simulation 899
tongue 899
API 898
Copyright 898
Main@@ 898
buil@@ 898
populated 898
rooted 898
schol@@ 898
Commerce 897
Es@@ 897
Tal@@ 897
Watch 897
flour@@ 897
interfere 897
3.0 896
360 896
Ga@@ 896
Gau@@ 896
destructive 896
immer@@ 896
remit 896
zoom 896
acqu@@ 895
diameter 895
gle@@ 895
persec@@ 895
resume 895
sit@@ 895
Merkel 894
Olympus 894
applicants 894
dans 894
deposits 894
frankly 894
owe 894
fairness 893
passage 893
prosperous 893
claiming 892
fines 892
Cast@@ 891
adju@@ 891
atics 891
echo 891
oli 891
redundant 891
José 890
Karl 890
ato@@ 890
dle 890
exemplary 890
flags 890
lengthy 890
yards 890
Anim@@ 889
Police 889
Sand@@ 889
arisen 889
fro@@ 889
intermedi@@ 889
qualitative 889
Black@@ 888
Gothic 888
accelerate 888
caution 888
coin 888
extract 888
investor 888
linear 888
murdered 888
nau@@ 888
peti@@ 888
sexu@@ 888
Works 887
anian 887
forecast 887
fortress 887
jazz 887
lah 887
omp@@ 887
particip@@ 887
rejecting 887
Auth@@ 886
Bavaria 886
accessing 886
altered 886
anticip@@ 886
bank@@ 886
ceful 886
veto 886
Computer 885
Francisco 885
May@@ 885
Prof. 885
earmarked 885
oun@@ 885
recognising 885
toll 885
Fol@@ 884
benefited 884
fireplace 884
func@@ 884
inserted 884
intermediate 884
len 884
occasionally 884
picked 884
pluralism 884
rable 884
sor 884
specification 884
teeth 884
11@@ 883
Smith 883
business@@ 883
masters 883
rocks 883
sacrifice 883
slave 883
survi@@ 883
CF@@ 882
Shanghai 882
fet@@ 882
multinationals 882
onia 882
p.@@ 882
requesting 882
GBP 881
acity 881
alert 881
chal@@ 881
excessively 881
filed 881
finger@@ 881
nov@@ 881
prejudice 881
promotional 881
strip 881
Cour@@ 880
Kinnock 880
conversation 880
expor@@ 880
mixing 880
refuge 880
stle 880
yl 880
Brazilian 879
Quark 879
Tokyo 879
draftsman 879
ec 879
fabrics 879
federation 879
generic 879
pen 879
virtue 879
vocation 879
Lou@@ 878
copper 878
enchanting 878
geopolitical 878
incoming 878
incompatible 878
licenses 878
pered 878
EST 877
LateRooms.com 877
Review 877
cooperating 877
ech 877
govern@@ 877
highlighting 877
ino@@ 877
obligatory 877
REACH 876
Supreme 876
Up@@ 876
codi@@ 876
credited 876
foreseeable 876
honor 876
iti 876
nat@@ 876
rane 876
simplifying 876
у@@ 876
Basque 875
None 875
UM@@ 875
Whenever 875
enthusiastic 875
hang 875
optimization 875
smoothly 875
Queen 874
Tan@@ 874
Tarifa 874
Verts 874
acres 874
brigh@@ 874
essors 874
husband 874
infin@@ 874
participant 874
prevailing 874
rali@@ 874
risen 874
swiftly 874
vegetation 874
vention 874
Countries 873
Exc@@ 873
Panasonic 873
broke 873
documentary 873
fairs 873
fast@@ 873
investigated 873
modi@@ 873
pec@@ 873
typ@@ 873
Daniel 872
Der 872
Official 872
assisted 872
bli@@ 872
distortions 872
politician 872
tut@@ 872
Back@@ 871
Eurostat 871
Ty@@ 871
differing 871
dish@@ 871
ext@@ 871
motiv@@ 871
ologists 871
pet 871
repe@@ 871
viewer 871
Available 870
ank 870
aya 870
correc@@ 870
earliest 870
methodology 870
prostitution 870
reforming 870
sharply 870
translators 870
Cit@@ 869
Europa 869
IR 869
Metro 869
containers 869
cup 869
eric 869
indicator 869
sic 869
thetic 869
underp@@ 869
Adjustment 868
Cou@@ 868
adop@@ 868
assass@@ 868
commodities 868
refusing 868
ure@@ 868
versatile 868
ê@@ 868
Excellent 867
William 867
lifted 867
neutrali@@ 867
parliamentarians 867
sick 867
Hal@@ 866
Play@@ 866
Starting 866
Vic@@ 866
banning 866
deri@@ 866
gur@@ 866
offensive 866
sity 866
Get@@ 865
plu@@ 865
prefer@@ 865
traceability 865
unilater@@ 865
Albanian 864
Bern@@ 864
Cz@@ 864
Democrat 864
Price 864
Reserv@@ 864
agreeing 864
anonymous 864
cow 864
gladly 864
harmonization 864
manages 864
rest@@ 864
Ali@@ 863
Chair 863
Neighbourhood 863
Slovenian 863
Sound 863
binary 863
diff@@ 863
orange 863
rum@@ 863
shapes 863
wood@@ 863
Already 862
Built 862
Dur@@ 862
Fir@@ 862
animation 862
cataly@@ 862
eses 862
fting 862
instruction 862
learnt 862
let@@ 862
news@@ 862
proprietary 862
recourse 862
stipulated 862
supplying 862
Harbour 861
eco@@ 861
longest 861
positioning 861
rendered 861
Ok@@ 860
Various 860
mentioning 860
rolled 860
sof@@ 860
substantive 860
thread 860
е@@ 860
dynamics 859
govern 859
lag@@ 859
postpone 859
promenade 859
py@@ 859
Direct 858
Inclu@@ 858
Nowadays 858
Regions 858
Renaissance 858
cir@@ 858
colourful 858
Application 857
cocktail 857
insofar 857
ions 857
jump 857
laundry 857
steep 857
transferring 857
unexpected 857
DR 856
FA@@ 856
advocated 856
alizing 856
bananas 856
chips 856
college 856
ks@@ 856
nan@@ 856
outlook 856
reconcile 856
surveys 856
Tam@@ 855
catastrophe 855
mentation 855
oils 855
orph@@ 855
privatisation 855
weakened 855
Boh@@ 854
Inv@@ 854
Len@@ 854
Wel@@ 854
altern@@ 854
biom@@ 854
hatred 854
ordin@@ 854
Es 853
Key 853
Throughout 853
cht 853
duced 853
entirety 853
judgments 853
wer@@ 853
Dar@@ 852
GE 852
GU@@ 852
bili@@ 852
constra@@ 852
criticise 852
empire 852
interrupted 852
onds 852
Connec@@ 851
Follow 851
Relax 851
SL 851
childhood 851
found@@ 851
icons 851
letting 851
recital 851
underway 851
exercised 850
fund@@ 850
isol@@ 850
protocols 850
somebody 850
1979 849
Classic 849
courageous 849
linen 849
ont 849
stro 849
Ele@@ 848
Nuclear 848
Past@@ 848
adver@@ 848
circles 848
embar@@ 848
embark@@ 848
kan@@ 848
monastery 848
onwards 848
ority 848
professionalism 848
seating 848
spor@@ 848
tv 848
vation 848
Around 847
Bundes@@ 847
ILO 847
appealing 847
berger 847
entail 847
hitherto 847
ig 847
ith 847
quo 847
remembered 847
round@@ 847
B.@@ 846
Bul@@ 846
Eli@@ 846
Frontex 846
Patri@@ 846
Purch@@ 846
Ros@@ 846
donations 846
salary 846
ultra@@ 846
vir@@ 846
warn 846
bomb 845
comprising 845
ku@@ 845
suspicion 845
Kenya 844
Particip@@ 844
Wat@@ 844
ados 844
breaches 844
po 844
scho@@ 844
tern@@ 844
ä@@ 844
и 844
о@@ 844
Gate 843
confron@@ 843
consciousness 843
discounts 843
ekeeping 843
emph@@ 843
gifts 843
kingdom 843
poorly 843
suicide 843
к@@ 843
Century 842
Initi@@ 842
Mugabe 842
insisted 842
reunification 842
rich@@ 842
149 841
Adri@@ 841
Apache 841
ENT@@ 841
HR 841
Prince 841
age@@ 841
cand@@ 841
continu@@ 841
impa@@ 841
optimize 841
ront 841
scann@@ 841
struggling 841
FOR@@ 840
Ibiza 840
Sound@@ 840
bench@@ 840
hydraulic 840
instruc@@ 840
one@@ 840
outcomes 840
qualify 840
tiles 840
time@@ 840
warned 840
Communities 839
Conciliation 839
Prot@@ 839
nel 839
oth@@ 839
princip@@ 839
refrain 839
slot 839
sten 839
Cambodia 838
Motor@@ 838
absent 838
deliberate 838
frontier 838
mil@@ 838
pel@@ 838
sadly 838
Provence 837
TC 837
abstract 837
dium 837
hath 837
jury 837
pas 837
prob@@ 837
seal 837
tolerate 837
Coun@@ 836
Days 836
collectively 836
domains 836
gourmet 836
magical 836
malaria 836
peaks 836
400@@ 835
Das 835
Monitoring 835
Oslo 835
Proc@@ 835
cap 835
columns 835
conduc@@ 835
expressions 835
reinforcing 835
wet 835
Machine 834
agi@@ 834
cloning 834
desires 834
eld 834
enta 834
modern@@ 834
overla@@ 834
wns 834
Lar@@ 833
Little 833
Studies 833
Wo@@ 833
bets 833
console 833
exporting 833
fashionable 833
operative 833
premature 833
proactive 833
twentieth 833
е 833
imply 832
stadt 832
Did 831
Got@@ 831
Premium 831
Pul@@ 831
chef 831
continents 831
detrimental 831
happiness 831
mechan@@ 831
ousness 831
prehen@@ 831
Bla@@ 830
HS 830
Mod@@ 830
counterparts 830
determines 830
fat@@ 830
inspectors 830
perc@@ 830
stamp@@ 830
suspected 830
Garda 829
RS 829
Sky 829
ago@@ 829
brown 829
europ@@ 829
fridge 829
mercury 829
synthetic 829
tec 829
Beyond 828
Lev@@ 828
breakthrough 828
ctions 828
exhibitors 828
hops 828
incorporating 828
presum@@ 828
CAR@@ 827
Governments 827
fifty 827
harmonious 827
hoc 827
jack@@ 827
margins 827
predict 827
prem@@ 827
pumps 827
pupils 827
rebuild 827
sequ@@ 827
1970s 826
Surely 826
dispat@@ 826
realisation 826
recordings 826
spices 826
stries 826
surf 826
traders 826
Concerning 825
Santiago 825
consultancy 825
delightful 825
elles 825
hereby 825
intellec@@ 825
rac@@ 825
share@@ 825
DG 824
DNA 824
Ker@@ 824
Naples 824
constituents 824
cosmetic 824
fruitful 824
hoods 824
mentions 824
prosecution 824
uli@@ 824
usable 824
cel 823
chen@@ 823
connects 823
elect 823
employer 823
petrol 823
pop@@ 823
valleys 823
aten 822
embrace 822
exemp@@ 822
normali@@ 822
questionable 822
rez 822
tub 822
unification 822
withstanding 822
Kirk 821
Mexican 821
friendship 821
iny 821
obstruc@@ 821
publicity 821
sty 821
tt 821
yours 821
Antonio 820
Audio 820
Beg@@ 820
Regi@@ 820
Steel 820
Tex@@ 820
cratic 820
delight 820
derivatives 820
diversification 820
enda 820
gent@@ 820
grows 820
influential 820
laptop 820
ministerial 820
pensioners 820
EGF 819
Stock 819
holdings 819
outbreak 819
rul@@ 819
slaughter 819
ssa 819
successive 819
triple 819
ttably 819
wasn 819
Assi@@ 818
amaz@@ 818
evaluating 818
ologist 818
sional 818
CM@@ 817
dict 817
exceeds 817
german 817
intuitive 817
obe@@ 817
ow@@ 817
readily 817
scores 817
wellbeing 817
DIN 816
HT@@ 816
PRO 816
behave 816
engineer 816
four@@ 816
molec@@ 816
relatives 816
strengths 816
traces 816
underlined 816
EB@@ 815
SW@@ 815
anded 815
attentive 815
etch 815
patience 815
plastics 815
pts 815
trium@@ 815
utely 815
werden 815
Cop@@ 814
Freedoms 814
acqui@@ 814
ane@@ 814
copying 814
dozens 814
fauna 814
frontiers 814
historically 814
manipul@@ 814
prizes 814
ria 814
ring@@ 814
triggered 814
G8 813
Gender 813
Hop@@ 813
Phot@@ 813
administ@@ 813
attributed 813
informing 813
neighbour 813
wealthy 813
SIS 812
tones 812
Date 811
bil@@ 811
cautious 811
interoperability 811
oven 811
playground 811
sens@@ 811
temple 811
450 810
5,@@ 810
ASEAN 810
CNS 810
ambigu@@ 810
bow 810
explaining 810
forefront 810
professions 810
stabilisation 810
suggesting 810
tap 810
GO 809
disarmament 809
fr@@ 809
gle 809
mediation 809
neighbors 809
10,000 808
Berlusconi 808
Cubase 808
Managing 808
Rad@@ 808
absor@@ 808
accesses 808
allocate 808
anding 808
bow@@ 808
ceilings 808
dismantling 808
institutes 808
occupational 808
odds 808
subordin@@ 808
tired 808
Ly@@ 807
adhe@@ 807
ake 807
bes@@ 807
chron@@ 807
drop@@ 807
part@@ 807
phi@@ 807
san 807
signat@@ 807
stimul@@ 807
anticipate 806
cellar 806
chas@@ 806
demo 806
egoti@@ 806
hop 806
kne@@ 806
lov@@ 806
manship 806
optimism 806
powder 806
sson 806
FREE 805
Ful@@ 805
dentally 805
laundering 805
neglected 805
reck@@ 805
simpli@@ 805
sister 805
tag@@ 805
unchanged 805
ě@@ 805
RAM 804
deepening 804
disproportionate 804
ender 804
strengthens 804
12th 803
Peru 803
confrontation 803
discre@@ 803
itiner@@ 803
nationalist 803
rant 803
ratings 803
seam@@ 803
Cairo 802
Sir 802
nowhere 802
thei@@ 802
Alber@@ 801
TION 801
abide 801
copy@@ 801
demic 801
desperate 801
lea@@ 801
ough 801
paraly@@ 801
Ecofin 800
Jacuzzi 800
drastic 800
forti@@ 800
imprisoned 800
incapable 800
Bed@@ 799
Gold@@ 799
Mak@@ 799
Upper 799
aph@@ 799
approving 799
bei 799
enthusiasts 799
forge 799
objection 799
patented 799
Collection 798
HD@@ 798
Meg@@ 798
Tools 798
dou@@ 798
handic@@ 798
outlin@@ 798
precondition 798
ret 798
venues 798
Cala 797
Chernobyl 797
Directorate 797
Eurex 797
Photo 797
aboard 797
awaits 797
ever@@ 797
renovation 797
seriousness 797
Kin@@ 796
beg@@ 796
delic@@ 796
eleven 796
infringements 796
lucky 796
multilingual 796
packing 796
thematic 796
Aires 795
Companies 795
Try 795
beliefs 795
cave 795
derogation 795
disturbing 795
enligh@@ 795
holy 795
illustrate 795
mali@@ 795
pet@@ 795
priced 795
writes 795
yacht 795
Andreas 794
Chapter 794
LAN@@ 794
cio 794
edges 794
intolerable 794
mobilisation 794
organisational 794
shoe 794
strasse 794
switching 794
trucks 794
Aid 793
Buenos 793
Championship 793
Hill 793
acies 793
agen@@ 793
anna 793
feld 793
idyllic 793
pron@@ 793
sat 793
sentenced 793
stup@@ 793
1984 792
68@@ 792
Kit@@ 792
Techn@@ 792
celebrations 792
champion 792
chant 792
deple@@ 792
enrich@@ 792
gher 792
reas@@ 792
steadily 792
Conservative 791
Frattini 791
Gran@@ 791
Others 791
SSL 791
assy 791
breath 791
carriage 791
curious 791
immune 791
oping 791
os@@ 791
revise 791
rus 791
Cav@@ 790
Hum@@ 790
Limited 790
M. 790
Maritime 790
atro@@ 790
attributes 790
blend 790
combinations 790
hypocrisy 790
impor@@ 790
pipe 790
rally 790
tori@@ 790
CIA 789
FS 789
consequ@@ 789
gates 789
logos 789
mortality 789
precarious 789
tch 789
zi 789
Bell@@ 788
Gam@@ 788
Perspective 788
Recent 788
Shar@@ 788
Van@@ 788
coloured 788
depression 788
judgement 788
offence 788
prisons 788
turally 788
Consulting 787
Lanzarote 787
Near 787
SMS 787
conformity 787
gues 787
radically 787
ALL 786
Abu 786
Premier 786
creatures 786
declining 786
ima@@ 786
metre 786
religions 786
Laeken 785
Lei@@ 785
MD@@ 785
YOU 785
challenged 785
encrypted 785
frustr@@ 785
inventory 785
lean 785
pit 785
scenic 785
tancy 785
worn 785
brothers 784
evalu@@ 784
horny 784
peninsula 784
ration@@ 784
realm 784
reminds 784
remuneration 784
understand@@ 784
unsatisfactory 784
vil 784
0.5 783
Basic 783
Fat@@ 783
Winter 783
beginners 783
communicated 783
consuming 783
discrepan@@ 783
ket 783
liter@@ 783
notable 783
peculi@@ 783
thrust 783
Sit@@ 782
disadvantages 782
fishery 782
font 782
ored 782
winds 782
worsen@@ 782
loose 781
populist 781
stock@@ 781
MM@@ 780
accu@@ 780
copied 780
els@@ 780
young@@ 780
Water@@ 779
ampli@@ 779
benefiting 779
clearing 779
comprehen@@ 779
engaging 779
ho 779
honey 779
juice 779
loyalty 779
pixels 779
rability 779
reflec@@ 779
tabling 779
Sahara 778
Yugoslav 778
exercising 778
inate 778
isons 778
mari@@ 778
sym@@ 778
vens 778
FAQ 777
Property 777
RES@@ 777
bedding 777
emails 777
lis 777
tee 777
thou@@ 777
truck 777
alysts 776
calculate 776
conductor 776
deposi@@ 776
habits 776
iner 776
nominated 776
recei@@ 776
snack 776
terri@@ 776
urity 776
warnings 776
IO 775
Journal 775
Prices 775
bration 775
eman@@ 775
reassure 775
xing 775
0.0 774
1960 774
ICE 774
Love 774
Speed 774
brochure 774
grasp 774
inciner@@ 774
odi@@ 774
oling 774
was@@ 774
Mary 773
Paragraph 773
Pierre 773
Rus@@ 773
accum@@ 773
asi 773
devast@@ 773
gesture 773
glance 773
impacts 773
profitability 773
refin@@ 773
scape 773
woo@@ 773
you@@ 773
ATA 772
Euros 772
Hau@@ 772
Lido 772
abstain 772
coa 772
completeness 772
depar@@ 772
dot@@ 772
enth@@ 772
envel@@ 772
innov@@ 772
junior 772
petitions 772
sie 772
С 772
4,@@ 771
Commun@@ 771
Equality 771
aired 771
boosting 771
boy@@ 771
counters 771
dissemin@@ 771
embo@@ 771
excav@@ 771
exemptions 771
frequ@@ 771
gestion 771
ind@@ 771
lesser 771
retreat 771
violate 771
weakening 771
ý 771
kitchenette 770
milestone 770
obli@@ 770
observer 770
onder@@ 770
racist 770
rier 770
spar@@ 770
wasted 770
Bak@@ 769
GM@@ 769
Jackson 769
attack@@ 769
biking 769
builds 769
distingu@@ 769
extensions 769
famili@@ 769
hybrid 769
idity 769
swim 769
Cube 768
accredi@@ 768
informations 768
jer@@ 768
kin 768
millennium 768
shoot 768
xx 768
Personally 767
Ps 767
assembled 767
ika 767
menting 767
neck 767
otic 767
slope 767
Itali@@ 766
cluster 766
frameworks 766
guest@@ 766
restricting 766
worries 766
0.000 765
IK@@ 765
Self 765
celebrating 765
corners 765
dedication 765
explosion 765
foo@@ 765
gic 765
grass@@ 765
monument 765
overlook 765
redundancies 765
tastes 765
Poly@@ 764
Tool 764
ager 764
ailing 764
atically 764
buyers 764
iger 764
preview 764
relocation 764
royal 764
sar@@ 764
vot@@ 764
Dun@@ 763
Stay 763
amo 763
analysed 763
brush 763
cription 763
deduc@@ 763
fresh@@ 763
steering 763
striving 763
tioners 763
Anna 762
Fun@@ 762
INTER@@ 762
Senate 762
Wales 762
complain 762
forgetting 762
haul 762
invented 762
rests 762
tif 762
2.2 761
ECHO 761
ITY 761
Inst@@ 761
Juan 761
Magic 761
Oil 761
Run@@ 761
Sici@@ 761
architec@@ 761
associate 761
castles 761
cham@@ 761
composer 761
d.@@ 761
liberties 761
orts 761
sul@@ 761
targeting 761
tuals 761
Beauty 760
Belar@@ 760
En 760
Sul@@ 760
VER@@ 760
acre 760
assisting 760
compile 760
endeav@@ 760
expan@@ 760
grip 760
ilers 760
peripher@@ 760
sky@@ 760
transmit 760
Customers 759
Hy@@ 759
Son@@ 759
allowances 759
analyze 759
culmin@@ 759
extraction 759
fru@@ 759
monitors 759
seize 759
tural 759
Ethiopia 758
Kol@@ 758
LateRooms 758
Store 758
Stu@@ 758
bor 758
distri@@ 758
empt 758
exhaust 758
ignor@@ 758
ja@@ 758
recogni@@ 758
Nobody 757
breakdown 757
bree@@ 757
cone 757
disregard 757
durable 757
illustrated 757
lun@@ 757
supranational 757
tail 757
vors 757
Pit@@ 756
arch 756
atoes 756
balances 756
curi@@ 756
geographic 756
lamps 756
lingu@@ 756
ped@@ 756
prescri@@ 756
Sustainable 755
arest 755
performs 755
roll@@ 755
wan 755
Var@@ 754
beverages 754
cam 754
contaminated 754
employs 754
imbalance 754
recipe 754
similarly 754
sos 754
vigilant 754
1967 753
Clo@@ 753
TB 753
advisable 753
cens@@ 753
cocktails 753
ush@@ 753
veri@@ 753
11th 752
Gol@@ 752
aids 752
aric 752
assign 752
aters 752
strain 752
tali@@ 752
tournaments 752
volunteers 752
welding 752
Avi@@ 751
EURO@@ 751
aforementioned 751
bon 751
climb 751
couldn 751
ecting 751
has@@ 751
pin@@ 751
touches 751
Mercedes 750
depri@@ 750
mortgage 750
pp 750
reminder 750
sind 750
sponsored 750
viability 750
196 749
Kam@@ 749
Sz@@ 749
Watson 749
assert 749
beta 749
bollah 749
cookie 749
scour@@ 749
spheres 749
towers 749
unk 749
Barnier 748
Wine 748
disgu@@ 748
utterly 748
Prix 747
Regulations 747
Tourist 747
arose 747
compression 747
emin@@ 747
lug@@ 747
misuse 747
1978 746
Emer@@ 746
Erika 746
Gy@@ 746
Leg@@ 746
Mess@@ 746
aments 746
eag@@ 746
emer@@ 746
liqui@@ 746
receiver 746
sacred 746
upgrading 746
yourselves 746
zur 746
..... 745
1.1 745
Jer@@ 745
Sus@@ 745
auer 745
casts 745
enjoyment 745
galax@@ 745
proceeding 745
stuck 745
workable 745
1950 744
1975 744
9th 744
Print 744
complying 744
egg 744
heaven 744
ject 744
rape 744
rentals 744
stres@@ 744
vy 744
Orchestra 743
PCs 743
az 743
ges@@ 743
inflic@@ 743
partitions 743
tting 743
Course 742
ION 742
Ji@@ 742
attaches 742
cial 742
crowd 742
disrup@@ 742
farmer 742
iser 742
templates 742
AKVIS 741
Excel 741
Mass@@ 741
Reader 741
apo@@ 741
beginn@@ 741
brake 741
cz@@ 741
disclosure 741
eira 741
fec@@ 741
fen 741
hit@@ 741
interviews 741
oppression 741
plant@@ 741
seventh 741
shifting 741
sid 741
stopping 741
urable 741
Active 740
Alternatively 740
Often 740
Outlook 740
Turning 740
associ@@ 740
compressed 740
creditors 740
fa 740
grapes 740
inquiries 740
nominal 740
rain@@ 740
rative 740
readiness 740
valuation 740
vous 740
Cape 739
Klaus 739
OP@@ 739
bombs 739
bubble 739
emphasized 739
epidemic 739
iles 739
injuries 739
leng@@ 739
mir 739
observ@@ 739
selective 739
tastefully 739
Azerbaijan 738
attendance 738
coat 738
laun@@ 738
mir@@ 738
perpetrators 738
reconc@@ 738
sail 738
summits 738
traded 738
35@@ 737
IF 737
Major 737
Overall 737
Swoboda 737
authorization 737
cann@@ 737
cofinancing 737
crafts 737
disorders 737
femin@@ 737
fixes 737
inters 737
plying 737
pocket 737
senses 737
slogan 737
upgraded 737
Bali 736
Bolkestein 736
Cash 736
archaeological 736
child@@ 736
cture 736
esti@@ 736
geni@@ 736
memorable 736
precau@@ 736
8th 735
Leonardo 735
discovering 735
eph@@ 735
formulate 735
injustice 735
kas@@ 735
ken@@ 735
massages 735
opponent 735
panic 735
paramount 735
sacrific@@ 735
&apos;E@@ 734
Channel 734
Kre@@ 734
accusations 734
aggregate 734
appliances 734
assurances 734
bankruptcy 734
buff@@ 734
ceramic 734
cheap@@ 734
consi@@ 734
correctness 734
cozy 734
entrusted 734
focal 734
ishment 734
schi@@ 734
spokes@@ 734
5,000 733
Pope 733
UPS 733
Viol@@ 733
betting 733
edy 733
exhau@@ 733
gas@@ 733
precedence 733
underlines 733
vivi@@ 733
Mercosur 732
Platform 732
bra 732
comparative 732
forwarded 732
mask 732
occupying 732
protectionist 732
totalitarian 732
Create 731
clou@@ 731
communic@@ 731
hub 731
spatial 731
uranium 731
zen@@ 731
Alpha 730
Att@@ 730
Name 730
Panel 730
ety 730
illnesses 730
mistaken 730
rough 730
showers 730
vaccination 730
Avenue 729
Republi@@ 729
basi@@ 729
consumed 729
iel@@ 729
mainstream 729
mare 729
prohibition 729
terminals 729
6,@@ 728
Sciences 728
Tob@@ 728
accelerated 728
aggression 728
borrowing 728
crats 728
restraint 728
ston 728
umes 728
unrealistic 728
CC@@ 727
Musi@@ 727
Night 727
Rwand@@ 727
gene 727
laboratories 727
platz 727
stepping 727
tox@@ 727
watch@@ 727
3000 726
Adam 726
Fire 726
Pil@@ 726
Soci@@ 726
appeals 726
chem@@ 726
condemning 726
derogations 726
discourse 726
invention 726
palm 726
queu@@ 726
shipped 726
sunshine 726
,00 725
Algarve 725
Bavarian 725
Exclu@@ 725
Georgian 725
Send 725
corporation 725
drama 725
eval 725
illustrates 725
retailers 725
singing 725
Cham@@ 724
Every@@ 724
Independent 724
Mid@@ 724
asion 724
atis@@ 724
berry 724
dless 724
horizon 724
volunte@@ 724
п@@ 724
DF 723
Victoria 723
appointments 723
dead@@ 723
impul@@ 723
simplicity 723
tar 723
Sky@@ 722
ancest@@ 722
cry 722
deficiencies 722
loop 722
opted 722
preferential 722
surprisingly 722
tended 722
Cs 721
Design@@ 721
Kim 721
adjustable 721
dation 721
disagreement 721
dynamism 721
emble 721
informative 721
perform@@ 721
recipes 721
representations 721
ça 721
PS@@ 720
Tor 720
assortment 720
cha@@ 720
depend@@ 720
ento 720
impunity 720
interpre@@ 720
low@@ 720
seemingly 720
suspi@@ 720
Maison 719
Starfleet 719
Tuscan 719
Us 719
aca 719
amper 719
appreci@@ 719
ih@@ 719
incomprehensible 719
kindly 719
onn@@ 719
overwhel@@ 719
professor 719
repressive 719
Collec@@ 718
DL@@ 718
Deep 718
Fur@@ 718
Low 718
Venetian 718
anxiety 718
commemor@@ 718
folders 718
inu@@ 718
kat@@ 718
odic 718
proving 718
sey 718
д@@ 718
browsing 717
cereals 717
symboli@@ 717
take@@ 717
teen@@ 717
travel@@ 717
umbrella 717
visi@@ 717
warmth 717
Seventh 716
disclose 716
fixing 716
journeys 716
scrip@@ 716
seasons 716
tained 716
Manhattan 715
Tat@@ 715
Typ@@ 715
Vladimir 715
allowance 715
cryp@@ 715
ear 715
emo@@ 715
gy 715
politan 715
reciproc@@ 715
risky 715
36@@ 714
Australian 714
Belgrade 714
Granada 714
J. 714
True 714
bankers 714
ción 714
commerci@@ 714
controversy 714
dancing 714
demon@@ 714
etta 714
feeds 714
ova 714
pipes 714
promotions 714
speedy 714
trap 714
veterinary 714
Baden 713
ICT 713
Vis@@ 713
agne 713
bass 713
proxy 713
publisher 713
shocks 713
wrong@@ 713
MAR@@ 712
Too 712
decor 712
editorial 712
harvest 712
hero@@ 712
lowering 712
prim@@ 712
scanner 712
sighted 712
straße 712
tum@@ 712
DH@@ 711
Republican 711
Solar 711
airspace 711
appro@@ 711
balconies 711
cited 711
issu@@ 711
loop@@ 711
marvellous 711
overcoming 711
prompted 711
span 711
terminate 711
anton 710
café 710
deliberations 710
eful 710
fulfilment 710
pilgri@@ 710
tax@@ 710
vern@@ 710
Lic@@ 709
astronom@@ 709
cers 709
declined 709
denial 709
disciplines 709
disman@@ 709
faithful 709
literary 709
mercy 709
motors 709
nik 709
preci@@ 709
reactors 709
resses 709
spirits 709
testi@@ 709
unresolved 709
Aviation 708
BE 708
Beh@@ 708
Cel@@ 708
Christ@@ 708
dissemination 708
floating 708
jects 708
zip 708
ï@@ 708
BM@@ 707
Consul@@ 707
Produc@@ 707
aga 707
alog@@ 707
chy 707
cod 707
describing 707
infections 707
planted 707
ported 707
regain 707
specialties 707
.000 706
Cotonou 706
FTP 706
Tyrolean 706
Vision 706
basket 706
passwords 706
pled 706
station@@ 706
tactics 706
FO@@ 705
Jon@@ 705
Log@@ 705
MAN@@ 705
ML 705
Partners 705
Wolfgang 705
cleaner 705
entrepreneurship 705
weekends 705
wned 705
Agricultural 704
And@@ 704
Points 704
bou@@ 704
extrem@@ 704
gene@@ 704
pression 704
rush 704
vised 704
ARE 703
CH 703
Editor 703
Frank 703
Oli@@ 703
S.A. 703
dging 703
esse 703
manoeuvre 703
oxi@@ 703
particles 703
rewards 703
ase@@ 702
climatic 702
dirty 702
dubious 702
ebook 702
este@@ 702
handy 702
inal 702
iz 702
pockets 702
simultaneous 702
ér@@ 702
ø@@ 702
Hz 701
Majorca 701
Making 701
Tab@@ 701
Top@@ 701
ans@@ 701
assent 701
assistants 701
communism 701
graduate 701
modernization 701
radic@@ 701
volcanic 701
wick@@ 701
000@@ 700
Base 700
Bluetooth 700
Dre@@ 700
attain 700
conceivable 700
illum@@ 700
occupy 700
rance 700
ras@@ 700
sponsor@@ 700
strust 700
sulph@@ 700
Americ@@ 699
Deutschland 699
Easter 699
Gothenburg 699
compress@@ 699
decommission@@ 699
enlar@@ 699
extremists 699
hair@@ 699
missile 699
neighbor@@ 699
photographic 699
twi@@ 699
view@@ 699
actu@@ 698
approached 698
narro@@ 698
practise 698
provo@@ 698
Person@@ 697
additionally 697
bills 697
controllers 697
eu 697
fairer 697
gay 697
guardian 697
hike 697
iners 697
mili@@ 697
peer 697
trusted 697
Better 696
Classi@@ 696
Fel@@ 696
Officer 696
TEN@@ 696
cils 696
intact 696
lectures 696
lie@@ 696
predicted 696
quiet@@ 696
rendering 696
repository 696
1976 695
1982 695
Keep 695
Km 695
Soft 695
Tom 695
aly@@ 695
genes 695
lends 695
mobilise 695
mond 695
physically 695
recovered 695
repeti@@ 695
rt 695
2.1 694
IA@@ 694
Lama 694
Men 694
Presiden@@ 694
Red@@ 694
Vor@@ 694
WHO 694
advertisements 694
applaud 694
energe@@ 694
etal 694
flexi@@ 694
intoler@@ 694
obsolete 694
omas 694
photograph 694
planes 694
ren 694
rings 694
spiral 694
ulsion 694
1960s 693
Ce@@ 693
Johannesburg 693
Ten 693
applause 693
corro@@ 693
exempt 693
recipients 693
stepped 693
tories 693
vaccines 693
vitally 693
Lanka 692
Pau@@ 692
TE@@ 692
amen@@ 692
catches 692
cosmetics 692
crossed 692
essi@@ 692
evolved 692
fest@@ 692
honoured 692
legs 692
pav@@ 692
tter 692
witnessing 692
FF@@ 691
GT@@ 691
Patent 691
Son 691
Stri@@ 691
Submitted 691
accord 691
athletes 691
dictator 691
doctrine 691
feit 691
i.e 691
infring@@ 691
porting 691
vente 691
volatility 691
Ast@@ 690
Camp 690
Groups 690
Pop@@ 690
Province 690
Terminal 690
aker 690
doubled 690
duplication 690
interiors 690
zzle 690
ст@@ 690
Economy 689
Marbella 689
Parking 689
Uz@@ 689
YORK 689
activation 689
intervals 689
ld 689
leap 689
sto 689
tant 689
Fab@@ 688
Former 688
Head@@ 688
Lamanites 688
Poettering 688
Remember 688
alla 688
differs 688
displaying 688
inspire 688
organizational 688
streams 688
Bay@@ 687
Pir@@ 687
accompli@@ 687
acknowledges 687
arguing 687
assignment 687
borro@@ 687
cake 687
degra@@ 687
diagno@@ 687
elaborate 687
growers 687
guys 687
hits 687
lessness 687
prov@@ 687
ridiculous 687
supplemented 687
urely 687
Associ@@ 686
BL@@ 686
Hav@@ 686
Temple 686
bies 686
browse 686
cled 686
cultivated 686
dose 686
ete 686
maternity 686
staff@@ 686
summar@@ 686
useless 686
wich 686
70@@ 685
Fine 685
Intel@@ 685
Visual 685
anxious 685
censure 685
goodwill 685
hanging 685
ignoring 685
nach 685
polls 685
privately 685
stairs 685
travelers 685
Six 684
ander 684
effec@@ 684
fabri@@ 684
gely 684
hearings 684
implied 684
omis@@ 684
percep@@ 684
pornography 684
ree 684
responsibly 684
solvency 684
stamp 684
statistic 684
Der@@ 683
Frank@@ 683
brave 683
conflic@@ 683
disputed 683
extremism 683
forty 683
glory 683
midnight 683
photographers 683
pitch 683
provinces 683
scandalous 683
tubes 683
т@@ 683
EE@@ 682
Lower 682
Money 682
Mozilla 682
Oracle 682
attri@@ 682
charts 682
coexistence 682
green@@ 682
ideals 682
incorporation 682
saves 682
sqm 682
stric@@ 682
thickness 682
unspo@@ 682
Boli@@ 681
Mun@@ 681
Ry@@ 681
cycli@@ 681
fragmentation 681
gan 681
mati@@ 681
nineteenth 681
rays 681
thee 681
CFP 680
Tech 680
add@@ 680
dus 680
endeavours 680
merger 680
municipalities 680
proportions 680
thic 680
workflow 680
Awards 679
Euratom 679
Free@@ 679
Radi@@ 679
Sau@@ 679
Trans 679
atorial 679
easing 679
eradication 679
puri@@ 679
а@@ 679
Armenia 678
Philippines 678
TER@@ 678
Ten@@ 678
adi 678
custo@@ 678
directories 678
han 678
kil@@ 678
revel@@ 678
shirt 678
strings 678
1.3 677
Bremen 677
I.@@ 677
Qui@@ 677
ade@@ 677
adidas 677
arrogan@@ 677
contractors 677
institution@@ 677
relies 677
resu@@ 677
sq@@ 677
swing 677
urban@@ 677
1983 676
Ages 676
Share 676
Succ@@ 676
adapter 676
backwards 676
distributing 676
intensify 676
lac@@ 676
orship 676
Conservatives 675
Generally 675
Vall@@ 675
authentic@@ 675
avoidable 675
mies 675
proportionality 675
secrecy 675
128 674
Boo@@ 674
ING@@ 674
Newsletter 674
TA@@ 674
after@@ 674
atar 674
bey 674
machining 674
nut 674
olls 674
passionate 674
revitali@@ 674
tices 674
Bei@@ 673
Ent@@ 673
Som@@ 673
chap@@ 673
clinic 673
enormously 673
hostile 673
insulation 673
mirrors 673
plasma 673
presses 673
scru@@ 673
sures 673
theatres 673
Café 672
Franz 672
Movement 672
No. 672
Siena 672
Trading 672
counterfeiting 672
gun 672
helicopter 672
internation@@ 672
neighborhood 672
ourcing 672
shelter 672
ulty 672
zum 672
Histor@@ 671
Knowledge 671
Lun@@ 671
Superior 671
dozen 671
referendums 671
repa@@ 671
tely 671
weg 671
Arrival 670
But@@ 670
Essen 670
PVC 670
Recomm@@ 670
ats@@ 670
brochures 670
deeds 670
excursion 670
illusion 670
ku 670
neglect 670
overlooked 670
predominantly 670
slip 670
systemic 670
unsustainable 670
Guaran@@ 669
Natura 669
Number 669
Rol@@ 669
bap@@ 669
bitter 669
cables 669
compounds 669
contradictions 669
cz 669
kidn@@ 669
meas@@ 669
mins 669
pdf 669
pole 669
Andalu@@ 668
Cru@@ 668
Nat@@ 668
allo 668
facilitates 668
hedge 668
mix@@ 668
moist@@ 668
realism 668
shire 668
spectac@@ 668
unter@@ 668
Canal 667
Let@@ 667
NOR@@ 667
Progress 667
Sard@@ 667
cinem@@ 667
delines 667
extensively 667
fired 667
inspec@@ 667
invisible 667
nai@@ 667
nose 667
reign 667
sequences 667
tico 667
timet@@ 667
0,@@ 666
142 666
24th 666
Coordin@@ 666
Important 666
assistant 666
bans 666
cornerstone 666
graph@@ 666
ition 666
legend 666
legislators 666
pubs 666
restra@@ 666
succe@@ 666
Castell@@ 665
Karel 665
USE 665
accomplish 665
attacking 665
gencies 665
lamp 665
roman@@ 665
slow@@ 665
unders 665
Blan@@ 664
Never 664
allet 664
chann@@ 664
chie@@ 664
defeated 664
inn 664
marina 664
refuses 664
ulations 664
ured 664
ACE 663
C6 663
Chicago 663
Fifth 663
Marine 663
Swi@@ 663
Text 663
aculture 663
belts 663
boutiques 663
capitali@@ 663
destined 663
persist 663
printers 663
rad 663
robot 663
170 662
U.@@ 662
UM 662
alcoholic 662
analog 662
aton 662
cast@@ 662
diagra@@ 662
immigrant 662
incorporates 662
logging 662
olo 662
repeating 662
resur@@ 662
storing 662
wheel@@ 662
ı@@ 662
1930 661
1968 661
Ben 661
CPU 661
Serbs 661
UV 661
Verona 661
abor@@ 661
asymm@@ 661
beam 661
democrats 661
fatal 661
locals 661
nt 661
ophi@@ 661
ovi@@ 661
з@@ 661
Refu@@ 660
Tony 660
card@@ 660
efully 660
excise 660
fon@@ 660
replied 660
waiver 660
м@@ 660
Palazzo 659
Performance 659
Tax 659
Visa 659
gements 659
heart@@ 659
ign 659
keywords 659
rede@@ 659
safeguarded 659
tasting 659
upheld 659
ü@@ 659
90@@ 658
DJ 658
Either 658
Pakist@@ 658
Pass 658
Sat@@ 658
Virtual 658
best@@ 658
diagnostic 658
fibre 658
fiction 658
het 658
integr@@ 658
lobby@@ 658
newer 658
pronounced 658
provisional 658
terminology 658
unci@@ 658
viewpoint 658
winding 658
ń@@ 658
Ash@@ 657
Electronic 657
Sakharov 657
acious 657
adjour@@ 657
atta@@ 657
banner 657
benchmark 657
brut@@ 657
catastrophic 657
caves 657
dic 657
harv@@ 657
hierarchy 657
pollut@@ 657
processors 657
protec@@ 657
treasures 657
undermines 657
versal 657
wil@@ 657
13.@@ 656
Entertainment 656
Gl@@ 656
SPA 656
Sant@@ 656
Tau@@ 656
Workers 656
acoustic 656
arc@@ 656
bell 656
categor@@ 656
dice 656
english 656
fortune 656
frustration 656
odd 656
prescribed 656
quer@@ 656
stim@@ 656
tative 656
ña 656
ache 655
bud@@ 655
coff@@ 655
hate 655
mainland 655
microph@@ 655
outdated 655
physics 655
relying 655
semi@@ 655
username 655
versa 655
1973 654
Auto 654
Edit 654
Equal 654
Fire@@ 654
Ideal 654
Posselt 654
SV@@ 654
agers 654
apparatus 654
infra@@ 654
interpreters 654
recognizes 654
rejects 654
renew 654
za@@ 654
BE@@ 653
Certi@@ 653
Clar@@ 653
Rimini 653
UT 653
addic@@ 653
allegations 653
antibiotics 653
apologise 653
bour@@ 653
dden 653
irrit@@ 653
jeopardis@@ 653
lag 653
traveling 653
undergoing 653
yn 653
Early 652
Sum@@ 652
bottles 652
brethren 652
civilization 652
cryst@@ 652
gi 652
imminent 652
juris@@ 652
pregnant 652
reciprocity 652
surpluses 652
Edi@@ 651
IE 651
Lor@@ 651
Monte@@ 651
bered 651
disorder 651
fix@@ 651
frigh@@ 651
legality 651
manus@@ 651
patio 651
reviewing 651
tops 651
unk@@ 651
wholesale 651
Bangladesh 650
Zu@@ 650
ament@@ 650
dition 650
emerges 650
forcement 650
ghtful 650
gin 650
orities 650
sail@@ 650
â 650
220 649
Doctor 649
Lodge 649
Moroccan 649
PR 649
Somalia 649
aftermath 649
ather 649
beforehand 649
conv@@ 649
gru@@ 649
lics 649
maturity 649
prerog@@ 649
sounding 649
tera 649
unbe@@ 649
Fischer 648
Made 648
Om@@ 648
Petersburg 648
coordinator 648
distorted 648
eager 648
iev@@ 648
incidentally 648
inia 648
laim 648
undeni@@ 648
zers 648
5.00 647
Colom@@ 647
Cont@@ 647
Events 647
Mini 647
Photo@@ 647
Translation 647
Vir@@ 647
beneath 647
bet@@ 647
cultiv@@ 647
dele@@ 647
edo 647
formulation 647
guy 647
prote@@ 647
quanti@@ 647
slavery 647
standardisation 647
talented 647
think@@ 647
éri@@ 647
Champ@@ 646
Quartet 646
Tak@@ 646
advent@@ 646
analysing 646
cca 646
dio 646
ecosystems 646
elem@@ 646
exceeding 646
infec@@ 646
loses 646
orchest@@ 646
overlooks 646
recover@@ 646
rulers 646
undergo 646
vei@@ 646
Bab@@ 645
Facebook 645
ISA 645
Sty@@ 645
battle@@ 645
cafes 645
decreased 645
desperately 645
entrepreneurial 645
eradicate 645
interpreting 645
loyal 645
ographic 645
parish 645
protagon@@ 645
sarge 645
scal@@ 645
slots 645
tent 645
1.4 644
125 644
Ltd. 644
abri@@ 644
alties 644
balls 644
bear@@ 644
collapsed 644
concerted 644
deploy 644
dread@@ 644
mind@@ 644
ml 644
parall@@ 644
perio@@ 644
temptation 644
wald 644
Bec@@ 643
Carlos 643
Mei@@ 643
advertisement 643
bombing 643
enni@@ 643
get@@ 643
hero 643
interpretations 643
loung@@ 643
missible 643
musi@@ 643
thumb 643
vigorously 643
IRC 642
Identi@@ 642
TU@@ 642
afflic@@ 642
alleviate 642
ander@@ 642
consolidating 642
conten@@ 642
differ@@ 642
expectation 642
hausen 642
kt@@ 642
lasts 642
mathemati@@ 642
mono@@ 642
mos@@ 642
orchestra 642
publishers 642
spin 642
tsch@@ 642
yearly 642
DVDs 641
Event 641
FL@@ 641
Gardens 641
Iron 641
Leh@@ 641
Maj@@ 641
Ran@@ 641
adequ@@ 641
afford@@ 641
consecutive 641
extradition 641
izes 641
march 641
sert 641
yields 641
Benjamin 640
Roth 640
bureau@@ 640
cha 640
emia 640
impressions 640
imprisonment 640
retaining 640
umin@@ 640
Emperor 639
Gil@@ 639
Sixth 639
ationary 639
bab@@ 639
bying 639
cated 639
critically 639
exterior 639
harmonising 639
investigating 639
los@@ 639
php 639
pir@@ 639
questioned 639
taxpayer 639
treas@@ 639
2,000 638
Castro 638
Emb@@ 638
Greater 638
Sharon 638
Stre@@ 638
VI@@ 638
acking 638
alig@@ 638
cruise 638
erable 638
fundamentalism 638
inhabited 638
oted 638
shame@@ 638
subsidi@@ 638
verti@@ 638
2.4 637
Brun@@ 637
Govern@@ 637
HOTEL 637
PP 637
Sto@@ 637
UR 637
Unit 637
administered 637
ashed 637
butter 637
contexts 637
county 637
ef 637
honesty 637
lasted 637
preval@@ 637
repairs 637
slides 637
tist 637
wen@@ 637
Angeles 636
Municip@@ 636
Que@@ 636
aka 636
ark 636
browsers 636
cart 636
homeland 636
maj@@ 636
numer@@ 636
redress 636
richer 636
richest 636
rides 636
secretariat 636
sorted 636
tutorial 636
variant 636
veness 636
yar@@ 636
Certain 635
Desktop 635
Henry 635
Nich@@ 635
Numerous 635
Volkswagen 635
assing 635
coupling 635
migratory 635
ota 635
tention 635
wid@@ 635
н@@ 635
1981 634
ATE 634
CAN 634
Canaria 634
Cul@@ 634
Impro@@ 634
Living 634
Total 634
abundance 634
arom@@ 634
awak@@ 634
circu@@ 634
converting 634
elabor@@ 634
fertile 634
flooding 634
mainstreaming 634
stre@@ 634
wi 634
Armen@@ 633
Dubai 633
MEDA 633
MI@@ 633
Stat@@ 633
aler 633
avia 633
dam 633
debut 633
dischar@@ 633
distributor 633
essly 633
favou@@ 633
flowing 633
freeze 633
lem@@ 633
pos 633
rotation 633
searches 633
suppose 633
Model 632
Plas@@ 632
RT@@ 632
Strategi@@ 632
admissible 632
committing 632
entit@@ 632
enty 632
lane 632
liberalism 632
open@@ 632
slaugh@@ 632
speculative 632
sponsors 632
squares 632
tale 632
tom 632
î@@ 632
Approval 631
Behold 631
Buil@@ 631
Camping 631
Conver@@ 631
Galicia 631
Lum@@ 631
Stan@@ 631
arance 631
bury 631
byp@@ 631
chemistry 631
commun@@ 631
condu@@ 631
fortunately 631
interfer@@ 631
negli@@ 631
reconsider 631
wheat 631
zer@@ 631
Ethernet 630
Manufac@@ 630
Prop@@ 630
assuring 630
certainties 630
constructions 630
divor@@ 630
fluid 630
housed 630
imagin@@ 630
kes@@ 630
milli@@ 630
offen@@ 630
squee@@ 630
supplements 630
ASA 629
Buy 629
Creative 629
Crete 629
Guantánamo 629
Saharan 629
amounting 629
argues 629
conform 629
destiny 629
fled 629
harassment 629
industrialised 629
marketplace 629
meanwhile 629
mont 629
solic@@ 629
strategically 629
Airways 628
Burmese 628
Estate 628
Ultimately 628
adventures 628
dows 628
lish 628
manufactures 628
observing 628
pledge 628
tract 628
7,@@ 627
CP@@ 627
Color 627
Commercial 627
Kh@@ 627
Messenger 627
annex 627
bizarre 627
brick 627
generator 627
illed 627
ju 627
responds 627
toy 627
translator 627
tsun@@ 627
Automatic 626
Converter 626
EDF 626
Kazakhstan 626
Mayor 626
Sti@@ 626
Whereas 626
absorb 626
complies 626
detained 626
ebo@@ 626
logi@@ 626
outlets 626
stadium 626
transposed 626
vendors 626
ANY 625
Councils 625
Mou@@ 625
Was 625
earning 625
handles 625
leg 625
ozone 625
quicker 625
reluctant 625
riders 625
smuggling 625
yen 625
à@@ 625
Link 624
NA 624
PXI 624
Shuttle 624
Telec@@ 624
ann 624
battles 624
blat@@ 624
constituted 624
dividing 624
ener 624
frank 624
gravity 624
icing 624
lady 624
mighty 624
neuro@@ 624
populi@@ 624
servant 624
shoul@@ 624
suffers 624
technicians 624
theories 624
tivirus 624
1974 623
Category 623
Lady 623
NT 623
Walter 623
andum 623
crazy 623
drought 623
flag@@ 623
iel 623
motives 623
ovo 623
pregnancy 623
standardis@@ 623
uphol@@ 623
Dev@@ 622
Mann 622
Occ@@ 622
PCI 622
Twitter 622
advocating 622
converter 622
dial@@ 622
norm 622
otypes 622
priv@@ 622
proclaimed 622
racial 622
testimony 622
transp@@ 622
utilization 622
25th 621
Buch@@ 621
FP@@ 621
HTTP 621
Norwegian 621
Treasury 621
absorption 621
acquain@@ 621
apologi@@ 621
aps 621
ghs 621
identities 621
inspiring 621
marginal 621
mergers 621
presidents 621
trig@@ 621
woody 621
07@@ 620
Gener@@ 620
Human@@ 620
Junior 620
Mario 620
Military 620
SK@@ 620
Sadly 620
TP 620
Tool@@ 620
aves 620
delights 620
democrati@@ 620
oman 620
oric 620
transc@@ 620
whis@@ 620
Eur@@ 619
Pay@@ 619
Vac@@ 619
aligned 619
colli@@ 619
det 619
excitement 619
feasibility 619
may@@ 619
migrant 619
misery 619
ologi@@ 619
secrets 619
supportive 619
COM@@ 618
Cypriot 618
Kan@@ 618
WiFi 618
clin@@ 618
decisively 618
dically 618
furnis@@ 618
inventions 618
ore@@ 618
rey 618
struction 618
warehouse 618
Comfort 617
Fourth 617
Innsbruck 617
MIDI 617
Malaga 617
Medina 617
Set@@ 617
Spi@@ 617
Stor@@ 617
Swe@@ 617
Tenerife 617
Yemen 617
authentication 617
brie@@ 617
eins 617
gens 617
hydrogen 617
meadows 617
propri@@ 617
tide 617
SR 616
UEN 616
Zone 616
catching 616
cite 616
concentrating 616
confirming 616
favor@@ 616
hosti@@ 616
ican 616
mach@@ 616
misunderstanding 616
myst@@ 616
payable 616
telep@@ 616
unge@@ 616
unwilling 616
weigh 616
Integration 615
Loc@@ 615
Map 615
Qaeda 615
STE@@ 615
Scho@@ 615
aspi@@ 615
cas 615
constructing 615
consume 615
cot 615
eventual 615
firewall 615
ila 615
opport@@ 615
scanning 615
switched 615
zione 615
л@@ 615
Cannes 614
DO 614
HI 614
Princ@@ 614
biomass 614
boot@@ 614
dominate 614
ensu@@ 614
flats 614
handi@@ 614
jar@@ 614
oo 614
scored 614
skiers 614
spel 614
streaming 614
travels 614
underwater 614
2050 613
25.@@ 613
Brown 613
Invest@@ 613
Phar@@ 613
ado@@ 613
bub@@ 613
conqu@@ 613
cyc@@ 613
downturn 613
enriched 613
eternal 613
extraordinarily 613
fashi@@ 613
fonts 613
magnitude 613
Bangkok 612
Beautiful 612
Join 612
OM 612
Silver 612
TER 612
Terra@@ 612
baroque 612
bun@@ 612
command@@ 612
doc@@ 612
exchanged 612
kings 612
originating 612
plen@@ 612
ris 612
seized 612
shifted 612
shocking 612
Blizzard 611
Catalan 611
Grande 611
Mechan@@ 611
Pom@@ 611
Something 611
Visitors 611
betra@@ 611
buried 611
dense 611
drain 611
embark 611
equilibrium 611
imposition 611
inos 611
polar 611
shocked 611
surprises 611
swap 611
utting 611
14.@@ 610
Azur 610
Consider 610
Construction 610
Continental 610
Economics 610
Kl@@ 610
Wher@@ 610
chro@@ 610
consci@@ 610
dine 610
estim@@ 610
focus@@ 610
ingo 610
intri@@ 610
nasty 610
replies 610
slower 610
therhood 610
ug@@ 610
wai@@ 610
CN@@ 609
Chirac 609
Essen@@ 609
Expl@@ 609
Ré@@ 609
SLR 609
Secure 609
aman@@ 609
animated 609
anten@@ 609
gnment 609
hall@@ 609
memb@@ 609
orable 609
rewarded 609
roo@@ 609
sortium 609
will@@ 609
wonders 609
Different 608
Port@@ 608
Register 608
Smart 608
addiction 608
blank 608
exhi@@ 608
favorable 608
indu@@ 608
memor@@ 608
oph@@ 608
simil@@ 608
spontane@@ 608
1500 607
Agreements 607
Crus@@ 607
Gibraltar 607
Mozart 607
Müller 607
Split 607
arium 607
enquiry 607
exploiting 607
follo@@ 607
funny 607
gateway 607
liabilities 607
rian 607
tags 607
ART 606
Consumers 606
FT 606
Franco 606
Manchester 606
Optim@@ 606
Players 606
accomodation 606
angel@@ 606
ault 606
cruel 606
digi@@ 606
etto 606
fluctuations 606
fres@@ 606
governor 606
hegemon@@ 606
hell 606
hr 606
jud@@ 606
kni@@ 606
mentary 606
professionally 606
prohibit 606
prolonged 606
radar 606
treats 606
urging 606
Arafat 605
Arc@@ 605
Combin@@ 605
Nepal 605
Opening 605
Oxford 605
PA@@ 605
Wit@@ 605
aggrav@@ 605
angered 605
boast 605
cabinet 605
congratul@@ 605
defici@@ 605
eligibility 605
imple@@ 605
kill@@ 605
landmark 605
ptions 605
reacted 605
torate 605
1977 604
Added 604
Eurocopter 604
Hat 604
Seven 604
Zap@@ 604
amateur 604
dell 604
drum 604
peacefully 604
racle 604
rol 604
stroke 604
tuberculosis 604
Ambassador 603
Blog 603
Friedrich 603
Intro@@ 603
Pot@@ 603
Spec@@ 603
Vin@@ 603
compromising 603
deline 603
entertaining 603
infan@@ 603
licit 603
moun@@ 603
phra@@ 603
recomm@@ 603
situ@@ 603
succession 603
tana 603
tedly 603
theft 603
Bahn 602
Files 602
LabVIEW 602
Sofia 602
abused 602
addle 602
casinos 602
gastronomy 602
imperial 602
introduc@@ 602
laimed 602
picking 602
souven@@ 602
Albert 601
Gaz@@ 601
Hen@@ 601
Portal 601
Simp@@ 601
aug@@ 601
ball@@ 601
capitals 601
corrections 601
cyn@@ 601
denying 601
easiest 601
essen 601
ingers 601
poultry 601
stling 601
survived 601
voluntarily 601
Alger@@ 600
Andalusia 600
IND 600
Memory 600
Seller 600
Tou@@ 600
Yu@@ 600
attracts 600
butions 600
cleared 600
dul@@ 600
duplicate 600
ego 600
emit@@ 600
guards 600
modem 600
pist@@ 600
projected 600
scarcely 600
sponsor 600
wag@@ 600
1.6 599
DM@@ 599
Saf@@ 599
Things 599
championship 599
cles 599
exhibits 599
graduated 599
inned 599
oak 599
questioning 599
rail@@ 599
siveness 599
stretches 599
wilderness 599
Current 598
Lithu@@ 598
Pass@@ 598
RA 598
eters 598
etz@@ 598
piracy 598
scratch 598
subway 598
vigorous 598
vod@@ 598
Cards 597
Care 597
DE@@ 597
FF 597
affiliated 597
answering 597
arran@@ 597
choo@@ 597
ct 597
derive 597
devised 597
hony 597
horn 597
jacuzzi 597
kick 597
Angola 596
Fitness 596
Particularly 596
SEO 596
Taj@@ 596
Texas 596
aerospace 596
communicating 596
executives 596
folding 596
transplan@@ 596
Rub@@ 595
advantageous 595
ardo 595
hardt 595
lest 595
onies 595
probability 595
proceeds 595
reasoning 595
reliably 595
reproduce 595
talents 595
BAE 594
Chad 594
County 594
Payment 594
Rab@@ 594
antes 594
attribute 594
bn 594
bonuses 594
cogni@@ 594
dent@@ 594
floo@@ 594
hormon@@ 594
merged 594
model@@ 594
nuts 594
tled 594
travelled 594
unic@@ 594
Bran@@ 593
Form 593
Guatemala 593
Recovery 593
SCH@@ 593
Thessaloniki 593
demonstr@@ 593
economist 593
evolving 593
geneous 593
ograph@@ 593
pover@@ 593
sad@@ 593
watched 593
а 593
Azo@@ 592
Hab@@ 592
SME 592
Seattle 592
courtesy 592
disks 592
fried 592
identifies 592
lightweight 592
lle 592
logged 592
neoliberal 592
sear@@ 592
Books 591
Corbett 591
Defense 591
Stephen 591
aden 591
analytical 591
differentiated 591
eler@@ 591
esh 591
jungle 591
likelihood 591
obsc@@ 591
possesses 591
restart 591
supermarket 591
Aut@@ 590
Bologna 590
HE@@ 590
Pension 590
Realty 590
Tw@@ 590
dal@@ 590
juven@@ 590
offerings 590
ranes 590
unwanted 590
GI 589
Tit@@ 589
anony@@ 589
bei@@ 589
dispar@@ 589
editions 589
fittings 589
install@@ 589
interact 589
militar@@ 589
mysterious 589
rhythm 589
rolls 589
subtle 589
tendencies 589
throu@@ 589
unlawful 589
Communications 588
Perfect 588
Put 588
Unix 588
alis@@ 588
atings 588
carto@@ 588
compliant 588
efore 588
lanes 588
minerals 588
offshore 588
sculp@@ 588
750 587
Alm@@ 587
Formula 587
Imperial 587
MIN@@ 587
Mini@@ 587
Stefan 587
accumulation 587
agu@@ 587
bad@@ 587
egu@@ 587
fei@@ 587
illustration 587
matt@@ 587
signi@@ 587
teous 587
Assad 586
Cardiff 586
Cot@@ 586
Eng@@ 586
Erasmus 586
Ideally 586
Statement 586
Theater 586
Transpar@@ 586
Zak@@ 586
comprise 586
confusing 586
cook 586
extern@@ 586
mayor 586
minimize 586
philosophical 586
region@@ 586
som 586
transfer@@ 586
vul@@ 586
Cancún 585
SilverFast 585
Turn 585
acquiring 585
ader 585
cigarettes 585
crafts@@ 585
enco@@ 585
fraudul@@ 585
invalid 585
nin@@ 585
prestige 585
proo@@ 585
unwind 585
utilisation 585
wed@@ 585
Bene@@ 584
Inc. 584
RE 584
aki 584
bloc 584
consultant 584
degradation 584
enny 584
episodes 584
flavour 584
gest@@ 584
hyp@@ 584
pilots 584
routing 584
sculptures 584
smile 584
tano 584
tas 584
voiced 584
Berg@@ 583
Dell 583
Indonesian 583
Package 583
Pent@@ 583
TU 583
aro 583
fills 583
flation 583
here@@ 583
microwave 583
oods 583
pelago 583
reluct@@ 583
unused 583
uous 583
validation 583
yan 583
Ala@@ 582
Arabic 582
Deluxe 582
Heb@@ 582
Hôtel 582
Leban@@ 582
Messe 582
Sign@@ 582
allegedly 582
flat@@ 582
invent@@ 582
lecture 582
medication 582
signation 582
sunset 582
Argent@@ 581
BI@@ 581
INI 581
Prestige 581
WAR@@ 581
clips 581
complemented 581
dealings 581
exploration 581
explosive 581
hob@@ 581
premier 581
rotating 581
transforming 581
unauthorized 581
Nar@@ 580
Statisti@@ 580
ense 580
erosion 580
feared 580
gt 580
occurrence 580
orn 580
pum@@ 580
rat 580
sits 580
tare 580
variation 580
visions 580
wash 580
wie 580
wondering 580
Way 579
canal 579
cerem@@ 579
dedic@@ 579
dio@@ 579
gastronomic 579
glacier 579
insights 579
nen 579
shade 579
ë@@ 579
.NET 578
Born 578
Lud@@ 578
Prosec@@ 578
Visi@@ 578
candi@@ 578
contacted 578
dilemma 578
dressing 578
itations 578
noti@@ 578
paradig@@ 578
potato 578
traffi@@ 578
ula 578
wning 578
10.00 577
Confederal 577
Establi@@ 577
Eurojust 577
Florida 577
Instrument 577
OL 577
Opportunities 577
Table 577
compelling 577
crowded 577
fighters 577
filtration 577
henko 577
patches 577
smell 577
struggles 577
token 577
wall@@ 577
who@@ 577
Afri@@ 576
Fore@@ 576
PG 576
Photoshop 576
Prec@@ 576
Settings 576
decorative 576
disable 576
dock 576
dynam@@ 576
graph 576
honest@@ 576
journal 576
kits 576
labelled 576
mana 576
thr@@ 576
volatile 576
CI@@ 575
Holding 575
Jam@@ 575
Neg@@ 575
Rac@@ 575
administrators 575
circular 575
competi@@ 575
drying 575
hiding 575
importing 575
liberation 575
ose 575
supermarkets 575
tian 575
Func@@ 574
Hollywood 574
Info 574
Magazine 574
Remo@@ 574
accumulated 574
aesthe@@ 574
combustion 574
emotion 574
harm@@ 574
lls 574
myth 574
painter 574
presiden@@ 574
spic@@ 574
thre@@ 574
Clin@@ 573
Marx 573
Steinberg 573
apping 573
cafés 573
computing 573
investig@@ 573
masses 573
rav@@ 573
rout@@ 573
tenth 573
uss 573
wis 573
08@@ 572
Donald 572
Gas@@ 572
Hot 572
IMO 572
Pel@@ 572
Socrates 572
chic 572
cosmopolitan 572
distill@@ 572
ducing 572
sper@@ 572
uan 572
uba 572
vulner@@ 572
ware@@ 572
Fru@@ 571
Lucerne 571
Punta 571
Stand@@ 571
arbit@@ 571
charity 571
half@@ 571
obs@@ 571
outskirts 571
poster 571
rech@@ 571
refrigerator 571
standardized 571
tet 571
wings 571
Chap@@ 570
Commons 570
Reding 570
Shopping 570
Uganda 570
XI 570
clip 570
eno 570
ille 570
treasure 570
utilities 570
versus 570
Alp@@ 569
Ds 569
Jarzembowski 569
Links 569
ae@@ 569
caps 569
chat@@ 569
correspondence 569
defensive 569
dis 569
disper@@ 569
enz 569
gau 569
junction 569
personalised 569
tem 569
thin@@ 569
Baroque 568
Bath 568
Poverty 568
Princip@@ 568
Sing@@ 568
Sli@@ 568
ThyssenKrupp 568
Transfer 568
aly 568
ben 568
cats 568
emble@@ 568
fantasy 568
ferences 568
hungry 568
nich@@ 568
plat@@ 568
refriger@@ 568
remot@@ 568
shifts 568
spect@@ 568
teles@@ 568
them@@ 568
upgra@@ 568
wski 568
über 568
2.6 567
Friends 567
Lomé 567
Mongo@@ 567
TW@@ 567
appren@@ 567
cleaned 567
existent 567
guess 567
holistic 567
renew@@ 567
satisfying 567
visor 567
Individual 566
Origin@@ 566
Peninsula 566
Summary 566
anta 566
beaten 566
condem@@ 566
deplo@@ 566
desi@@ 566
eg 566
gible 566
lenses 566
lled 566
moderni@@ 566
oma 566
oxygen 566
registering 566
reproduced 566
side@@ 566
traveller 566
trop@@ 566
ury 566
ò 566
Annan 565
Bic@@ 565
Cau@@ 565
Lab 565
Montreal 565
Original 565
Provider 565
correspon@@ 565
dys@@ 565
emis@@ 565
etti 565
explored 565
ities 565
prayer 565
rels 565
rounded 565
small@@ 565
soccer 565
suit@@ 565
~ 565
22@@ 564
Bern 564
Fr@@ 564
Fro@@ 564
Hospital 564
PK@@ 564
Ramblas 564
change@@ 564
freezing 564
header 564
injec@@ 564
instrumental 564
iry 564
jacket 564
reform@@ 564
tron@@ 564
zio 564
Consu@@ 563
Crist@@ 563
D.@@ 563
Engine 563
Jac@@ 563
Prior 563
Quali@@ 563
benefici@@ 563
campsite 563
civi@@ 563
gently 563
gram@@ 563
timent 563
3,000 562
After@@ 562
CAN@@ 562
LL@@ 562
Multi 562
Short 562
TRA@@ 562
apar@@ 562
preceding 562
rebuilt 562
reme@@ 562
sea@@ 562
sses 562
xy 562
É@@ 562
16.@@ 561
Mira@@ 561
Real@@ 561
Shine 561
breed 561
commented 561
cript 561
elegantly 561
embles 561
even@@ 561
grin@@ 561
imaging 561
navig@@ 561
oll 561
scrut@@ 561
sheer 561
voy 561
witnesses 561
3.2 560
Ann@@ 560
Marie 560
Ny@@ 560
POR@@ 560
Recon@@ 560
Return 560
amid 560
attachment 560
boundary 560
cav@@ 560
certi@@ 560
impres@@ 560
nomination 560
sag@@ 560
sensu@@ 560
tes@@ 560
tuning 560
uk 560
Kri@@ 559
NT@@ 559
Residen@@ 559
Rica 559
bias 559
forwarding 559
intake 559
otage 559
ouses 559
reti@@ 559
sanitary 559
Alpes 558
Alzheimer 558
Applications 558
Az@@ 558
Dest@@ 558
Fort@@ 558
ION@@ 558
Infineon 558
MP 558
amidst 558
cloud 558
dant 558
designation 558
extinc@@ 558
lago@@ 558
ott 558
terly 558
б@@ 558
1.0 557
Clean 557
Equipment 557
Retur@@ 557
hetero@@ 557
spreads 557
tari@@ 557
tending 557
wered 557
й 557
Aar@@ 556
Iber@@ 556
Mission 556
Sep@@ 556
Standards 556
colony 556
cooked 556
curricul@@ 556
draw@@ 556
gauge 556
hesi@@ 556
oter 556
poet 556
stolen 556
tras 556
undergone 556
voucher 556
Blu@@ 555
Tribunal 555
albums 555
atable 555
attor@@ 555
attracting 555
budge@@ 555
commer@@ 555
edt 555
lich 555
lio 555
malware 555
offline 555
paradox@@ 555
sac@@ 555
switches 555
Buddhist 554
Fern@@ 554
Hil@@ 554
Kas@@ 554
Manuel 554
Membership 554
Scandinavian 554
Wallström 554
Wind@@ 554
additions 554
aser 554
bres 554
chs 554
critic@@ 554
ego@@ 554
electronically 554
ide 554
inas 554
oration 554
originated 554
rev@@ 554
scattered 554
4.5 553
Core 553
Cruz 553
Dy@@ 553
EOS 553
Gott 553
ITS 553
YouTube 553
Zürich 553
cock 553
coordinates 553
es.@@ 553
geograph@@ 553
illary 553
onymous 553
preferably 553
tta 553
AF 552
City@@ 552
Complete 552
Gast@@ 552
Gs 552
Integrated 552
SN@@ 552
addi@@ 552
configurations 552
diabetes 552
dise 552
dor 552
horror 552
lodge 552
modernity 552
ony@@ 552
uta 552
vise 552
worship 552
Cadiz 551
Dau@@ 551
Liechtenstein 551
Lis@@ 551
Porsche 551
abundant 551
eland 551
mud 551
nels 551
registry 551
retains 551
uminum 551
0.1 550
Bonus 550
Dalai 550
ason 550
lab 550
pink 550
rele@@ 550
satellites 550
stair@@ 550
terra@@ 550
transform@@ 550
vibration 550
vic 550
г@@ 550
BER@@ 549
Ner@@ 549
cigarette 549
eng 549
fai@@ 549
greg@@ 549
nicely 549
noisy 549
popul@@ 549
requi@@ 549
rocky 549
rustic 549
sliding 549
tricks 549
Ach@@ 548
Governance 548
Move 548
Options 548
Sydney 548
ambiance 548
athle@@ 548
chise 548
cons 548
derly 548
ettes 548
gulf 548
joins 548
mits 548
t.@@ 548
Half 547
Inci@@ 547
ONE 547
Pay 547
Prac@@ 547
VII 547
Virgin 547
enlarge 547
evacu@@ 547
iri@@ 547
modal 547
muscles 547
okes 547
shirts 547
sives 547
vity 547
Chianti 546
Chris 546
Exam@@ 546
Insurance 546
atmospheric 546
atomic 546
babies 546
communal 546
conversations 546
dues 546
ett 546
fort 546
qui 546
sculpture 546
Babysi@@ 545
Cameron 545
Dalmati@@ 545
Fis@@ 545
Harry 545
bishop 545
broadcast@@ 545
clever 545
distra@@ 545
eps 545
gry 545
inging 545
irrelevant 545
occupies 545
zin@@ 545
100,000 544
Accommodation 544
Coming 544
Dum@@ 544
Myanmar 544
NO 544
PO 544
Traditional 544
call@@ 544
cater 544
cliffs 544
coated 544
crafted 544
domination 544
ethanol 544
faction 544
guil@@ 544
pixel 544
wr@@ 544
2.3 543
AV 543
Bit@@ 543
Brand 543
Dat@@ 543
Delta 543
WW@@ 543
aster 543
drome 543
lighter 543
wouldn 543
Europe@@ 542
Heidelberg 542
LIFE 542
LIN@@ 542
Martini 542
OS@@ 542
bited 542
ckey 542
epide@@ 542
helicopters 542
locking 542
lumin@@ 542
mistak@@ 542
patron@@ 542
stere@@ 542
stom@@ 542
ра@@ 542
Ferr@@ 541
Genoa 541
Hi 541
Iz@@ 541
PHARE 541
Ski@@ 541
clay 541
eh 541
eme 541
eux 541
hikes 541
paste 541
pol 541
reson@@ 541
salon 541
shield 541
tuous 541
vine@@ 541
ASE 540
Gom@@ 540
HC 540
Mé@@ 540
Pad@@ 540
Sv@@ 540
TACIS 540
Train 540
appearances 540
corridors 540
entran@@ 540
jan@@ 540
prototype 540
quer 540
æ@@ 540
101 539
Bendit 539
Luxury 539
Me 539
Regar@@ 539
akis 539
compilation 539
cros@@ 539
farmhouse 539
lib@@ 539
oneself 539
portrait 539
Ankara 538
Atlan@@ 538
Cohn 538
Lee 538
Mec@@ 538
Monaco 538
Physi@@ 538
Swimming 538
amoun@@ 538
bir@@ 538
birth@@ 538
curve 538
dding 538
fia 538
proportionate 538
surround 538
CV@@ 537
ELDR 537
QuarkXPress 537
Stalin 537
acon 537
blogs 537
fiber 537
ismo 537
nez 537
polio 537
posters 537
reach@@ 537
105 536
Delivery 536
ECT 536
FT@@ 536
Fas@@ 536
Quick@@ 536
Tai@@ 536
Thir@@ 536
experim@@ 536
muscle 536
paradox 536
rega@@ 536
rival 536
ANT@@ 535
Hannover 535
Inside 535
ancho@@ 535
conf 535
etary 535
foam 535
herbs 535
myth@@ 535
plum@@ 535
remainder 535
Bible 534
Christian@@ 534
Included 534
Liikanen 534
Stop 534
Trop@@ 534
ador 534
akan 534
bicycles 534
chil@@ 534
distinc@@ 534
guer@@ 534
propag@@ 534
prospective 534
provincial 534
trekking 534
valu@@ 534
α@@ 534
BB@@ 533
Band 533
Beau@@ 533
Brit@@ 533
Exp@@ 533
FS@@ 533
OC@@ 533
authorit@@ 533
conci@@ 533
dec 533
epi@@ 533
hus@@ 533
inhi@@ 533
leaf@@ 533
legi@@ 533
lodging 533
org 533
touristic 533
Conduc@@ 532
Kash@@ 532
Quarter 532
Sle@@ 532
Title 532
assault 532
ere@@ 532
fiers 532
flair 532
glasses 532
graduates 532
ketball 532
logs 532
mware 532
sevent@@ 532
Á@@ 532
8,@@ 531
Ali 531
Colum@@ 531
Commander 531
Def@@ 531
Experts 531
Fam@@ 531
Football 531
RC 531
TNG 531
Tennis 531
Usually 531
chens 531
dow 531
editors 531
kel@@ 531
reve@@ 531
synthesis 531
Č@@ 531
DEN@@ 530
Ec@@ 530
Feel 530
KO@@ 530
Oomen 530
Terror@@ 530
Ze@@ 530
alien@@ 530
belonged 530
declar@@ 530
ee@@ 530
gmati@@ 530
hill@@ 530
m. 530
standardi@@ 530
zn@@ 530
Always 529
CMS 529
Dear 529
MS@@ 529
Need@@ 529
Oliver 529
Program@@ 529
SOL@@ 529
Television 529
absorbed 529
anytime 529
exhibit 529
fortunate 529
heed 529
magi@@ 529
rad@@ 529
tioner 529
whit@@ 529
Bud@@ 528
Founded 528
Gardena 528
HER@@ 528
Jazz 528
Lamy 528
MB@@ 528
Mercure 528
aba 528
adly 528
ahn 528
aller@@ 528
amin 528
como 528
majestic 528
ouldn 528
pulled 528
rented 528
secretary 528
yiel@@ 528
Econom@@ 527
LI@@ 527
Markets 527
Palm 527
bandwidth 527
cide 527
kha@@ 527
lip 527
packs 527
ranked 527
Banks 526
Index 526
NGO 526
Radisson 526
alto 526
backgrounds 526
bacteria 526
casual 526
cylinder 526
eline 526
navigate 526
ommis@@ 526
org@@ 526
oved 526
scand@@ 526
skep@@ 526
tainment 526
tempor@@ 526
wildlife 526
115 525
15.@@ 525
ERP 525
Emplo@@ 525
Giovanni 525
ICC 525
Nag@@ 525
Ron@@ 525
Tuni@@ 525
celeb@@ 525
expl@@ 525
nes 525
oro 525
owns 525
sligh@@ 525
1969 524
Catalonia 524
Parties 524
Rotterdam 524
Scott 524
asive 524
ces@@ 524
remark@@ 524
sab@@ 524
scholars 524
sica 524
vez 524
wery 524
Assistance 523
Hung@@ 523
Jen@@ 523
Soli@@ 523
Universi@@ 523
genre 523
groves 523
ionships 523
plateau 523
pub 523
refresh@@ 523
vas 523
vigor@@ 523
Ask 522
GNOME 522
Imp@@ 522
RI@@ 522
Rail 522
Sili@@ 522
Surrounded 522
Test@@ 522
ambots 522
apple 522
awar@@ 522
bekistan 522
carpet 522
clicks 522
gregation 522
ington 522
nos 522
pairs 522
rais@@ 522
socket 522
vendor 522
viewers 522
-B4 521
3.1 521
CSS 521
Contr@@ 521
E.ON 521
Ein@@ 521
Graphi@@ 521
Leone 521
accord@@ 521
hesit@@ 521
opho@@ 521
roller 521
seafood 521
sports@@ 521
är@@ 521
01.@@ 520
Ander@@ 520
Angel@@ 520
Catalunya 520
Dark 520
Glob@@ 520
Guard 520
Script 520
Soon 520
Vitorino 520
XX@@ 520
aw 520
cracy 520
disturbed 520
dunes 520
endi@@ 520
fascin@@ 520
friendliness 520
implants 520
kets 520
mage 520
preme 520
stan 520
storey 520
subur@@ 520
AA 519
Banking 519
Orthodo@@ 519
Ple@@ 519
Ruijten 519
Sign 519
Vie@@ 519
cau@@ 519
discover@@ 519
erc@@ 519
ior 519
narrative 519
pots 519
promin@@ 519
reserv@@ 519
sep@@ 519
til 519
vies 519
Conven@@ 518
Domin@@ 518
Dé@@ 518
ICA 518
Orange 518
Re 518
Week@@ 518
añ@@ 518
fulfil@@ 518
hem@@ 518
ius 518
locks 518
quiries 518
republic 518
shar@@ 518
trivi@@ 518
ş@@ 518
30th 517
ICEcat 517
Motion 517
Vegas 517
cafe 517
docum@@ 517
eder 517
ficial 517
fur 517
restruc@@ 517
scri@@ 517
turbul@@ 517
vet 517
zza 517
AB 516
Imagine 516
Istri@@ 516
Pum@@ 516
Them@@ 516
bb@@ 516
beau@@ 516
beverage 516
cardi@@ 516
glia 516
nervous 516
orrow 516
riad 516
wird 516
1950s 515
INE 515
Moder@@ 515
PayPal 515
Registration 515
format@@ 515
igno@@ 515
ller 515
sau 515
techno@@ 515
unpleasant 515
1972 514
Reference 514
UP 514
adol@@ 514
allen 514
banqu@@ 514
lava 514
merge 514
mills 514
sent@@ 514
sig@@ 514
Moh@@ 513
T. 513
Turin 513
Voyager 513
WE 513
bare 513
bee 513
crow@@ 513
drops 513
elo@@ 513
ev 513
eves 513
fit@@ 513
hood 513
mathematical 513
secre@@ 513
tise 513
tranquillity 513
38@@ 512
DV@@ 512
Emp@@ 512
Ferrero 512
Lig@@ 512
MPEG 512
Mode 512
Veri@@ 512
cant@@ 512
cc 512
chn@@ 512
dictator@@ 512
faç@@ 512
mira@@ 512
multilater@@ 512
ę@@ 512
τ@@ 512
001 511
Details 511
EPP 511
Hilton 511
Lyon 511
Nephi 511
Stone 511
Stream 511
Tanz@@ 511
cient 511
determin@@ 511
eper 511
niture 511
orous 511
perfection 511
plugins 511
portals 511
psycho@@ 511
she@@ 511
tat 511
unia 511
veter@@ 511
Jet 510
Kiev 510
Lav@@ 510
Sach@@ 510
VA 510
brus@@ 510
glaci@@ 510
lash 510
mega 510
petro@@ 510
rhyth@@ 510
ssi 510
tees 510
Designed 509
FTA 509
Leader 509
Rose 509
Sei@@ 509
Share@@ 509
ceram@@ 509
compound 509
descri@@ 509
ergonom@@ 509
gs@@ 509
hierarch@@ 509
mort@@ 509
pulse 509
scientist 509
shop@@ 509
thouse 509
trusion 509
A6 508
WordPress 508
donated 508
tner 508
tu 508
Benz 507
DB 507
Dou@@ 507
comprehensible 507
creations 507
damp@@ 507
instructors 507
loader 507
mos 507
naval 507
stur@@ 507
trick 507
wled@@ 507
ARC 506
Cypri@@ 506
Mail@@ 506
Rep@@ 506
She@@ 506
Wes@@ 506
captain 506
carb@@ 506
dinners 506
league 506
raft 506
Europ@@ 505
Metal 505
SERV@@ 505
cottage 505
liers 505
ow 505
rigi@@ 505
Ama@@ 504
Astrium 504
BG 504
Moz@@ 504
Solution 504
cohe@@ 504
ographi@@ 504
onents 504
opath@@ 504
rag@@ 504
stack 504
stitutes 504
tite 504
A1 503
Alicante 503
Barón 503
Eiffel 503
Feli@@ 503
L. 503
aco 503
liv@@ 503
oul@@ 503
pseu@@ 503
spac@@ 503
sticks 503
tol@@ 503
tuary 503
ön@@ 503
Administ@@ 502
Brand@@ 502
Davi@@ 502
Klingon 502
Langu@@ 502
Rent 502
Torre 502
Vati@@ 502
Waldner 502
behavi@@ 502
commanded 502
doorstep 502
einen 502
erie 502
mation 502
metallic 502
pad 502
uro 502
Analy@@ 501
Analysis 501
Angela 501
CI 501
Claude 501
Di 501
Fan@@ 501
Kyi 501
Ligh@@ 501
Picard 501
dup@@ 501
eradic@@ 501
gery 501
sealed 501
sterili@@ 501
stra 501
tima 501
tionist 501
vou@@ 501
Fair@@ 500
Lehne 500
Progressive 500
Quick 500
Strip 500
mosa@@ 500
ounced 500
pear@@ 500
que@@ 500
rites 500
1971 499
5000 499
AVI 499
Coll@@ 499
Copy 499
Eth@@ 499
Final 499
Lom@@ 499
Metro@@ 499
Simon 499
Twin 499
Walking 499
Wolf 499
expendi@@ 499
olin 499
pessimis@@ 499
vegetarian 499
wher@@ 499
Bour@@ 498
Conveni@@ 498
Gh@@ 498
IVE 498
Milano 498
Simil@@ 498
Simple 498
TY 498
billi@@ 498
boots 498
effic@@ 498
pause 498
rea 498
roy@@ 498
stron@@ 498
thers 498
tice 498
unas 498
utop@@ 498
voir 498
Aero@@ 497
B4 497
Crespo 497
Expo 497
Zagreb 497
avian 497
communautaire 497
enclosed 497
excited 497
kal@@ 497
kilomet@@ 497
mic 497
ongside 497
ées 497
ATM 496
Copy@@ 496
Week 496
alien 496
erly 496
lover 496
mmer 496
pon@@ 496
retired 496
rooftop 496
vio 496
Daily 495
E.@@ 495
G. 495
Olympics 495
Years 495
aine 495
attrac@@ 495
dau@@ 495
imper@@ 495
inum 495
massi@@ 495
neys 495
phot@@ 495
ses@@ 495
susta@@ 495
voy@@ 495
Acrobat 494
Alban@@ 494
Aus@@ 494
CNC 494
Gene@@ 494
NH 494
Phil@@ 494
Resources 494
barbecue 494
colored 494
dispos@@ 494
ende 494
ii 494
tels 494
Farm 493
Wri@@ 493
esting 493
ghters 493
missi@@ 493
occasional 493
retariat 493
sili@@ 493
till@@ 493
utt@@ 493
xide 493
án@@ 493
Battle 492
Böge 492
Ep@@ 492
Infra@@ 492
Interior 492
Isa@@ 492
Prote@@ 492
Ric@@ 492
Ster@@ 492
aber 492
aman 492
loves 492
rogen 492
xen@@ 492
CRM 491
SIM@@ 491
compositions 491
god 491
hosp@@ 491
Amon@@ 490
Electric 490
Everest 490
bag@@ 490
chest@@ 490
cover@@ 490
event@@ 490
fem@@ 490
zh@@ 490
öl@@ 490
45@@ 489
Fixed 489
GO@@ 489
Juncker 489
Mare 489
Polo 489
Represent@@ 489
crown 489
gram 489
gst 489
slu@@ 489
suppor@@ 489
sympath@@ 489
thresh@@ 489
tude 489
unication 489
103 488
Bah@@ 488
Flexi@@ 488
Miles 488
Málaga 488
Nuremberg 488
Route 488
Tut@@ 488
beck 488
corn 488
elt 488
facade 488
residen@@ 488
Fron@@ 487
Master@@ 487
Mist@@ 487
musician 487
partment 487
³ 487
DEM 486
Ech@@ 486
MAN 486
Nord@@ 486
Pun@@ 486
Shops 486
ardi@@ 486
dena 486
sehr 486
vintage 486
ś@@ 486
135 485
Carl@@ 485
Jack 485
Module 485
Pisa 485
Poker@@ 485
accom@@ 485
actress 485
fore 485
gir@@ 485
glam@@ 485
histori@@ 485
mist@@ 485
pod@@ 485
stav@@ 485
17.@@ 484
Posi@@ 484
Suu 484
abulary 484
agn@@ 484
aran@@ 484
cached 484
coast@@ 484
erce 484
fif@@ 484
garten 484
hydr@@ 484
lear@@ 484
sender 484
sink 484
Care@@ 483
Ferrari 483
LT@@ 483
NE 483
PI 483
Romans 483
WA 483
agra@@ 483
anom@@ 483
colorful 483
dents 483
lash@@ 483
monumental 483
node 483
sacrifi@@ 483
stes 483
ventilation 483
Bil@@ 482
Day@@ 482
Linz 482
Tun@@ 482
durch 482
vin 482
ype 482
ów 482
Delors 481
Famili@@ 481
GUI 481
Governor 481
Ken@@ 481
Lufthansa 481
aan 481
app 481
assador 481
azi@@ 481
conveni@@ 481
dictionary 481
einem 481
este 481
inee 481
rope 481
styli@@ 481
tte 481
24.@@ 480
32@@ 480
Abbas 480
Evans 480
FIFA 480
Seri@@ 480
Students 480
Sub 480
aux@@ 480
dinal 480
frau@@ 480
pupp@@ 480
sans 480
tranquili@@ 480
Alexand@@ 479
Berg 479
Shor@@ 479
arks 479
contin@@ 479
dali@@ 479
lar 479
mina 479
más 479
noch 479
pedition 479
spr@@ 479
thos 479
ude 479
vision@@ 479
visory 479
1965 478
9.00 478
Are@@ 478
ERS 478
Work@@ 478
Yan@@ 478
develop@@ 478
inver@@ 478
oi 478
pon 478
Asi@@ 477
Bangemann 477
Cox 477
Document 477
Liby@@ 477
Mr@@ 477
Raf@@ 477
Tours 477
elevator 477
forec@@ 477
fort@@ 477
gun@@ 477
melo@@ 477
proportional 477
prou@@ 477
sync 477
thering 477
Dal@@ 476
ESA 476
García 476
Release 476
Salvador 476
Sci@@ 476
abi@@ 476
band@@ 476
bine 476
ophobia 476
tail@@ 476
20,000 475
Fres@@ 475
HA@@ 475
Images 475
PNR 475
Pen 475
Regul@@ 475
Rehn 475
Schi@@ 475
Walk 475
fountain 475
kov 475
volcano 475
wir 475
Adverti@@ 474
Naz@@ 474
Urban 474
dg@@ 474
e. 474
ligent 474
lung 474
mysq@@ 474
poss@@ 474
predec@@ 474
premiere 474
r.@@ 474
12.00 473
Am 473
Circle 473
E. 473
Stein@@ 473
Step 473
Subscri@@ 473
Traveller 473
aroma 473
composite 473
debian 473
dil@@ 473
dot 473
help@@ 473
lli@@ 473
monster 473
prerequi@@ 473
о 473
Com 472
Operation 472
Run 472
Teh@@ 472
amins 472
genous 472
import@@ 472
philos@@ 472
alternate 471
assign@@ 471
geb@@ 471
inings 471
neighbour@@ 471
spy@@ 471
vigil@@ 471
Amazon 470
Challenge 470
Champs 470
Email 470
González 470
Lon@@ 470
São 470
TVs 470
athy 470
illon 470
kms 470
kus@@ 470
pus@@ 470
rence 470
150@@ 469
23rd 469
ALL@@ 469
C.@@ 469
Carmen 469
Clau@@ 469
ETA 469
Ev@@ 469
TEC 469
Terme 469
Wall@@ 469
celebri@@ 469
curr@@ 469
entu@@ 469
raid 469
vom 469
190 468
COS 468
Ray 468
TCP 468
Wars 468
hat@@ 468
health@@ 468
ira 468
izz@@ 468
kW 468
reser@@ 468
ssen 468
xis 468
ο@@ 468
120@@ 467
ICS 467
Leave 467
Lite 467
MAS 467
Mother 467
Um@@ 467
Zar@@ 467
amente 467
computer@@ 467
excell@@ 467
ffs 467
nific@@ 467
och 467
seg@@ 467
175 466
19.@@ 466
Autom@@ 466
B6 466
BugTraq 466
Coffee 466
Dubrovnik 466
Italia 466
Schu@@ 466
Who@@ 466
gano 466
magni@@ 466
meth@@ 466
onom@@ 466
poetry 466
sidi@@ 466
trailer 466
Atom@@ 465
Carl 465
Deci@@ 465
Delegation 465
Guil@@ 465
Malmström 465
Nic@@ 465
Pé@@ 465
Satur@@ 465
asis 465
bronze 465
finder 465
flavours 465
mei@@ 465
occ@@ 465
ould 465
pep@@ 465
proxim@@ 465
scap@@ 465
skis 465
yachts 465
ASPs 464
Alba 464
Bristol 464
Conil 464
Elba 464
Manual 464
Oh 464
PE@@ 464
ZF 464
avant 464
bann@@ 464
leges 464
medic@@ 464
Mill@@ 463
Sett@@ 463
aler@@ 463
dafi 463
quiry 463
teach@@ 463
town@@ 463
Bahrain 462
INC@@ 462
Span@@ 462
anne 462
chio 462
folios 462
freshly 462
jen@@ 462
lige 462
rescu@@ 462
stem@@ 462
1957 461
R. 461
Rh@@ 461
Risk 461
SR@@ 461
Securities 461
VO@@ 461
gem 461
gem@@ 461
oure 461
porte@@ 461
uli 461
Depression 460
HT 460
IDE 460
ademi@@ 460
delle 460
gans 460
itar@@ 460
kn@@ 460
otechn@@ 460
public@@ 460
republi@@ 460
ror 460
spl@@ 460
ventures 460
wo 460
...... 459
4.1 459
50,000 459
Archi@@ 459
Ivoire 459
Lux@@ 459
Rober@@ 459
Swiss@@ 459
access@@ 459
avenue 459
bahn 459
cion 459
matrix 459
ons@@ 459
presso 459
veau 459
Ernst 458
Heav@@ 458
Legislative 458
Racing 458
Target 458
af 458
anic 458
arded 458
berries 458
discus@@ 458
dow@@ 458
grades 458
transpar@@ 458
Dimension 457
Fast 457
Gaulle 457
IK 457
Leon@@ 457
Ott@@ 457
Race 457
aero@@ 457
gger 457
ister 457
mg 457
rigor@@ 457
trin@@ 457
ussy 457
800@@ 456
9,@@ 456
Ces@@ 456
Ring 456
dire 456
eras 456
gma 456
inian 456
ont@@ 456
parag@@ 456
replac@@ 456
teleph@@ 456
Cali@@ 455
Doc@@ 455
Gates 455
Wogau 455
dend 455
eck@@ 455
lick 455
pharmac@@ 455
poli 455
rot 455
starship 455
two@@ 455
wering 455
Brandenburg 454
DS9 454
Esc@@ 454
Schmidt 454
Weber 454
acher 454
arbitr@@ 454
lux@@ 454
rack 454
riv@@ 454
sched@@ 454
18.@@ 453
240 453
Across 453
Aff@@ 453
CET 453
Holocaust 453
Pati@@ 453
ave 453
bed@@ 453
ensemble 453
figu@@ 453
guesthouse 453
og 453
satisfac@@ 453
tall 453
ا@@ 453
COR@@ 452
F1 452
Flor@@ 452
Nicolas 452
Scandin@@ 452
Slo@@ 452
Stars 452
Vari@@ 452
aciones 452
ativity 452
exce@@ 452
lid 452
polite 452
recre@@ 452
skir@@ 452
vels 452
ANT 451
Columbia 451
Export 451
Fontaine 451
JPEG 451
Mars 451
Mik@@ 451
Norm@@ 451
Wide 451
cho 451
eri 451
rin 451
sko 451
stituted 451
CF 450
Factory 450
Kel@@ 450
Miguel 450
Mün@@ 450
Networks 450
Nou@@ 450
Status 450
Sw@@ 450
Valle 450
Ve@@ 450
bia 450
bru@@ 450
dere 450
fighter 450
lack@@ 450
mile@@ 450
rog@@ 450
servation 450
touring 450
112 449
650 449
Kil@@ 449
MAS@@ 449
Records 449
Senior 449
Study 449
asy 449
aven@@ 449
bau@@ 449
dass 449
dema@@ 449
fin 449
meg@@ 449
porteur 449
rupted 449
thal 449
vices 449
DB@@ 448
Four@@ 448
Francis 448
GOL@@ 448
MHz 448
Mont 448
Trust 448
Wilhelm 448
deluxe 448
décor 448
nostal@@ 448
patent@@ 448
y.@@ 448
Marc 447
Nest@@ 447
Team@@ 447
gos 447
kow 447
meaning@@ 447
ritual 447
uble 447
volta@@ 447
1956 446
BI 446
F. 446
Interface 446
McCar@@ 446
NA@@ 446
Plant 446
Rosa 446
Winter@@ 446
chrome 446
cil 446
ecks 446
lik@@ 446
nas@@ 446
pasta 446
pis@@ 446
pursu@@ 446
queen 446
rench 446
sec 446
sidents 446
Burundi 445
MT 445
Schum@@ 445
Tickets 445
Woo@@ 445
aller 445
assimil@@ 445
farm@@ 445
ggen@@ 445
pam@@ 445
porary 445
rewar@@ 445
Å@@ 445
Electronics 444
Enhan@@ 444
Kn@@ 444
Leon 444
OP 444
P. 444
Palais 444
Prophet 444
SO 444
Think 444
diox@@ 444
method@@ 444
nic 444
rank@@ 444
refra@@ 444
shine 444
stuffs 444
stun@@ 444
suffici@@ 444
té 444
video@@ 444
zel@@ 444
BBC 443
Basilica 443
Blu 443
Geb@@ 443
Johann 443
NET 443
PD 443
Rav@@ 443
Wu@@ 443
bum@@ 443
consum@@ 443
derer 443
mming 443
plurali@@ 443
pneum@@ 443
ко@@ 443
я 443
Hat@@ 442
Lap@@ 442
Lyn@@ 442
Materials 442
Milli@@ 442
PT@@ 442
RAW 442
Style 442
VIII 442
aison 442
antum 442
incre@@ 442
rebel@@ 442
stir@@ 442
teau 442
108 441
Affiliate 441
Agent 441
Fox 441
Geo@@ 441
Morgan 441
Value 441
ciano 441
emy 441
iner@@ 441
produc@@ 441
smu@@ 441
toral 441
Mos@@ 440
Wen@@ 440
cides 440
dela@@ 440
potenti@@ 440
promp@@ 440
racy 440
.jpg 439
1948 439
2D 439
Champion 439
Jacob 439
Peri@@ 439
SEL@@ 439
abu@@ 439
altar 439
ancies 439
bat 439
config 439
gg 439
jer 439
lings 439
pha@@ 439
sol 439
Ans@@ 438
Aung 438
Connect 438
Hamp@@ 438
KUKA 438
Pad 438
Spre@@ 438
Var 438
authori@@ 438
chim@@ 438
glo 438
thal@@ 438
tissu@@ 438
urred 438
ч@@ 438
ACK@@ 437
Andrew 437
Broad@@ 437
Carlo 437
FIN@@ 437
Gab@@ 437
LONDON 437
LY 437
Mitchell 437
Roo@@ 437
corrid@@ 437
ernity 437
flan@@ 437
lyrics 437
quad@@ 437
tability 437
Andrea 436
Aparthotel 436
Herman 436
Photos 436
Platz 436
Sla@@ 436
Stadium 436
Territ@@ 436
Utili@@ 436
bure@@ 436
decla@@ 436
esp@@ 436
exo@@ 436
sump@@ 436
11.30 435
Bun@@ 435
Enter@@ 435
Satellite 435
Vinci 435
a.com 435
eman 435
extra@@ 435
izer 435
jug@@ 435
lock@@ 435
ondo 435
oos 435
plann@@ 435
prosp@@ 435
servatives 435
tment 435
toilets 435
1200 434
21.@@ 434
Bonino 434
Carol@@ 434
Cookies 434
Fit@@ 434
Generation 434
Inform@@ 434
M.@@ 434
Ortega 434
Phili@@ 434
Studios 434
config@@ 434
garde 434
nant 434
orials 434
1944 433
DSLR 433
Frequ@@ 433
Had 433
Lec@@ 433
Mike 433
Mulder 433
Pocket 433
Renault 433
aga@@ 433
herein 433
pertoire 433
rison 433
rlpool 433
soap 433
uno 433
111 432
AI 432
Davos 432
DivX 432
Graz 432
Harmon@@ 432
ISS 432
MI 432
Markus 432
München 432
configu@@ 432
enne 432
x.@@ 432
č 432
1920 431
5.1 431
Alan 431
Dro@@ 431
Hotel@@ 431
Ja@@ 431
Pre 431
aggres@@ 431
alp@@ 431
lips 431
neces@@ 431
trainer 431
Cum@@ 430
GS 430
Glo@@ 430
Metho@@ 430
Rothley 430
Schro@@ 430
Some@@ 430
Yahoo 430
cris@@ 430
haben 430
inspi@@ 430
otti 430
plau@@ 430
pragmati@@ 430
prejudi@@ 430
ε@@ 430
в 430
1900 429
5.0 429
Automati@@ 429
Automation 429
B. 429
Certificate 429
Masters 429
Rate 429
asa 429
client@@ 429
gradu@@ 429
pi 429
rand@@ 429
tagon@@ 429
ás 429
AST 428
Alt@@ 428
ECR 428
Ecuador 428
Glacier 428
H. 428
Independence 428
K. 428
Logistics 428
Planet 428
Ras@@ 428
Seg@@ 428
aise 428
allevi@@ 428
apt 428
avoi@@ 428
oblig@@ 428
wholes@@ 428
wolf 428
Audit 427
Eden 427
FY@@ 427
Hit@@ 427
Mai@@ 427
Moon 427
Need 427
Patrick 427
Stabili@@ 427
Worldwide 427
ange@@ 427
arding 427
instructor 427
iss 427
sti 427
text@@ 427
urg@@ 427
Case 426
Fei@@ 426
Install@@ 426
Prus@@ 426
[...]
