, 5779288
. 3895597
die 2809259
der 2699230
und 2555958
in 1369129
zu 1034232
den 971455
von 939870
ist 813496
für 792393
@-@ 760793
das 673191
mit 665543
auf 646550
des 633765
eine 579714
nicht 520880
im 516336
Sie 498748
werden 496566
dass 488343
- 459028
es 456663
wir 454287
ein 451928
dem 451911
&quot; 440410
sich 435196
Die 426107
auch 393857
sind 358761
wird 344829
an 329410
( 317628
) 315176
ich 315021
als 305949
um 296486
oder 284078
haben 280338
: 278187
über 275738
hat 256662
einer 254027
sie 252077
wie 250555
zur 237240
einen 228618
Ich 222910
bei 220851
aus 213120
Das 211551
können 203940
einem 180893
diese 180190
Wir 177102
nach 175648
uns 173943
zum 172367
nur 169505
durch 163686
kann 163371
dieser 160423
er 159828
Kommission 159740
daß 159595
Der 153330
so 147021
vor 146462
Es 145946
! 144398
noch 143301
Herr 141855
wenn 137717
aber 135809
müssen 135727
wurde 134062
sein 130186
/ 128190
? 123593
sehr 123327
Union 122235
Europäischen 121033
diesem 120324
am 119569
In 114526
alle 110108
möchte 109687
mehr 109152
was 106961
man 106456
eines 99678
Präsident 96794
bis 95614
ihre 94347
EU 93145
dieses 92685
war 92356
ver@@ 92319
vom 90380
sowie 88716
gibt 88376
Bericht 87509
unter 86878
er@@ 86264
Parlament 86023
muss 84441
zwischen 83755
hier 83492
Mitgliedstaaten 83380
Hotel 80486
an@@ 80059
unsere 79815
keine 79503
a 78456
Europa 76828
anderen 75284
Ihnen 74405
; 74139
&apos; 73524
Wenn 71888
... 70999
te 70419
diesen 70011
dann 69726
ten 69550
immer 69448
damit 69135
Frau 69061
dies 68991
gegen 68485
de 68337
un@@ 67722
Europäische 65924
da 65697
wurden 65609
habe 64602
en 64145
Diese 63817
sondern 63223
Im 62963
unserer 62882
ge@@ 62476
Zeit 62175
jedoch 61062
ab@@ 60005
Ihre 59158
Menschen 59127
heute 58921
europäischen 58888
seine 58695
s 58617
neue 58093
mich 56898
Rat 56825
bereits 56606
sollte 55556
en@@ 54855
ihrer 54768
Jahr 54743
% 54608
denen 54435
neuen 54242
ein@@ 54110
Frage 53928
aus@@ 53883
k@@ 53742
Entwicklung 53489
sollten 53255
ohne 53118
Ver@@ 52739
andere 52726
Jahren 52632
be@@ 51697
machen 50185
ganz 50130
finden 49641
allen 49480
zwei 49435
weil 49030
2 48736
K@@ 48673
geht 48465
denn 47509
An@@ 47471
t 47196
Maßnahmen 46957
dazu 46821
e 46813
Unternehmen 46563
jetzt 46521
viele 46269
darauf 45821
Welt 45763
Herrn 45561
S@@ 45333
sch@@ 45194
t@@ 44967
Mit 44964
the 44819
1 44699
bietet 44538
Bereich 44516
dafür 44079
i 44078
liegt 43830
Ein 43547
einige 43391
P@@ 43339
T@@ 43246
Ab@@ 42925
B@@ 42896
wieder 42738
seiner 42653
Informationen 42385
selbst 42344
ter 41945
bin 41941
meine 41843
Arbeit 41715
sagen 41702
auf@@ 41584
schon 41436
s@@ 41060
mir 40869
allem 40830
Lage 40790
ihren 40759
würde 40594
zu@@ 40526
wollen 40396
ung 40157
ihr 40059
Dies 39957
ob 39730
3 39476
o 39425
and 39315
viel 39226
Länder 39117
Land 38842
Jahre 38827
unseren 38701
über@@ 38650
F@@ 38616
f@@ 38431
geben 38397
G@@ 38370
insbesondere 38118
Parlaments 38090
doch 37623
Eine 37495
M@@ 37360
Wie 37208
stehen 37205
während 36893
nun 36812
z@@ 36735
D@@ 36733
&#91; 36650
H@@ 36636
Und 36635
&#93; 36534
vor@@ 36501
Unterstützung 36403
etwas 36376
Ein@@ 36341
in@@ 36327
Vorschlag 36206
möglich 36181
Rahmen 36080
gen 36022
ent@@ 35960
d@@ 35889
Zusammenarbeit 35826
kommen 35793
stellen 35757
Ländern 35676
lassen 35557
A@@ 35530
wo 35518
Für 35266
Bürger 35205
ungs@@ 35055
E@@ 35033
Aus@@ 34961
gut 34957
of 34815
ab 34528
politischen 34362
n@@ 34334
seit 34286
waren 34228
g@@ 33950
wichtig 33874
Sch@@ 33801
Namen 33796
m 33762
tun 33761
erhalten 33730
Fall 33635
N@@ 33619
ungen 33597
also 33522
L@@ 33504
steht 33329
st@@ 33324
soll 33305
besteht 33197
Teil 33160
Kollegen 33041
Ziel 32969
wäre 32899
Problem 32888
ersten 32796
Fragen 32651
W@@ 32564
al@@ 32402
einmal 32233
Recht 32175
sten 32114
Fraktion 32084
ern 31929
R@@ 31795
ch@@ 31777
letzten 31723
C@@ 31633
4 31601
beim 31446
sehen 31373
deren 31306
Art 31288
Vor@@ 31203
Bedeutung 31169
Sicherheit 31126
to 31106
drei 30931
tes 30912
worden 30732
muß 30531
einfach 30450
Staaten 30387
dabei 30383
Was 30337
Seite 30336
b@@ 30244
seinen 30098
große 30080
Regierung 29987
großen 29933
Zimmer 29793
m@@ 29766
Kommissar 29718
weiter 29336
5 29299
Thema 29277
Daten 29229
Bei 29223
welche 29205
Probleme 29194
-@@ 29093
darüber 29020
bringen 28960
Möglichkeit 28910
wissen 28905
Politik 28859
ge 28845
Richtlinie 28617
daher 28534
um@@ 28519
davon 28512
meiner 28507
Aber 28496
Verfügung 28415
könnte 28171
Weise 28072
eigenen 27918
führen 27820
Auf 27800
unterstützen 27697
Zukunft 27690
ischen 27618
O@@ 27574
aller 27557
el@@ 27476
sowohl 27409
Auch 27399
System 27376
Ihr 27375
wirklich 27364
Nach 27261
eren 27221
Z@@ 27177
kein 27115
enden 27111
Er@@ 26992
Er 26964
liche 26948
10 26926
du 26818
Als 26782
Stadt 26764
ihnen 26751
natürlich 26736
e@@ 26695
stellt 26674
Beispiel 26669
alles 26607
weitere 26581
re@@ 26532
Rolle 26518
europäische 26388
gegenüber 26379
o@@ 26371
ja 26280
erreichen 26247
Euro 26211
besonders 26187
Frauen 26167
Ende 26154
politische 26066
zwar 26051
innerhalb 26045
ende 26027
on 25969
bieten 25945
&amp; 25847
Ihrer 25829
internationalen 25781
V@@ 25706
verschiedenen 25596
Seiten 25564
unser 25563
Kunden 25489
Weg 25452
ische 25332
hatte 25285
möchten 25126
d 25122
gehen 25094
vielen 24990
lich 24944
Meinung 24915
USA 24760
l@@ 24644
i@@ 24560
Artikel 24460
kommt 24289
u@@ 24242
Zusammenhang 24190
Situation 24189
E 24120
befindet 24061
le 24039
as 23969
Lösung 23687
entfernt 23644
lichen 23601
Mittel 23582
dort 23547
gesagt 23512
Präsidentin 23218
Programm 23211
chen 23042
J@@ 23041
erste 22898
Tag 22895
Rates 22891
Ihren 22879
nehmen 22735
arbeiten 22734
is 22709
ens 22700
r@@ 22619
Re@@ 22608
nämlich 22596
daran 22580
ste 22580
de@@ 22565
Hilfe 22536
beiden 22519
&#124; 22494
Um 22492
Deshalb 22386
weniger 22287
Alle 22163
Un@@ 22158
n 22149
Schutz 22106
h@@ 22008
Europas 21975
di@@ 21958
2009 21943
direkt 21908
Be@@ 21897
p@@ 21880
g 21873
ts 21868
li@@ 21724
Hier 21680
In@@ 21635
l 21629
all 21607
Uhr 21604
unserem 21585
ins 21570
indem 21562
bar 21552
pro 21542
Aussprache 21518
I@@ 21450
Dieses 21407
Millionen 21396
v@@ 21374
Ebene 21329
end 21326
Auf@@ 21303
Grund 21269
Region 21131
jeder 21123
ert 21118
a@@ 21070
Produkte 20971
st 20964
glaube 20943
gemacht 20934
gilt 20900
k 20887
dessen 20881
Punkt 20879
sogar 20875
unter@@ 20868
ale 20861
Leben 20851
schaffen 20809
hinaus 20768
si@@ 20658
einigen 20656
ar@@ 20622
nationalen 20601
bitte 20575
Gemeinschaft 20561
brauchen 20537
darin 20468
20 20464
darf 20461
unterstützt 20371
Rechte 20362
or@@ 20301
macht 20262
el 20243
30 20167
Haus 20156
ter@@ 20151
halten 20146
Abstimmung 20140
So 20108
bzw. 20081
öffentlichen 20056
at 20007
Kinder 19944
ebenfalls 19933
betrifft 19915
will 19865
dürfen 19843
Dieser 19829
es@@ 19750
sicher 19716
6 19700
Wirtschaft 19640
gerade 19615
ger 19606
z 19589
erten 19516
y@@ 19502
etwa 19493
sollen 19411
Bezug 19395
St@@ 19381
ihn 19338
weiterhin 19283
sen 19196
erte 19163
ihm 19115
Menschenrechte 19076
ti@@ 19056
on@@ 19002
keinen 18992
nichts 18931
Form 18928
genau 18918
Qualität 18894
Unsere 18863
Personen 18856
Strategie 18850
u 18840
seinem 18790
ihrem 18730
Über@@ 18708
gute 18684
wichtige 18671
klar 18616
würden 18547
solche 18509
handelt 18449
deshalb 18430
Ansicht 18414
Umsetzung 18402
Internet 18401
der@@ 18309
bedeutet 18288
deutlich 18279
meisten 18275
Arbeits@@ 18254
.@@ 18252
gen@@ 18204
hoffe 18189
Zugang 18161
sei 18154
7 18126
Software 18107
jeden 18101
Hotels 18087
w@@ 18039
besser 18035
em 18027
setzen 18014
aufgrund 18000
Da 17978
la 17974
Kosten 17949
Finanz@@ 17933
Vertrag 17921
ere 17907
Deutschland 17875
Gesellschaft 17845
at@@ 17825
Demokratie 17810
gemeinsamen 17791
Ziele 17786
nutzen 17770
Vorschläge 17747
A 17733
se 17721
Website 17688
weit 17686
Verfahren 17665
Verantwortung 17610
nächsten 17582
sozialen 17575
le@@ 17557
� 17554
schen 17419
zusammen 17411
Rechts@@ 17397
Um@@ 17397
2010 17390
Grundlage 17353
Bedingungen 17328
beispielsweise 17320
notwendig 17283
Dank 17239
Zu@@ 17237
Debatte 17178
Herren 17155
Richtung 17143
8 17134
politik 17123
Aus 17117
Anwendung 17116
vielleicht 17103
alen 17103
15 17092
wirtschaftlichen 17073
Markt 17071
Ort 16980
ers 16970
Institutionen 16969
j@@ 16969
Interesse 16902
recht 16886
Haupt@@ 16872
Daher 16857
be 16852
besten 16812
schnell 16799
ler 16789
sprechen 16782
findet 16743
werde 16695
führt 16680
erst 16670
gehört 16663
Hinblick 16654
hin 16651
2008 16606
Reihe 16595
U@@ 16572
Berichterstatter 16546
allerdings 16524
statt 16472
Abkommen 16422
China 16421
Gebiet 16410
r 16361
ä@@ 16337
gemeinsame 16330
könnten 16311
system 16298
ri@@ 16285
et 16251
Auswirkungen 16209
ro@@ 16133
Damen 16118
lange 16116
gestellt 16111
Verhandlungen 16107
bleiben 16103
erreicht 16059
Regionen 16041
danken 16038
Möglichkeiten 16030
elle 15998
Tatsache 15949
bereich 15922
b 15905
ei@@ 15886
isch 15877
fen 15835
denke 15806
The 15751
bekannt 15717
verwendet 15664
zeigt 15657
sk@@ 15614
Von 15609
ger@@ 15558
or 15530
I 15529
Service 15515
Ihrem 15513
licher 15503
erung 15477
50 15477
erforderlich 15472
Änderungsanträge 15472
kleinen 15464
am@@ 15452
zurück@@ 15434
Kolleginnen 15427
Dienstleistungen 15392
Al@@ 15356
y 15331
Änderungsantrag 15300
ra@@ 15291
Geschichte 15290
Doch 15281
darum 15273
wenig 15269
ten@@ 15227
nach@@ 15187
Abgeordneten 15171
Mitglieder 15132
Durch 15080
Entscheidung 15065
al 15064
Unter@@ 15042
Schritt 15028
gesamten 14995
Verordnung 14989
Beziehungen 14986
fragen 14950
2007 14948
ken 14947
bereit 14900
2000 14899
Vereinigten 14879
ie 14838
Nähe 14832
ermöglicht 14809
ch 14804
ischer 14789
Version 14788
gegeben 14786
einzelnen 14758
ebenso 14757
Bereichen 14751
Ergebnis 14726
voll 14700
Antwort 14689
oft 14678
liegen 14669
sp@@ 14652
Liste 14650
te@@ 14639
unternehmen 14636
verschiedene 14616
Krise 14611
hätte 14609
Ausdruck 14608
ser@@ 14604
f 14597
hatten 14584
3@@ 14583
alten 14577
Förderung 14530
Türkei 14530
durch@@ 14508
et@@ 14498
dar 14429
weiß 14415
gestimmt 14386
spielen 14386
Bevölkerung 14381
Ausschusses 14373
wichtigen 14365
weltweit 14333
leben 14298
ü@@ 14292
wegen 14283
US 14282
tragen 14279
enen 14259
internationale 14203
C 14194
geführt 14177
helfen 14160
ange@@ 14149
verfügt 14135
th@@ 14128
Zu 14115
Grund@@ 14109
Am 14089
heißt 14082
weiteren 14077
gemeinsam 14055
Außerdem 14043
gel@@ 14038
Aufgabe 14036
Entschließung 14027
vier 14002
Gruppe 13959
Man 13937
meinen 13923
km 13906
Ausschuss 13892
Behörden 13891
los 13889
Neu@@ 13886
x 13878
gleichzeitig 13876
Kontrolle 13858
fast 13853
Forschung 13817
gleichen 13808
c@@ 13786
entwickelt 13778
ar 13769
Erweiterung 13767
jedem 13765
x@@ 13744
12 13737
Erfolg 13724
ne 13699
nen 13678
Geld 13675
bleibt 13660
zi@@ 13640
ges 13618
mit@@ 13605
ellen 13595
gab 13581
gt 13545
gebracht 13545
Minuten 13537
verbunden 13533
kon@@ 13530
_ 13482
100 13470
Jahres 13462
os 13449
che 13447
per 13437
je 13430
Wirtschafts@@ 13397
Beitrag 13392
se@@ 13376
unseres 13341
hinsichtlich 13328
ben 13326
zen 13253
Schaffung 13240
ene 13234
Ge@@ 13227
jede 13200
enthalten 13191
Preis 13162
Projekt 13155
Verbesserung 13131
Sicherheits@@ 13121
zeigen 13118
em@@ 13099
4@@ 13062
ziehen 13053
men 13052
bekommen 13029
Rück@@ 13020
Mal 13007
EN 13000
Verbindung 12987
befinden 12973
Verbraucher 12958
konnte 12955
Einsatz 12950
us 12890
* 12851
Notwendigkeit 12850
richtig 12826
Blick 12824
eln 12820
Restaurant 12809
Lissabon 12800
ber@@ 12792
ur@@ 12776
Lösungen 12773
S 12770
h 12762
besch@@ 12750
derzeit 12747
ermöglichen 12738
it@@ 12718
Zum 12706
lässt 12699
Nach@@ 12664
wichtigsten 12662
Nutzung 12652
fördern 12634
soziale 12633
jedes 12614
Russland 12590
wohl 12587
Gelegenheit 12566
18@@ 12566
ö@@ 12546
Zentrum 12533
9 12531
genommen 12523
Interessen 12521
Geschäfts@@ 12515
2006 12491
wobei 12483
enthält 12476
Bau@@ 12460
is@@ 12455
legen 12442
Ergebnisse 12429
B 12422
Wasser@@ 12419
ko@@ 12419
Ent@@ 12418
Kon@@ 12418
Damit 12410
Seit 12389
wirtschaftliche 12383
verbessern 12378
25 12363
Mar@@ 12336
00 12332
Regierungen 12309
kleine 12298
Wort 12281
Vor 12279
neu 12254
den@@ 12228
Platz 12212
sche 12201
au@@ 12177
angenommen 12169
+ 12162
for 12161
meinem 12139
völlig 12126
Text 12106
liches 12106
Landes 12102
ak@@ 12094
D 12080
la@@ 12077
cht 12071
Unser 12049
X@@ 12007
Verwendung 11975
Gesundheit 11959
mehrere 11948
ke 11930
gern 11919
Di@@ 11909
tatsächlich 11908
Themen 11901
ganzen 11899
schriftlich 11899
großer 11857
Zeitpunkt 11844
zusammen@@ 11839
bestehen 11831
wei@@ 11820
Änderungen 11812
ck@@ 11807
T 11802
gerne 11796
Einführung 11781
Umwelt 11754
ganze 11715
eigene 11707
Darüber 11703
hin@@ 11702
Initiative 11688
Bitte 11687
Bekämpfung 11682
Woche 11664
Ar@@ 11620
tige 11620
gewährleisten 11616
Sp@@ 11603
ung@@ 11601
verwenden 11598
äußerst 11585
gesch@@ 11549
me 11545
sorgen 11537
us@@ 11536
baren 11535
Erachtens 11524
tern 11521
len 11493
z.B. 11491
Frankreich 11477
guten 11476
gi@@ 11463
Kommissarin 11460
halte 11448
verstehen 11430
Prozess 11424
zunächst 11420
verfügen 11419
dern 11415
stand 11413
bei@@ 11412
Partner 11406
Kultur 11397
tischen 11393
fünf 11387
meines 11381
Stunden 11367
gehören 11365
zurück 11354
entwickeln 11354
Kampf 11345
Fortschritte 11345
fest 11331
bestimmte 11311
ber 11268
Umwelt@@ 11253
rund 11251
anderer 11245
treffen 11230
bisher 11226
Person 11224
gemäß 11217
Mail 11204
lediglich 11201
ationen 11181
2@@ 11174
sen@@ 11174
versuchen 11156
neben 11137
einschließlich 11128
gleich 11119
obwohl 11111
her@@ 11103
Industrie 11097
Ro@@ 11085
ag@@ 11041
Mitglied 11038
Wert 11032
24 11019
O 11015
bi@@ 11010
Bestimmungen 11006
5@@ 10990
ation 10975
Steuer@@ 10971
Dinge 10962
Mehrheit 10950
40 10947
ändern 10938
Erklärung 10935
bare 10931
sagte 10920
Wachstum 10900
Juni 10891
Programme 10888
p 10864
bestimmten 10860
scheint 10853
zeit 10853
Vorschriften 10846
Aktivitäten 10845
gesamte 10839
Zahl 10836
c 10827
ausge@@ 10823
Dialog 10819
gung 10810
Integration 10804
zweite 10778
as@@ 10776
2005 10769
gesetzt 10767
Anfang 10748
tung 10740
Anzahl 10738
Entscheidungen 10719
maßnahmen 10711
Gewalt 10709
bringt 10703
fordern 10700
Erfahrung 10689
aten 10686
solchen 10682
geb@@ 10677
it 10674
Tage 10665
hohen 10660
tigen 10621
Haushalts@@ 10606
nimmt 10599
000 10599
somit 10586
Standpunkt 10580
land 10566
Beschäftigung 10564
erster 10562
vergangenen 10556
Herzen 10546
mein 10536
Punkte 10535
Familie 10522
Angebot 10520
Handel 10518
Dabei 10514
ek@@ 10510
Mai 10490
är@@ 10486
Während 10463
Sprache 10456
Wahl 10451
ieren 10440
stark 10413
aufgenommen 10411
chten 10411
lichkeit 10405
gar 10403
systeme 10402
Raum 10398
® 10389
suchen 10388
Aufmerksamkeit 10385
Produktion 10381
anzu@@ 10380
2004 10357
europäischer 10356
ges@@ 10351
später 10349
Freiheit 10346
tet 10335
einzu@@ 10332
Y@@ 10328
nie 10318
Funktion 10311
Energie 10307
Gefahr 10301
Bild 10298
Landwirtschaft 10296
Mitarbeiter 10284
ff@@ 10280
außerdem 10274
Hand 10272
Berichts 10271
ß@@ 10268
Investitionen 10260
are 10260
geschlossen 10256
leisten 10245
sti@@ 10234
Position 10232
dadurch 10228
ot@@ 10221
tische 10217
ol@@ 10213
Bereiche 10211
fahren 10166
Dezember 10165
ma@@ 10159
Nationen 10158
Par@@ 10152
ad@@ 10147
einzige 10139
ts@@ 10135
Stelle 10128
Transparenz 10128
insgesamt 10104
é@@ 10098
eb@@ 10089
versch@@ 10086
Grenzen 10084
mal 10072
programm 10059
Diskussion 10044
schließlich 10043
angesichts 10041
Präsidentschaft 10041
Wettbewerb 10041
Gemeinschafts@@ 10037
zweiten 10032
setzt 10009
Markt@@ 10007
Auswahl 10007
ster 10002
ul@@ 9990
ed@@ 9987
Bo@@ 9978
op@@ 9976
zahlreiche 9971
Schlusselwortern 9969
Folgen 9968
Regeln 9965
Macht 9957
September 9954
isches 9954
sieht 9954
ta@@ 9953
iert 9949
Auffassung 9948
hohe 9947
Anforderungen 9943
leider 9936
ell 9925
Bildung 9913
größten 9900
Präsidenten 9899
getan 9897
begrüße 9893
Spiel 9859
2003 9856
6@@ 9854
Meine 9853
Wasser 9849
Umgebung 9846
Tagesordnung 9838
Preise 9834
Projekte 9827
Online 9813
innen 9812
weder 9793
wichtiger 9786
frei 9763
neuer 9747
tiger 9708
lei@@ 9708
Anfrage 9701
Natur 9690
all@@ 9668
Gründen 9668
eigentlich 9659
leicht 9644
Bemühungen 9639
Ma@@ 9633
bezüglich 9632
2001 9625
by 9624
morgen 9610
Bürgern 9606
ender 9606
Meer 9594
Kraft 9590
März 9588
beitragen 9584
bevor 9563
führung 9539
Nur 9538
genannten 9538
Bürgerinnen 9520
zehn 9518
diejenigen 9511
Öffentlichkeit 9507
eingesetzt 9507
En@@ 9500
ne@@ 9498
Änderung 9490
Bar@@ 9486
verfahren 9478
Sache 9465
durchgeführt 9461
Benutzer 9454
Sinne 9451
lang 9438
kannst 9435
Ansatz 9424
allein 9420
lo@@ 9419
wer@@ 9402
öffentliche 9391
benötigen 9390
Entwicklungs@@ 9375
konnten 9370
Fehler 9367
Linie 9361
Pro@@ 9346
del 9324
ihres 9323
teilen 9320
di 9312
erwarten 9307
stimmen 9294
18 9293
Mo@@ 9284
Gäste 9279
Rechtsvorschriften 9267
aktuellen 9267
ker 9260
G 9257
berücksichtigt 9235
erneut 9229
11 9227
hätten 9219
hoch@@ 9218
Fällen 9215
gelten 9214
eh@@ 9203
Monaten 9189
verhindern 9182
ru@@ 9173
K 9167
ations@@ 9161
behandelt 9151
tungs@@ 9145
möglichkeiten 9134
Druck 9132
Januar 9114
genießen 9111
Design 9108
Server 9102
weisen 9097
Reform 9080
Ex@@ 9079
entsprechenden 9074
Tat 9067
kurz 9067
.com 9060
det 9058
gefunden 9054
geworden 9045
ausgestattet 9045
weise 9041
M 9041
Höhe 9032
Welt@@ 9029
Nr. 9022
weiter@@ 9012
freien 9004
Finanzierung 8998
wenige 8990
ap@@ 8982
ing@@ 8978
ens@@ 8976
Se@@ 8958
größte 8949
2002 8939
Sozial@@ 8938
P 8935
folgt 8934
16 8933
Heute 8922
Jahrhundert 8918
Republik 8917
TV 8915
vergessen 8914
eher 8905
Zweitens 8896
Bar 8890
frage 8888
Oktober 8886
14 8879
7@@ 8877
vertreten 8874
il@@ 8873
Insel 8864
1. 8862
Konferenz 8852
0@@ 8850
hei@@ 8849
einge@@ 8839
Ressourcen 8830
Bi@@ 8828
lage 8825
Aspekte 8823
8@@ 8814
Ch@@ 8800
Berichterstatterin 8788
warum 8763
da@@ 8762
eg@@ 8756
ach@@ 8743
om@@ 8742
ali@@ 8737
Arbeitnehmer 8733
one 8731
tungen 8726
Team 8720
Angelegenheit 8718
Sicht 8718
richtige 8716
demokratischen 8714
tliche 8707
Angelegenheiten 8704
ka 8694
ze 8690
Natürlich 8689
Behandlung 8687
versucht 8678
sch 8676
Lebens@@ 8669
ut@@ 8650
vi@@ 8649
zumindest 8647
Basis 8641
eben 8640
Organisation 8636
Man@@ 8622
ner 8613
mittel 8610
Lassen 8609
entsprechend 8604
Zur 8604
lösen 8598
ca 8590
überhaupt 8589
fallen 8588
est@@ 8578
&gt; 8577
geschaffen 8574
Strand 8558
Fach@@ 8555
L 8554
gende 8550
kosten 8547
technischen 8544
fer@@ 8539
0 8528
Italien 8524
erfüllen 8521
Solidarität 8514
schützen 8511
erklärt 8503
Windows 8500
Spiel@@ 8495
gesehen 8493
Spanien 8490
Werte 8489
besondere 8482
Vertrauen 8480
Schwierigkeiten 8480
Dateien 8473
tig 8471
Musik 8471
Tagen 8470
endlich 8470
aufge@@ 8467
Küche 8459
sektor 8455
9@@ 8451
IT 8449
zahlen 8448
Parteien 8443
ums 8438
EUR 8437
F 8437
Herausforderungen 8436
Datei 8435
mo@@ 8434
Vergangenheit 8389
heit 8383
gewesen 8382
Annahme 8380
verpflichtet 8366
sofort 8365
bessere 8363
Arbeitsplätze 8362
Beginn 8358
nahe 8352
Hinsicht 8352
Verkehrs@@ 8349
AG 8347
ine 8344
lesen 8343
verantwortlich 8334
GmbH 8331
Mit@@ 8323
Vertreter 8320
Juli 8318
anderem 8316
erinnern 8306
Schritte 8297
Bilder 8291
fest@@ 8287
Wochen 8286
hinter 8282
tieren 8281
vollständig 8279
Firma 8279
sh@@ 8278
Hoch@@ 8266
Forschungs@@ 8258
Frieden 8249
Systems 8244
Gruppen 8244
falls 8231
Land@@ 8228
paar 8222
wählen 8219
November 8215
Inhalt 8200
Opfer 8198
erfolgreich 8193
vorgeschlagen 8191
genug 8191
her 8189
hoch 8187
Erfahrungen 8186
hören 8183
häufig 8177
13 8177
60 8177
Verpflichtungen 8171
begrüßen 8169
treten 8164
erfolgt 8161
Du 8159
genden 8158
Gästebewertungen 8151
with 8149
Armut 8139
cken 8139
V 8136
Technologie 8134
Erstens 8130
außerhalb 8118
Verfassung 8115
Information 8113
darstellt 8111
Nicht 8106
reichen 8105
tan@@ 8099
heutigen 8092
Staat 8091
Anstrengungen 8089
stets 8088
Handels@@ 8077
ben@@ 8068
Praxis 8055
Gra@@ 8053
allgemeinen 8052
jeweiligen 8051
An 8036
bewusst 8036
privaten 8021
Daten@@ 8020
Co@@ 8017
Binnenmarkt 8014
unten 8012
genutzt 8007
Unter 8005
un 7996
ft 7992
Sonder@@ 7986
Allerdings 7981
1999 7980
modernen 7978
beste 7978
letzte 7976
eindeutig 7974
Sitzung 7966
Terrorismus 7965
mi@@ 7964
Organisationen 7961
Kriterien 7960
tem 7959
bitten 7954
Protokoll 7954
X 7947
wi@@ 7946
entscheiden 7936
deine 7930
ern@@ 7926
ente 7923
zahlreichen 7920
trotz 7919
gekommen 7914
amerikanischen 7914
B. 7906
Milliarden 7905
Berlin 7897
aufzu@@ 7890
vorgelegt 7888
Wahlen 7888
que 7887
übernehmen 7885
R 7880
neues 7880
danke 7880
ell@@ 7879
do 7876
folgenden 7874
Viele 7870
= 7863
Aufgaben 7862
Denn 7859
historischen 7858
Wann 7849
Groß@@ 7846
April 7842
Ausschuß 7828
sechs 7825
v 7821
hotel 7821
Vereinbarung 7818
Selbst@@ 7817
erwartet 7813
Gesamt@@ 7813
ate 7812
stärker 7803
Anerkennung 7800
tre@@ 7788
ina 7788
U 7788
Li@@ 7784
im@@ 7778
fe 7777
schwer 7771
Haushalt 7768
folgen 7764
Zustimmung 7764
bilden 7748
Folge 7745
weg 7737
Einige 7734
nationale 7727
aler 7726
kennen 7725
Den 7724
Einrichtung 7723
to@@ 7722
Instrument 7721
Mittel@@ 7721
Urlaub 7721
€ 7721
größere 7715
Krieg 7706
Partei 7697
scher 7695
Obwohl 7691
Adresse 7691
cher 7689
volle 7679
Flughafen 7678
Dazu 7672
persönlichen 7668
teile 7665
gesprochen 7661
gs 7659
ing 7653
erkennen 7649
Gipfel 7647
hinweisen 7644
überzeugt 7640
Staats@@ 7639
Reformen 7635
berücksichtigen 7634
Falle 7627
Wunsch 7625
erlaubt 7617
Stabilität 7616
welches 7613
denken 7608
end@@ 7601
ausschließlich 7598
offen 7596
Mitteilung 7584
Tra@@ 7583
seines 7582
prüfen 7578
deutschen 7576
voll@@ 7557
zudem 7557
tion@@ 7555
gleich@@ 7553
dringend 7551
La 7548
tions@@ 7545
beide 7544
glauben 7537
sicherzustellen 7527
Verwaltung 7525
chte 7524
Volk 7521
alte 7519
Unterkategorien 7517
ort 7516
Nun 7515
fer 7512
erwähnt 7508
Atmosphäre 7506
Flug@@ 7506
Sektor 7505
zusätzliche 7498
Site 7496
auszu@@ 7490
Rei@@ 7486
globalen 7485
De@@ 7470
wert 7464
Durchführung 7463
unbedingt 7459
wahrscheinlich 7453
bau@@ 7453
Systeme 7438
tiert 7437
Mon@@ 7434
Dann 7432
beginnen 7431
Ihres 7429
Gesundheits@@ 7429
oben 7426
sa@@ 7424
ati@@ 7423
industrie 7423
Idee 7422
stelle 7422
prozess 7422
gleiche 7413
N 7408
Wettbewerbsfähigkeit 7407
les 7407
selbstverständlich 7400
kam 7395
ständig 7391
tete 7388
Po@@ 7386
werk 7384
gezeigt 7381
Vertrags 7373
tlichen 7367
kl@@ 7367
automatisch 7366
erk@@ 7365
so@@ 7363
Le@@ 7357
hoffen 7353
ären 7351
au 7351
ging 7345
Aufenthalt 7342
ir@@ 7341
pro@@ 7339
200 7335
braucht 7334
akzeptieren 7326
mer 7324
Falls 7316
bald 7313
tsch@@ 7313
ac@@ 7309
Lo@@ 7308
bestehenden 7305
Kinder@@ 7305
ant 7301
abzu@@ 7300
zer@@ 7299
Haltung 7292
qu@@ 7291
ergreifen 7289
hält 7287
Gebäude 7277
finanziellen 7277
bau 7276
Sterne 7267
stell@@ 7266
erzielt 7266
gerecht 7265
ur 7263
entspricht 7263
getroffen 7262
wesentlich 7259
ran@@ 7256
stimme 7252
Schließlich 7251
Vorteile 7251
benutzt 7240
gel 7233
ck 7233
Hause 7230
Bei@@ 7218
Nutzen 7217
17@@ 7212
lagen 7200
Restaurants 7195
wieder@@ 7194
Leute 7193
Menschenrechts@@ 7188
umgesetzt 7187
möglicherweise 7176
Her@@ 7176
ig@@ 7175
Osten 7173
Technologien 7170
kommenden 7169
Ist 7168
unterschiedlichen 7159
eller 7149
abge@@ 7142
festgelegt 7137
Zunächst 7137
kaum 7136
notwendigen 7133
mindestens 7131
men@@ 7131
man@@ 7131
Einzel@@ 7126
Ber@@ 7125
entsprechende 7118
Prozent 7114
wünschen 7109
Produkt 7109
and@@ 7101
Wer 7094
Medien 7094
Preis@@ 7091
80 7087
ni@@ 7084
Ko@@ 7084
anders 7083
tz@@ 7069
form@@ 7067
500 7050
Homepage 7048
Hand@@ 7047
Augen 7045
par@@ 7045
Frühstück 7038
lernen 7033
Spieler 7032
Tri@@ 7029
schaft 7025
geändert 7024
jene 7023
moderne 7014
richten 7013
Kultur@@ 7012
Irak 7004
laufen 7003
Th@@ 7003
platz 6998
alität 6994
Neben 6989
ra 6987
Funktionen 6983
Fahr@@ 6976
aktuelle 6975
beziehen 6974
Israel 6974
Produktions@@ 6972
pf@@ 6972
än@@ 6957
Produkten 6951
nachdem 6948
übernachten 6944
Mitgliedstaat 6941
www.@@ 6934
Karte 6926
Vereinten 6921
erfüllt 6921
stärken 6917
zuletzt 6916
bedarf 6913
senden 6912
Chance 6912
lose 6911
Stadt@@ 6910
re 6909
politischer 6903
dar@@ 6896
Ak@@ 6893
Forderung 6891
Inter@@ 6890
sage 6889
aktiv 6877
technische 6864
Initiativen 6861
betonen 6860
Computer 6858
dienen 6847
Abschließend 6841
freie 6839
Lei@@ 6835
Ru@@ 6832
barkeit 6830
mehreren 6827
New 6826
vollen 6824
Kar@@ 6817
hal@@ 6811
besonderen 6809
äre 6803
verfolgen 6802
Instrumente 6794
ales 6790
genannt 6788
ster@@ 6785
bel@@ 6783
erfahren 6783
Management 6779
erzielen 6777
sicherlich 6775
fort@@ 6775
handeln 6769
no@@ 6767
Kenntnis 6766
vermeiden 6764
Abgeordnete 6758
klare 6749
siehe 6747
17 6745
wer 6745
Berichte 6738
bestimmt 6737
rechts 6728
len@@ 6727
Regelung 6727
z. 6725
tu@@ 6720
Inhalte 6712
Kern@@ 6709
Zudem 6708
mon@@ 6707
Zeichen 6704
trägt 6702
.. 6700
arbeitet 6692
vorgesehen 6685
verfügbar 6681
beschlossen 6679
hi@@ 6678
ssen 6678
Stimme 6667
siert 6664
kt 6662
arbeit 6656
à 6656
erhöhen 6653
entschieden 6648
wären 6645
Vielfalt 6642
Qualitäts@@ 6640
erungs@@ 6638
gefordert 6635
anderes 6635
nisse 6633
Verwaltungs@@ 6629
tra@@ 6625
Ausbildung 6622
Anspruch 6622
Dollar 6622
außer 6619
Kor@@ 6615
Währung 6613
ans 6608
Tätigkeit 6600
Monate 6597
Ausgaben 6595
Wahl@@ 6592
Einrichtungen 6589
San 6586
Fonds 6585
benutzen 6583
verbessert 6582
stoffe 6580
konkrete 6571
Beitritt 6569
Produkt@@ 6569
Bad 6569
Anwendungen 6561
lan@@ 6551
Konzept 6549
H 6542
So@@ 6539
freue 6529
Hotel@@ 6522
Abschluss 6515
els 6514
ß 6511
gend 6511
do@@ 6497
sagt 6496
é 6490
Veränderungen 6485
schreiben 6485
Über 6484
Informations@@ 6474
voller 6466
Ri@@ 6465
Qu@@ 6464
klicken 6460
ci@@ 6453
systems 6450
Einfluss 6449
rä@@ 6447
Engagement 6446
Einigung 6441
Kindern 6440
rechte 6435
darunter 6431
Wege 6423
Stellungnahme 6422
Gebieten 6421
Besuch 6420
Achtung 6417
finanzielle 6416
verkehr 6410
Suche 6410
bes@@ 6410
Kur@@ 6408
ari@@ 6407
sierung 6402
gelangen 6398
Familien 6396
Gu@@ 6393
hen 6388
Gemeinsamen 6385
funktioniert 6383
Vi@@ 6380
alisierung 6380
erter 6377
Lesung 6369
ier@@ 6369
Zeitraum 6363
Car@@ 6360
gew@@ 6360
Natur@@ 6359
darstellen 6359
euch 6358
fällt 6357
Web 6357
Dis@@ 6352
gten 6351
freuen 6348
Zusammen@@ 6343
Dienste 6342
ausdrücklich 6339
Wohn@@ 6335
Fischerei@@ 6334
teten 6333
Privat@@ 6332
ma 6329
enten 6326
Antrag 6323
Web@@ 6322
richtigen 6312
entweder 6312
Programms 6308
Einhaltung 6308
Prioritäten 6302
online 6302
gewährleistet 6301
endes 6300
erstellt 6298
möglichen 6296
ha@@ 6296
möglichst 6293
ob@@ 6284
durchaus 6283
zeiten 6283
me@@ 6279
Modell 6275
Standards 6274
Sk@@ 6273
erklären 6267
konzentrieren 6267
Rede 6263
ang 6261
Kontakt 6261
Zweifel 6259
Worte 6259
Jetzt 6256
Stärkung 6253
wider@@ 6250
dagegen 6243
wollte 6243
Wein@@ 6243
ismus 6240
Forderungen 6238
bedingungen 6236
Leistungen 6236
gelegen 6235
eingehen 6226
Herausforderung 6226
geleistet 6222
lokalen 6221
Warum 6220
welcher 6220
diskutieren 6219
stellung 6219
Straße 6214
Sprachen 6211
Park 6207
tionen 6205
21 6205
90 6202
Menge 6196
PC 6186
Sommer 6181
ent 6180
Paris 6177
kan@@ 6177
per@@ 6176
kulturellen 6175
Ober@@ 6175
1@@ 6173
mm 6171
spielt 6168
langen 6161
ex@@ 6159
ser 6159
Arbeiten 6157
ation@@ 6149
Kunst 6149
ER 6143
positive 6142
1.@@ 6142
po@@ 6134
00@@ 6133
Familien@@ 6133
pp@@ 6132
jederzeit 6131
mu@@ 6128
Dennoch 6126
Iran 6118
enn@@ 6117
geschehen 6113
Wei@@ 6113
Vielen 6107
speziell 6107
prä@@ 6106
und@@ 6103
warten 6102
Aufnahme 6099
regionalen 6094
Vergleich 6093
einiger 6092
eng@@ 6091
Afrika 6087
Reise@@ 6084
Sorge 6082
verb@@ 6082
Mio. 6080
Hauses 6079
70 6072
feststellen 6069
informieren 6069
angezeigt 6069
Arbeitslosigkeit 6068
erenden 6066
erfolgen 6065
teilweise 6062
erungen 6061
Zweck 6059
Aspekt 6055
Bild@@ 6053
betrachtet 6049
Standard 6048
erleben 6047
gelegt 6040
laden 6038
Leider 6034
anischen 6029
Schweiz 6021
Dokument 6020
Webseite 6020
Februar 6019
achten 6019
wenden 6019
zei@@ 6013
Analyse 6011
schi@@ 6011
gewinnen 6011
ator 6010
Teile 6009
demokratische 6008
Paket 6008
unabhängig 6007
ons 6006
ler@@ 6006
gegenwärtigen 6005
zwei@@ 6005
dank 6004
fi@@ 6001
geeignet 5998
schwierig 5998
hingewiesen 5997
eu@@ 5993
verfolgt 5992
oren 5988
programme 5986
Tier@@ 5983
gegenwärtig 5979
angesprochen 5973
Zeiten 5973
nächste 5969
Berg@@ 5968
Stand 5963
Partnerschaft 5962
unterstütze 5961
chen@@ 5959
Kunst@@ 5950
ungsp@@ 5949
teil@@ 5947
starke 5940
gte 5938
Or@@ 5936
sches 5931
WTO 5931
tätig 5930
ah@@ 5927
fall 5927
Überwachung 5926
geh@@ 5926
liebe 5925
19 5925
Ad@@ 5922
Kunden@@ 5918
20@@ 5917
Angesichts 5917
Gen@@ 5911
Agrar@@ 5910
Ja 5908
Status 5902
erscheint 5899
Luft@@ 5896
Debian 5892
Bel@@ 5887
markt 5885
tlich 5882
ie@@ 5881
22 5879
Angaben 5879
daten 5877
jeweils 5875
Großbritannien 5871
Entwicklungen 5870
Meiner 5869
ungs- 5868
folgende 5865
usw. 5864
dennoch 5860
ok@@ 5857
fordert 5856
entstehen 5853
Hintergrund 5850
Irland 5850
übrigen 5849
II 5849
erstellen 5847
wenigen 5843
Schutz@@ 5843
gestalten 5842
Richtlinien 5842
W 5839
Texte 5831
Priorität 5831
Verpflichtung 5830
führenden 5829
benötigt 5818
Su@@ 5806
überprüfen 5803
á@@ 5801
unterschiedliche 5800
lin@@ 5798
Wissen 5798
besuchen 5796
Beschäftigungs@@ 5794
Bewertung 5791
absolut 5790
Problemen 5785
Regelungen 5783
Con@@ 5780
veröffentlicht 5778
enz@@ 5778
losen 5772
ana 5770
Brüssel 5768
vorliegenden 5765
raum 5764
Herstellung 5754
erforderlichen 5751
täglich 5746
Gleichzeitig 5744
Globalisierung 5742
einsetzen 5740
Polen 5740
Personal 5739
ses 5739
inter@@ 5737
Pi@@ 5736
19@@ 5733
eingerichtet 5729
ften 5729
legt 5725
lau@@ 5720
Zeit@@ 5718
Kosovo 5717
Griechenland 5716
bo@@ 5715
CD 5710
Japan 5709
sichern 5707
AN@@ 5706
läuft 5703
profitieren 5701
Fortschritt 5698
Österreich 5696
vorhanden 5694
Linux 5691
Rechnung 5690
Mitteln 5689
Stellen 5685
eingeführt 5685
Meter 5685
ms 5684
acht 5682
positiv 5682
{ 5681
art 5679
ou@@ 5669
Entwurf 5666
Beteiligung 5664
16@@ 5647
Ukraine 5646
Energie@@ 5641
Geschäftsordnung 5640
ER@@ 5639
Worten 5636
gebiet 5634
Formen 5631
persönlich 5631
Schul@@ 5630
Gegen@@ 5625
Mitte 5622
Barcelona 5615
sicherheit 5614
27 5613
Innovation 5612
Gesetz 5611
ann@@ 5610
Arten 5610
weiterer 5609
Grenz@@ 5605
aufmerksam 5601
Sa@@ 5601
werte 5600
ess@@ 5600
Sport@@ 5599
umfasst 5599
Verkehr 5597
Do@@ 5597
Elemente 5595
links 5594
verbundenen 5591
miteinander 5589
Kompromiss 5583
teil 5582
Wel@@ 5580
ologie 5577
Erklärungen 5573
führte 5565
Märkte 5564
umfassende 5563
spricht 5559
beteiligt 5559
Agentur 5559
Bedürfnisse 5557
w 5555
Kommunikation 5551
wesentlichen 5543
Maße 5541
ertes 5541
Moment 5536
15@@ 5536
Prinzip 5531
Booking.com 5526
Video 5523
Fest@@ 5521
offensichtlich 5518
Hersteller 5514
August 5514
gruppen 5513
no 5513
Garten 5513
300 5511
schutz@@ 5506
Jahrhunderts 5506
deten 5501
Sinn 5500
Kritik 5496
französischen 5494
nennen 5494
bestätigt 5492
sämtliche 5489
angeboten 5489
Indien 5488
Abend 5487
zufrieden 5486
Beihilfen 5484
Besucher 5479
ce 5475
verlassen 5472
Entschließungsantrag 5472
ep@@ 5471
geschützt 5462
Grundsatz 5457
Europäer 5453
Aktionen 5446
stellte 5444
zentrum 5441
ität 5440
dient 5438
garantiert 5437
Installation 5436
größeren 5435
Vielzahl 5434
Absatz 5432
Ideen 5429
internationaler 5423
Regel 5423
ierung 5421
Empfehlungen 5420
stattfinden 5415
1998 5413
UN 5413
Fraktionen 5407
Gründe 5405
ad 5405
zug 5403
zentrale 5401
kaufen 5400
Am@@ 5395
ca. 5394
gelöst 5392
keinerlei 5388
Au@@ 5385
Banken 5383
gruppe 5381
Stil 5381
mittel@@ 5378
alismus 5376
Euro@@ 5374
rechtlichen 5366
Anteil 5361
anlagen 5360
Ni@@ 5357
Umfang 5357
lichem 5355
stre@@ 5353
heiten 5351
tsp@@ 5350
tiges 5350
ss@@ 5350
Druck@@ 5346
Komfort 5344
bel 5339
EN@@ 5339
schließen 5337
London 5334
gra@@ 5332
nationaler 5331
solcher 5328
Gebiete 5327
finde 5324
vorgeschlagenen 5323
land@@ 5323
fahrt 5323
Mi@@ 5321
Bu@@ 5320
ausreichend 5318
West@@ 5315
cht@@ 5310
Treffen 5309
politisch 5306
Terrasse 5305
La@@ 5303
sieren 5301
Verhältnis 5299
betrachten 5294
stehenden 5292
mer@@ 5292
ven 5289
Agenda 5280
jüngsten 5277
IN@@ 5275
su@@ 5274
Mor@@ 5271
gang 5264
schlagen 5264
Ö@@ 5264
schönen 5262
überall 5261
Botschaft 5260
Flexibilität 5255
länger 5254
est 5254
co 5250
Ereignisse 5249
großes 5249
garantieren 5246
spezielle 5246
fähigkeit 5246
Klein@@ 5245
erhält 5242
ausschuss 5242
ph@@ 5241
Realität 5237
Kirche 5234
starken 5233
wirken 5232
Mitgliedern 5231
Liberalisierung 5228
Lu@@ 5223
} 5223
ßen 5222
einfache 5222
du@@ 5221
Hoffnung 5217
tik 5215
d. 5209
res 5209
Grunde 5208
staatlichen 5207
Außen@@ 5205
vorschlagen 5201
reden 5201
allgemeine 5200
Zei@@ 5199
ST@@ 5196
h. 5191
betroffenen 5191
ungs 5191
ES 5190
beinhaltet 5185
britischen 5184
rei@@ 5182
festgestellt 5181
entsprechen 5181
übertragen 5180
danach 5179
nachhaltige 5177
elles 5175
# 5173
Betrieb 5172
tr@@ 5171
ho@@ 5170
Verständnis 5169
Beschreibung 5165
Risiken 5160
enz 5160
groß 5155
Leistung 5154
schutz 5153
Wer@@ 5152
einverstanden 5149
Niveau 5148
Eindruck 5145
gu@@ 5145
unbe@@ 5144
No@@ 5144
Per@@ 5142
abgeschlossen 5139
from 5138
uner@@ 5129
rechten 5129
gegründet 5121
Koordinierung 5120
fahr@@ 5117
tisch 5117
Unternehmens@@ 5116
Gesetzgebung 5114
Auto 5113
Titel 5112
schaften 5111
daraus 5111
stra@@ 5110
kraft 5108
betroffen 5105
feld 5105
Gas@@ 5096
Monat 5094
geschieht 5092
35 5091
mittels 5090
gem@@ 5090
angeht 5090
23 5089
Diskriminierung 5085
san@@ 5084
Patienten 5082
verloren 5079
lä@@ 5077
Erhöhung 5075
aren 5073
ren 5072
Risiko 5072
Aufbau 5071
Methode 5069
einerseits 5068
Jeder 5067
erfordert 5067
ia 5067
informiert 5061
See 5057
länder 5056
zählen 5056
Voraussetzungen 5055
Nord@@ 5054
Überprüfung 5053
Prüfung 5052
Gegenteil 5051
Name 5045
Br@@ 5043
ta 5033
Ho@@ 5031
Hinweis 5024
Business 5023
Sal@@ 5022
End@@ 5022
Politiker 5021
rat 5020
besitzt 5020
gutes 5019
min@@ 5007
bezeichnet 5007
Sehenswürdigkeiten 5007
Klima@@ 5006
Größe 5006
ori@@ 5005
mann 5004
strategie 5002
Tre@@ 4999
trag@@ 4999
rück@@ 4997
dung 4997
ien 4994
Geld@@ 4993
satz 4992
you 4986
speziellen 4985
Villa 4981
empfehlen 4976
ters 4973
He@@ 4973
zuvor 4972
nahme 4971
Bank 4970
Prä@@ 4969
gehalten 4967
erhöht 4966
besseren 4962
Gegensatz 4962
Tradition 4958
sor@@ 4956
cke 4954
son 4950
einzigen 4950
Kontroll@@ 4949
beginnt 4949
ES@@ 4948
mel@@ 4948
Bundes@@ 4945
Unabhängigkeit 4944
diskutiert 4941
Phase 4941
zen@@ 4941
fung 4938
reisen 4936
Grundrechte 4936
kre@@ 4932
wichtigste 4930
punkt 4929
ich@@ 4929
geschrieben 4928
All 4924
manchmal 4922
mp@@ 4921
AR@@ 4919
Netzwerk 4918
Bank@@ 4917
1,@@ 4908
zusätzlich 4907
Klicken 4904
Museum 4903
Königreich 4901
2.@@ 4901
ör@@ 4900
Technik 4898
Innen@@ 4898
haus 4896
Universität 4896
Film 4895
$ 4894
wirtschaft 4893
echte 4889
greifen 4889
10@@ 4888
andererseits 4886
produktion 4884
lig 4883
Not@@ 4883
go@@ 4881
einander 4880
Mindest@@ 4876
digen 4876
betont 4876
wodurch 4875
Wirkung 4873
Bestandteil 4870
Amsterdam 4869
bewegen 4868
EG 4866
sicherstellen 4866
globale 4866
Kre@@ 4866
reagieren 4865
ländlichen 4864
Betriebs@@ 4863
Vertrags@@ 4861
Anpassung 4860
ren@@ 4859
Internationalen 4859
Durch@@ 4859
ün@@ 4858
Zahlen 4857
hauptsächlich 4854
positiven 4853
ener 4848
steigen 4845
spezifischen 4842
lungs@@ 4842
Willen 4841
Teilen 4840
Mann 4839
Dimension 4837
Gar@@ 4837
tik@@ 4836
tel@@ 4834
Nutzer 4833
ständigen 4831
Begriff 4830
Welche 4823
alt 4822
vollkommen 4819
bezieht 4814
seitens 4813
isch@@ 4813
glichen 4812
jungen 4808
onen 4807
Fuß 4807
Bedarf 4805
derzeitigen 4803
reich@@ 4802
anten 4800
Musik@@ 4800
tn@@ 4799
International 4799
Hei@@ 4798
Q@@ 4798
Klimawandel 4797
reicht 4794
lich@@ 4793
Infrastruktur 4793
ino 4792
rü@@ 4791
Ebenso 4790
Fälle 4789
Voll@@ 4788
Führung 4788
Einklang 4783
zeit@@ 4774
stimmt 4774
komplett 4774
Ger@@ 4773
Kollege 4768
Öl@@ 4768
sse 4768
Vorteil 4766
ischem 4765
AS@@ 4763
erende 4762
Anlagen 4759
trifft 4758
Reaktion 4758
zustimmen 4756
bekannten 4754
sobald 4754
mü@@ 4752
Post@@ 4751
Bedenken 4750
ausschusses 4748
Dienst 4748
kur@@ 4747
war@@ 4747
Meeres@@ 4745
zugleich 4741
kürzlich 4740
tri@@ 4737
akzeptiert 4736
neu@@ 4736
IT@@ 4734
Übereinkommen 4733
Zahlungs@@ 4733
Ratspräsident 4733
Mark@@ 4726
Diskussionen 4721
welchen 4720
regionale 4719
emp@@ 4718
1997 4717
Gott 4716
Links 4714
Fotos 4712
Grundsätze 4709
go 4708
guter 4708
persönliche 4707
Gesetze 4707
Berücksichtigung 4706
Struktur 4706
nissen 4706
gestern 4705
unternommen 4703
Option 4703
Vorbereitung 4698
Sanktionen 4698
Leitlinien 4697
Unterschiede 4696
UN@@ 4694
Pal@@ 4694
Anliegen 4691
Kraft@@ 4686
nis@@ 4683
Portugal 4682
mag 4681
befassen 4678
AL@@ 4675
Wirtschafts- 4674
beschäftigt 4672
service 4672
vielmehr 4670
konkreten 4669
Nacht 4669
Männer 4668
praktisch 4667
Si@@ 4667
nochmals 4664
Hälfte 4663
To@@ 4663
Umständen 4661
schneller 4661
Methoden 4658
kostenlos 4658
Reise 4657
relativ 4655
gezogen 4654
spezifische 4654
gewisse 4653
Fähigkeit 4647
Ku@@ 4645
weiteres 4643
Sport 4635
betreffen 4634
äu@@ 4634
Strategien 4633
behörden 4632
mögliche 4631
Fischerei 4628
Firmen 4626
ve 4626
fühlen 4625
damals 4623
Cor@@ 4622
entwicklung 4615
ec@@ 4614
jährlich 4612
bern 4611
Beifall 4610
Seine 4609
ergeben 4607
gewählt 4605
lt 4605
Kan@@ 4604
regelmäßig 4600
sto@@ 4600
sm@@ 4600
mes 4599
beachten 4596
u. 4592
Min@@ 4592
komm@@ 4591
testen 4589
Charakter 4587
verstärkt 4585
verk@@ 4582
Erde 4579
geöffnet 4578
14@@ 4576
abhängig 4576
Versuch 4575
herzlich 4574
verlieren 4573
Verträge 4572
System@@ 4572
welt 4571
ländern 4566
management 4562
net 4560
berühmten 4558
Völker 4555
tel 4554
Dokumente 4551
Plan 4549
behandeln 4547
hand@@ 4546
Zwei@@ 4545
DE 4544
Landwirte 4544
wichtiges 4543
lung 4543
Waren 4543
tigkeit 4542
Nachdem 4542
anerkannt 4542
pl@@ 4541
Inseln 4539
gef@@ 4538
Beim 4534
Städte 4534
he 4532
dritten 4530
Aussicht 4530
see 4526
Verbrechen 4523
ys 4522
co@@ 4522
Haup@@ 4517
zer 4517
tä@@ 4516
Bildungs@@ 4515
Licht 4512
Ordnung 4511
verlangen 4511
Trotz 4511
einzelne 4511
This 4511
Empfehlung 4509
Effizienz 4509
AT@@ 4509
Unternehmens 4507
Maßnahme 4505
Gefühl 4505
Bis 4504
Wieder@@ 4503
Weitere 4503
ierte 4503
arten 4502
FR 4502
ei 4502
umfassenden 4500
junge 4499
une 4498
Rechts 4497
Club 4497
sonst 4496
Antworten 4493
zeichnet 4493
Wegen 4490
Teilnahme 4487
Bewegung 4486
Unterkunft 4486
berg 4485
gek@@ 4484
fra@@ 4479
Liefer@@ 4479
berei@@ 4478
basiert 4476
Services 4475
früher 4474
künftig 4474
liefern 4474
Ti@@ 4474
Laufe 4472
anbieten 4471
Voraussetzung 4470
Tiere 4470
45 4470
übernommen 4469
Lebensmittel@@ 4469
dienste 4467
Amerika 4465
last 4465
bar@@ 4464
Vielleicht 4463
zufolge 4463
keiner 4460
Grenze 4457
rufen 4457
hafte 4457
traditionellen 4455
fälle 4452
Untersuchung 4452
seien 4451
Delegation 4451
gelungen 4450
pi@@ 4450
ks 4449
Teil@@ 4448
Schlüssel@@ 4447
Ä@@ 4447
haften 4445
nis 4444
Agrarpolitik 4442
Sprach@@ 4441
deiner 4438
sam@@ 4437
Ausland 4436
en- 4435
barer 4434
ds 4433
stoff 4433
Generation 4432
ehr@@ 4428
haft 4428
grundlegenden 4428
lö@@ 4428
ür@@ 4427
uren 4425
ist@@ 4419
seite 4417
unver@@ 4415
El@@ 4415
Studie 4412
schöne 4409
heraus@@ 4407
he@@ 4406
Absicht 4403
World 4403
Aufgrund 4402
met@@ 4402
stes 4399
ideal 4399
Entwicklungsländern 4397
Mein 4396
Tagung 4395
for@@ 4395
j 4395
Rezeption 4395
Test@@ 4387
room 4387
glich 4386
Ratsvorsitz 4384
gest@@ 4383
Absch@@ 4383
Definition 4380
Mehr 4379
ideale 4379
bildet 4378
breite 4378
karte 4376
bezug 4375
cher@@ 4375
Geist 4375
hergestellt 4374
Por@@ 4371
mitteln 4362
fonds 4359
nötig 4359
Allgemeinen 4357
angemessen 4356
wiederum 4353
genauso 4353
elt 4353
Ju@@ 4351
wesentliche 4350
menschlichen 4350
iz@@ 4349
19. 4348
niemand 4348
deutsche 4347
Ferner 4345
schwierigen 4339
leistungs@@ 4337
Freude 4336
Veranstaltungen 4336
bildung 4335
Dr. 4334
Vom 4333
va 4329
zweifellos 4327
ernst 4324
regeln 4323
ehemaligen 4323
Gel@@ 4318
Wettbewerbs@@ 4316
etz@@ 4316
liste 4316
av@@ 4314
jemand 4313
dlich 4312
stoff@@ 4312
tut 4311
War@@ 4309
istischen 4309
Friedens@@ 4304
Angebote 4300
etc. 4300
Regierungs@@ 4299
lu@@ 4297
Apartments 4293
IS@@ 4291
Abkommens 4290
staatliche 4288
gefördert 4285
frei@@ 4281
Verhalten 4281
Zustand 4281
Op@@ 4281
Center 4281
Normen 4280
legung 4280
zunehmend 4279
inen 4279
Bal@@ 4276
Sti@@ 4274
Schäden 4272
dr@@ 4271
Buch 4270
Verfügbarkeit 4269
York 4264
Wahrheit 4261
gem 4261
weltweiten 4261
soweit 4258
Sehr 4256
Internet@@ 4256
rasch 4255
län@@ 4254
fand 4250
höchste 4244
Teilnehmer 4242
wissenschaftlichen 4241
Freunde 4240
Download 4239
tritt 4237
Eigen@@ 4236
Strukturfonds 4236
Kapital@@ 4235
Farben 4235
ligen 4234
For@@ 4234
Stunde 4234
bedeuten 4231
ou 4230
ast@@ 4229
Harmonisierung 4228
21. 4228
international 4227
sofern 4227
Anti@@ 4227
des@@ 4225
Gedanken 4220
vier@@ 4220
Liebe 4218
sieben 4218
Doppel@@ 4217
fte 4214
ard 4214
Altstadt 4213
tim@@ 4212
hervor@@ 4210
höhere 4208
staaten 4206
ls 4205
Pan@@ 4205
Pflicht 4204
private 4203
Versch@@ 4201
betreffenden 4197
Anfragen 4195
gene 4195
ckt 4193
Überzeugung 4192
Regime 4192
Format 4192
Nahen 4188
Eigenschaften 4188
weshalb 4187
genen 4186
zusätzlichen 4185
Kombination 4185
1996 4184
Datenbank 4183
tiv@@ 4182
Hin@@ 4181
Schaden 4180
Haus@@ 4180
Klimaanlage 4180
ppen 4179
Schweden 4177
32 4173
í@@ 4172
Lebens 4170
gh@@ 4169
Z 4169
ton 4168
fordere 4165
hoher 4165
schätzen 4163
amerikanische 4163
Festlegung 4162
aufzunehmen 4160
fassen 4159
Ur@@ 4159
Drittländern 4158
Dadurch 4156
künftigen 4156
eng 4154
umzusetzen 4154
Verbesserungen 4152
umwelt@@ 4151
grundlegende 4150
italienischen 4149
por@@ 4148
Farb@@ 4147
Code 4146
Wirklichkeit 4145
Projekt@@ 4145
Landschaft 4145
gratulieren 4144
organisation 4144
Zugriff 4143
Microsoft 4143
kulturelle 4141
Telefon 4141
Änderungsanträgen 4139
Erwartungen 4136
Waffen 4134
ergriffen 4134
very 4132
essen 4132
stadt 4131
näher 4127
Bürger@@ 4126
ziemlich 4125
wasser@@ 4124
aufgefordert 4123
Angriff 4123
niemals 4122
lungen 4121
allgemein 4120
KMU 4119
Minister 4118
Ruhe 4118
Ne@@ 4118
Ta@@ 4118
Mess@@ 4118
lebens@@ 4117
bek@@ 4115
begonnen 4112
Süd@@ 4111
Kom@@ 4111
kurzem 4110
bu@@ 4110
Vorschlägen 4108
abgelehnt 4107
Werk@@ 4107
entscheidend 4106
historische 4105
Ski@@ 4105
sionen 4104
Innen 4104
lang@@ 4103
@ 4103
qualität 4102
sel@@ 4101
Stellung 4099
entwickelten 4098
Westen 4098
EL@@ 4098
Formular 4098
Übereinstimmung 4095
Auftrag 4095
NATO 4095
Einstellung 4093
Mittelpunkt 4093
Ratspräsidentschaft 4092
Nor@@ 4089
Best@@ 4088
produkte 4087
Karten 4087
führende 4085
kämpfen 4084
bekämpfen 4084
chs 4083
enst@@ 4083
Spiele 4082
Bahnhof 4079
Material 4078
ingen 4076
sions@@ 4074
anstatt 4074
Mal@@ 4074
Strukturen 4073
Ohne 4073
Zimmern 4073
interessiert 4072
mm@@ 4071
entgegen@@ 4071
iger 4071
bt 4071
sehe 4070
erscheinen 4066
Beispiele 4065
begann 4064
ef@@ 4061
gliche 4060
Kenn@@ 4060
Verhandlungs@@ 4058
bahn 4056
Berufs@@ 4054
Rumänien 4053
riesigen 4050
Emissionen 4050
eiten 4049
Fi@@ 4047
hervorheben 4045
werke 4045
ordnung 4044
Bus@@ 4044
erheblich 4042
sion 4041
Fra@@ 4039
beglückwünschen 4037
ausgezeichneten 4036
UNO 4036
van 4034
freiheit 4033
Entwicklungsländer 4033
Körper 4032
Experten 4030
Rad@@ 4028
Punkten 4027
Unterschied 4026
Mehr@@ 4026
wunder@@ 4026
Des@@ 4025
teilnehmen 4024
we@@ 4023
Dar@@ 4023
Arbeitsplätzen 4022
75 4021
Ziel@@ 4021
Justiz 4020
Roma 4019
unmittelbar 4018
St. 4018
zugunsten 4017
Holz@@ 4017
Kategorie 4017
verlangt 4016
2020 4016
offenen 4014
Besch@@ 4014
vo@@ 4012
bequem 4012
Standard@@ 4012
ver 4011
bemüht 4010
Google 4010
falsch 4009
Süden 4009
Sitz 4008
hilft 4007
kleiner 4006
hängt 4004
natürlichen 4004
Ausführungen 4003
af@@ 4001
ano 4000
spanischen 3999
nung 3998
Nachfrage 3997
heraus 3997
wagen 3996
wirksam 3995
ette 3995
Du@@ 3995
are@@ 3994
Lehr@@ 3994
nachhaltigen 3990
Bau 3988
zentralen 3987
wirtschaftlicher 3985
20. 3985
Fre@@ 3982
ierten 3981
Krankheiten 3981
formen 3979
bestand 3978
Ba@@ 3978
annehmen 3977
weg@@ 3976
Nein 3975
durchzuführen 3974
ursprünglichen 3974
Serie 3974
komme 3973
dete 3972
Ob 3971
Tatsächlich 3971
² 3970
zuständigen 3969
mar@@ 3969
Hauptstadt 3968
hol@@ 3967
zeichen 3965
Pa@@ 3965
Architektur 3965
schafft 3964
stellungen 3964
trotzdem 3964
zieht 3963
San@@ 3961
Anlage 3961
BIP 3960
lautet 3959
ed 3959
Tod 3958
angemessene 3958
ausgezeichnete 3952
berechtigt 3951
tere 3948
preis 3948
ik 3948
26 3946
tt@@ 3946
Atom@@ 3945
Stadtzentrum 3945
bauen 3943
inzwischen 3940
Pre@@ 3939
schicken 3938
sorgt 3938
Materialien 3936
leiden 3935
Verbraucher@@ 3935
Kunde 3935
verabschiedet 3934
erer 3934
atoren 3934
installiert 3934
Beweis 3933
gabe 3932
Drittens 3931
öffnen 3930
DVD 3927
Klima 3926
CO2 3924
Steuern 3923
entwurf 3922
stand@@ 3922
Mitgliedschaft 3922
Verringerung 3921
verstanden 3921
Plenum 3920
tion 3920
Kooperation 3920
vorgenommen 3917
Gästen 3917
eröffnet 3916
elten 3915
Com@@ 3914
verändert 3913
Regierungskonferenz 3911
ener@@ 3910
Schule 3910
führ@@ 3910
28 3910
besitzen 3908
fel@@ 3907
Aussch@@ 3907
straße 3904
sinnvoll 3901
stoffen 3901
willkommen 3901
Freiheiten 3899
2. 3898
hervorragende 3898
tenden 3896
IC@@ 3895
Kann 3894
Einbeziehung 3893
Vereinbarungen 3893
preise 3893
Außenpolitik 3890
Weiter@@ 3890
markt@@ 3889
westlichen 3888
notwendige 3887
Kind 3887
weist 3886
klaren 3879
gre@@ 3878
behalten 3877
Details 3876
tät 3874
Afghanistan 3874
zuerst 3873
Ziffer 3873
rein@@ 3873
derartige 3872
Gleichgewicht 3872
eigenes 3871
vollständige 3870
bericht 3869
funktionieren 3868
Dem@@ 3868
enti@@ 3867
pre@@ 3867
führer 3864
ruhigen 3863
RE@@ 3862
erlauben 3861
fre@@ 3858
Minderheiten 3858
Fl@@ 3857
Problems 3857
hinter@@ 3855
Charta 3855
Projekten 3851
verursacht 3850
fach@@ 3848
form 3848
stan@@ 3846
Leistungs@@ 3846
echten 3844
Konflikt 3842
Verkauf 3841
,00 3838
anische 3836
Partnern 3835
äl@@ 3835
schlägt 3834
Sonnen@@ 3834
dritte 3833
zählt 3830
its 3827
Verbot 3826
Prinzipien 3825
ches 3824
zugänglich 3823
Küste 3821
Fer@@ 3818
einfachen 3817
reich 3817
rate 3817
Straf@@ 3817
Politiken 3815
gegangen 3812
kostet 3811
Forum 3811
beträgt 3808
vieler 3807
spiel 3807
erhältlich 3807
Drogen@@ 3805
Ausnahme 3804
Vorschlags 3803
ini 3801
buchen 3800
Abschnitt 3799
hr@@ 3799
cker 3798
Programmen 3795
tive 3795
Gesch@@ 3795
sta@@ 3794
bild 3792
Beratung 3787
Austausch 3786
Ha@@ 3785
pa@@ 3784
Y 3783
systemen 3780
Dem 3780
Nutz@@ 3780
tigung 3779
Ka@@ 3779
Winter@@ 3779
neuesten 3776
schnelle 3776
Sen@@ 3776
geprüft 3775
bestätigen 3775
bereiche 3774
dliche 3773
Werk 3773
erweitert 3772
früheren 3772
begrüßt 3772
ste@@ 3771
Maß 3771
gkeit 3771
Nachfolgend 3770
IP 3769
durchführen 3768
ausgesetzt 3768
vorlegen 3767
Kal@@ 3767
eri@@ 3765
98 3764
Institution 3763
Verteidigung 3763
Link 3763
Kamera 3759
sichere 3756
Mikro@@ 3755
age 3754
11. 3754
Element 3753
Pra@@ 3751
not 3749
institutionellen 3746
Reform@@ 3742
Faktoren 3741
lat@@ 3737
ini@@ 3737
dir 3734
Gi@@ 3733
ub@@ 3733
rechtliche 3731
verleihen 3730
entdecken 3729
haltung 3728
Ausführung 3728
Boden 3727
gespielt 3727
Mu@@ 3725
Bemerkungen 3724
Fernseh@@ 3723
Tisch 3723
geltenden 3722
beschränkt 3721
aktive 3721
zimmer 3720
mehr@@ 3719
schön 3718
cks 3717
öffentlich 3712
AC@@ 3712
tens 3711
hilfe 3711
Gespräche 3709
01 3707
ven@@ 3707
Gerichtshof 3704
ferner 3704
Pat@@ 3703
organisiert 3702
ft@@ 3702
gearbeitet 3701
Einwanderung 3701
Har@@ 3701
leiten 3700
Fähigkeiten 3700
rechts@@ 3699
entstanden 3698
starten 3697
Immobilien@@ 3697
ausgesprochen 3696
Gebrauch 3696
chinesischen 3694
vorschriften 3692
teren 3692
verringern 3692
om 3692
vers@@ 3691
gerichtet 3690
sodass 3690
Angst 3689
etten 3689
Gesellschaften 3688
il 3687
Schwerpunkt 3686
hinzufügen 3686
höchsten 3684
Ost@@ 3683
höher 3683
schafts@@ 3683
13@@ 3683
einheitlichen 3680
enk@@ 3680
Militär@@ 3679
Bucht 3678
verehrte 3677
Arbeitsmarkt 3677
Sub@@ 3677
sischen 3677
that 3677
Handeln 3676
Marktes 3676
Mobilität 3676
Energi@@ 3674
Motor@@ 3672
Tor@@ 3670
Sorgen 3669
Anbieter 3668
organisationen 3668
Zentralbank 3668
produziert 3667
Fenster 3667
Konsens 3666
we 3666
ier 3666
Norden 3665
Zielen 3661
kurze 3661
Netz 3660
Verbindungen 3658
erleichtern 3658
inn@@ 3657
Zentral@@ 3654
Vorgehen 3653
Alternative 3653
Hostels 3653
ark@@ 3652
fa@@ 3651
solange 3651
Gast@@ 3651
assen 3650
our 3650
Ges@@ 3649
eins 3647
Wird 3646
verhindert 3645
ide@@ 3645
Websites 3645
gehende 3644
dienst 3643
mitten 3643
Win@@ 3643
Nachrichten 3640
definiert 3639
page 3639
Tourismus 3638
amen 3637
Beiträge 3636
verschiedener 3636
Vol@@ 3634
fl@@ 3634
tlicher 3631
Le 3631
Signal 3629
ment@@ 3629
Garantie 3626
Gestaltung 3625
wann 3625
Besorgnis 3623
übernimmt 3623
Umgang 3623
Kommunikations@@ 3621
entlang 3621
OS 3621
passiert 3620
grün@@ 3620
Maschinen 3619
wor@@ 3618
bemühen 3617
unmöglich 3616
ausgeschlossen 3615
Wien 3615
zes 3614
wachsen 3612
Spezi@@ 3609
Ban@@ 3609
Nicht@@ 3608
rein 3607
Hohen 3607
Sach@@ 3607
wollten 3606
aktivieren 3606
bin@@ 3604
res@@ 3603
werfen 3602
Beziehung 3602
prozesses 3602
Fu@@ 3601
nieder@@ 3599
aufnehmen 3599
Kopf 3599
è@@ 3599
Deswegen 3598
Wissenschaft 3597
EL 3597
zahl@@ 3596
äußern 3594
ige 3592
Kauf@@ 3590
° 3590
gezwungen 3587
nor@@ 3586
dlichen 3586
verurteilt 3586
1995 3585
eter 3585
fern 3585
ett 3584
Künstler 3582
fehlt 3581
ris@@ 3581
schönsten 3580
Gr@@ 3579
Dra@@ 3579
wesen 3578
Geräte 3578
breiten 3577
bl@@ 3576
welt@@ 3574
ro 3573
einig 3571
Pap@@ 3571
Super@@ 3570
Werbung 3570
letztlich 3568
sicher@@ 3567
Eltern 3566
Straßen 3564
welchem 3564
Optionen 3560
gr@@ 3559
™ 3558
jenen 3557
extrem 3557
gan@@ 3557
eingesch@@ 3555
Wohl@@ 3554
bezahlen 3554
Lin@@ 3552
Staat@@ 3551
Komponenten 3551
Mensch 3550
Video@@ 3549
zus@@ 3548
Hel@@ 3548
lie@@ 3547
fläche 3547
anlage 3547
Jedes 3547
LE@@ 3544
Hal@@ 3543
ats 3541
aussprechen 3540
rau@@ 3538
SP@@ 3536
ativen 3534
ner@@ 3532
tin 3530
Schlussfolgerungen 3530
Tur@@ 3529
Zusatz@@ 3528
Dort 3528
gesellschaft 3527
pe@@ 3527
abkommen 3526
Schluss 3526
Kontrollen 3523
setzung 3523
Des 3523
son@@ 3522
präsentiert 3521
Ausgangspunkt 3520
Sektoren 3519
musste 3519
Untersuchungen 3518
ili@@ 3518
nunmehr 3516
kurzen 3515
Klasse 3514
überzeugen 3513
Luft 3513
Beschluss 3513
entscheidende 3510
ausgeführt 3506
esen 3506
abgestimmt 3505
gewährt 3504
Erzeugnisse 3504
Asien 3503
Planung 3501
übrigens 3501
wal@@ 3501
jegliche 3500
400 3499
strategischen 3497
bestehende 3497
Hilfs@@ 3497
sorgfältig 3494
tor@@ 3494
heutige 3493
gsten 3493
AKP 3493
halt 3492
direkten 3492
str@@ 3492
lige 3491
Kl@@ 3491
Vorsitz 3488
mt 3488
erinnert 3487
werten 3487
fähig 3486
Identität 3486
sei@@ 3486
Jahres@@ 3481
zusammenarbeiten 3481
Übersetzung 3480
höheren 3479
Rechtsgrundlage 3479
schließt 3478
scheinen 3477
Te@@ 3476
Wider@@ 3475
City 3475
De 3474
ständige 3474
ass@@ 3474
erhebliche 3473
Chancen 3471
chter 3466
Chi@@ 3466
russischen 3466
lig@@ 3466
Plattform 3465
RO@@ 3464
na 3462
Plan@@ 3462
verändern 3462
ic@@ 3462
Sozi@@ 3461
verdient 3461
beruht 3461
All@@ 3458
bestimmter 3457
Spar@@ 3457
tten 3457
Golf 3457
br@@ 3454
Aktion 3453
Wi@@ 3451
wiederholen 3450
tierung 3448
lag 3447
Also 3447
Verbreitung 3445
Veranstaltung 3445
Ambiente 3445
Förder@@ 3444
Start 3444
pr@@ 3442
sprachen 3441
Veröffentlichung 3441
bestimmen 3440
Bereitstellung 3439
nahm 3439
Bemerkung 3438
Kapitel 3438
verstärken 3437
Gro@@ 3436
eingereicht 3433
Flu@@ 3432
fällen 3431
betreffend 3430
Kräfte 3429
El 3429
außerordentlich 3428
Morgen 3428
Winter 3428
reiche 3427
Insbesondere 3423
interessante 3423
gebiete 3423
spiel@@ 3420
ise 3420
150 3419
ets 3419
vorher 3415
istische 3415
Beschlüsse 3414
ße 3414
Ausstellung 3414
ll@@ 3414
Me@@ 3412
Mag@@ 3412
nahezu 3410
sion@@ 3410
National@@ 3410
Geschäfte 3408
Multi@@ 3406
Costa 3405
0,@@ 3405
effektiv 3404
tief@@ 3404
99 3403
Umfeld 3403
fs 3403
tig@@ 3402
beschäftigen 3401
vorhandenen 3401
betrieben 3401
är 3399
Einstellungen 3399
Zwecke 3398
Englisch 3397
beigetragen 3396
sucht 3395
Pu@@ 3395
dürfte 3394
2011 3393
Transport@@ 3392
stands 3391
Farbe 3391
unverzüglich 3389
Ausgabe 3387
reduzieren 3385
druck 3385
this 3385
Alter 3384
Met@@ 3384
Bedrohung 3383
Bestellung 3383
ara 3383
vorzu@@ 3382
Männern 3382
sicht 3381
ron@@ 3381
läßt 3380
schlecht 3379
fu@@ 3376
dert 3375
toren 3375
anbelangt 3373
Wein 3372
ff 3372
Dorf 3372
PL 3372
Go@@ 3371
3. 3371
mus 3371
Datenschutz@@ 3371
lösung 3370
ev@@ 3369
Vorstellung 3367
ante 3367
sierten 3367
ungefähr 3366
umgeben 3366
gespeichert 3366
nahmen 3365
liefert 3364
gender 3364
Kosten@@ 3363
Selbstverständlich 3360
finanziert 3360
š@@ 3360
britische 3359
sa 3359
Rau@@ 3358
entscheidender 3357
Studien 3357
aufen 3357
jener 3355
Geb@@ 3355
ó@@ 3354
wünsche 3353
anwesend 3353
Katastrophe 3353
aussch@@ 3353
Ben@@ 3353
Ausstattung 3353
Bus 3353
eignet 3352
verhalten 3352
entsteht 3351
Chinas 3351
gestaltet 3350
Zivilgesellschaft 3350
Krankheit 3350
Wohlstand 3349
theit 3349
fäl@@ 3348
Erholung 3348
Pol@@ 3348
ker@@ 3348
beteiligen 3347
har@@ 3346
versorgung 3343
chs@@ 3342
Hafen 3341
laut 3340
Entscheidungs@@ 3340
Buch@@ 3340
installieren 3338
kor@@ 3337
Auto@@ 3337
Badezimmer 3337
Nieder@@ 3336
Kol@@ 3336
tierten 3335
lokale 3333
12@@ 3333
igen 3332
23@@ 3330
Bas@@ 3330
95 3329
Gründung 3329
wa@@ 3329
PT 3328
d.h. 3328
einzigartige 3328
niveau 3327
eingehalten 3327
eres 3327
az@@ 3325
fin@@ 3325
Gerichte 3324
Poli@@ 3324
serviert 3324
einrichtungen 3323
gli@@ 3322
Glaubwürdigkeit 3320
beraten 3319
tiven 3319
tur@@ 3319
wahr@@ 3318
ersch@@ 3318
sprach 3317
Staates 3317
direkte 3316
position 3316
äm@@ 3315
Kollegin 3314
Haftung 3314
schauen 3314
größer 3312
Schlafzimmer 3312
Browser 3312
ings 3310
stellten 3309
nden 3309
Volks@@ 3309
Kontext 3309
vorbereitet 3309
sätze 3306
fe@@ 3306
dre@@ 3306
einbezogen 3305
derer 3305
Vision 3305
Konsequenzen 3304
Selbst 3303
Dom@@ 3303
Spa 3303
Transport 3302
Mangel 3302
angebracht 3300
gebieten 3300
grundsätzlich 3299
The@@ 3299
Zoll@@ 3299
getragen 3299
zt 3298
mut@@ 3298
ss 3298
verkaufen 3297
mal@@ 3297
verkehrs 3296
Foto 3296
Hinter@@ 3295
täts@@ 3294
sicheren 3294
holen 3293
lebt 3293
Studenten 3293
Stück 3292
stu@@ 3292
Gewährleistung 3290
Überlegungen 3290
eck@@ 3290
erei 3290
genügend 3289
ffen 3289
Ra@@ 3289
out 3289
sozialer 3285
pres@@ 3284
ba@@ 3282
machte 3281
Noch 3280
vorstellen 3279
Genehmigung 3278
dungs@@ 3278
ther@@ 3278
Jede 3278
kol@@ 3275
angegebenen 3273
Straßen@@ 3272
2,@@ 3270
ativ 3269
Reduzierung 3267
genannte 3267
Zwischen@@ 3267
kamen 3266
Gewicht 3266
Bahn 3265
Dek@@ 3265
ersetzt 3263
Alles 3263
erlebt 3263
uli@@ 3262
Zwei 3262
zieren 3262
bereitgestellt 3261
tt 3261
Sollte 3260
Ansichten 3260
Pakete 3260
ban@@ 3259
WLAN 3259
recht@@ 3257
zy@@ 3257
Bulgarien 3256
Besonders 3255
kosten@@ 3255
Ab 3253
ktion 3252
hängen 3252
Enterprise 3252
Gleich@@ 3250
up 3248
97 3248
einfacher 3248
liegenden 3243
wiederholt 3243
ole 3242
erfolgreiche 3242
Polizei 3241
Ungarn 3241
solches 3240
gemeinschaftlichen 3239
Pool 3239
verbringen 3238
Rot@@ 3237
Buchung 3237
begrenzt 3236
IS 3234
Vorhaben 3232
Entlastung 3232
Einkommen 3232
Auge 3231
herrscht 3231
standards 3229
bislang 3228
Nachricht 3225
zurückzu@@ 3224
Positionen 3223
Gegenstand 3223
technik 3223
rech@@ 3222
Webseiten 3222
wissenschaftliche 3221
Gegend 3221
organisieren 3220
AD@@ 3219
Vo@@ 3218
ors 3218
Versionen 3218
stehende 3217
min 3217
EC@@ 3215
arbei@@ 3214
..... 3214
französische 3212
Praktiken 3211
Dusche 3211
künftige 3208
Tages@@ 3205
öl@@ 3205
innovative 3205
Korruption 3204
Wünsche 3203
del@@ 3202
gebaut 3201
Zi@@ 3201
selbst@@ 3200
Im@@ 3200
ßt 3198
Eisenbahn@@ 3196
verteidigen 3195
Stimmen 3194
menschliche 3194
Erstellung 3193
Fo@@ 3193
Verletzung 3193
ade 3192
Mitarbeitern 3191
18. 3190
Darum 3189
mittleren 3187
ore 3185
con 3185
schlag 3184
vorzulegen 3183
gewissen 3183
ek 3183
Übergangs@@ 3182
EZB 3182
Anschluss 3182
letztendlich 3181
stolz 3181
zw@@ 3181
stände 3180
Jo@@ 3180
Kilometer 3180
versichern 3179
gro@@ 3179
Pro 3178
Einheit 3178
stein 3178
illegalen 3177
investieren 3177
gar@@ 3175
bedeut@@ 3175
internen 3175
offiziellen 3175
ppe 3173
ließ 3172
Sicherung 3171
29 3171
Systemen 3171
sinn@@ 3170
arbeits@@ 3170
gemein@@ 3170
wohnen 3170
Gefahren 3169
elektronischen 3169
Verfassungs@@ 3169
Dienstleistungs@@ 3167
aller@@ 3167
bereichen 3166
Brenn@@ 3166
Prozesses 3166
Finanzierungs@@ 3164
unterstreichen 3164
ach 3163
Ware 3163
etc 3163
vorgeschlagene 3162
Syn@@ 3161
individuellen 3160
0.@@ 3159
Beg@@ 3158
via 3157
gs@@ 3156
Gerechtigkeit 3153
Red 3150
Zuständigkeit 3149
individuelle 3146
verkauft 3146
großem 3145
ure 3145
geboren 3144
Organe 3144
aufs 3144
München 3144
meist 3142
za 3140
Casino 3140
vermitteln 3139
überprüft 3137
Sollten 3135
gewonnen 3132
Schulen 3132
vorgesehenen 3132
abstimmen 3131
wirtschaftlich 3131
96 3130
effizient 3130
Stoffe 3130
Preisen 3129
Wirtschaftswachstum 3129
material 3128
zukünftigen 3127
raten 3127
u.a. 3127
sprache 3126
dich 3125
zuständig 3123
probleme 3122
tak@@ 3122
160 3122
tiv 3121
Brasilien 3121
spreche 3120
erfolgreichen 3120
stri@@ 3120
Firmen@@ 3120
informationen 3118
ausschuß 3116
Rest 3116
Lebensmittel 3116
con@@ 3116
kla@@ 3114
ps 3114
Medien@@ 3108
zulassen 3108
einzusetzen 3108
Ei@@ 3108
ziel@@ 3107
Kroatien 3106
Player 3106
win@@ 3104
Ü@@ 3104
Mrd. 3103
dende 3103
enheit 3101
ziele 3100
Erfüllung 3100
entschlossen 3100
situation 3100
Bri@@ 3097
bus 3097
Energien 3096
Kauf 3096
app@@ 3096
Haushaltsplan 3096
Krisen@@ 3095
leistungen 3094
tw@@ 3094
freut 3094
hervor 3093
geboten 3093
Freizügigkeit 3093
Ã 3093
Ablehnung 3092
4.@@ 3092
Binnenmarktes 3091
unterzeichnet 3090
verbinden 3090
allzu 3089
konfrontiert 3085
Abschaffung 3085
Sonne 3084
kraft@@ 3082
wirksame 3081
schwer@@ 3080
geräte 3080
Grand 3080
ID 3080
bedeutende 3079
Schlüssel 3079
digung 3079
,@@ 3078
Fisch@@ 3078
Mel@@ 3078
Mut 3076
31 3076
Freunden 3075
maschinen 3075
fo@@ 3074
langfristige 3072
flü@@ 3072
inklusive 3072
Dauer 3071
Widerspruch 3071
Aktionsplan 3071
Vorausschau 3071
laufenden 3069
Bra@@ 3066
Kurs 3066
Gleichstellung 3065
30@@ 3064
Volksgesundheit 3064
beschrieben 3063
militärischen 3063
gestattet 3063
ote 3063
ausgerichtet 3061
preis@@ 3059
tier@@ 3057
Grünen 3057
Betrag 3056
Regierungschefs 3055
angesehen 3054
ko 3053
Studio 3053
änden 3052
drei@@ 3051
betreiben 3051
leistung 3051
behaupten 3050
Geh@@ 3049
Prozesse 3049
At@@ 3048
bet@@ 3047
tor 3046
Deutschen 3046
Neue 3046
Belgien 3043
vol@@ 3043
tende 3042
steuern 3042
Verk@@ 3041
uss 3041
Situationen 3040
weitgehend 3039
tischer 3038
stat@@ 3038
wohl@@ 3037
Marke 3037
Beh@@ 3036
ling 3035
Group 3035
beantworten 3034
vieles 3034
unge@@ 3033
Redner 3032
leg@@ 3032
lieb@@ 3032
strategische 3031
Tätigkeiten 3030
Verlust 3029
mat@@ 3029
3.@@ 3029
verfügbaren 3028
Lö@@ 3028
Befugnisse 3027
gestellten 3027
anschließen 3027
Rom 3027
Sam@@ 3027
Anlass 3027
Perspektive 3026
Einkaufs@@ 3026
Software@@ 3026
Je 3024
messen 3023
räume 3023
perfekt 3021
miss@@ 3019
amp@@ 3017
integriert 3016
CO@@ 3016
Werke 3016
militärische 3015
48 3014
Sol@@ 3014
Gericht 3013
Volkes 3012
Meines 3012
verein@@ 3012
anti@@ 3012
http 3012
mitteilen 3010
Städten 3009
funktion@@ 3008
Oder 3007
ähnliche 3007
EADS 3007
Eis@@ 3006
dig 3004
sis 3004
aktiven 3003
Denk@@ 3003
gerät 3002
Kontakte 3002
mischen 3001
hervorgehoben 3001
OR@@ 3001
elte 2999
tierte 2999
sub@@ 2999
chtung 2998
beobachten 2997
auftreten 2996
ant@@ 2996
cu@@ 2996
Distribution 2994
unabhängigen 2993
ersetzen 2993
kul@@ 2992
Eurozone 2991
Arbeit@@ 2990
dischen 2989
com 2989
erzeugt 2988
2013 2988
Open 2988
Flüchtlinge 2987
scht 2985
Viertel 2984
Post 2983
Medi@@ 2982
hren 2981
kanischen 2981
kenn@@ 2980
les@@ 2980
Eigentum 2980
Grad 2979
Wachstums@@ 2979
jetzigen 2979
eck 2979
Gerade 2977
Anstieg 2977
Wo 2977
ISO 2976
ik@@ 2976
gungen 2975
Schiff@@ 2975
oni@@ 2975
Tour 2975
Kulturen 2975
ungsverfahren 2974
gedacht 2974
Konto 2974
Sauna 2974
konzentriert 2973
zeichnen 2973
Handels 2972
sum@@ 2972
ernsthaft 2971
projekte 2970
nachdrücklich 2970
Pläne 2970
Nachbarn 2969
Menü 2969
festzulegen 2968
Barroso 2968
Struktur@@ 2967
sü@@ 2966
lischen 2966
Schiffe 2965
station 2965
vorliegende 2964
dungen 2964
a. 2963
Stein@@ 2963
dankbar 2962
ähnlich 2962
verteilt 2962
rel@@ 2961
Massen@@ 2961
Wohnung 2961
5. 2960
bekannte 2960
Ser@@ 2958
manche 2955
gewähren 2954
entwickelte 2954
werk@@ 2954
Zusätzlich 2952
Far@@ 2950
fahrer 2950
enzen 2949
Trotzdem 2949
offene 2947
lus@@ 2947
zukünftige 2946
My@@ 2946
bri@@ 2944
Balkon 2943
deswegen 2942
15. 2942
Ren@@ 2942
reduziert 2941
bil@@ 2941
gebeten 2938
tigt 2938
jährigen 2937
Kriminalität 2937
how 2936
weiten 2936
rop@@ 2936
jährige 2935
PHP 2935
erreichbar 2934
hoffentlich 2934
atische 2933
Fischer 2933
Rechtsstaatlichkeit 2933
richtet 2933
4. 2931
Manager 2931
Schwer@@ 2930
politisches 2930
traditionelle 2930
iten 2930
Währungs@@ 2929
bisherigen 2929
Gemein@@ 2927
Vorlage 2927
Fort@@ 2927
behoben 2927
mil@@ 2926
richtlinie 2924
Film@@ 2922
Berichten 2921
kontrolle 2921
id 2921
Bio@@ 2919
vern@@ 2918
grenzen 2917
humanitäre 2917
ak 2917
Gemeinsame 2917
kette 2917
6.@@ 2917
MS 2917
Amt 2915
einheitliche 2915
effiziente 2915
problem 2915
Blog 2915
Ausmaß 2912
Rechten 2911
tro@@ 2911
Lieferung 2911
überein 2910
mussten 2910
Übernachtung 2910
gründen 2908
fes@@ 2908
heim@@ 2908
Märkten 2906
Weiteren 2906
enthaltenen 2905
verdienen 2905
Essen 2905
mach@@ 2903
Respekt 2902
erfreut 2901
Menschen@@ 2900
Modelle 2900
ET@@ 2900
Lan@@ 2899
ursprünglich 2899
wasser 2899
festgelegten 2898
vollständigen 2898
.... 2898
burg 2897
Ferien@@ 2896
beendet 2895
Konflikte 2895
struktur 2893
Beteiligten 2893
punkte 2893
Finanzkrise 2893
33 2890
Band 2890
gesetz@@ 2889
Kriegs@@ 2889
buch 2887
dis@@ 2887
but 2887
modified 2886
gegen@@ 2885
unabhängige 2885
angebot 2883
mis@@ 2883
...... 2883
Station 2883
Fol@@ 2882
Gal@@ 2882
Fern@@ 2882
Feld 2882
Kredit@@ 2881
Veränderung 2880
praktische 2879
Mas@@ 2879
Fahrzeuge 2879
einzuführen 2878
gerich@@ 2878
gaben 2878
decken 2877
fertig 2877
langfristig 2876
Führ@@ 2876
täglichen 2876
gemeinschaft 2875
liefer@@ 2875
Ganz 2874
inform@@ 2874
zuzu@@ 2873
Messe 2873
gelassen 2870
stei@@ 2870
Wählen 2870
Mittelmeer 2867
CH@@ 2867
wahren 2866
unterscheiden 2866
wonach 2865
beschränken 2865
Programm@@ 2863
erin 2863
ergibt 2861
wie@@ 2861
erwähnen 2861
08 2861
Support 2861
zentren 2860
Nummer 2859
geln 2858
Gang 2858
angegeben 2858
ha 2857
zahl 2857
Branche 2856
wo@@ 2856
Test 2856
fr@@ 2856
zung 2855
Glück 2855
gelingt 2854
hierbei 2854
Strom@@ 2853
Allianz 2853
geraten 2851
Vertrages 2851
sierte 2851
34 2851
lan 2850
Letz@@ 2850
ee 2849
Berichterstatters 2849
deckt 2849
terung 2848
absch@@ 2847
fan@@ 2847
angepasst 2847
ang@@ 2846
Live 2846
3D 2845
programms 2844
geäußert 2844
Raum@@ 2843
lieber 2843
kontrollieren 2843
schla@@ 2842
Donnerstag 2841
Ebenen 2841
Industri@@ 2840
langsam 2839
rus@@ 2839
spar@@ 2838
umsetzen 2837
Würde 2837
Agenturen 2836
Bush 2835
sten@@ 2834
Runde 2834
eingegangen 2833
angeb@@ 2833
Abhängigkeit 2833
verwende 2833
th 2833
Videos 2833
Bur@@ 2832
Bre@@ 2831
antworten 2828
Vereinfachung 2827
staat 2827
Dritten 2827
Star 2827
gens 2826
interessant 2826
Wal@@ 2826
besorgt 2825
ziert 2825
Miss@@ 2825
seh@@ 2824
verbindet 2824
Ob@@ 2823
17. 2822
Know 2822
einzigartigen 2822
version 2822
bestimmungen 2821
09 2821
Gerät 2821
steigt 2820
kom@@ 2820
Öffnung 2819
zugrunde 2818
Verteilung 2818
Hu@@ 2814
Col@@ 2813
asi@@ 2812
Mil@@ 2811
unterliegen 2811
were 2811
vereinbart 2810
fördert 2810
Armee 2810
Währungsunion 2810
Neben@@ 2809
ve@@ 2809
dienst@@ 2808
Deutsche 2808
besonderer 2807
64 2806
konferenz 2805
Frankfurt 2805
Parlamente 2803
Kat@@ 2803
bares 2802
bad 2802
äch@@ 2801
Arbeitsplatz 2801
wachsenden 2800
Personal@@ 2799
Spaß 2799
gegenwärtige 2798
1994 2797
wirkt 2796
Hor@@ 2796
Bahn@@ 2795
gestärkt 2793
Hil@@ 2793
50@@ 2793
alt@@ 2792
externen 2792
herunterladen 2792
sah 2791
standen 2791
Cal@@ 2791
Nahrungsmittel@@ 2791
Dafür 2790
Belarus 2790
sern 2789
optimale 2788
Sein 2788
Ursachen 2788
Bereitschaft 2787
Sind 2787
überaus 2784
ologische 2784
Straßburg 2784
Verarbeitung 2784
bedanken 2783
Öl 2782
Rückkehr 2782
Debatten 2781
RA@@ 2781
Führer 2779
Zahlungen 2778
gefallen 2777
Tausende 2777
tur 2775
Vater 2774
ktionen 2772
speichern 2772
Sommer@@ 2771
hervorragenden 2770
Lauf@@ 2770
PPE 2769
Faktor 2769
freundlich 2769
umfassend 2768
methoden 2768
zurückzuführen 2766
time 2766
Kanada 2766
geschichte 2766
erkannt 2765
krise 2765
fort 2762
Beseitigung 2762
ry 2762
Tran@@ 2761
vertrag 2761
lauf@@ 2760
nde 2760
schul@@ 2758
36 2758
Touristen 2757
ado 2756
kontaktieren 2755
Gelder 2751
türkischen 2751
ly 2751
Sachen 2751
Marketing 2750
nutz@@ 2749
Erhaltung 2749
esch@@ 2747
wunderschönen 2747
Madrid 2745
auffordern 2744
kleines 2744
sichtbar 2743
plan@@ 2743
ase 2742
Tages 2741
Umweltschutz 2740
Standort 2740
Zypern 2739
Erinnerung 2738
anhand 2737
Hü@@ 2736
Wirtschaftskrise 2736
Pas@@ 2736
Lizenz 2736
sparen 2735
tei@@ 2735
gefragt 2734
cia 2734
A5 2733
Suiten 2733
55 2732
dauert 2732
stärkere 2732
brechen 2732
Heizung 2732
erfordern 2731
behörde 2731
Boden@@ 2731
Kri@@ 2730
sichergestellt 2730
Zusammenhalt 2729
stischen 2729
Werbe@@ 2729
stä@@ 2728
Steuerung 2728
Sicherheitspolitik 2728
Such@@ 2728
entspannen 2728
empfangen 2727
ack 2727
Geschäft 2727
verwaltung 2727
Dialogs 2727
Bars 2727
sur 2726
have 2726
egt 2725
07 2725
unentgeltlich 2725
teilt 2724
Opposition 2724
verantwortungs@@ 2722
umfangreiche 2722
ya 2722
ausgaben 2722
sogenannten 2721
Körper@@ 2721
angewendet 2720
Kontinent 2720
gent@@ 2720
Park@@ 2720
Freitag 2719
ländliche 2719
gesellschaften 2719
Hol@@ 2719
tal@@ 2719
geeignete 2718
überwinden 2718
Gehminuten 2718
verboten 2717
Mechanismen 2716
angemessenen 2716
tert 2716
individuell 2716
Frist 2715
märkte 2715
froh 2713
handel 2713
Ac@@ 2713
Wind@@ 2713
Ausflüge 2712
tag 2712
inmitten 2712
rich@@ 2710
Jugend 2710
schweren 2709
Einwohner 2707
Kopenhagen 2706
normalen 2706
Dec@@ 2706
realer 2705
Wesentlichen 2705
untersucht 2704
Handlungs@@ 2704
natürliche 2704
line 2704
anschließend 2703
hohem 2703
zeichn@@ 2703
wechsel@@ 2703
trä@@ 2702
zweitens 2702
ließen 2701
beru@@ 2700
Umweltfragen 2699
Fran@@ 2699
bewältigen 2699
ut 2698
Fehler@@ 2698
Marken 2697
Papier 2695
nützlich 2695
letzter 2694
Dokumenten 2694
derzeitige 2692
verweisen 2691
best@@ 2691
Todesstrafe 2690
konkret 2689
füllen 2688
korrekt 2687
Investitions@@ 2686
tar@@ 2685
irischen 2685
asse 2685
plätze 2683
stattfindet 2681
erst@@ 2681
lenken 2680
Les@@ 2680
Zeitung 2679
ates 2679
bekommt 2678
16. 2678
Provinz 2678
voraus@@ 2676
existiert 2676
PDF 2676
letz@@ 2675
hingegen 2675
hochwertige 2673
ada 2673
Datei@@ 2673
ative 2672
USB 2672
Niederlanden 2671
verfahrens 2670
negativen 2669
Sammlung 2669
Fü@@ 2669
alisieren 2668
nte 2666
erhielt 2666
leichter 2664
fen@@ 2664
senken 2664
lösungen 2663
Quellen 2662
Leitung 2662
Rat@@ 2662
heißen 2661
600 2661
gehenden 2661
produzieren 2661
enorme 2660
dische 2660
uri@@ 2660
MO@@ 2660
berichten 2659
brachte 2658
Char@@ 2658
alisiert 2657
Mandat 2657
up@@ 2657
Ter@@ 2656
GAP 2656
sach@@ 2655
Kohäsionspolitik 2655
Rich@@ 2655
nah@@ 2655
plan 2655
erstmals 2654
entgegen 2654
bal@@ 2653
unk@@ 2653
hab@@ 2653
lauf 2652
Bestimmung 2652
lands 2651
gestaltung 2651
Cam@@ 2651
geprägt 2650
wen@@ 2650
Revolution 2650
dan@@ 2648
geplant 2647
sammeln 2646
Senkung 2645
Andere 2644
Büro 2644
dargestellt 2644
DI@@ 2644
nten 2643
Großteil 2643
aden 2643
Lok@@ 2643
vornehmen 2642
normalerweise 2642
Herz 2641
dra@@ 2639
amm@@ 2638
tief 2637
Bor@@ 2636
800 2636
Cas@@ 2635
denjenigen 2635
ese 2635
unterschiedlich 2634
minister 2634
ic 2634
Passwort 2634
Tro@@ 2633
Ph@@ 2633
Presse 2632
integrierten 2632
gei@@ 2632
Newsletter 2632
ausgezeichnet 2630
schnellen 2629
kar@@ 2629
Bes@@ 2629
eigen@@ 2629
Mir 2628
häuser 2628
37 2628
oh@@ 2628
Pf@@ 2628
park 2627
Andererseits 2626
6. 2626
Ir@@ 2626
Kurz@@ 2626
una 2626
Jahrzehnten 2625
unden 2625
mor@@ 2625
Willkommen 2625
Versammlung 2624
tte 2623
ku@@ 2623
Anwendungs@@ 2623
gut@@ 2620
festen 2620
Tonnen 2620
Verlauf 2619
europäisches 2619
palästinensischen 2619
buch@@ 2619
Dingen 2617
bereiten 2617
ativer 2617
drücken 2616
Lie@@ 2616
Telefon@@ 2615
rechnen 2614
Mission 2614
log@@ 2614
Ste@@ 2613
Santa 2613
Fin@@ 2612
Generationen 2612
Sü@@ 2612
Gast 2612
si 2612
hier@@ 2611
Küsten@@ 2611
karten 2611
spek@@ 2611
Elektro@@ 2609
Star@@ 2608
untersuchen 2608
pri@@ 2607
zwingen 2605
fanden 2605
Pakistan 2605
forschung 2605
Geschmack 2604
fall@@ 2603
beenden 2602
leb@@ 2602
zukommen 2601
region 2601
Mechanismus 2601
Hindernisse 2600
bereitet 2600
denk@@ 2600
Vertretern 2599
Wander@@ 2599
sol@@ 2599
keinem 2598
Potenzial 2598
ig 2597
Liber@@ 2596
Maschine 2596
Quelle 2596
Wandel 2595
schau@@ 2595
benen 2595
effektive 2594
wär@@ 2593
humanitären 2593
Geschwindigkeit 2593
Amerikaner 2592
Asyl@@ 2592
bestellen 2592
finanzieren 2589
Augenblick 2589
ti 2589
AM@@ 2589
Staats- 2587
Stärke 2587
kli@@ 2587
glaub@@ 2586
• 2585
oll@@ 2584
diesbezüglich 2583
Außen- 2583
aufgebaut 2582
rechtzeitig 2582
gewünschten 2582
Sei@@ 2582
your 2582
viel@@ 2581
Wirtschaftspolitik 2581
Schweizer 2581
smus 2580
Netz@@ 2579
enes 2578
bedeutenden 2577
entscheidenden 2577
Verwirklichung 2577
Finde 2577
hierfür 2576
Ki@@ 2576
ella 2576
kri@@ 2575
schwei@@ 2575
erweitern 2574
Schengen 2574
Ratschlag 2574
diert 2573
Gemeinschaften 2572
soeben 2572
Investoren 2571
prozesse 2571
Mus@@ 2571
spiele 2570
griechischen 2569
Luxemburg 2569
leich@@ 2569
Sh@@ 2569
Urteil 2568
derung 2568
Energieeffizienz 2568
Umwel@@ 2567
hän@@ 2567
Mis@@ 2567
anz 2566
kontrolliert 2566
illegale 2566
Internationale 2566
Genießen 2565
wendet 2564
0.000 2564
Gold 2564
könnt 2564
Industrie@@ 2563
mark@@ 2563
ga@@ 2563
Termin@@ 2562
festzustellen 2562
Verbraucherschutz 2562
Regulierung 2560
selten 2560
geleitet 2560
Plat@@ 2560
gelesen 2559
aner 2558
präsentieren 2558
enge 2558
überlassen 2557
MP@@ 2557
Landes@@ 2555
Rahmen@@ 2555
freundlichen 2555
Gemeinde 2555
Schon 2554
Beachtung 2553
Kommissions@@ 2553
Kampagne 2553
gleichermaßen 2552
7. 2551
ski 2551
sektors 2550
Kapital 2550
Net@@ 2550
Verb@@ 2549
regelung 2549
Projekts 2549
IM@@ 2548
Kompetenz 2546
Parkplatz 2546
gefährdet 2545
Kern 2545
langfristigen 2545
anzunehmen 2544
Sta@@ 2544
Parameter 2544
Best 2544
weite 2543
voraus 2543
ulation 2543
Weg@@ 2543
Schw@@ 2543
trägen 2542
Zone 2542
passt 2542
Fernsehen 2541
qualitativ 2541
gungs@@ 2540
Registrierung 2540
lichkeiten 2540
befasst 2540
Polizei@@ 2539
nummer 2538
tern@@ 2536
wirkliche 2535
Kandidaten 2535
cm 2535
same 2534
Reisen 2534
Stimm@@ 2533
pfen 2533
tage 2533
Ton@@ 2532
WC 2532
Reservierung 2532
genaue 2531
Nachhaltigkeit 2531
mögen 2530
enthalt 2530
ergänzt 2529
annten 2529
institutionelle 2529
sport 2529
angewandt 2528
Arbeitnehmern 2528
Apartment 2527
Schreiben 2526
person@@ 2524
spor@@ 2524
SE@@ 2524
43 2523
Mexiko 2523
Übrigen 2523
wür@@ 2522
Versorgung 2522
Stiftung 2522
müsste 2522
Errichtung 2521
Mac@@ 2521
wesentlicher 2520
infolge 2519
Blut@@ 2519
kontextuellen 2519
äh@@ 2518
altet 2518
PS 2518
Modernisierung 2517
tenen 2517
views 2517
führten 2516
hart 2516
hung 2516
10. 2516
zo@@ 2516
leitung 2516
modell 2515
schwierige 2515
far@@ 2515
¤ 2515
optim@@ 2514
schei@@ 2514
Ägypten 2514
ations 2514
Ausarbeitung 2513
gewi@@ 2513
Sor@@ 2513
lik@@ 2513
entdeckst 2513
geregelt 2512
bezahlt 2512
müssten 2512
wettbewerbs@@ 2511
begleitet 2511
Listings 2511
zieh@@ 2510
Kategorien 2510
fal@@ 2510
hel@@ 2509
tag@@ 2509
gesetzlichen 2509
pen 2509
Orte 2509
Pri@@ 2509
John 2509
freundliche 2508
Ergebnissen 2507
Computer@@ 2507
era 2507
programmen 2506
Erst 2506
ack@@ 2506
sam 2506
Bade@@ 2506
star@@ 2505
los@@ 2504
Hohe 2504
Bearbeitung 2504
Bil@@ 2503
Darstellung 2502
stieg 2502
Wa@@ 2502
Produk@@ 2502
Abendessen 2502
ord@@ 2501
IN 2501
hinzufugen 2501
Sektors 2500
nt 2500
ki 2500
Jugendlichen 2499
Frei@@ 2499
Partner@@ 2499
vorbei 2498
reg@@ 2497
grammatisch 2497
Beide 2496
weisung 2496
offizielle 2496
kontextuell 2496
zentral 2495
Bibliothek 2495
Wur@@ 2494
42 2493
ECU 2493
Dritte 2493
dige 2492
qui@@ 2492
12. 2492
Wil@@ 2492
Sel@@ 2491
ba 2491
25@@ 2491
Auftrags@@ 2491
Hardware 2491
Update 2491
Schlusselwort 2491
Schlusselphrase 2491
festlegen 2490
stück 2490
fs@@ 2490
ders 2490
aufgezahlt 2489
13. 2488
High 2488
gewählten 2488
komplette 2488
zü@@ 2487
stellungs@@ 2487
ame 2487
Glauben 2486
empfohlen 2485
Stre@@ 2484
Rund@@ 2484
digitalen 2484
ona 2484
entdeckt 2483
Grün@@ 2482
Haben 2482
altung 2481
melden 2481
Jugend@@ 2480
produk@@ 2480
Stra@@ 2479
Präsenz 2479
Wirksamkeit 2479
Dass 2479
anda 2478
á 2478
fein@@ 2477
teils 2475
ink@@ 2475
Kreditkarte 2475
verletzt 2473
wil@@ 2473
praktischen 2473
spezi@@ 2473
armen 2472
Kranken@@ 2472
Journalisten 2472
Somit 2471
schen@@ 2471
Bedürfnissen 2471
Shop 2471
isen 2470
US@@ 2469
Ankunft 2469
és 2467
Tal@@ 2467
Resort 2467
vorgelegten 2465
wert@@ 2465
8. 2465
entes 2464
Drittel 2464
Wiederaufbau 2464
Anwender 2464
Montag 2462
erklärte 2462
bewahren 2462
Lag@@ 2461
Spezial@@ 2461
Premierminister 2460
eingestellt 2460
Bet@@ 2460
stätigkeit 2459
erzeugen 2459
tal 2458
Regi@@ 2457
ée 2457
Handel@@ 2457
klassischen 2456
Symbol 2455
sat@@ 2454
Tabak@@ 2453
zunehmen 2452
behält 2452
Finnland 2452
flu@@ 2451
Fil@@ 2451
Aufsichts@@ 2451
losigkeit 2450
viertel 2450
älteren 2450
vari@@ 2450
ll 2450
Flash 2450
bewerten 2449
grenz@@ 2449
Kontakt@@ 2448
sprach@@ 2448
.de 2447
alter 2446
außen 2445
kräfte 2445
ansprechen 2444
Ansch@@ 2444
Nah@@ 2444
Überblick 2444
Höchst@@ 2443
Fein@@ 2443
Spielen 2442
ite 2441
Betriebe 2441
Bru@@ 2441
ologischen 2440
Sitz@@ 2440
Vorsitzenden 2439
groß@@ 2439
Beitritts@@ 2439
wege 2439
Zahlung 2439
gie 2438
dro@@ 2437
Todes@@ 2436
Anbetracht 2436
Autom@@ 2436
Argumente 2435
Serbien 2435
Macht@@ 2434
gener@@ 2434
ausüben 2433
kümmern 2433
eingebracht 2432
gekennzeichnet 2430
Benutzer@@ 2430
Demokraten 2429
Patent@@ 2429
wahr 2428
werken 2428
sab@@ 2428
Souveränität 2427
Wochenende 2427
chti@@ 2426
Gest@@ 2426
Innovationen 2426
langer 2426
beinhalten 2424
Schönheit 2424
jedenfalls 2423
folge 2423
zerstört 2423
eventuell 2423
Mutter 2423
Übertragung 2421
Parkplätze 2421
tau@@ 2420
Stand@@ 2419
Hinweise 2418
produkten 2418
Zimmer@@ 2418
König 2417
Lizenz@@ 2417
gn@@ 2416
blei@@ 2416
Volkspartei 2416
IWF 2416
gol@@ 2416
5.@@ 2416
Minute 2414
afrikanischen 2414
steigern 2413
EU@@ 2413
parlamentarischen 2412
1992 2412
38 2412
Prodi 2411
Prozeß 2410
arbeitete 2409
zeug@@ 2409
vorzunehmen 2408
Komp@@ 2408
Akteure 2407
65 2407
Nizza 2407
ir 2406
Top 2406
pen@@ 2405
Ausweitung 2404
sterben 2404
ober@@ 2403
hierzu 2403
eingeleitet 2402
räumen 2401
itäts@@ 2401
7.@@ 2401
komfortable 2401
öh@@ 2400
Widerstand 2400
Eingang 2400
heben 2400
Werten 2400
Konvent 2400
yp@@ 2400
Freund 2399
Schiff 2399
beg@@ 2397
sitzen 2397
verkehrs@@ 2397
verstehe 2396
beseitigen 2396
rt 2396
Spitzen@@ 2396
frühen 2396
Direk@@ 2395
ane 2394
mittlerweile 2393
Tests 2393
Schulden 2393
Schla@@ 2393
Schi@@ 2392
SA@@ 2392
Entspannung 2392
lin 2392
Zug 2391
beeinflussen 2390
24@@ 2390
Gesetzes@@ 2390
Betten 2390
lichsten 2389
14. 2389
Ster@@ 2389
Ap@@ 2389
tigkeiten 2388
Herbst 2388
aufzubauen 2387
Politik@@ 2386
selben 2386
psych@@ 2385
stammt 2384
Pop@@ 2384
National 2384
Gol@@ 2383
wirk@@ 2382
vorliegen 2382
Han@@ 2382
eit 2382
Ratifizierung 2381
eigener 2381
offenbar 2380
Mittelmeer@@ 2379
Wor@@ 2379
Vis@@ 2379
anwenden 2378
maschine 2378
stammen 2377
strukturen 2376
Herz@@ 2376
sische 2374
anzubieten 2374
Führungs@@ 2374
Tu@@ 2374
Ausbildungs@@ 2373
wort 2372
perfekte 2372
Michael 2372
Gesam@@ 2371
gemeinsames 2371
igkeit 2371
ick 2371
schwere 2370
pe 2370
oftmals 2369
Detail 2368
anzeigen 2367
gelangt 2366
derten 2366
Wähler 2366
can 2366
ergänzen 2365
ins@@ 2365
gener 2364
Air 2364
software 2364
ruhig 2363
30. 2363
Kyoto 2362
Autos 2362
Milch@@ 2362
demo@@ 2361
Entschlossenheit 2360
Vorstellungen 2359
verständlich 2359
mangel@@ 2357
überwachen 2357
Sobald 2357
abend 2356
Fehl@@ 2356
Deutsch 2356
kat@@ 2355
Fuß@@ 2355
Prozess@@ 2355
Erreichung 2354
wirtschafts@@ 2353
landwirtschaftlichen 2352
gers 2352
Tür 2352
linken 2352
ön@@ 2352
LA@@ 2352
hau@@ 2351
gesellschaftlichen 2349
Teams 2349
Feu@@ 2348
port@@ 2348
fil@@ 2347
ansehen 2346
Trans@@ 2346
Entwickler 2346
ken@@ 2345
aufbauen 2345
9. 2345
egal 2345
ausgewählt 2345
chtet 2344
ka@@ 2343
momentan 2342
Val@@ 2342
sisch 2341
ungser@@ 2341
setz@@ 2339
ziger 2339
flo@@ 2339
Weiterentwicklung 2338
erteilt 2338
Alt@@ 2338
Abfall@@ 2338
Objek@@ 2338
Datum 2337
gestatten 2337
weltweite 2337
gere 2336
nächster 2336
Lern@@ 2336
Versicherungs@@ 2335
Hau@@ 2335
Ara@@ 2335
medi@@ 2335
Fe@@ 2335
gesp@@ 2334
dens 2333
02 2331
vorgestellt 2331
Aufzug 2331
bewußt 2330
spät 2330
selber 2330
reise 2330
Amts@@ 2329
Ausbau 2329
hinweg 2329
m2 2329
Poker 2329
betrieb@@ 2328
fähigen 2328
pat@@ 2328
Aussage 2327
85 2327
Berliner 2327
Haut 2327
projekt 2326
Garantien 2326
verurteilen 2326
verringert 2326
chtigen 2324
stische 2324
MA@@ 2324
grenzüberschreitenden 2324
Vereinigte 2323
alisi@@ 2323
ga 2323
Ide@@ 2322
Mö@@ 2322
übersch@@ 2322
fri@@ 2321
Übergang 2321
angehen 2321
linie 2320
Theater 2320
49 2320
eten 2319
bur@@ 2319
Länge 2318
eben@@ 2318
nicht@@ 2318
Inn 2318
kehr@@ 2317
Haushalts 2317
Flughäfen 2317
Tal 2316
Sohn 2316
reagiert 2315
italienische 2315
Verbrauchern 2315
Tieren 2315
Truppen 2314
inner@@ 2313
Verzeichnis 2313
Zy@@ 2313
Museen 2313
Vorrang 2312
Grundlagen 2312
zig 2312
umgehen 2312
Zuge 2310
Mand@@ 2310
ativ@@ 2309
Regional@@ 2309
keineswegs 2308
tum 2308
digt 2308
trat 2308
leu@@ 2308
Weil 2307
aum 2307
Lesen 2306
lieben 2305
III 2305
hü@@ 2305
bes 2305
Zwar 2304
Pres@@ 2304
Street 2304
ökologischen 2303
Benutzung 2303
Indi@@ 2303
Fahrt 2303
legte 2302
Planeten 2302
zahlungen 2302
Aspekten 2301
liger 2301
tö@@ 2300
Strecke 2300
39 2299
Ferienwohnung 2299
indi@@ 2298
lädt 2298
sicherung 2297
itä@@ 2297
Dreh@@ 2297
fassung 2297
herrlichen 2297
Suite 2297
vorschlag 2296
Gewinn@@ 2296
geblieben 2296
grünen 2296
06 2296
Dokumentation 2296
vorher@@ 2295
Sachver@@ 2295
poli@@ 2295
Lang@@ 2295
Religion 2294
hast 2294
Schloss 2294
Dänemark 2293
Martin 2293
schw@@ 2292
politiken 2291
neun 2291
Konvention 2291
Jedoch 2291
zogen 2290
sozial@@ 2289
modern 2289
fizierung 2288
tiere 2287
SO@@ 2287
Gottes 2287
Ansprüche 2287
House 2287
Maria 2286
ander@@ 2285
regionen 2285
dauer 2285
kop@@ 2285
Käufer 2285
Satz 2284
Design@@ 2284
tene 2283
geschlossenen 2283
automati@@ 2283
edi@@ 2283
Durchsetzung 2282
fun@@ 2282
Lateinamerika 2282
sper@@ 2281
bild@@ 2281
Kr@@ 2281
grosse 2281
lim@@ 2280
besucht 2280
Drei@@ 2279
Betreuung 2279
geschickt 2278
ato 2278
je@@ 2278
Fassung 2277
Existenz 2277
Traditionen 2277
Fa@@ 2277
Card 2277
stung 2276
Argument 2275
Mängel 2275
wechseln 2275
dor@@ 2275
Nichtraucherzimmer 2275
Hö@@ 2274
dat@@ 2274
Mat@@ 2274
Oberfläche 2274
fas@@ 2273
früh@@ 2272
chern 2272
Institut 2272
gerechte 2271
aktuell 2271
-- 2271
gangs 2270
Tab@@ 2270
mehrfach 2269
Email 2269
optimal 2268
beabsichtigt 2268
Mer@@ 2267
digungen 2266
beteiligten 2266
teilung 2266
8.@@ 2266
Werden 2264
e- 2264
Behörde 2263
Posi@@ 2263
kern 2263
NICHT 2263
hinzu@@ 2262
Besuchen 2262
flug@@ 2262
würdigen 2261
interne 2261
Wissenschaftler 2261
träge 2261
ns 2261
enth@@ 2261
Revision 2260
Ehre 2260
definieren 2260
Protokolls 2259
chinesische 2259
minim@@ 2258
Anmeldung 2258
Gibt 2257
sicht@@ 2257
plus 2257
ausgehen 2256
Volkswirtschaften 2256
enger 2256
wächst 2256
Herkunfts@@ 2256
ändert 2255
satz@@ 2254
ator@@ 2253
Festival 2253
bett 2253
aut 2252
net@@ 2252
England 2252
höchst 2251
Lohn@@ 2251
jahr 2251
nehme 2250
breit@@ 2250
berechnet 2250
enormen 2249
baus 2249
Entwicklungshilfe 2249
Sieg 2249
Pflanzen 2249
Bedien@@ 2248
licht 2248
Hamburg 2248
Del@@ 2247
Verteidigungs@@ 2247
wechsel 2245
art@@ 2245
ständen 2245
pan@@ 2245
Bord 2245
Aut@@ 2245
tz 2244
effizienter 2244
befürworten 2244
Prüf@@ 2244
Holz 2244
erwiesen 2244
dlicher 2243
Slowakei 2243
Kompetenzen 2242
entfernen 2242
Shi@@ 2242
garten 2240
beantwortet 2239
hr 2239
gänge 2238
anzuwenden 2238
enter 2238
ID@@ 2238
zusetzen 2237
dere 2237
Katalog 2237
.000 2237
gebildet 2236
voran@@ 2236
\ 2236
erstens 2235
urlaub 2235
As@@ 2235
knapp 2235
gegebenenfalls 2234
stärksten 2234
stal@@ 2234
bedürf@@ 2234
Tel@@ 2234
funktion 2233
Niederlande 2233
rat@@ 2233
annte 2232
DA@@ 2232
ting 2232
Back@@ 2232
wirklichen 2231
Klarheit 2231
sal@@ 2231
Berg 2231
generell 2230
ME@@ 2230
las 2230
Media 2230
wider 2229
geliefert 2229
Mädchen 2229
.00 2229
fle@@ 2227
beibehalten 2227
lü@@ 2227
hinzu 2227
Staatsan@@ 2226
konsequent 2226
Identi@@ 2225
Speisen 2225
aff@@ 2224
licherweise 2224
Ther@@ 2224
Radio 2224
IL@@ 2222
Wahrung 2221
volles 2220
versteht 2220
ahn@@ 2220
grossen 2220
errichtet 2219
com@@ 2219
wand@@ 2218
oten 2217
ausgegeben 2217
Europe 2217
Typ 2216
ele 2215
Text@@ 2215
ley 2215
bank 2215
Vordergrund 2214
manchen 2214
feh@@ 2214
ty 2214
200@@ 2214
fuer 2214
Är@@ 2213
Pass@@ 2213
Reg@@ 2212
ion 2212
Nachdruck 2212
akt 2212
03@@ 2212
schwedischen 2212
Frühstücksbuffet 2212
negative 2211
Fang@@ 2211
paket 2211
erteilen 2211
Hier@@ 2211
Tau@@ 2210
Statistiken 2210
Zimmerbeschreibung 2210
merk@@ 2209
IA 2209
Lebensmittelsicherheit 2208
Can@@ 2208
rup@@ 2207
Häuser 2207
Chancengleichheit 2206
sozi@@ 2206
vollem 2206
fla@@ 2206
umfassen 2206
liber@@ 2206
Obama 2206
quote 2205
branche 2205
schrift 2205
vertritt 2204
veröffentlichen 2204
südlichen 2204
Paul 2204
Denken 2203
Peter 2203
stimm@@ 2202
verkehr@@ 2202
Kennzeichnung 2202
ON 2202
netz 2201
Häfen 2201
nutzt 2201
Hostelsclub 2199
yn@@ 2198
RO 2198
entsch@@ 2197
mitglieder 2197
herr@@ 2196
Krieges 2196
Wol@@ 2196
Kommissionspräsident 2195
Lernen 2195
ON@@ 2195
mäßig 2194
gestiegen 2194
las@@ 2194
vorsieht 2194
angenehmen 2194
Aufhebung 2194
Boot 2193
stor@@ 2193
Vil@@ 2193
Nich@@ 2192
bedroht 2192
NL 2192
Zeitplan 2191
eth@@ 2191
nungs@@ 2190
Gold@@ 2190
ay 2189
Spitze 2189
Son@@ 2189
ag 2189
s- 2189
spezialisiert 2188
aktiviert 2188
Zielsetzungen 2187
rit@@ 2187
herstellen 2187
einf@@ 2187
betrieb 2187
Liberalen 2186
Golf@@ 2186
wach@@ 2186
Netze 2186
Anmerkungen 2185
zweiter 2185
genauer 2185
stattgefunden 2184
Problematik 2184
antes 2184
benutz@@ 2184
angenommenen 2183
gefährlich 2183
Fortsetzung 2183
kennt 2183
CA@@ 2183
ökonomischen 2182
auswirken 2182
3,@@ 2182
25. 2182
gewidmet 2181
gerufen 2181
1993 2181
tätigen 2181
ehemalige 2181
has 2181
quellen 2179
Schn@@ 2179
endet 2178
gesichert 2178
lers 2178
Cookies 2178
greift 2177
betriebe 2177
erhoben 2177
ände 2177
Wechsel@@ 2176
schutzes 2176
zahlt 2176
herzustellen 2175
Autobahn 2175
Georgien 2175
ki@@ 2174
regionaler 2174
Berge 2174
arabischen 2174
Schulden@@ 2174
Fluss 2174
erarbeitet 2172
Effekt 2171
1990 2171
fli@@ 2171
xen 2171
250 2171
richtung 2170
miß@@ 2170
zugeben 2170
Beschränkungen 2170
sä@@ 2170
bra@@ 2170
professionelle 2170
erheben 2169
Vorsch@@ 2169
Philosophie 2169
Airbus 2169
hohes 2168
Unterkünfte 2168
Berich@@ 2168
UR@@ 2168
ai@@ 2168
fü@@ 2168
alistischen 2166
use 2166
Nachbar@@ 2166
Kaffee 2166
Auflösung 2165
pool 2165
respektieren 2164
Fläche 2164
pol@@ 2164
Vertrieb@@ 2164
03 2163
Fremdenverkehr 2162
Vier@@ 2162
od@@ 2162
rooms 2162
Vorgehensweise 2161
gesetzten 2161
klein 2161
unmittelbarer 2161
erend 2160
schem 2160
schriftliche 2160
Einer 2159
enzi@@ 2159
bs 2159
typischen 2159
größeres 2158
Sand@@ 2158
Genau 2156
widmen 2156
fik@@ 2156
Offenheit 2156
41 2156
Fla@@ 2156
usw 2156
Modul 2156
klassi@@ 2155
anerkennen 2155
Sowohl 2154
Men@@ 2154
Eu@@ 2154
fol@@ 2153
Bereits 2153
fehlen 2152
passen 2152
desto 2152
zäh@@ 2152
chemische 2152
dateien 2152
stärk@@ 2151
31. 2151
Himmel 2151
Poly@@ 2151
Immobilien 2151
Gebühren 2150
Eines 2149
Tool 2149
endgültige 2148
ED@@ 2148
Wichtigkeit 2148
günsti@@ 2147
Kommentare 2147
Kno@@ 2147
digitale 2147
Ausrichtung 2146
Rechnungs@@ 2146
verwendeten 2146
grund 2145
ai 2145
Skype 2145
05 2144
fahrzeuge 2143
Betracht 2143
Erarbeitung 2143
Verordnungen 2143
Wo@@ 2143
größter 2143
Office 2143
JavaScript 2143
hinzugefügt 2142
klasse 2142
trags@@ 2141
uneingeschränkt 2141
Betrieb@@ 2140
44 2139
Verfahrens 2139
1000 2139
kohär@@ 2138
erheblichen 2138
ah 2138
Einen 2137
klären 2137
freier 2137
turen 2137
läu@@ 2137
intensiv 2137
lte 2136
strukturi@@ 2136
ecken 2136
Können 2135
Soldaten 2135
innovativen 2134
hilfreich 2134
förder@@ 2133
gie@@ 2133
öffentlicher 2132
Erfolge 2132
beweisen 2132
Russlands 2132
Java 2132
isi@@ 2131
Sonntag 2130
Räume 2128
fortsetzen 2128
behauptet 2128
loser 2128
tagen 2128
Ausgrenzung 2127
Spezialitäten 2127
Bestätigung 2126
instrument 2126
vel@@ 2126
Universitäten 2126
schule 2125
Werkzeug 2125
Schicksal 2123
Q 2123
Bücher 2122
Minderheit 2122
Bl@@ 2122
Nichtraucherzonen 2121
erforderliche 2121
staff 2121
Regel@@ 2119
ologischer 2119
Rech@@ 2119
solch 2119
Wettbewerbs 2118
Ablauf 2118
mung 2117
able 2117
chn@@ 2117
Aussagen 2117
tatsächlichen 2117
schung 2117
Nord 2117
Bro@@ 2117
adi@@ 2116
Kli@@ 2116
mati@@ 2115
Uns 2115
planen 2115
Betrifft 2115
innere 2115
gesucht 2114
langem 2114
harmon@@ 2113
Glas@@ 2113
mei@@ 2113
mechanismen 2112
gemeinsamer 2112
derart 2111
spanische 2111
Objekte 2111
nungen 2110
üsse 2110
Uni@@ 2110
sierungs@@ 2109
Verfahrens@@ 2109
ast 2109
ement 2109
IG@@ 2109
Bürokratie 2108
vertrau@@ 2108
verbreitet 2108
üb@@ 2108
General 2108
PA 2108
Rent@@ 2107
Erwachsene 2107
verabschieden 2105
sied@@ 2105
anzupassen 2105
integrierte 2105
falsche 2104
fügen 2104
Zivil@@ 2103
Zer@@ 2103
Raums 2102
Entfernung 2102
Viel@@ 2102
Geheim@@ 2102
Erst@@ 2102
Dat@@ 2102
Fahrer 2101
steten 2100
hochwertigen 2100
Sat@@ 2100
Wohnzimmer 2100
vorge@@ 2099
geehrte 2098
Kürze 2098
att@@ 2098
Besitz 2098
Inflation 2098
Landwirtschafts@@ 2097
erwähnten 2097
Drogen 2097
Saint 2097
Bildern 2097
GNU 2097
befürwortet 2096
Bürgerbeauftragten 2096
üt@@ 2096
dene 2096
ate@@ 2096
Strand@@ 2096
jährlichen 2095
vertraut 2095
Bosnien 2094
richtungen 2092
bearbeiten 2092
berühmte 2092
Florenz 2092
Bon@@ 2092
ala 2091
Annehmlichkeiten 2091
üblichen 2090
zustande 2090
Jean 2090
ht 2090
Speicher@@ 2090
existieren 2089
ett@@ 2089
formuliert 2089
ungst@@ 2089
Ausnahmen 2087
beispiel@@ 2087
bemerk@@ 2087
Saison 2087
Bevor 2085
pu@@ 2085
AB@@ 2084
erarbeiten 2084
Abbau 2084
Rechnungshof 2084
Den@@ 2084
iges 2084
besonderes 2084
Verabschiedung 2083
EF@@ 2083
fairen 2082
Ausbeutung 2082
Alternativen 2082
dieren 2081
elektronische 2081
bro@@ 2081
Dynamik 2080
Ursache 2080
vorliegt 2079
steller 2079
zugestimmt 2079
begegnen 2078
offiziell 2078
Nehmen 2078
ue 2078
mechanismus 2078
Steigerung 2077
dieselben 2077
nahme@@ 2077
Tools 2077
fähi@@ 2076
Formulierung 2076
Mul@@ 2076
ola 2076
eht 2076
Euch 2076
A4 2076
Ruf 2075
nisses 2075
betra@@ 2075
uni@@ 2074
geschäft 2074
wachsende 2073
gegenseitigen 2073
angekündigt 2073
künst@@ 2073
Es@@ 2073
Rechner 2073
förderung 2072
Mach@@ 2072
ähnlichen 2072
ausländischen 2072
eindeutige 2071
Orten 2071
prinzip 2071
51 2071
Ministerpräsident 2071
Bat@@ 2071
ums@@ 2070
abgesehen 2070
Einzelheiten 2070
hervorragend 2069
Offen@@ 2069
Forsch@@ 2068
reibungs@@ 2068
Versprechen 2068
übermitteln 2067
bewertet 2067
Rob@@ 2067
verwiesen 2067
gesetz 2067
Gerichts@@ 2066
setzte 2065
wir@@ 2064
wur@@ 2064
deutliche 2064
überrascht 2063
bewegt 2062
Strände 2062
ester 2062
Kredi@@ 2061
ück@@ 2061
etes 2059
standes 2058
bit@@ 2058
übt 2058
Fischereipolitik 2057
bedauerlich 2057
Taten 2057
kostenlose 2057
Funktionieren 2056
präzise 2056
NRO 2056
Lau@@ 2056
č@@ 2056
Menschenrechtsverletzungen 2055
Roh@@ 2054
löschen 2054
hundert 2054
gewicht 2053
fähige 2052
Zunahme 2052
Fru@@ 2052
wirft 2051
BSE 2051
Gentoo 2051
erstes 2050
assi@@ 2050
Sc@@ 2050
komplexen 2049
ware 2049
hafter 2048
Gegner 2048
feu@@ 2048
Hände 2047
Airport 2047
yst@@ 2046
car@@ 2046
drängen 2045
ressourcen 2045
Client 2045
West 2044
kriterien 2044
berichtet 2044
Bestellungen 2044
Abgeordneter 2043
bekämpfung 2043
Hat 2043
good 2043
leistet 2042
tis 2042
Audio 2042
verursachen 2041
gemessen 2041
lar@@ 2041
denden 2040
omm@@ 2040
derselben 2040
Pla@@ 2040
Einsatz@@ 2040
davor 2039
Menschheit 2039
stätten 2039
Wellness 2039
unterschiedlicher 2038
erweisen 2038
gehe 2038
Gruppen@@ 2038
Terroristen 2038
auswählen 2038
Erlebnis 2038
anzuzeigen 2038
technisch 2037
AL 2037
zone 2037
rufe 2037
Wiederherstellung 2036
Miß@@ 2035
lüsse 2035
erkennt 2034
günstige 2033
geringen 2033
Übernahme 2033
Wohnungen 2033
durchzusetzen 2032
gehei@@ 2032
erleichtert 2031
umso 2031
mi 2031
zurzeit 2031
700 2030
Trau@@ 2030
Innenstadt 2030
ökonomische 2029
genau@@ 2029
Klimawandels 2029
Fleisch 2029
Frauen@@ 2029
Export@@ 2029
Parlament@@ 2028
dring@@ 2028
Sekunden 2028
Gei@@ 2028
SV 2028
fangen 2027
euer 2027
Zweiten 2027
gerungen 2027
Da@@ 2026
Via 2026
dieselbe 2025
fei@@ 2025
gkeiten 2024
Licht@@ 2024
Brand@@ 2023
legi@@ 2023
Ereignis 2023
Zwischen 2023
Zucker@@ 2023
Festplatte 2022
Bewusstsein 2022
Danach 2021
Steuer 2021
begründet 2021
Menschenrechten 2021
professionellen 2021
Schei@@ 2020
Anreize 2020
grenze 2020
Risiko@@ 2019
täten 2019
Kuba 2019
Album 2019
änge 2018
aktualisiert 2018
bewegung 2018
Händen 2018
normen 2017
streben 2017
Finanzen 2017
Plaza 2017
Gemeinden 2016
komp@@ 2016
ätze 2016
Diesen 2016
terin 2015
Verfolgung 2015
Filme 2015
bruch 2014
unterbrochen 2014
Pe@@ 2014
set 2014
Lieferanten 2014
Umstände 2013
vertrauen 2013
Ausrüstung 2013
Recht@@ 2012
Г 2012
umgehend 2011
Bauern 2011
günstigen 2010
ans@@ 2010
deck@@ 2010
hö@@ 2010
klar@@ 2010
46 2010
geeigneten 2010
Urlaubs@@ 2010
Binnen@@ 2009
bert 2009
Mau@@ 2009
location 2009
flexibel 2008
Schüler 2008
eli@@ 2008
Betreiber 2008
könne 2006
Pl@@ 2006
Verkaufs@@ 2005
steuer 2004
komplexe 2004
Kenntnisse 2004
2012 2004
Kopf@@ 2004
Spaziergang 2004
entsp@@ 2002
Anträge 2002
greif@@ 2002
Sur@@ 2002
sc@@ 2002
Schutzes 2000
jüngste 2000
Off@@ 2000
Abteilung 1999
Hauptbahnhof 1999
dargelegt 1998
religiösen 1998
technischer 1997
führungs@@ 1997
Bestell@@ 1997
vermittelt 1996
Zuverlässigkeit 1996
erlassen 1995
gerechtfertigt 1995
verfol@@ 1995
sagten 1995
niedrigen 1995
Rec@@ 1995
elegante 1995
dasselbe 1994
spüren 1994
Begründung 1994
Fan@@ 1994
Internetzugang 1994
Aktu@@ 1993
Christ@@ 1993
Werkzeuge 1993
ssi@@ 1993
arbeiteten 1992
demokratisch 1992
sau@@ 1992
komple@@ 1992
renoviert 1992
endgültigen 1991
ziel 1991
ol 1991
Western 1991
Alters@@ 1990
dienstleistungen 1990
Marokko 1990
inneren 1989
erwerben 1989
Waren@@ 1988
vermieden 1987
47 1987
Beschluß 1986
Samstag 1986
bre@@ 1985
kal@@ 1985
Balkan 1985
siven 1985
Erwägung 1984
fungen 1984
ands 1984
Lounge 1984
KOM 1983
Außenminister 1983
10.@@ 1983
nötigen 1983
MySQL 1983
Emp@@ 1982
Bezeichnung 1982
ena 1982
EM@@ 1982
heits@@ 1981
Mc@@ 1981
Modus 1981
alle@@ 1980
Prag 1980
Appartements 1980
ong 1979
einstimmig 1978
einführen 1978
Eröffnung 1978
Stu@@ 1978
04 1977
verteilung 1977
österreichischen 1977
os@@ 1977
Zerstörung 1976
Handlungen 1976
Beamten 1976
kti@@ 1976
Komm@@ 1976
Hän@@ 1975
offen@@ 1975
It 1975
trags 1974
1989 1974
Heimat 1974
techn@@ 1974
Energiequellen 1973
lien 1973
engen 1972
Projek@@ 1972
Studi@@ 1972
Schuld 1971
120 1971
Nachmittag 1970
Derzeit 1970
eröffnen 1970
Drittstaaten 1970
mä@@ 1970
änderungen 1969
Reinigung 1969
verstärkte 1968
ech@@ 1968
zugelassen 1968
Beratungen 1968
pul@@ 1968
ekt 1967
ärmsten 1967
linien 1967
bezeichnen 1967
Logik 1967
Motor 1966
gehabt 1966
Dor@@ 1966
ros 1966
Insgesamt 1965
ablehnen 1964
ay@@ 1964
gehörigen 1964
ater 1964
Anti 1964
GB 1964
planung 1963
trau@@ 1963
spann@@ 1963
S.@@ 1963
sicherer 1962
effek@@ 1962
Herkunft 1962
Dru@@ 1962
Privatsphäre 1962
zeugen 1961
beruflichen 1961
Einnahmen 1961
ey 1961
isierung 1960
stoßen 1959
eig@@ 1959
kel@@ 1959
Renn@@ 1959
Meinungen 1958
medizinische 1958
Referendum 1958
9.@@ 1958
Venedig 1958
industriellen 1957
öse 1957
israelischen 1957
organisierten 1957
lebenden 1956
steuer@@ 1956
Mutter@@ 1956
binden 1954
umfangreichen 1954
ita 1954
Rückgang 1954
Friedens 1954
12.00 1953
Seele 1953
einiges 1953
mail 1953
zeigte 1953
Lam@@ 1953
fragt 1952
1991 1952
alem 1951
früh 1951
verschaffen 1950
organ@@ 1950
kritischen 1950
ehrlich 1950
lern 1950
Steuerzahler 1949
Zusammensetzung 1949
Gesicht 1949
Pil@@ 1949
Palette 1949
Doppelzimmer 1949
agen 1948
Leben@@ 1948
mas@@ 1948
Hi@@ 1947
tives 1947
mächti@@ 1947
Lehrer 1947
Van 1947
abgeben 1946
ment 1946
listen 1946
Betrug 1945
beruhen 1945
maximal 1944
bü@@ 1944
Wald@@ 1944
Grundsätzen 1943
Mittwoch 1943
ater@@ 1943
eigentliche 1942
Schad@@ 1942
beschleunigen 1941
umzu@@ 1941
regi@@ 1941
Tor 1941
flächen 1941
Felder 1940
ear@@ 1940
gebe 1939
eingeräumt 1939
24. 1939
Südafrika 1938
Verteidigungspolitik 1938
Immer 1938
my 1938
geringer 1937
Lab@@ 1937
angebote 1937
Deutschlands 1936
kunden 1936
ero@@ 1936
Inkrafttreten 1935
Übersicht 1935
gestartet 1935
basi@@ 1935
klein@@ 1934
Feststellung 1934
s.@@ 1934
druck@@ 1933
ica 1933
Ca@@ 1933
Verlängerung 1932
eintreten 1932
hielt 1932
integrieren 1931
kleinere 1931
ón 1931
verzichten 1930
blicken 1930
staatlicher 1930
Gewinn 1929
schenken 1928
alisierungs@@ 1928
möglichkeit 1928
stands@@ 1928
einsch@@ 1928
ata 1928
iel@@ 1928
Fakten 1927
52 1927
Vit@@ 1927
mittlere 1926
stens 1926
kombiniert 1926
Kernel 1925
Produktivität 1924
gste 1924
angenehm 1924
Beurteilung 1923
gingen 1923
Pflichten 1923
Tr@@ 1922
not@@ 1922
AU@@ 1922
User 1922
Australien 1921
Rußland 1920
glaubt 1920
USD 1920
Strom 1920
Erzeugung 1920
Osteuropa 1920
col@@ 1920
We 1920
zunehmende 1919
Bevölkerungs@@ 1919
ausreichende 1919
ju@@ 1919
mb@@ 1919
abgegeben 1918
gelingen 1918
einzig 1918
Einwanderer 1918
Fal@@ 1918
ars 1918
USS 1918
inakzeptabel 1917
AG@@ 1917
resul@@ 1917
zahlung 1916
Weiß@@ 1916
anpassen 1916
genießt 1915
getrennt 1915
Gas 1915
Arbeitsgruppe 1914
Wünschen 1914
Stufe 1914
beschließen 1913
Rö@@ 1913
Grünbuch 1913
eckt 1912
iti@@ 1912
Na@@ 1912
überein@@ 1911
Nu@@ 1911
rechtlich 1910
becken 1910
ov@@ 1910
Konzer@@ 1909
zentraler 1909
zent@@ 1909
Lager 1909
züge 1909
Ausübung 1908
Verfasser 1908
Stahl@@ 1908
Mei@@ 1908
Jugendliche 1907
zugute 1907
Ausschüsse 1907
Pul@@ 1907
erleb@@ 1907
Tex@@ 1907
SI@@ 1907
atischen 1906
ehren 1906
methode 1906
ere@@ 1906
gehandelt 1905
basieren 1905
Dan@@ 1904
Erweiterungs@@ 1904
treiben 1904
Fon@@ 1904
teln 1903
Regionalpolitik 1902
Weiterhin 1902
Belastung 1902
Verletzungen 1902
SA 1902
Tauch@@ 1902
the@@ 1901
dem@@ 1901
Luxus 1901
Fisch 1901
Kap@@ 1901
zwischen@@ 1900
gl@@ 1900
Rassismus 1900
respektiert 1900
eff@@ 1899
fuhr 1899
bereit@@ 1898
rie@@ 1898
alistische 1898
Em@@ 1898
derjenigen 1898
erlangen 1898
keiten 1898
Kra@@ 1898
ursprüngliche 1897
heit@@ 1897
aufgestellt 1897
gebühren 1897
organisierte 1897
ré@@ 1897
Module 1897
gering 1896
stru@@ 1896
Brücke 1896
luss@@ 1896
ehrt 1895
vorgehen 1895
relevanten 1895
jeglicher 1895
Anhörung 1895
ernsthafte 1895
insofern 1894
Großen 1894
vorschläge 1894
Summe 1894
4,@@ 1894
ausländische 1894
Gewinne 1893
Mü@@ 1893
handels@@ 1893
ierungs@@ 1893
innen@@ 1893
empfängt 1893
Autor 1893
EG@@ 1892
seln 1892
lische 1891
Inhalten 1891
Vertretung 1891
well 1891
gebung 1891
basis 1890
Hafen@@ 1890
auer 1890
§ 1890
Besitz@@ 1889
Versuche 1889
rin@@ 1889
Nation 1889
entstand 1889
zwölf 1889
erneuerbaren 1887
austausch 1887
aufnahme 1887
alisten 1886
gelernt 1886
kostenlosen 1886
beziehungen 1885
Updates 1885
tausend 1884
reifen 1884
sischer 1884
Stat@@ 1884
22. 1884
steh@@ 1884
post@@ 1884
alo@@ 1884
TR@@ 1884
behandlung 1883
Rahmenbedingungen 1883
vermutlich 1883
Beschwerden 1883
erkunden 1883
geringe 1882
Original@@ 1882
Private 1882
gemütliche 1882
Gut@@ 1881
Tabelle 1880
Heimat@@ 1879
erörtert 1878
Anwesenheit 1878
Hot@@ 1878
bedauere 1877
fikation 1877
Kas@@ 1877
wünscht 1876
Migration 1876
funktionen 1876
aufgeführt 1876
sin@@ 1876
Einschätzung 1875
AS 1875
zz@@ 1875
hört 1874
zeichneten 1874
heutzutage 1874
Last 1874
anforderungen 1873
vereint 1873
rahmen 1873
Übereinkommens 1873
schwieriger 1873
eleganten 1873
yer 1872
beizutragen 1872
zun@@ 1872
berufen 1872
dien@@ 1871
Kein 1871
Individu@@ 1871
Publikum 1871
PL@@ 1871
Rennen 1871
iniert 1870
Organ@@ 1870
uss@@ 1870
ons@@ 1869
stützen 1869
absol@@ 1869
eti@@ 1869
Comm@@ 1869
Erhalt 1868
Fahrzeug 1868
Dublin 1868
Unterzeichnung 1867
nei@@ 1867
meldung 1867
russische 1867
Syrien 1866
Drei 1866
pra@@ 1866
Mehrwert 1866
Weine 1866
Stell@@ 1864
woh@@ 1864
demokratischer 1864
Satelliten@@ 1863
effizienten 1862
Funktion@@ 1862
David 1862
bahn@@ 1862
sive 1862
ard@@ 1862
Wichtig 1861
passieren 1861
überwacht 1861
zwanzig 1861
höchster 1861
zeichnung 1861
geniessen 1861
kurse 1860
nachzu@@ 1860
Kam@@ 1860
dy 1860
unterbreiten 1859
Besteuerung 1859
Wälder 1859
realisiert 1859
lo 1859
Parlaments@@ 1858
irgend@@ 1858
vereinbarten 1858
Basi@@ 1858
chi@@ 1857
bilateralen 1856
EP 1856
PR@@ 1855
Gri@@ 1855
zentrali@@ 1854
Inspek@@ 1854
weit@@ 1854
Energiepolitik 1854
28@@ 1854
get 1854
EB@@ 1854
sonstige 1853
Automobil@@ 1853
seu@@ 1852
wahre 1852
gebunden 1852
tos 1852
schließe 1851
verarbeitet 1849
LO@@ 1849
Gem@@ 1848
würdig 1848
einstellen 1848
Richter 1848
stattdessen 1848
ordnungsgemäß 1847
Bewältigung 1847
irische 1847
isten 1847
Kapazität 1847
Spektrum 1847
Gipfeltreffen 1846
Europol 1846
Mari@@ 1846
eure 1845
xi@@ 1845
ments 1845
Einschränkungen 1845
Kaffe@@ 1845
wirksamen 1844
Spannungen 1844
Produktion@@ 1844
verpflichten 1843
interessanten 1843
gefähr@@ 1843
Ergänzung 1843
Keine 1843
band 1843
IC 1843
Personen@@ 1843
dia 1843
dahin 1842
konstruktive 1842
lokaler 1842
gefährden 1842
mö@@ 1842
medizinischen 1842
folglich 1841
04@@ 1841
if 1840
einnehmen 1839
wander@@ 1838
Konferenz@@ 1838
verzeichnen 1837
Arbeitgeber 1837
Sitzungen 1837
marquis 1837
gelegenen 1836
geistigen 1834
sta 1834
Kab@@ 1834
29. 1834
Zuständigkeiten 1833
Konflikt@@ 1833
id@@ 1833
Rezession 1833
geplanten 1832
sogenannte 1832
Hör@@ 1832
schlechte 1831
retten 1831
tan 1831
auff@@ 1831
geber 1831
här@@ 1831
gri@@ 1831
Port@@ 1831
Cap@@ 1831
orientierte 1830
initiative 1830
Saal 1830
baut 1830
Phänomen 1830
Cro@@ 1829
starkes 1828
griffen 1828
Händler 1828
Fes@@ 1828
News 1828
datei 1828
ats@@ 1827
gebäude 1827
origin@@ 1827
text 1827
habt 1827
beinahe 1827
Mischung 1826
tigem 1826
teste 1826
Beach 1826
bezogen 1824
imp@@ 1824
Objekt 1824
Rotary 1824
mien 1823
ank@@ 1822
Konzentration 1822
moderner 1822
Börse 1822
erweiterten 1821
tex@@ 1821
Subsidiarität 1820
aussehen 1820
ehe 1820
Äußerungen 1820
vernünftige 1819
wald 1819
Jahr@@ 1817
Krisen 1817
polnischen 1817
feste 1817
rates 1816
Foto@@ 1816
center 1816
unterbreitet 1815
Schau@@ 1815
Waffen@@ 1814
punkten 1814
Plätze 1814
Prävention 1813
Red@@ 1813
Amerikas 1813
einzugehen 1812
Weltwirtschaft 1812
erwähnte 1812
investiert 1811
gebnis 1811
Ham@@ 1811
kredi@@ 1810
Wett@@ 1810
Intervention 1810
dé@@ 1810
Handy 1810
design 1810
Beschäftigten 1809
verwirklichen 1809
Emissions@@ 1809
absolute 1809
ari 1809
Mac 1809
wertvolle 1808
ungeh@@ 1808
wan@@ 1808
kurzer 1808
Image 1808
leichte 1808
gesam@@ 1807
dauern 1807
Kräften 1806
Augen@@ 1806
ktion@@ 1806
realen 1806
Edel@@ 1806
Source 1806
Haushalte 1805
Global 1805
wand 1804
Wesen 1804
nachdenken 1804
ausführlich 1804
gewünschte 1804
dorf 1804
abschließend 1803
küh@@ 1803
ri 1803
NI 1803
Anzeige 1802
Themen@@ 1802
Stock@@ 1801
mün@@ 1801
regel@@ 1801
zielt 1801
Inf@@ 1801
menge 1801
kommerziellen 1801
einhalten 1800
verliehen 1800
leidet 1800
öffnet 1800
Funktionalität 1800
vernünftig 1799
Unsicherheit 1799
Katastrophen 1798
Robert 1798
kräf@@ 1798
grenzüberschreitende 1798
Centre 1798
unterscheidet 1797
ine@@ 1797
eigentlichen 1797
liegende 1797
Sek@@ 1797
pä@@ 1796
ute 1796
Leiter 1796
kleineren 1796
lossen 1796
Dach@@ 1796
erörtern 1795
Vertre@@ 1795
kra@@ 1794
schlech@@ 1794
Datenschutz 1794
nam@@ 1793
schrittweise 1793
gültig 1793
frem@@ 1793
felder 1792
23. 1792
lad@@ 1792
ethnischen 1792
abkommens 1792
weitaus 1792
dans 1792
Archi@@ 1792
ete 1791
Türen 1791
Mails 1791
teilzunehmen 1790
schein@@ 1790
Ordner 1790
Unternehmer 1789
wendung 1789
Last@@ 1789
schnitt 1789
erinnere 1788
fortgesetzt 1788
igungen 1788
Mün@@ 1788
Sil@@ 1788
zunehmenden 1787
68 1787
wirkungs@@ 1786
fahrts@@ 1786
transparent 1786
späteren 1786
Kabel 1785
Angriffe 1785
hof 1785
SCH@@ 1785
streng 1784
ratifiziert 1784
ath@@ 1784
SS@@ 1784
Fr@@ 1784
Cre@@ 1784
Million 1783
Fünf@@ 1782
viert 1782
Mak@@ 1782
realistisch 1782
gebraucht 1781
Kau@@ 1781
externe 1781
ösen 1781
bewirken 1780
gewisser 1780
technologische 1780
bewiesen 1780
Seiten@@ 1780
HTML 1780
Edition 1780
Sit@@ 1779
Al 1779
nich@@ 1778
krimin@@ 1778
Kurz 1778
iner 1778
Ausblick 1778
Appartement 1778
beiträgt 1777
vous 1777
Weltkrieg 1777
Regen@@ 1777
Plus 1777
Safe 1777
Ausgangs@@ 1776
herum 1775
Vermittlungs@@ 1775
vorhin 1774
bende 1774
nachhaltig 1774
Verluste 1774
wä@@ 1774
Vertrieb 1774
li 1774
VER@@ 1774
Justiz@@ 1773
Gipfels 1773
Präsentation 1772
erstreckt 1772
Angabe 1772
Power 1771
liz@@ 1771
Gepäckraum 1771
vo 1770
Hamas 1770
bisschen 1769
Events 1769
ruft 1768
Schnittstelle 1768
Regimes 1768
Zürich 1768
Wellness@@ 1768
ktions@@ 1767
ausgestattete 1767
which 1767
Presse@@ 1766
brau@@ 1766
Maschinen@@ 1766
selb@@ 1765
grad 1764
mäßigkeit 1764
Rubrik 1764
Produzenten 1764
nete 1764
avi@@ 1764
verarbeitung 1764
ruhige 1764
wies 1763
kurs 1763
get@@ 1763
gerechnet 1763
Glas 1763
Quali@@ 1762
typisch 1762
gast@@ 1762
Kapazitäten 1761
sonstigen 1761
einst 1761
let 1761
Mengen 1760
schreibt 1760
Arbeitsbedingungen 1760
rischen 1760
modi@@ 1760
Missbrauch 1760
MB 1760
Subventionen 1759
bekräftigt 1759
Ci@@ 1759
gemütlichen 1759
Arbeitnehmer@@ 1758
Mittelmeerraum 1758
egen 1758
Show 1758
jemals 1757
onn@@ 1757
beurteilen 1756
ohnehin 1756
Ministerrat 1756
ütz@@ 1756
geteilt 1756
Gre@@ 1756
Europ@@ 1756
Schil@@ 1756
way 1755
Power@@ 1755
unzu@@ 1754
schnei@@ 1754
gewer@@ 1754
ke@@ 1754
sech@@ 1753
Futter@@ 1753
übermittelt 1753
Bühne 1753
este 1753
erischen 1752
Tom@@ 1752
54 1752
eingeladen 1752
günstig 1752
atz 1752
aj@@ 1752
fährt 1751
Erbe 1751
Theorie 1751
Fans 1751
Laut 1750
ines 1750
blick 1750
Verträgen 1749
verwal@@ 1749
gestellte 1749
Merkmale 1749
chan@@ 1749
Gut 1749
Fluggesellschaften 1749
Termin 1748
28. 1748
maximale 1747
General@@ 1747
Regulierungs@@ 1747
Wür@@ 1747
geschafft 1747
PO@@ 1747
esten 1746
Leuten 1746
27@@ 1746
schalten 1746
komfortablen 1746
cs 1745
Aufenthalts@@ 1745
Abschluß 1744
Gebäuden 1744
mündlichen 1743
Halb@@ 1743
Lasten 1743
Überarbeitung 1743
körper@@ 1743
tauchen 1743
Konjunktur@@ 1743
Schle@@ 1743
nu@@ 1742
abgel@@ 1742
Erzeuger 1742
vergleich@@ 1742
Av@@ 1742
einfach@@ 1742
wa 1742
Performance 1742
vertreter 1741
stro@@ 1741
rechn@@ 1741
Netzwerk@@ 1741
Güter 1740
Human@@ 1740
mäßige 1740
älter 1740
ollen 1740
72 1740
rechtfertigen 1739
ligkeit 1739
hu@@ 1739
stil 1739
Ferienwohnungen 1739
angel@@ 1738
deutet 1738
issen 1738
gewinnt 1738
Mini@@ 1738
Filter 1737
Büros 1736
C5 1736
verz@@ 1736
box 1736
machten 1735
26. 1735
mag@@ 1735
Legislativ@@ 1734
grundlegender 1734
Konzepte 1734
ennen 1734
eingeschränkt 1734
wel@@ 1734
Gener@@ 1734
Free 1734
leid 1733
berichte 1733
Eing@@ 1733
Spezialisten 1733
wahl 1733
Palästinenser 1733
beliebigen 1733
heim 1733
teilte 1732
Resolution 1732
Mur@@ 1732
aufgerufen 1731
west@@ 1731
bedro@@ 1731
popul@@ 1731
Analy@@ 1731
Freizeit@@ 1731
restaurant 1731
äußerster 1730
Sä@@ 1730
sign@@ 1730
12.@@ 1730
globaler 1730
S. 1730
orientierten 1729
strengen 1729
akzeptabel 1729
Je@@ 1729
Express 1729
Komit@@ 1728
rats 1728
Los 1728
itäten 1727
küste 1727
Bildschirm 1727
stern 1727
bevorstehenden 1726
griff 1726
unerlässlich 1726
intensive 1725
märkten 1725
Fremd@@ 1725
Haushaltsplans 1725
Vorgaben 1724
Gerichtshofs 1724
eignen 1724
SS 1724
verbindungen 1724
ermutigen 1724
Burg 1724
Schrift@@ 1723
auswärtige 1723
jek@@ 1723
derartigen 1722
Wille 1722
beeinflusst 1722
Tour@@ 1721
erläutern 1720
Solche 1720
lei 1720
empfiehlt 1720
plätzen 1720
Wind 1719
tlinie 1719
Wiederauf@@ 1719
kritisiert 1718
chtige 1718
gesammelt 1718
Medikamente 1718
Port 1718
rad 1718
änderung 1717
stete 1717
Arzneimittel 1717
Ker@@ 1717
erfasst 1717
Hotelsafe 1717
erzielten 1716
Erfol@@ 1716
Tei@@ 1716
spätestens 1716
mäßigen 1715
yl@@ 1715
Dikt@@ 1715
leitungen 1715
European 1715
DER 1715
ärer 1714
Verein@@ 1714
Export 1714
aktu@@ 1714
sende 1713
Ant@@ 1713
qualifizierte 1713
Unterdrückung 1713
rücken 1713
aturen 1713
angenehme 1713
Form@@ 1713
kun@@ 1712
etzen 1712
Profil 1712
dachte 1711
Für@@ 1711
sz@@ 1711
Tief@@ 1711
grund@@ 1710
Bewohner 1710
kontrollen 1710
Konsultation 1710
Garten@@ 1710
gefährlichen 1709
TE 1709
instrumente 1708
ungeachtet 1708
Messe@@ 1708
angewiesen 1707
gegenseitige 1707
fiziert 1707
Vorfeld 1707
blo@@ 1706
haf@@ 1706
stag 1706
Mazedonien 1706
Marina 1705
gefährliche 1704
Top@@ 1704
beschreibt 1703
Beste 1703
sichert 1703
samkeit 1703
Verantwortlichen 1703
kontinuierlich 1703
Washington 1703
Lü@@ 1703
wertung 1703
wunderschöne 1703
Betroffenen 1702
B5 1702
plötzlich 1702
orien 1702
angebotenen 1702
Mä@@ 1702
angeblich 1701
stoß 1701
verantwor@@ 1701
Heimatland 1701
Adressen 1701
Portal 1701
lten 1700
Inn@@ 1700
Ratsvorsitzes 1700
tisches 1700
Is@@ 1700
Tragödie 1699
einzubeziehen 1698
Konferenzen 1698
gas@@ 1698
sexuellen 1698
üh@@ 1698
Traum 1698
wü@@ 1697
ever@@ 1697
here 1697
strenge 1697
Koordin@@ 1697
Fel@@ 1697
Anbindung 1697
Konfiguration 1697
größerer 1696
Tan@@ 1696
bedenken 1696
Aktualisierung 1696
geladen 1696
basierte 1696
esischen 1696
Zw@@ 1695
quelle 1695
dien 1695
rum 1695
Kooperations@@ 1695
womit 1695
Imp@@ 1695
ots 1695
basierten 1695
ass 1695
technologischen 1694
oni 1694
unzureichend 1694
forderte 1694
Woh@@ 1694
Rel@@ 1694
anne 1694
lehr@@ 1693
Anhang 1693
Israels 1693
onien 1693
zeu@@ 1693
DA 1693
vielfältigen 1693
drucken 1693
Gute 1692
trei@@ 1692
Finanzmittel 1692
reib@@ 1692
ausstattung 1692
spartner 1692
Linien 1692
Einkommens@@ 1691
auen 1691
Hä@@ 1691
Rahmenprogramm 1691
landschaft 1691
automatische 1691
Gestatten 1690
kritische 1690
Lehren 1690
endem 1690
schu@@ 1690
stabili@@ 1690
Dro@@ 1690
Sar@@ 1690
Ag@@ 1690
bigen 1690
tnissen 1689
trennen 1689
aut@@ 1689
Gesprächen 1688
bahnen 1688
Nov@@ 1688
Litauen 1687
istischer 1686
olo@@ 1686
fügt 1686
runde 1685
kt@@ 1685
kostengünsti@@ 1685
dam@@ 1685
92 1685
dend 1685
bedienen 1685
Thomas 1685
Str@@ 1685
had 1685
Kir@@ 1684
Ange@@ 1683
Vorsitzender 1683
Prin@@ 1683
entspann@@ 1683
gewünscht 1682
Gewerkschaften 1682
voneinander 1682
zielen 1682
flexible 1681
tter 1681
Fußball@@ 1681
nü@@ 1680
vergeben 1680
Wirtschaf@@ 1680
rad@@ 1680
agi@@ 1679
istisch 1679
sprech@@ 1679
gerech@@ 1678
ähr@@ 1678
TO@@ 1678
Adobe 1678
Aufforderung 1677
hör@@ 1677
Gefängnis 1677
Dep@@ 1677
Wild@@ 1677
Konkurrenz 1676
enttäuscht 1676
Textil@@ 1676
Out@@ 1676
teilten 1675
fisch@@ 1675
Laden 1675
Randlage 1674
dün@@ 1674
avec 1674
Haar@@ 1674
nbsp 1674
Unterlagen 1673
berufliche 1673
enswert 1672
Eng@@ 1672
begrenzte 1672
Trend 1671
partei@@ 1671
erneuerbare 1671
53 1671
falschen 1670
gelegene 1670
Tö@@ 1670
Mes@@ 1670
prozeß 1669
breit 1669
gebühr@@ 1669
vorbehalten 1669
fizi@@ 1669
hungen 1669
aktualisieren 1669
produkt 1668
vorn 1668
Köln 1667
ranken 1667
gefäl@@ 1666
Bilanz 1666
alitäten 1666
Sound 1666
Geben 1665
Geschäften 1665
finanzi@@ 1664
Bis@@ 1664
56 1664
flexi@@ 1664
einzuhalten 1663
geräten 1663
ignoriert 1662
Tür@@ 1662
kostenfrei 1662
Einschränkung 1661
enne 1661
detaillierte 1661
Kreativität 1661
inger 1661
Original 1661
Kla@@ 1660
sauber 1660
71 1660
Darin 1659
liberalen 1659
Royal 1659
sätzen 1659
Techniken 1659
würdige 1659
fiel 1659
Kü@@ 1658
IV 1658
mithilfe 1658
Lebensqualität 1657
verbesserte 1657
Föderation 1657
tigungs@@ 1657
Muster 1657
aufgaben 1656
Kohärenz 1656
val@@ 1656
kei@@ 1656
problemlos 1656
Schwarz@@ 1656
Gebühr 1656
2.0 1656
verw@@ 1655
pal@@ 1655
voran 1654
PSE 1653
solide 1653
Gewal@@ 1653
Güter@@ 1653
Tim@@ 1653
Schu@@ 1653
Berichterstattern 1652
amt 1652
ausgewählten 1652
normale 1652
Tsch@@ 1652
Training 1652
ž@@ 1652
beträchtliche 1651
mals 1650
Operation 1650
Freiwil@@ 1650
getötet 1650
spiegelt 1649
Eigenschaft 1649
Lebensmitteln 1649
ologisch 1649
zige 1649
Verkehr@@ 1649
alternative 1648
fällig 1648
Streit@@ 1648
terer 1648
sport@@ 1648
Governance 1648
Libanon 1647
59 1647
verwalten 1647
Geräten 1647
abhängi@@ 1646
lichste 1646
seri@@ 1646
Maastricht 1646
will@@ 1646
nieren 1646
Volk@@ 1646
ernste 1645
Reaktionen 1645
ältere 1645
Alpen 1645
Charme 1645
zuge@@ 1644
keinesfalls 1644
stücke 1643
George 1642
Aktivität 1642
wartet 1642
geld 1642
Wort@@ 1641
digte 1641
mess@@ 1641
erläutert 1641
fizierungs@@ 1641
Wald 1641
Wissens@@ 1641
orientiert 1640
Jugoslawien 1640
Krieg@@ 1640
Bewertungen 1639
Armen 1639
siv@@ 1639
nutzbar 1639
Amtszeit 1639
bewer@@ 1637
Auslegung 1637
wäl@@ 1637
Span@@ 1637
gän@@ 1637
Innerhalb 1636
zustellen 1636
zog 1636
multi@@ 1635
Einzelnen 1635
Erfolgs@@ 1635
Gerichten 1635
liert 1635
Entwicklungszusammenarbeit 1635
vis@@ 1635
tot@@ 1635
Integrations@@ 1635
Freuen 1635
gering@@ 1634
ks@@ 1634
Getränke 1634
OT@@ 1634
Clubs 1634
Komplettpreise 1634
teilgenommen 1633
tnis@@ 1633
Schnell@@ 1633
kel 1633
geholfen 1633
mobile 1633
Minibar 1633
zusehen 1632
Ah@@ 1632
Marktwirtschaft 1632
Schlaf@@ 1632
ruf 1632
frucht@@ 1631
Weltbank 1631
ello 1631
gerung 1630
versicherung 1630
Quoten 1630
Zahn@@ 1630
HT@@ 1630
kritisch 1629
Gespräch 1629
kg 1629
Gärten 1629
Wettbewer@@ 1628
meldungen 1628
schlechten 1628
Island 1628
Dre@@ 1628
faire 1628
alleine 1628
ora 1628
glei@@ 1627
ökologische 1627
ologi@@ 1626
schnell@@ 1626
gebilligt 1626
Zwangs@@ 1626
Neues 1626
Vermittlung 1626
dynam@@ 1626
Transaktionen 1626
Ersatz@@ 1626
Tschechischen 1626
German 1626
frag@@ 1625
zweifel@@ 1625
Sozialdemokraten 1625
sichts@@ 1625
endgültig 1625
führungen 1625
city 1625
räu@@ 1625
Künstler@@ 1625
geschlagen 1624
Palästina 1624
Gemäß 1623
Seg@@ 1623
Branchen 1623
ausgewogenen 1623
gendes 1623
blieb 1623
steuerung 1623
Lager@@ 1623
bearbeitet 1623
vereinfachen 1622
ös 1622
Absichten 1622
bildungs@@ 1622
alisierten 1622
Bergen 1622
EWG 1622
off@@ 1622
verehrten 1621
einzelstaatlichen 1621
ingt 1621
umfassen@@ 1621
Aqu@@ 1621
Geschäft@@ 1621
Instrumenten 1620
alisierte 1620
zel@@ 1620
J 1620
nern 1619
Luf@@ 1619
teuer 1619
fenster 1619
kn@@ 1618
irgendwelche 1618
dokum@@ 1618
empfin@@ 1618
Stamm@@ 1618
Kabel@@ 1618
englischen 1617
arische 1617
Log@@ 1617
ausführen 1617
tiefe 1617
mitgeteilt 1617
Гј@@ 1617
Verstärkung 1616
hinaus@@ 1616
negativ 1616
26@@ 1616
Zimmerservice 1616
portugiesischen 1615
tigte 1615
übergeben 1615
konzept 1615
atives 1615
Dienstleistung 1615
mas 1615
name 1615
reform 1614
pfung 1614
beach@@ 1614
Früh@@ 1614
Metall@@ 1614
q@@ 1614
Wetter 1614
ont 1613
ret@@ 1613
eigenem 1613
vierte 1612
Renten@@ 1612
tation 1612
aro@@ 1612
hef@@ 1612
Lim@@ 1612
atten 1611
diger 1610
Direkt@@ 1610
irgendwo 1610
achtet 1610
Scho@@ 1610
vielsei@@ 1610
58 1610
Fax 1610
UNG 1610
66 1609
ablen 1609
feiern 1609
änen 1609
Umsatz 1609
eingebunden 1608
hil@@ 1608
befürworte 1608
kurzfristig 1608
Zufriedenheit 1608
registriert 1608
EC 1608
ot 1608
Flugzeuge 1608
pour 1608
e.@@ 1608
treff@@ 1607
status 1606
Bewegungen 1606
Französisch 1606
produzi@@ 1606
qualifizierten 1605
err@@ 1605
größe 1605
Stabilitäts- 1605
wör@@ 1604
ère 1604
räum@@ 1604
lehnen 1604
kunden@@ 1604
suche 1604
schlage 1603
teure 1603
begangen 1603
konsolidi@@ 1603
Finanzmärkte 1603
real 1602
Ähn@@ 1602
Lieb@@ 1602
Lad@@ 1601
5,@@ 1601
industri@@ 1601
Spre@@ 1601
örtlichen 1601
Mod@@ 1601
halt@@ 1601
CS 1601
Opfern 1600
such@@ 1600
fertigt 1600
gesetzte 1600
abzielen 1600
Gegenwart 1600
Wirk@@ 1599
Weiterbildung 1599
versehen 1599
erfolgte 1599
Py@@ 1599
schluss 1599
genehmigt 1598
statten 1598
Malta 1598
tru@@ 1598
Dritter 1597
els@@ 1597
ess 1597
Entschließungen 1596
schm@@ 1596
ves 1596
durchgeführten 1595
Konstruktion 1595
Kommissare 1595
bergen 1595
öff@@ 1595
Pen@@ 1595
Sony 1595
wenigstens 1594
non 1594
Rein@@ 1594
Medizin 1594
Pension 1594
Insel@@ 1593
Organen 1593
Budget 1593
Anweisungen 1593
seiten 1593
free 1593
gewählte 1593
Work@@ 1593
Tempo 1592
vermögen 1592
Soweit 1592
ez 1591
prakti@@ 1591
hilfen 1591
trans@@ 1591
Schö@@ 1591
Putin 1591
Foundation 1591
Tru@@ 1591
¼ 1591
27. 1590
füh@@ 1590
let@@ 1590
ac 1590
passende 1590
big 1589
Scheitern 1589
Innovations@@ 1589
auszuüben 1588
oberen 1588
vertre@@ 1588
fried@@ 1588
fehler@@ 1588
kte 1588
by@@ 1588
Wachstums 1587
Christdemokraten 1587
Alltag 1587
Inneres 1587
Bü@@ 1587
elemente 1587
Aktien 1587
Check 1587
Realisierung 1586
klarer 1586
Professor 1586
eil 1586
Mail@@ 1586
eingereichten 1585
werks 1585
gutem 1585
ausgelöst 1584
droht 1584
ökonom@@ 1584
Optimierung 1584
· 1584
friedlichen 1583
Überwachungs@@ 1583
verhandeln 1583
emen 1583
Mad@@ 1582
parallel 1582
nation@@ 1582
Bot@@ 1582
ausgesch@@ 1582
Ferien 1581
chtig 1581
IP@@ 1581
Miet@@ 1581
niederländischen 1580
entscheidet 1580
analysieren 1580
Wir@@ 1580
gesunden 1580
Taiwan 1580
more 1580
Unterhaltung 1580
bereitung 1579
Frühjahr 1579
angelegt 1579
kräften 1579
sämtlichen 1577
einzel@@ 1577
herauszu@@ 1577
zusammenzuarbeiten 1577
ç@@ 1577
SE 1577
büro 1577
Flugzeug 1576
ents 1576
Migrations@@ 1576
Community 1576
denselben 1575
trauri@@ 1575
Vertei@@ 1575
antrag 1574
stärkeren 1574
berechtigten 1574
Beruf 1574
Start@@ 1574
Wikitravel 1574
Empfänger 1573
Bin@@ 1573
namen 1573
Mitglieds@@ 1573
ñ@@ 1573
para 1572
Fehlen 1571
änder@@ 1571
disch 1571
zurückkehren 1571
geführten 1571
ó 1571
bewertung 1570
Lehre 1570
komplex 1570
benden 1570
Gesellschafts@@ 1570
lichkeits@@ 1570
fahrten 1570
Fri@@ 1569
stecken 1569
dad 1569
Kongress 1569
charakter@@ 1568
innov@@ 1568
Heiligen 1568
zell@@ 1568
Will@@ 1568
Ein- 1568
konzipiert 1567
ran 1567
schn@@ 1567
flug 1566
AN 1566
Massage 1566
Brau@@ 1565
fang 1565
Las 1565
Pflege 1564
interessieren 1564
oper@@ 1564
izi@@ 1564
Aufnahmen 1564
weiterzu@@ 1563
Weißbuch 1563
beeinträchtigt 1563
Instruments 1563
bit 1563
Hektar 1562
Erkenntnisse 1562
verstoßen 1562
Grundfreiheiten 1561
gefangen 1561
Herrschaft 1561
asen 1561
Meister@@ 1561
ero 1561
Pet@@ 1561
gäbe 1560
hand 1560
effektiver 1560
verwaltet 1560
angeschlossen 1559
ann 1559
boden 1559
Transfer 1559
AD 1559
Desktop 1559
Kommissionsvorschlag 1558
Kul@@ 1558
Slowenien 1558
Abstimmungen 1557
fach 1557
plat@@ 1557
ehen 1557
t- 1557
agentur 1557
Vorsitzende 1556
Koordination 1556
untergraben 1556
wofür 1556
lässig@@ 1556
kamp@@ 1556
information 1556
hersteller 1555
beschei@@ 1555
einzurichten 1555
ih@@ 1555
zten 1555
pla@@ 1555
ruppe 1554
eleg@@ 1554
ürzt 1553
Zugangs 1553
Feier@@ 1553
konstruktiven 1552
schieben 1552
Hof 1552
östlichen 1552
Textes 1552
Niemand 1551
blatt 1551
Geschlechter 1551
Übersetzungs@@ 1551
ral 1551
IR@@ 1551
ail@@ 1551
67 1550
bezogene 1550
1,5 1550
Anregungen 1549
angefangen 1549
gewachsen 1549
längst 1549
einzelner 1549
blu@@ 1549
mann@@ 1548
St 1548
sem@@ 1548
57 1548
realisieren 1548
University 1548
bedauern 1547
Diensten 1547
Kirchen 1547
Genuss 1547
Aktions@@ 1546
nütz@@ 1546
gesellschaftliche 1546
reale 1546
ansonsten 1546
Wen@@ 1546
Vorwand 1546
unterwegs 1546
Investition 1546
Stad@@ 1546
ypen 1546
q 1546
IB@@ 1546
LE 1546
Leit@@ 1545
reiben 1545
begleiten 1545
Bezahlung 1545
Armuts@@ 1544
schungen 1544
Minister@@ 1544
Arbeitsweise 1544
ú@@ 1544
dri@@ 1544
gefasst 1544
Verzögerungen 1543
Motto 1543
Arbeiter 1543
BO@@ 1543
Partnerschaften 1542
Bedingung 1542
schein 1542
Konflikts 1541
Vizepräsident 1541
verkauf 1541
Lich@@ 1541
netz@@ 1541
Bom@@ 1540
ül@@ 1540
beschreiben 1540
gegenüber@@ 1540
sicherheits@@ 1540
Marken@@ 1540
Dol@@ 1540
breakfast 1540
Luftfahrt@@ 1539
verankert 1539
Fragestunde 1539
aufrechterhalten 1539
modernes 1539
Gesetzes 1539
landes 1538
Tourismus@@ 1538
ska 1538
mündliche 1537
staat@@ 1537
durchsetzen 1537
11.@@ 1537
AV@@ 1537
schützt 1537
Nation@@ 1536
vorherigen 1536
Analysen 1536
Transpor@@ 1535
Referenz@@ 1535
posi@@ 1535
Vergnügen 1535
kürz@@ 1534
Jahresbericht 1534
eindrucks@@ 1534
parlamentarische 1534
Albanien 1534
elen 1534
probieren 1534
Designer 1534
einziges 1533
brech@@ 1533
Moskau 1533
schläge 1533
benannt 1532
Palace 1532
getreten 1531
sitz@@ 1531
Empfang 1531
Aktien@@ 1531
kreis 1531
regierung 1530
Stock 1530
Rand 1529
kan 1529
gewiss 1529
xe 1528
währ@@ 1528
samen 1528
steckt 1528
Beratungs@@ 1528
Danke 1528
händler 1528
dau@@ 1528
OL@@ 1528
Gewinner 1527
stärkt 1526
Schwe@@ 1526
vorsichtig 1525
diensten 1525
Vereinigung 1525
traum 1525
Standpunkte 1525
ministerium 1525
neben@@ 1525
hä@@ 1525
Corporate 1525
effektiven 1524
rasche 1524
konfli@@ 1524
tat 1524
Audio@@ 1524
gab@@ 1523
Ereignissen 1523
digten 1523
irgendeiner 1523
dig@@ 1523
Abenteuer 1523
just 1523
burger 1522
harmonisi@@ 1522
Indem 1521
wenigsten 1521
gegenseitig 1521
chter@@ 1521
suite 1521
Schne@@ 1521
finanziell 1520
Beruf@@ 1520
ron 1520
beseitigt 1520
engagiert 1520
üblich 1519
aufweisen 1519
lam@@ 1519
zigen 1519
Canon 1519
dlichkeit 1518
ration 1518
Wartung 1518
still@@ 1518
richti@@ 1518
anz@@ 1518
Untersuchungs@@ 1517
Beendigung 1517
Legitimität 1516
frist 1516
vorherige 1516
angehören 1516
leiter 1516
Schatten 1516
Süd 1516
Menschenhandel 1516
Pilot@@ 1516
projek@@ 1516
geschäf@@ 1516
zumal 1515
gige 1515
Ost 1515
mar 1515
Finanziellen 1515
mul@@ 1515
ulen 1515
monat@@ 1514
wichti@@ 1514
thin 1514
set@@ 1514
6,@@ 1514
gerichtete 1514
unde 1514
tivi@@ 1514
Mobile 1514
birgt 1513
bungen 1513
gleicher 1513
erre@@ 1513
bereitzustellen 1513
IK@@ 1513
Kreuz@@ 1513
namens 1512
beider 1512
näh@@ 1512
vertra@@ 1512
elli@@ 1512
code 1512
kultur 1511
sprä@@ 1511
Perspektiven 1511
freund@@ 1511
Halle 1511
beitreten 1510
schnelles 1510
Binnenmarkts 1510
internationales 1510
TS 1510
Puerto 1510
Problem@@ 1509
zeigten 1509
überlegen 1509
bli@@ 1509
ständi@@ 1509
Besonderheiten 1508
mern 1508
work 1508
Verzögerung 1507
analy@@ 1507
88 1507
Informationsgesellschaft 1507
Rahmens 1507
türkische 1507
tägliche 1507
igten 1506
Beobachter 1506
Life 1506
chtigkeit 1506
old 1506
Glob@@ 1505
intensi@@ 1505
Parlamenten 1505
Cou@@ 1505
erfahr@@ 1505
fliegen 1505
schaden 1505
Galerie 1505
Ausgleich 1504
kehren 1504
kommende 1504
angeben 1504
Air@@ 1504
Autoren 1504
Rats@@ 1503
errichten 1503
füll@@ 1503
Dienst@@ 1503
erworben 1503
exklusiven 1503
© 1503
Hy@@ 1502
entieren 1502
behand@@ 1502
gerechten 1502
unterhalten 1502
nord@@ 1502
IF@@ 1502
stechnik 1502
Moder@@ 1502
Effekte 1501
müsse 1501
kommerzielle 1501
Afri@@ 1501
ungarischen 1501
riesige 1500
See@@ 1500
bilder 1500
rec@@ 1500
Pin@@ 1500
Gleichbehandlung 1499
Zit@@ 1499
Home 1499
Archiv 1499
MA 1499
ani 1498
süd@@ 1498
dein 1498
streichen 1497
Gelegenheiten 1497
Vorbereitungen 1497
Lösungs@@ 1497
Bett 1497
mission 1497
Erd@@ 1497
Rit@@ 1497
View 1497
Attraktionen 1497
Kluft 1496
gesell@@ 1496
müßte 1496
Tatsachen 1496
begreifen 1496
vergleichen 1496
wirkungen 1495
schaf@@ 1495
pft 1495
Vergleich@@ 1495
bestens 1495
Islam 1495
Comp@@ 1495
ton@@ 1494
Vorredner 1494
reine 1494
schuldig 1494
van@@ 1494
publi@@ 1494
Rom@@ 1494
89 1493
zutiefst 1493
Präsidium 1493
schlimmer 1493
krank@@ 1493
steigenden 1493
belgischen 1492
interessen 1492
wünschenswert 1492
Hinsichtlich 1492
harte 1492
77 1492
enorm 1491
trieb@@ 1491
ärm@@ 1491
hiermit 1491
schaftlichen 1491
Erkenn@@ 1491
Betriebssystem 1491
Entdecken 1491
begrenzten 1490
hinzuweisen 1490
gerichteten 1490
Geschenk 1490
ignorieren 1490
our@@ 1490
jährliche 1489
Ehr@@ 1489
registrieren 1489
landwirtschaftliche 1489
Rande 1488
jahres@@ 1488
wachsen@@ 1488
aufgehoben 1488
Implementierung 1488
biologischen 1488
Fahrzeug@@ 1488
na@@ 1488
kompatibel 1488
unterstreicht 1487
strafrech@@ 1487
We@@ 1487
verhandlungen 1487
therapie 1487
bene 1486
Schwellen@@ 1486
AP@@ 1486
reiz@@ 1486
Tunesien 1486
Tun@@ 1485
Folglich 1485
friedliche 1485
haftet 1485
SC@@ 1485
bs@@ 1484
Beweise 1484
betrag 1484
Trop@@ 1484
Frü@@ 1484
Servic@@ 1484
typische 1484
mitzu@@ 1483
Abgesehen 1483
jeweilige 1483
ebene 1483
deinen 1483
Integrität 1482
Ernennung 1482
aket 1482
erbar 1482
centre 1482
Gran@@ 1482
.org 1482
sender 1481
ertem 1481
Tendenz 1481
Digital 1481
Hilfen 1480
gefällt 1480
positionen 1480
klares 1480
Content 1480
verbrau@@ 1479
diskrimin@@ 1479
wendungen 1479
Camp@@ 1478
ruhiger 1478
Übersetzungen 1477
finanzieller 1477
Kongres@@ 1477
Stich@@ 1476
93 1476
odi@@ 1476
ix 1476
kten 1476
Stein 1476
Sowjetunion 1476
frischen 1476
Ech@@ 1475
Netzes 1475
Besitzer 1475
Rak@@ 1475
Stattdessen 1475
82 1474
aufwand 1474
amtierender 1474
konto 1474
Libyen 1474
Gran 1474
spruch 1473
nom@@ 1473
verst@@ 1473
hte 1472
agieren 1472
unterliegt 1472
Defizite 1471
tags 1471
AR 1471
niedriger 1471
ni 1470
Mitwirkung 1470
erreichte 1470
taus@@ 1470
Flotte 1470
schwerer 1470
Ernährung 1470
ose 1469
Bisher 1469
halb@@ 1469
Abfälle 1469
Energieversorgung 1469
TI@@ 1469
Installations@@ 1469
Effektivität 1468
projekten 1468
ces 1468
vorschlägt 1467
Pir@@ 1467
hebt 1466
Ankündigung 1466
Kin@@ 1466
inbegriffen 1466
Mallorca 1466
schlechter 1465
ströme 1465
dauerhafte 1465
Spielraum 1465
aufeinander 1465
Sonn@@ 1465
Acht 1465
Team@@ 1465
Gerä@@ 1465
Administration 1464
mod@@ 1464
fizieren 1463
gipfel 1463
sexuelle 1463
gert 1462
stab@@ 1462
bist 1462
Leid 1462
vorangegangenen 1461
Abstand 1461
Besuchern 1461
verständ@@ 1460
Mehrwertsteuer 1460
parti@@ 1460
Simbabwe 1460
Boot@@ 1460
Musi@@ 1460
geo@@ 1459
glücklich 1459
Heil@@ 1459
zahlreicher 1458
kommens 1458
jo 1458
Tit@@ 1458
live 1458
fluss 1458
museum 1458
Doha 1458
geklärt 1457
vermis@@ 1457
Schlag@@ 1457
Welthandelsorganisation 1457
unkte 1457
vorkommen 1457
aktivitäten 1457
Hochschul@@ 1457
satzes 1457
Petitions@@ 1457
Karriere 1457
SAP 1457
Billi@@ 1456
glichkeit 1456
wozu 1456
versetzt 1456
Büro@@ 1456
reit@@ 1456
grüne 1456
institutionen 1456
leitet 1456
Flü@@ 1456
Frage@@ 1455
natur@@ 1455
Plas@@ 1455
test 1455
Tar@@ 1455
Montage 1455
Ganzes 1454
ary 1454
nützliche 1454
Fernseher 1454
gewis@@ 1453
abzielt 1453
gebrochen 1453
urs 1453
erbaut 1453
XP 1453
stil@@ 1452
weißen 1452
ema 1452
vorsch@@ 1451
verhältnisse 1451
Berei@@ 1451
Anhänger 1451
Christen 1451
zah@@ 1450
löst 1450
strah@@ 1450
Kön@@ 1449
verschieben 1449
mie 1449
Dienstag 1448
ermitteln 1448
Real@@ 1448
rou@@ 1448
Stahl 1448
bricht 1447
Ner@@ 1447
Seen 1447
durchgesetzt 1446
Studium 1446
vierten 1446
ly@@ 1446
Breit@@ 1446
Trends 1446
Playa 1446
einig@@ 1445
Gaza 1445
wu@@ 1445
korrigieren 1445
gehörige 1445
ausgewogene 1445
Ursprungs@@ 1445
otel 1445
klausel 1444
tätigkeit 1444
regen 1444
Nat@@ 1444
fühlt 1444
erh@@ 1444
Sim@@ 1444
Wand@@ 1443
nö@@ 1443
potenti@@ 1442
Zielsetzung 1442
ausgearbeitet 1442
stag@@ 1442
hor@@ 1442
schöner 1442
Data 1442
asp@@ 1441
denkt 1441
hinein 1441
Vermeidung 1441
Hoh@@ 1441
Ursprung 1441
GVO 1441
utz@@ 1441
Baby@@ 1441
Verkäufer 1441
bereitstellen 1440
objek@@ 1440
Feuer 1440
zeitraum 1439
auseinander 1439
ord 1439
Buchungs@@ 1439
Budapest 1438
messe 1438
Inhaber 1438
zuverlässig 1438
Mini 1438
Zugleich 1437
62 1437
inieren 1437
Zulassung 1437
í 1437
Mont@@ 1437
Zusammen 1436
stabile 1436
iere 1436
personal 1436
BMW 1436
ther 1435
Minderheiten@@ 1435
EW@@ 1435
verknüpft 1434
mente 1434
ille 1434
Ufer 1434
Nachbarschaftspolitik 1434
Infrastrukturen 1433
idealen 1433
spielte 1433
anstreben 1432
ganz@@ 1432
Auseinandersetzung 1432
drück@@ 1432
Jahrzehnte 1432
sek@@ 1432
Berater 1431
78 1431
tes@@ 1431
Dach 1431
bezahl@@ 1431
bach 1431
Mah@@ 1431
Metern 1431
diesmal 1430
Manche 1430
ulieren 1430
Aufruf 1430
Ostsee 1430
herrliche 1430
Reak@@ 1429
verbieten 1429
ama 1429
ols 1429
kali@@ 1429
Zwecken 1429
Flüge 1429
zerstör@@ 1428
fristig 1428
analyse 1428
Nacht@@ 1428
Konflikten 1428
gegebenen 1427
zwangsläufig 1427
tiker 1427
ume 1427
Erste 1427
Sha@@ 1427
erw@@ 1426
anstelle 1426
bemerken 1426
uten 1426
Arbeitskräfte 1426
Ele@@ 1426
gesunde 1426
info 1426
kreu@@ 1426
mengen 1425
mali@@ 1425
AC 1425
bereichs 1425
ernden 1425
Hügel 1425
ffene 1424
sitz 1424
plant 1424
Kurse 1424
bedeutend 1424
islamischen 1424
Taste 1424
abel@@ 1423
zungen 1423
ssigen 1423
maß@@ 1423
arm@@ 1423
exklusive 1423
Dringlichkeit 1422
netze 1422
char@@ 1422
ßer 1422
Aufrechterhaltung 1422
Atlan@@ 1422
Tak@@ 1422
lück@@ 1422
junger 1422
lie 1422
Karten@@ 1422
Erreichen 1421
wesens 1421
äufe 1421
ttern 1421
fertigen 1421
Bedienung 1421
zeichnete 1420
schneiden 1420
fertig@@ 1420
Säule 1420
intensiven 1420
Ret@@ 1420
Tickets 1420
SD@@ 1420
Entspannen 1420
Genf 1419
Ali@@ 1419
bekräftigen 1419
lohnt 1419
Unternehmen@@ 1419
Herr@@ 1419
systematisch 1418
beu@@ 1418
kanische 1418
Cli@@ 1418
zukunfts@@ 1417
nennt 1417
analysiert 1417
zerti@@ 1417
ausgelegt 1417
Wit@@ 1417
PC@@ 1417
tions 1417
zugs@@ 1416
bewe@@ 1416
besagt 1416
energie 1416
Cra@@ 1416
Tennis@@ 1416
japanischen 1415
vorrangig 1415
sozusagen 1415
Angel@@ 1415
unmittelbaren 1415
sinn 1415
anzugehen 1415
Behinderungen 1415
Partei@@ 1415
erhö@@ 1415
ET 1415
glück@@ 1414
Sicherheits- 1414
ade@@ 1414
Est@@ 1414
jo@@ 1414
ßte 1413
zukünftig 1413
ensystem 1413
Entstehung 1413
marktes 1413
verbot 1412
Ausstellungen 1412
Oliven@@ 1412
Box 1412
samer 1411
verschoben 1411
Klassi@@ 1411
Begriffe 1411
reibung 1411
Eli@@ 1411
Cha@@ 1411
üben 1410
Fristen 1410
Informations- 1410
taten 1410
wen 1410
Res@@ 1410
SQL 1410
Einsch@@ 1409
fahrzeugen 1409
Mittel- 1409
Rus@@ 1409
Virus 1409
Kle@@ 1409
Bek@@ 1408
besseres 1408
klu@@ 1408
orten 1408
führender 1408
Brief 1407
rati@@ 1407
umfassendes 1407
kün@@ 1407
versuche 1407
Point 1407
komfortabel 1407
belegt 1406
verleiht 1406
zerstören 1406
reguli@@ 1406
Tibet 1406
reduzi@@ 1406
App@@ 1406
programmi@@ 1406
Annäherung 1405
Nahrungsmittel 1405
Reihenfolge 1405
schrieb 1405
On@@ 1405
only 1405
kompletten 1405
gewöhnlich 1404
Ecke 1404
gekauft 1404
Get@@ 1404
OM@@ 1404
Gau@@ 1404
defizit 1403
Unserer 1403
Reich 1403
chts@@ 1403
Öko@@ 1403
tausende 1403
7,@@ 1403
ehm@@ 1403
Datenbanken 1403
Vermögens@@ 1403
Blut 1403
rö@@ 1403
cor@@ 1402
schulden 1402
Territorium 1402
Haushaltsjahr 1402
Ok@@ 1402
Lobby 1402
Front 1402
verstärkten 1401
enter@@ 1401
Trennung 1401
Meg@@ 1401
tung@@ 1401
geltend 1400
artige 1400
Kop@@ 1400
Ausgang 1400
uliert 1400
ca@@ 1400
Internetseite 1400
Stei@@ 1400
strategien 1399
Gleichheit 1399
ferenzen 1399
wahrnehmen 1399
Visa 1399
änder 1399
fundament@@ 1399
gebenen 1398
sle@@ 1398
freiem 1398
Sper@@ 1398
reis@@ 1398
Pflanzen@@ 1398
Fahrrad@@ 1398
nachzudenken 1397
EVP 1397
verwirklicht 1397
asiatischen 1397
Dum@@ 1397
Gefangenen 1397
Statistik 1397
begab 1397
für@@ 1396
Reichtum 1396
fehlende 1396
Dafürhalten 1396
regelmäßigen 1396
Elementen 1396
strasse 1396
stischer 1395
ies 1395
schä@@ 1395
schreit@@ 1395
stein@@ 1395
personenbezogenen 1395
a.@@ 1395
verwöhnen 1395
Meinungs@@ 1394
rahmens 1394
Zug@@ 1394
Ton 1394
Flug 1394
ès 1394
Gew@@ 1394
ze@@ 1394
film 1394
Schön@@ 1394
eingerichtete 1394
Einwände 1393
rägern 1393
Arzt 1393
prüfung 1393
gratis 1393
Nichtregierungsorganisationen 1392
Komponente 1392
erlau@@ 1392
Statut 1392
Solange 1392
Kredite 1392
Treiber 1392
bevölkerung 1391
ela 1391
Indikatoren 1390
maßgeb@@ 1390
verbindlich 1390
mehrerer 1390
Wach@@ 1390
erb@@ 1390
schönes 1390
Zins@@ 1390
ling@@ 1390
wis@@ 1389
Umstrukturierung 1389
kompliziert 1389
Verantwortungs@@ 1389
Leg@@ 1389
umgekehrt 1389
weichen 1389
indirekt 1389
billi@@ 1389
Kommentar 1389
Board 1389
Stellenwert 1388
längere 1388
klassische 1388
wick@@ 1388
verschiedensten 1388
schwedische 1388
genauen 1387
Freie 1387
Aussichten 1387
wäh@@ 1387
Café 1387
Vista 1387
Person@@ 1386
lieren 1386
Pr@@ 1386
gkeits@@ 1386
sy@@ 1386
Einheiten 1386
Ratspräsidenten 1386
niedrig 1386
sendet 1386
herz@@ 1386
dy@@ 1386
ire 1385
verbesser@@ 1385
waffen 1385
deutlicher 1385
gefolgt 1385
stätte 1385
rich 1385
mo 1385
Event 1385
Open@@ 1385
beantragt 1384
verstän@@ 1384
beglei@@ 1384
anspruchs@@ 1384
Orts@@ 1384
Hard@@ 1384
irre@@ 1383
fünf@@ 1383
Eigentümer 1383
Passagi@@ 1383
Außengrenzen 1383
web@@ 1383
Inanspruchnahme 1382
wirkung 1382
zulässig 1382
stehe 1382
nah 1382
Generalsekretär 1382
skosten 1382
TH@@ 1382
Hans 1382
BR@@ 1382
Tel 1382
Breakfast 1382
verwand@@ 1381
aux 1381
new 1381
arte 1381
Argentinien 1381
schied@@ 1380
Il@@ 1380
deut@@ 1380
Wahr@@ 1380
ance 1380
Mauer 1380
altern@@ 1380
einheit 1380
Hom@@ 1380
Bit 1380
vernünftigen 1379
Fleisch@@ 1379
Entschädigung 1378
unteren 1378
Pack 1378
dom@@ 1378
einheiten 1377
Cu@@ 1377
Linken 1377
Sicherheitsrat 1377
roman@@ 1377
Befehl 1377
giert 1376
Stütz@@ 1376
Skla@@ 1376
Fle@@ 1376
NO@@ 1376
dos 1376
zugän@@ 1376
ty@@ 1376
Geschäftsbedingungen 1376
Interessen@@ 1375
lässigen 1375
häusern 1375
Flüchtlings@@ 1375
Party 1375
Cat@@ 1375
ersuchen 1374
Ersatz 1374
einbringen 1374
dreht 1374
dunk@@ 1374
partner 1374
gelöscht 1374
Verhältnisse 1373
heu@@ 1373
pp 1373
Service@@ 1373
ico 1373
votes 1373
koordinieren 1372
Arbeitslosen@@ 1372
aush@@ 1372
proz@@ 1372
bung 1372
eien 1372
Glo@@ 1372
ws 1372
stet 1371
übersetzt 1371
gabe@@ 1371
can@@ 1371
Automobilindustrie 1370
Südo@@ 1370
maß 1370
over 1370
Deb@@ 1370
haus@@ 1370
llen 1370
nehmer 1370
bürger@@ 1369
zö@@ 1369
Völkern 1369
Fast 1369
igkeiten 1369
Wissen@@ 1369
einzustellen 1369
¶ 1369
Aufwand 1368
initi@@ 1368
finanzierung 1368
Gefäng@@ 1368
Wasch@@ 1368
dest@@ 1367
vorzuschlagen 1367
tin@@ 1367
beeinträchtigen 1367
Temperatur 1367
under 1367
abgesch@@ 1367
eingerichteten 1367
xes 1367
jähriger 1367
Feld@@ 1367
Anzeichen 1366
technologie 1366
dänischen 1366
Zut@@ 1366
Kreis 1366
63 1366
Pau@@ 1366
ville 1366
max 1366
Strasse 1366
wiederhole 1365
firmen 1365
Vermarktung 1365
any 1365
94 1364
Reden 1364
weisungen 1364
lassung 1364
part 1364
Panorama 1364
ältesten 1364
serv@@ 1364
Rechtssicherheit 1363
iler 1363
Wiener 1363
io 1362
kle@@ 1362
AIDS 1362
versi@@ 1362
Tschetschenien 1362
iPhone 1362
moralische 1361
Demokratien 1361
sichti@@ 1361
ams 1361
abgehalten 1361
ständiger 1360
Kathedrale 1360
tü@@ 1359
Einfluß 1358
kommission 1358
Sozialpolitik 1358
meter 1358
gebühr 1358
Sorgfalt 1357
nördlichen 1357
korrekte 1357
tigten 1357
Vorbild 1357
Diktatur 1357
lager 1357
gemeinschaftliche 1356
Demokratisierung 1356
schmerz@@ 1356
Empfän@@ 1356
AK@@ 1356
musik 1356
Naturkatastrophen 1355
beglückwünsche 1355
weis 1355
gesorgt 1355
EX 1355
ł@@ 1355
91 1354
Strah@@ 1354
ausgeübt 1354
beding@@ 1354
bauten 1354
gas 1354
menü 1354
annt 1353
wohn@@ 1353
breites 1353
rie 1353
Leidenschaft 1353
Reserve 1353
rig@@ 1353
Chem@@ 1353
fes 1353
Allgemeine 1353
Tisch@@ 1353
verpflich@@ 1352
Unterhaltungs@@ 1352
vit@@ 1352
nice 1352
fasst 1352
brauch 1351
meister 1351
ester@@ 1351
Gewährung 1350
größtenteils 1350
86 1350
fern@@ 1350
Augenmerk 1350
Anmerkung 1350
stoppen 1350
Finanz- 1350
kommunistischen 1350
überwiegend 1350
Kost@@ 1350
Neu 1350
beantragen 1349
Energies@@ 1349
Ander@@ 1349
chem@@ 1349
begeistert 1349
On 1349
gründlich 1348
Nachteil 1348
Haf@@ 1348
weitem 1348
Gesamtheit 1348
teilungen 1348
gieren 1348
aktiver 1348
materialien 1348
tatsächliche 1348
onie 1348
Aktivi@@ 1348
Schiffen 1347
vertei@@ 1347
untereinander 1347
betrug 1347
ordnen 1347
Gesetzgebungs@@ 1347
Mass@@ 1347
Stellungnahmen 1346
board 1346
fair 1346
Assi@@ 1346
män@@ 1346
vielfältige 1346
Quell@@ 1346
dt 1346
Durchschnitt 1345
Mode 1345
industrielle 1345
Speicher 1345
verliert 1344
dauerhaften 1344
Bür@@ 1344
ünde 1343
Material@@ 1343
Treib@@ 1343
Marketing@@ 1343
pos@@ 1343
vorhaben 1342
zeitlich 1342
Kompromisse 1342
Bud@@ 1342
fortzusetzen 1342
ausgedrückt 1342
deutscher 1342
Eintrag 1342
CHF 1342
punk@@ 1341
Interess@@ 1341
Mühe 1341
vorne 1341
cho@@ 1341
Spek@@ 1340
vorausgesetzt 1340
Aller@@ 1340
standard 1340
chemischen 1340
rem 1340
König@@ 1340
Wochen@@ 1340
din 1340
Grafiken 1340
Indonesien 1339
bedingt 1339
ori 1339
Aufträge 1339
starker 1339
ration@@ 1339
ommen 1339
Telekommunikations@@ 1339
Samm@@ 1339
Ga@@ 1339
billigen 1338
Oli@@ 1338
dauerhaft 1338
geschätzt 1338
ST 1338
Kompromiss@@ 1338
Features 1338
vermu@@ 1337
Zusammenbruch 1337
reicher 1336
Kopie 1336
Vorbehalte 1336
terungen 1336
veränder@@ 1336
user 1336
raums 1335
welle 1335
dahingehend 1335
zustand 1335
wissenschaften 1335
Folgendes 1335
anderswo 1334
religiöse 1334
Wahrscheinlichkeit 1334
chron@@ 1334
UND 1334
Information@@ 1333
Autonomie 1333
einmalige 1333
Kanal 1333
Schwimmbad 1333
beweist 1332
Leistungsfähigkeit 1332
griechische 1332
halb 1332
hinzuzufügen 1332
Rio 1332
Konvents 1332
ía 1332
mol@@ 1332
Manchmal 1331
Dienstes 1331
anbietet 1331
Gesetzen 1331
Touren 1331
Anreiz 1330
Hierbei 1330
mangelnde 1330
transatlantischen 1330
neueste 1330
Durchführungs@@ 1329
Kernenergie 1329
ebung 1329
Anim@@ 1329
oo@@ 1329
vorhandene 1328
pläne 1328
müh@@ 1328
Impulse 1328
faktor 1328
Gemeinsam 1328
top@@ 1328
IV@@ 1328
geordneten 1327
ellem 1327
belegen 1327
vereinfacht 1327
abzulehnen 1327
ys@@ 1327
Partnerschafts@@ 1327
Ran@@ 1327
Konstruk@@ 1327
Sie@@ 1327
Ausfahrt 1327
Erneuerung 1326
Studien@@ 1326
Wahrnehmung 1326
reibungen 1326
igung 1326
Master 1326
Entwicklungspolitik 1325
Beobach@@ 1325
einzigartig 1325
idealer 1325
traum@@ 1325
site 1325
81 1324
Wurzeln 1324
mobili@@ 1324
quali@@ 1324
gischen 1324
außergewöhnliche 1324
wende 1323
Sy@@ 1323
Kommunikation@@ 1323
normal 1323
ALE 1323
Zinsen 1323
grös@@ 1323
bewirkt 1322
Redezeit 1322
Aro@@ 1322
übrig 1322
Signale 1322
entiert 1322
großartige 1322
TA 1322
meistens 1322
Apple 1322
mittel- 1321
festhalten 1321
Sau@@ 1321
Städ@@ 1321
bezogenen 1320
zip 1320
Forst@@ 1320
Roll@@ 1320
kro@@ 1320
PH@@ 1320
Beachten 1320
Herberge 1320
MP3 1320
Whirlpool 1320
geren 1319
trock@@ 1319
omp@@ 1319
veranstaltungen 1319
Key@@ 1319
engagieren 1318
verhältnis 1318
verschwinden 1318
Rechtsan@@ 1318
allmählich 1318
daten@@ 1318
derungen 1317
69 1317
Funktions@@ 1317
Substanzen 1317
fähiger 1316
einsetzt 1316
Feuer@@ 1316
Minder@@ 1316
Foren 1316
Onlin@@ 1316
fuhren 1315
sieb@@ 1315
genügt 1315
arbeiter 1315
Aufsicht 1315
anfangen 1315
Immunität 1315
beliebten 1315
Formel 1315
EM 1315
Piazza 1315
Zuerst 1314
einzuleiten 1314
Beitrittsverhandlungen 1314
Einwohnern 1314
ffs 1314
erhol@@ 1314
besetzt 1314
Ol@@ 1314
en.@@ 1314
lob@@ 1313
73 1313
mache 1313
unterstrichen 1313
Einbindung 1313
Dam@@ 1313
Gefan@@ 1313
orte 1313
schar@@ 1312
ystem 1312
Index 1312
Maß@@ 1312
AT 1312
61 1312
Siehe 1312
Landwirten 1311
fließen 1311
differenzi@@ 1311
schaftliche 1311
drin@@ 1311
start 1311
Urheber@@ 1311
Industriepolitik 1310
Frankreichs 1310
Spuren 1310
Rock 1310
optimalen 1309
mein@@ 1309
Jung@@ 1309
sozial 1309
verträge 1309
Sand 1309
Schmu@@ 1309
ble 1309
verglichen 1309
zeichnungen 1309
PRO@@ 1309
voranzutreiben 1308
ises 1308
Hierzu 1308
kap@@ 1308
Gegenstände 1308
Ziels 1307
Berechnung 1307
Not 1307
Komple@@ 1307
Juden 1307
signi@@ 1306
begrenz@@ 1306
Einladung 1306
fünfzehn 1306
gleichzei@@ 1306
76 1306
stör@@ 1306
GR@@ 1306
Wechsel 1305
inwieweit 1305
lle 1305
Anwendungsbereich 1305
otten 1305
Golfplatz 1305
rungen 1304
vorzubereiten 1304
jahr@@ 1304
erweiterte 1304
Hab@@ 1304
Benutzern 1304
log 1304
Release 1304
Nä@@ 1303
Etik@@ 1303
kus@@ 1303
Logo 1303
Domain 1303
letztes 1302
Refer@@ 1302
Mehrere 1302
Demokrati@@ 1302
ament 1302
illegal 1302
Moderne 1302
iche 1302
Dir 1302
derte 1301
grundlage 1301
Europäisches 1300
vil@@ 1300
Halbinsel 1300
Schwan@@ 1299
Oper@@ 1299
Voraus 1299
Koh@@ 1299
Bak@@ 1299
Sem@@ 1299
straßen 1298
fache 1298
Wert@@ 1298
Tat@@ 1298
erschein@@ 1298
leichten 1298
tels 1298
Reb@@ 1298
Operationen 1298
Unternehmer@@ 1297
mehrmals 1297
zivilen 1297
tem@@ 1297
Control 1297
Award 1297
erreichten 1296
verbin@@ 1296
ausgebaut 1296
ausbildung 1296
fischen 1296
ständiges 1296
anlässlich 1296
sel 1295
immerhin 1295
peri@@ 1295
lem 1295
benötigten 1295
präz@@ 1295
kin@@ 1295
DIE 1295
Block@@ 1294
äden 1294
artig 1294
verbreiten 1294
format 1294
ziehung 1294
Green 1294
DC 1294
Artikels 1293
bten 1293
Nuklear@@ 1293
inf@@ 1293
fak@@ 1293
Luxus@@ 1293
Solar@@ 1293
Swiss 1293
,000 1293
spre@@ 1292
kurz@@ 1292
James 1292
ritt 1292
Zauber@@ 1292
Architekten 1292
star 1292
Kie@@ 1292
niedri@@ 1291
multilateralen 1291
Anreise 1291
gericht 1291
lon@@ 1291
my@@ 1291
verbindliche 1290
städtischen 1290
ausmachen 1290
akten 1290
inge 1290
gehend 1290
Schlei@@ 1290
besticht 1290
benachrichtigt 1290
ence 1290
vorbereiten 1289
Sozialisten 1289
heik@@ 1289
tend 1289
koh@@ 1289
geho@@ 1289
revolution@@ 1289
entworfen 1289
Diam@@ 1289
Beförderung 1288
Ansätze 1288
Orientierung 1288
Fußball 1288
zusammenzu@@ 1288
bereitschaft 1288
Hoffnungen 1288
position@@ 1288
New@@ 1288
malerischen 1288
Insofern 1287
ssige 1287
veröffentlichten 1287
erische 1287
intern@@ 1287
behindert 1287
anten@@ 1287
schwäch@@ 1286
Dienststellen 1286
bekämpft 1286
befreien 1286
Banken@@ 1286
egel@@ 1286
verbindung 1286
famili@@ 1286
UNESCO 1286
Real 1286
HD 1286
Zustellbetten 1286
ausführliche 1285
stechn@@ 1285
zweck@@ 1285
sters 1285
run@@ 1285
Moldau 1285
Freien 1285
tragenen 1284
Temperaturen 1284
einhei@@ 1284
fel 1284
gesetzliche 1284
aden@@ 1284
Jahrzehnt 1284
angeführt 1284
Auswahl@@ 1284
weitergegeben 1284
neo@@ 1284
höh@@ 1284
Zugangs@@ 1284
illi@@ 1284
erinnen 1284
geschwindigkeit 1284
Swimmingpool 1284
motivi@@ 1283
Gelände 1283
investitionen 1282
energie@@ 1282
Hunger 1282
bor@@ 1282
gio 1282
Hostel 1282
anen 1281
strebt 1281
sachen 1281
tner 1281
packen 1281
erie 1281
Bag@@ 1281
gebrau@@ 1281
Möchten 1281
Mol@@ 1281
forderungen 1280
Norwegen 1280
Königreichs 1280
wandern 1280
opp@@ 1280
Schiffs@@ 1280
lichung 1280
Szene 1280
Mitgliedsstaaten 1280
dur@@ 1280
datum 1280
stattung 1280
Pum@@ 1280
DO@@ 1280
sensi@@ 1279
Schlußfolgerungen 1279
Ungleichheiten 1279
Schluß 1279
stau@@ 1279
gratuliere 1279
treibt 1279
bul@@ 1279
Bürgerrechte 1279
Küchen@@ 1279
angemessener 1278
wirksam@@ 1278
Meinungsäußerung 1278
eken 1278
Tochter 1278
Neuigkeiten 1278
Tee 1278
kapit@@ 1277
abzuschließen 1277
interess@@ 1277
eur 1277
Toleranz 1277
Griff 1277
gültigen 1277
wickelt 1277
ci 1277
Gay 1277
betreibt 1276
anstal@@ 1276
tors 1276
Eintritt 1276
Blo@@ 1276
endete 1276
HIV 1276
Bou@@ 1276
Strategi@@ 1275
erschüt@@ 1275
quoten 1275
Variante 1275
tags@@ 1275
bedürfen 1274
gesetzlich 1274
74 1274
stunden 1274
Visum@@ 1274
getestet 1274
Rand@@ 1273
inhal@@ 1273
Zahlreiche 1273
Zeitungen 1273
Verbrauch 1273
berger 1273
UT@@ 1273
untern@@ 1272
Prü@@ 1272
feier@@ 1272
erkenn@@ 1272
schle@@ 1272
Dokument@@ 1272
Alp@@ 1272
CDs 1272
server 1272
entwickel@@ 1271
wirksamer 1271
Schaf@@ 1271
ektionen 1271
abschließen 1271
Ari@@ 1271
Vielmehr 1271
mieten 1271
Ärzte 1270
amtierenden 1270
bers 1270
Sämtliche 1270
Wunder 1270
gelang 1270
füllt 1270
häufiger 1269
bte 1269
serklärung 1269
esse 1269
kö@@ 1269
manu@@ 1269
stieg@@ 1268
Defizit 1268
Mailand 1268
schaftlich 1267
enswer@@ 1267
Entschei@@ 1267
Autorität 1267
zuverlässige 1267
frühere 1267
abgeschafft 1267
Statt 1267
Bla@@ 1267
best 1267
inische 1267
diesbezüglichen 1266
Aktiv@@ 1266
Schreib@@ 1266
Fischereiabkommen 1266
Deine 1266
schaftlicher 1265
Weihnachts@@ 1265
Schwar@@ 1265
Selb@@ 1265
anmelden 1265
Saddam 1265
One 1265
these 1264
Pot@@ 1264
abgestimm@@ 1264
äle 1264
siv 1263
Gemeinschaftsrecht 1263
ahr@@ 1263
drehen 1263
startet 1263
Kohäsion 1262
ßes 1262
Schließung 1262
erwar@@ 1262
bot@@ 1262
Tot@@ 1262
fang@@ 1262
fro@@ 1262
Anders 1262
geachtet 1262
flüge 1262
kämp@@ 1261
Prop@@ 1261
blü@@ 1261
9,@@ 1261
kos 1261
preises 1261
EA 1261
grundlegend 1260
koordiniert 1260
gerer 1260
tivität 1260
bemerkt 1260
wunderbare 1260
hinterlassen 1260
Basis@@ 1260
leihen 1260
Wohlbefinden 1260
Besteller 1260
Ruh@@ 1259
Bul@@ 1259
Ganzen 1259
Fertigungs@@ 1259
ffer 1258
zunehmen@@ 1258
Papier@@ 1258
amtierende 1258
Gegenwärtig 1258
Verbindungs@@ 1258
Gam@@ 1258
deutsch 1258
zin@@ 1258
wachen 1257
Zäh@@ 1257
ages 1257
aria 1257
Salzburg 1257
Tipps 1257
reform@@ 1256
höchst@@ 1256
Anpassungen 1256
Folter 1256
brut@@ 1256
abwechslungs@@ 1256
Kup@@ 1256
ble@@ 1256
Ski 1256
luxuriöse 1256
glicher 1255
Flüchtlingen 1255
meint 1255
Copyright 1255
Uhr@@ 1255
Sortiment 1255
gefühl 1254
Beträge 1254
harten 1254
atur 1254
about 1254
eingeben 1254
abhängen 1253
Helsinki 1253
enor@@ 1253
Währungen 1253
Beibehaltung 1253
zur@@ 1253
ING 1253
Maxim@@ 1252
kompetenz 1252
worauf 1252
Zentren 1252
verband 1252
bekanntesten 1252
runden 1252
leiste 1252
walt 1251
Gültigkeit 1251
gesenkt 1251
appen 1251
konkre@@ 1251
dynamischen 1251
Große 1251
Passagiere 1251
kauf@@ 1251
Premium 1251
ausgehend 1250
unterhalb 1250
lichere 1250
IA@@ 1250
Lobby@@ 1250
stabilen 1250
Stadtteil 1250
Gemüse 1250
Gegebenheiten 1249
Prof@@ 1248
berührt 1248
ansä@@ 1248
Gesundheitswesen 1248
ektion 1248
gü@@ 1248
andau@@ 1248
Hum@@ 1248
warmen 1248
mes@@ 1248
Fitness@@ 1248
transpor@@ 1247
Bir@@ 1247
Gedanke 1247
Streitkräfte 1247
irgendeine 1247
Män@@ 1247
Hongkong 1247
lia 1247
than 1247
Dich 1247
träglich 1246
OLAF 1246
äd@@ 1246
büros 1246
Fertigung 1246
regelungen 1245
würdi@@ 1245
lock@@ 1245
Alkohol 1245
Zivilisation 1245
Finanzielle 1245
beruf@@ 1245
wechselt 1245
IM 1245
Executive 1245
aufweist 1244
klarstellen 1244
regelmäßige 1244
festgehalten 1244
blockiert 1244
Nutzungs@@ 1244
wenngleich 1243
Hung@@ 1243
Dich@@ 1243
alien 1243
Zeile 1243
Terror@@ 1243
Brem@@ 1243
Max 1243
Bonus 1243
spür@@ 1242
etzt 1242
verhandelt 1242
Katastrophen@@ 1242
Gesetz@@ 1242
Maßstab 1242
bedeutendsten 1242
ost@@ 1242
bestraft 1242
Konvergenz 1241
Ul@@ 1241
u.@@ 1241
frisch 1241
LT 1241
Alexander 1240
einbeziehen 1240
verordnung 1240
ausgewogen 1240
Verhinderung 1240
inne 1240
Hunderte 1240
ford 1240
ED 1239
durchschnittlich 1239
Kriterium 1239
vereinbarung 1239
stahl 1239
glich@@ 1239
archi@@ 1239
esti@@ 1238
Energiever@@ 1238
Versorgungs@@ 1238
Peking 1238
dringen 1238
verschärft 1238
Projektes 1238
äußer@@ 1237
Listen 1237
kes 1237
schulen 1237
HU 1237
verteilen 1236
freu@@ 1236
luft@@ 1236
Thailand 1236
alternativen 1236
verzer@@ 1235
ürz@@ 1235
traditionell 1235
Det@@ 1235
kunst 1235
Laser@@ 1235
schreiten 1234
Hindernis 1234
kapital 1234
Kongo 1234
40@@ 1234
leidung 1234
Entschließungsanträge 1233
fungs@@ 1233
global 1233
persönlicher 1233
Applikationen 1233
ong@@ 1233
bed 1233
vielfach 1232
brachten 1232
berau@@ 1232
Leu@@ 1232
clean 1232
located 1232
Gleichwohl 1231
aufre@@ 1231
Parks 1231
schien 1231
Dutz@@ 1231
Ty@@ 1231
gemachten 1231
mensch@@ 1231
hy@@ 1231
Amp@@ 1231
LU@@ 1231
bekanntlich 1230
bi 1230
nutzung 1230
Sevilla 1230
Konzert 1230
erschienen 1230
beachtet 1229
rechnung 1229
kommun@@ 1229
án 1229
High@@ 1229
Pack@@ 1229
Ausschüssen 1228
herrschenden 1228
ausreichen 1228
diplomatischen 1228
Diplom@@ 1228
benutzer@@ 1228
tie 1228
stechnologien 1227
dürften 1227
stützt 1227
herausge@@ 1227
fft 1227
anzuerkennen 1227
Schwimm@@ 1227
Km 1227
beunruhi@@ 1226
extra 1226
sämtlicher 1225
laufende 1225
begrenzen 1225
Stur@@ 1225
rische 1225
Komplexität 1225
effizi@@ 1225
Endes 1225
Direktor 1225
identifizieren 1225
stufen 1225
ffe 1224
führend 1224
Dörfer 1224
Edi@@ 1224
Ram@@ 1224
Zubehör 1224
heil@@ 1223
87 1223
Stau@@ 1223
passenden 1223
lusses 1223
Bay 1223
Versand@@ 1223
Siemens 1223
Erleben 1223
Guide 1223
element@@ 1222
erwarte 1222
erfassen 1222
gebrachten 1222
Eink@@ 1222
optimieren 1222
LAN 1222
Bauern@@ 1222
gemä@@ 1221
ausgestatteten 1221
echter 1221
Nachteile 1221
späten 1221
latein@@ 1221
ball 1221
Rechtsrahmen 1220
zurückkommen 1220
ausgenommen 1220
schwarzen 1220
port 1220
ext 1220
rom 1220
tschechischen 1220
SM@@ 1220
abzugeben 1219
Krimin@@ 1219
europa@@ 1219
Minimum 1219
Pfei@@ 1219
drücke 1219
Vogel@@ 1218
situationen 1218
Aufgaben@@ 1218
Palästinen@@ 1218
Brü@@ 1218
Sierra 1218
Milch 1218
Porto 1218
Ticket 1218
Room 1218
dacht 1217
gestrichen 1217
Sozialpartner 1217
Aufklärung 1217
Fokus 1217
amerikanischer 1217
Zellen 1217
Radio@@ 1217
authenti@@ 1217
Vorstand 1217
Plugin 1217
Früchte 1216
gehörte 1216
Persön@@ 1216
Garan@@ 1216
Herstellern 1216
zweimal 1215
gezielt 1215
Schwerpunkte 1215
schaft@@ 1215
vereinbaren 1215
Kn@@ 1215
Betrach@@ 1214
aufrufen 1214
Stabilisierung 1214
Dritt@@ 1214
Säu@@ 1214
trenn@@ 1214
erneu@@ 1214
unternehmer@@ 1213
verweist 1213
ränkten 1213
Wes@@ 1213
Adri@@ 1213
herrschen 1213
teres 1213
versetzen 1213
Charles 1213
Veranstaltungs@@ 1213
Main 1213
Wäscheservice 1213
Ern@@ 1212
gezahlt 1212
ausführ@@ 1212
Internation@@ 1212
gend@@ 1212
wertvollen 1212
Bier 1212
Darlehen 1212
American 1212
Thermal@@ 1212
XML 1212
reck@@ 1211
tiefen 1211
deli@@ 1211
auftritt 1211
Übermittlung 1211
Übereinkunft 1211
solidar@@ 1211
Level 1211
Wärme 1211
Versand 1211
EX@@ 1211
verlängert 1210
vorgesehene 1210
langjährige 1210
automatischen 1210
fertigung 1210
KDE 1210
reiten 1209
volumen 1209
Stimmung 1209
Vorbe@@ 1208
gründe 1208
ald 1208
gerei@@ 1208
Bestrebungen 1208
Wissens 1208
Ess@@ 1208
thal@@ 1207
vorzugehen 1207
medizin@@ 1207
außer@@ 1207
Fäl@@ 1207
Kindes 1207
Künstlern 1207
DS@@ 1207
begriffen 1206
Ke@@ 1206
Auflagen 1206
Abwicklung 1206
Schlu@@ 1206
Netzwerke 1206
Sto@@ 1206
Birma 1206
Commerce 1206
Stuttgart 1206
Entfer@@ 1205
Akzeptanz 1205
Ganze 1205
Mich@@ 1205
83 1204
Krä@@ 1204
Super 1204
aufhören 1204
Diejenigen 1204
Konsolidierung 1204
Festung 1204
900 1204
iranischen 1204
Ed@@ 1204
Arbeitszeit 1203
nähe 1203
inspiri@@ 1203
sur@@ 1203
Sicherstellung 1203
Echtzeit 1203
Explorer 1203
drittens 1202
Patten 1202
Besetzung 1202
Aff@@ 1202
Nachbarschaft 1202
ce@@ 1202
territorialen 1201
erkennbar 1201
Freizei@@ 1201
Erwerb 1201
Sieb@@ 1201
Suchen 1201
Kün@@ 1200
ehr 1200
Vietnam 1200
zulegen 1199
Funktionsweise 1199
schlimmsten 1199
Schottland 1199
ausgeben 1199
Mitgliedsländer 1199
Sofern 1199
Begeisterung 1199
ques 1199
modelle 1199
Segel@@ 1199
Fitness 1199
nen@@ 1199
gehand@@ 1198
zugreifen 1198
ambi@@ 1198
stö@@ 1198
Satelliten 1198
konz@@ 1198
Joseph 1198
optionen 1198
unvergesslichen 1198
Risi@@ 1197
Optim@@ 1197
Überleben 1197
Mart@@ 1197
Nom@@ 1197
V. 1197
preisen 1197
Kapitalismus 1197
Verein 1197
della 1197
Brow@@ 1197
Sozialdemokratischen 1196
vereinbar 1196
zuführen 1196
Kommissars 1196
Kompromiß 1196
geisti@@ 1196
inierten 1196
Roman@@ 1196
basierend 1196
CE 1196
Klick 1196
Räumen 1195
bereitgestellten 1195
Störungen 1195
sache 1195
Änderungs@@ 1195
Autor@@ 1195
saal 1195
Central 1195
hl 1195
Snow@@ 1195
Zent@@ 1194
mah@@ 1194
ination 1194
acht@@ 1194
schätzt 1194
Bedrohungen 1194
ous@@ 1194
Konsumenten 1194
Estland 1194
Nordkorea 1194
fassten 1194
Cho@@ 1194
friendly 1194
Display 1194
zierten 1193
kehr 1193
Wich@@ 1193
massive 1193
versprochen 1193
wirtschaf@@ 1193
funden 1193
Patri@@ 1193
plä@@ 1193
Literatur 1193
pragmati@@ 1193
Erstellen 1193
herunter 1193
vollkomm@@ 1192
außergewöhnlichen 1192
legislativen 1192
Geburt 1192
Airlines 1192
kür@@ 1191
leute 1191
Bed@@ 1191
Buchstaben 1191
rung 1191
Lun@@ 1191
Security 1191
bedaure 1190
beihilfen 1190
Geschichten 1190
Persönlichkeiten 1190
Rücken 1190
genetisch 1190
Pfeiler 1189
Ungleichheit 1189
GA 1189
gewaltige 1189
schicht 1189
schwan@@ 1189
Folge@@ 1189
Inflations@@ 1189
Tagungs@@ 1189
2,5 1188
Monats 1188
Schnei@@ 1188
Baum@@ 1188
Der@@ 1188
entlich 1188
Kohlen@@ 1188
besu@@ 1188
Che@@ 1188
gesendet 1188
installi@@ 1188
ständigkeit 1187
geschenkt 1187
niedrige 1187
perman@@ 1187
schie@@ 1187
Asyl 1187
Bit@@ 1187
Beispielsweise 1186
Gewi@@ 1186
ungsh@@ 1186
kritisieren 1185
Stockholm 1185
ernannt 1185
nd 1185
Afrikas 1185
beliebtesten 1185
è 1185
DR@@ 1185
zuständige 1184
fundi@@ 1184
Gremien 1184
gewal@@ 1184
höhe 1184
Phasen 1184
Gastfreundschaft 1184
Wetter@@ 1184
tagung 1183
ebt 1183
hrt 1183
vers 1183
bewegungen 1183
sendung 1183
Stränden 1183
Journ@@ 1182
Delegationen 1182
steigende 1182
Bestände 1182
geschlossene 1182
zügen 1182
Casa 1182
herbei@@ 1181
Zukunfts@@ 1181
fru@@ 1181
eg 1181
imm@@ 1181
Forscher 1181
formular 1181
reali@@ 1180
arme 1180
union 1180
GUE 1180
fehler 1180
bestellt 1180
vorberei@@ 1180
Himm@@ 1180
sich@@ 1180
zips 1179
olog@@ 1179
Fahrzeugen 1179
ín 1179
dynamische 1179
Überwindung 1178
dak@@ 1178
Tem@@ 1178
Loch 1178
Korea 1178
krieg@@ 1178
grafischen 1178
Zusammenhalts 1177
österreichische 1177
Zwischenzeit 1177
Impf@@ 1177
Techni@@ 1177
Egal 1177
Firefox 1177
Begrenzung 1176
leh@@ 1176
aly@@ 1176
partner@@ 1175
02@@ 1175
stam@@ 1175
Aufstockung 1175
geeinigt 1175
Pakt 1175
übertrag@@ 1175
isse 1175
Technologi@@ 1175
Kreatur 1175
aufrechtzuerhalten 1174
behindern 1174
Register 1174
strom 1174
abschließ@@ 1174
Olympischen 1174
Chaos 1174
Ebenfalls 1174
gter 1174
Basel 1174
Elektriz@@ 1174
Proz@@ 1174
olen 1174
Minde@@ 1173
Verkehrsmittel 1173
tender 1173
lans 1173
jenige 1173
Appell 1173
setzten 1173
Erkrankungen 1173
84 1173
Stan@@ 1173
Vel@@ 1173
Spielern 1173
Rechn@@ 1172
schweigen 1172
Mitbürger 1172
Kanäle 1172
Resultat 1172
Fundament 1172
OSZE 1172
tigungen 1172
Spi@@ 1172
kopieren 1172
Past@@ 1172
Les 1172
luss 1172
zehn@@ 1171
henden 1171
spi@@ 1171
Zucker 1171
Fabri@@ 1171
aktivi@@ 1171
Kalender 1171
ekten 1170
steck@@ 1170
back 1170
Zusammenfassung 1170
Michel 1170
Klaren 1170
AM 1170
tiver 1169
israelische 1169
mitglied 1169
anzusehen 1169
deb@@ 1169
SK 1169
unmittelbare 1168
diverse 1168
Nordirland 1168
Italiens 1168
massiven 1168
eingang 1168
TEN 1168
с@@ 1168
bestände 1167
bestanden 1167
Einblick 1167
terten 1167
Freilassung 1167
heb@@ 1167
loh@@ 1167
freundlicher 1167
Flach@@ 1167
ektor 1167
radio@@ 1167
bürgerliche 1167
Sehen 1167
Vari@@ 1167
ê@@ 1167
fot@@ 1167
Games 1167
Subsidiaritätsprinzip 1166
Gemeinschaftsebene 1166
männ@@ 1166
ausdrück@@ 1166
Hintergrund@@ 1166
Zoll 1166
Interface 1166
Account 1166
Verpackung 1165
bus@@ 1165
verdanken 1165
förmi@@ 1165
Ideal 1165
Islam@@ 1165
Jan@@ 1165
belieb@@ 1165
Tag@@ 1164
Instabilität 1164
ansch@@ 1164
ecke 1164
Sudan 1164
Algerien 1164
westliche 1164
system@@ 1164
Sol 1164
eta 1164
town 1164
RSS 1164
kriti@@ 1163
machung 1163
Konzern 1163
Fair@@ 1163
ammern 1163
Alpen@@ 1163
überzeu@@ 1163
gesundheits@@ 1163
Rin@@ 1163
mobilen 1163
lasten 1162
Daraus 1162
Bestimm@@ 1162
zierte 1162
Erhebung 1162
zügi@@ 1162
Einsparungen 1162
profitiert 1162
geführte 1162
zierung 1162
geschützten 1162
Blair 1162
trieb 1162
klimati@@ 1162
Internetseiten 1162
osteuropäischen 1161
Erfassung 1161
ergänz@@ 1161
annehm@@ 1161
artigen 1161
bas@@ 1161
beunruhigt 1161
France 1161
lös@@ 1161
verlust 1161
Heim@@ 1161
low 1161
vernünf@@ 1160
Verhaltenskodex 1160
getroffenen 1160
widerspiegelt 1160
LA 1160
obgleich 1159
Karl 1159
abel 1159
gedenkt 1159
Schulz 1159
350 1159
ühle 1159
SU@@ 1159
Kit@@ 1159
great 1159
einrichten 1158
beobachtet 1158
SY@@ 1158
Fremden@@ 1158
ländischen 1158
Intern@@ 1158
gels 1158
lief 1158
Subjek@@ 1158
pflan@@ 1158
ano@@ 1158
läne 1157
halben 1157
gebnisse 1157
markiert 1157
widerspiegeln 1157
facto 1157
schaff@@ 1157
Chinesen 1157
Chile 1157
su 1157
räger 1157
wandeln 1157
Zinssätze 1157
Kameras 1157
Studios 1157
kunft@@ 1156
appelliere 1156
Nichts 1156
Sicht@@ 1156
ös@@ 1156
Voraus@@ 1156
Lizenzen 1156
Touristen@@ 1156
Obst 1156
GPS 1156
Termine 1155
Hauptziel 1155
bewahrt 1155
Unregelmäßigkeiten 1155
Zusagen 1155
geholt 1155
uneingeschränkte 1155
damaligen 1155
Balkan@@ 1155
gewöhnliche 1155
wuchs 1155
Rechtsprechung 1154
anzen 1154
positives 1154
Landschaften 1154
Schätzungen 1154
selek@@ 1154
abschluss 1154
Prof. 1154
einhalb 1153
Umstellung 1153
Pak@@ 1153
Wiederein@@ 1153
Stil@@ 1153
formulieren 1153
anien 1153
südlich 1153
berühmt 1153
ous 1153
doppel@@ 1152
statt@@ 1152
herrschaft 1152
Fak@@ 1152
kultureller 1152
aktionen 1152
diente 1152
Ero@@ 1152
Spor@@ 1152
flüsse 1152
Engineering 1152
â@@ 1152
Konferenz- 1152
genommenen 1151
luß@@ 1151
banken 1151
themen 1151
nahen 1151
79 1151
hochwer@@ 1151
biologische 1151
Standorten 1151
acken 1151
servi@@ 1151
Up@@ 1151
Zus@@ 1150
bilaterale 1150
Bemühen 1150
pflegen 1150
übergreifende 1150
hunder@@ 1150
strukturellen 1150
selts@@ 1150
achtung 1150
gewahrt 1149
veröffentlichte 1149
transparente 1149
jemanden 1149
freiwillig 1149
auto@@ 1149
seitdem 1149
ml 1149
v. 1149
Blue 1149
alter@@ 1148
herunter@@ 1148
Teilnehmern 1148
bücher 1148
atik 1148
pap@@ 1148
Ära 1148
Ansprechpartner 1148
Funk@@ 1148
Route 1148
grafische 1148
Workshops 1148
Zeitalter 1147
debatte 1147
Audi@@ 1147
nehm@@ 1147
erender 1147
Einleitung 1147
But@@ 1147
Grö@@ 1147
Esp@@ 1147
Warcraft 1147
stärke 1146
Schritten 1146
geneti@@ 1146
intelligente 1146
Migranten 1146
saison 1146
sts 1146
verantwortung 1145
Bundesrepublik 1145
polizei@@ 1145
ank 1145
verbundene 1145
ow 1145
lic@@ 1145
ación 1145
Fax- 1145
gerin 1144
Viertens 1144
faktoren 1144
dorthin 1144
Dest@@ 1144
touristischen 1144
Techn@@ 1144
Norm 1144
parks 1144
ruf@@ 1144
Rohstoff@@ 1144
Antrieb@@ 1144
verteidigt 1143
drängt 1143
fizierten 1143
Verschlechterung 1143
Theater@@ 1143
Rohstoffe 1143
ckte 1143
Datent@@ 1143
Run@@ 1143
Nero 1143
Friendly 1143
hinnehmen 1142
Fülle 1142
brin@@ 1142
erho@@ 1142
erzählt 1142
oc@@ 1142
Tagungen 1142
Meer@@ 1142
enswerten 1141
gewähr@@ 1141
ust 1141
dierung 1141
beliebt 1141
Biokraft@@ 1141
aufgegriffen 1140
Kohäsionsfonds 1140
bige 1140
OECD 1140
doppelt 1140
atte 1140
akzep@@ 1139
sozio@@ 1139
berechti@@ 1139
erzeugung 1139
problemen 1139
sidenten 1139
Bewer@@ 1139
Freizeit 1139
Kühl@@ 1139
verschlüssel@@ 1139
Square 1139
Ashton 1139
Lebensbedingungen 1138
moderni@@ 1138
erweise 1138
zweif@@ 1138
Nutzern 1138
Bed 1138
Nikon 1138
Erdbeben 1137
hochrangi@@ 1137
nisch 1137
sia 1137
Fischer@@ 1137
lagen@@ 1137
GO 1137
Nationalpark 1137
Zentralbanken 1136
dul@@ 1136
erbringen 1136
stisch 1136
Unterstütz@@ 1136
PP@@ 1136
Poker@@ 1136
zugang 1136
Eleganz 1136
esi@@ 1136
sichtlich 1135
digkeit 1135
super 1135
schwarz 1135
deckung 1135
Gesichtspunkt 1135
Stabilitätspakt 1135
kapazität 1135
card 1135
ßten 1134
flexiblen 1134
Eisen@@ 1134
Mitentscheidung 1134
zonen 1134
erschien 1134
kampf 1134
Kontinents 1134
einlad@@ 1134
Terror 1133
ehrgeizige 1133
demselben 1133
Ministerpräsidenten 1133
trag 1133
spieler 1133
anwendungen 1133
renovierte 1133
einschlägigen 1132
irgendwann 1132
fän@@ 1132
agt 1132
schwach 1132
Jahrestag 1132
leben@@ 1131
hervorzuheben 1131
schriftlichen 1131
eventuelle 1131
Chemikalien 1131
limm@@ 1131
erzielte 1131
ausgewählte 1131
Institute 1131
Fot@@ 1131
ALDE 1131
gerte 1130
anerkannten 1130
Stadium 1130
veranlassen 1130
gebor@@ 1130
Kolumbien 1130
präsen@@ 1130
potenziellen 1130
Doppelbett 1130
URL 1130
Vertriebs@@ 1129
direkter 1129
Rü@@ 1129
wärts 1129
Fas@@ 1129
last@@ 1129
Zertifizierung 1128
verlängern 1128
Inform@@ 1128
venti@@ 1128
Haushaltsausschusses 1128
mächtigen 1128
Don@@ 1128
abteilung 1128
Werde 1128
.- 1128
äum@@ 1127
hoff@@ 1127
aufkommen 1127
Vermögen 1127
Erzeugnissen 1127
schätz@@ 1127
ov 1127
Sammel@@ 1127
Flächen 1127
Maus@@ 1127
möglicher 1126
Verstöße 1126
Solana 1126
Logistik 1126
Erweiterungen 1126
Pfer@@ 1126
DS 1126
Spanisch 1126
Sat 1126
Davon 1125
Chin@@ 1125
höherer 1125
Möbel 1125
tic@@ 1125
Sili@@ 1125
BA 1125
einräumen 1124
struk@@ 1124
Gesetzgeber 1124
bungs@@ 1124
transeuropäischen 1124
don 1124
dei 1124
Dienstleistungsrichtlinie 1124
qm 1124
verursachten 1123
streiten 1123
kommunizieren 1123
Herzegowina 1123
Lettland 1123
Spe@@ 1123
überdenken 1122
erfahrenen 1122
möge 1122
fläch@@ 1122
Warnung 1122
ppt 1122
Verbin@@ 1122
ologen 1122
packt 1122
FI 1122
juristischen 1121
gefahren 1121
eds 1121
lieferungen 1121
Artikeln 1121
Gor@@ 1120
Richtigkeit 1120
Angeboten 1120
Gemü@@ 1120
Pharma@@ 1120
prozessen 1120
ami 1120
geschnitten 1119
entziehen 1119
Ungleich@@ 1119
berechtigte 1119
merken 1119
kenntnisse 1119
Formul@@ 1119
schlim@@ 1118
demnächst 1118
Aufstellung 1118
überwälti@@ 1118
Gewässern 1118
wissens@@ 1118
Lauf 1118
op 1118
gemeint 1118
Quadrat@@ 1118
Meister 1118
frische 1118
Straß@@ 1117
EIB 1117
fürchte 1117
Verhältnis@@ 1117
Verpackungs@@ 1117
Übersch@@ 1117
zel 1117
bil 1117
ungsphase 1116
Interpretation 1116
Masse 1116
ehl 1116
antiken 1116
ftung 1116
Schal@@ 1116
etten@@ 1116
verkauf@@ 1116
Rep@@ 1116
bearbeitung 1116
Schriftliche 1116
DEN 1116
Konservativen 1115
tigkeits@@ 1115
Verheugen 1115
Angehörigen 1115
autonom@@ 1115
2015 1115
Erziehung 1115
Quartal 1115
rot 1115
Music 1115
ultur 1114
Vorsicht 1114
verletz@@ 1114
terie 1114
licht@@ 1114
schwe@@ 1114
ando 1114
there 1114
diversen 1113
prin@@ 1113
Allgemein@@ 1113
stellvertre@@ 1113
Beschränkung 1113
Zuliefer@@ 1113
Kürzungen 1113
wissenschaftlich 1113
Zahl@@ 1113
gg@@ 1113
Glücks@@ 1113
OK 1113
dru@@ 1112
ausgeprä@@ 1112
Allein 1112
läufigen 1112
ausgestellt 1112
130 1112
Schlacht@@ 1112
Anzeigen 1112
Arena 1112
Veranstaltungsräume 1112
vertrags 1111
klär@@ 1111
Spekul@@ 1111
Elite 1111
irgendwie 1111
shi@@ 1111
größ@@ 1110
nes 1110
verwandeln 1110
Ann@@ 1110
Job 1110
oms 1110
Richard 1110
gewann 1110
belastet 1109
optimiert 1109
Erwachsenen 1109
ras 1109
house 1109
Jahrhunderte 1109
gesetzgebung 1109
Aufteilung 1109
attraktive 1109
Kaiser 1109
Hir@@ 1109
enzial 1109
ange 1108
aufgeführten 1108
Netto@@ 1108
Mitgliedstaates 1108
länge 1108
Preises 1108
gewalt@@ 1108
Gerne 1108
Kühlschrank 1108
Spon@@ 1108
Wikicars 1108
Angebot@@ 1107
Ball@@ 1107
RE 1107
lierung 1107
out@@ 1107
Côte 1107
ney 1107
ausschließ@@ 1106
Höhepunkt 1106
Erkenntnis 1106
Ach@@ 1106
Verbündeten 1106
Befürchtungen 1106
unternimmt 1106
sensiblen 1106
Privatisierung 1106
Ausstellungs@@ 1106
strecke 1106
zin 1106
jün@@ 1106
Menü@@ 1106
Evaluierung 1105
besorgniserre@@ 1105
Typ@@ 1105
ordnungen 1105
Pfad 1105
geber@@ 1105
tigsten 1105
Genauigkeit 1105
tari@@ 1105
lag@@ 1105
Genfer 1105
ago@@ 1105
wertet 1105
erbare 1105
Verurteilung 1105
Korrektur 1105
Kleidung 1105
Rab@@ 1105
Network 1105
beheben 1104
Protektionismus 1104
Auftraggeber 1104
ät 1104
medien 1104
elf 1104
Digital@@ 1104
Militär 1104
kas 1104
Mark 1104
fi 1104
Sun@@ 1104
180 1103
arbeitenden 1103
Aufbau@@ 1103
vergleichbar 1103
aufhalten 1103
Institu@@ 1103
Gegenden 1103
flicht 1103
Play@@ 1103
Organ 1102
skep@@ 1102
fehl@@ 1102
schö@@ 1102
Spann@@ 1102
hinausgehen 1102
problematisch 1102
Gestalt 1102
oberste 1102
Finanzminister 1102
Zentrums 1102
zeile 1102
geräumigen 1102
gewaltigen 1101
konkreter 1101
modernsten 1101
ehrgeizigen 1101
Interview 1101
Bruder 1101
Besu@@ 1101
ager 1101
Offizi@@ 1101
sh 1101
erhebt 1100
ausgegangen 1100
ermittelt 1100
Rollen 1100
antwortet 1100
beratung 1100
architekton@@ 1100
d.@@ 1100
Konzerte 1100
eigent@@ 1099
elli 1099
Demokratischen 1099
Geschlech@@ 1099
5.000 1099
aufgeben 1099
Fischler 1099
manager 1099
Nokia 1099
close 1099
schrecklichen 1098
univers@@ 1098
fizierte 1098
mutz@@ 1098
kü@@ 1098
Darauf 1098
andel 1098
würfe 1098
konstruk@@ 1098
Potential 1098
fis@@ 1098
Arbeiter@@ 1098
don@@ 1098
Residence 1098
110 1097
korrigiert 1097
rang 1097
belastung 1097
Streben 1097
agenturen 1097
abzustimmen 1097
Alkohol@@ 1097
Tabellen 1097
therapeu@@ 1097
adresse 1097
willigen 1096
zimmern 1096
Verw@@ 1096
forum 1096
Strafe 1096
Inzwischen 1096
asien 1096
offenkundig 1096
ausgeliefert 1096
voranzubringen 1096
Erleichterung 1096
anspruchsvolle 1096
han@@ 1096
olle 1096
ppen@@ 1096
sichten 1096
affen 1095
vorherseh@@ 1095
Jur@@ 1095
beauftragt 1095
Vier 1095
Bandbreite 1095
School 1095
Friedensprozess 1095
Technology 1095
like 1095
ausgebil@@ 1094
Hochschulen 1094
scheinbar 1094
durchschnittliche 1094
Genehm@@ 1094
60@@ 1094
Eck@@ 1094
PK@@ 1094
Fotokopiereinrichtungen 1094
Schienen@@ 1093
keits@@ 1093
weis@@ 1093
Mobil@@ 1093
oria 1093
par 1093
pflanzen 1093
Maus 1093
view 1093
tener 1092
völ@@ 1092
Vorsorge@@ 1092
phase 1092
betreffende 1092
Sports 1092
Rou@@ 1092
Schuh@@ 1092
platten 1092
Infrastruktur@@ 1091
anmerken 1091
dichte 1091
verkün@@ 1091
wes@@ 1091
legten 1091
Klausel 1091
icht@@ 1091
gische 1091
Tut@@ 1091
Meilen 1091
Len@@ 1091
cos 1091
gefährlicher 1090
abgedeckt 1090
definitiv 1090
handels 1090
laufend 1090
Tochter@@ 1090
zon@@ 1090
Direkt 1090
Shops 1090
ées 1090
Bedauern 1089
Klärung 1089
unterschied@@ 1089
Anwen@@ 1089
befreit 1089
Zutaten 1089
rassi@@ 1089
kost@@ 1089
Gutes 1089
künstlerischen 1089
Werken 1089
Wohlergehen 1089
Bab@@ 1089
Galileo 1089
thaus 1089
traums 1088
folgendes 1088
rolle 1088
Botschaften 1088
menden 1088
zeugt 1088
aten@@ 1088
Sym@@ 1088
Hypoth@@ 1088
Louis 1088
Reparatur 1088
Informationsschalter 1088
gangen 1087
betragen 1087
exakt 1087
direk@@ 1087
Armen@@ 1087
hang 1087
NE@@ 1087
comfortable 1087
föder@@ 1086
nachfolgenden 1086
sitzung 1086
Stoffen 1086
reiches 1086
gehalt 1086
bewundern 1086
familie 1086
abends 1086
fig@@ 1086
Schwächen 1085
NGL 1085
wiederherzustellen 1085
stungen 1085
Vorgang 1085
zte 1085
Geschäftsführer 1085
cre@@ 1085
Time 1085
Publikationen 1085
Haushaltskontrolle 1084
Kurs@@ 1084
Pestizi@@ 1084
privater 1084
Müller 1084
Pic@@ 1084
obliegt 1083
anscheinend 1083
seinerzeit 1083
dnis 1083
cker@@ 1083
konvention 1083
indischen 1083
verfassungs@@ 1083
ables 1083
Wachstum@@ 1083
rek@@ 1083
Entdeckung 1083
fut@@ 1083
Fest 1083
vorüber@@ 1083
christlichen 1083
virtuellen 1083
Parti@@ 1083
eo 1083
Interventionen 1082
nachkommen 1082
Ausgewogenheit 1082
befürchten 1082
orts 1082
slowak@@ 1082
blicke 1082
fa 1082
pflicht 1081
angehört 1081
überra@@ 1081
unweit 1081
wunderbaren 1081
gran@@ 1081
Therap@@ 1081
Sound@@ 1081
mittelständi@@ 1080
Erwägungen 1080
offensich@@ 1080
kreative 1080
Beantwortung 1080
arch@@ 1080
Rä@@ 1080
attraktiven 1080
arbeitungs@@ 1080
bör@@ 1080
Gö@@ 1080
berg@@ 1080
Rem@@ 1080
Jan 1079
denkbar 1079
ihrerseits 1079
entsprechender 1079
richtlinien 1079
angen 1079
spit@@ 1079
Kamp@@ 1079
team 1079
Bewirtschaftung 1078
kenne 1078
Benz@@ 1078
übertragung 1078
roten 1078
Datens@@ 1078
geschul@@ 1078
Abend@@ 1078
pass 1078
Button 1078
Wortlaut 1077
getre@@ 1077
schwä@@ 1077
veran@@ 1077
wahrgenommen 1077
grenzt 1077
gestal@@ 1077
ario 1077
lieferung 1077
perfek@@ 1077
plung 1076
nachtei@@ 1076
Einerseits 1076
linge 1076
8,@@ 1076
Kali@@ 1076
Gewer@@ 1075
begeben 1075
ais 1075
Nigeria 1075
pas@@ 1075
Paradies 1075
Hyper@@ 1075
läßlich 1074
jahres 1074
zwecken 1074
iss@@ 1074
Regierung@@ 1074
Medizin@@ 1074
Eigentums 1074
Single 1074
Az@@ 1073
Ansehen 1073
gründet 1073
Wollen 1073
ethnische 1073
80@@ 1073
Spiels 1073
Texten 1073
Symbole 1073
behei@@ 1073
yp 1073
lehnt 1072
luß 1072
verknü@@ 1072
geehrter 1072
schaftsp@@ 1072
ansprüche 1072
Extre@@ 1072
rump@@ 1072
tom@@ 1072
CON@@ 1072
zusammenhän@@ 1071
besser@@ 1071
zügig 1071
Politikern 1071
echt 1071
fran@@ 1071
überwachung 1071
versichert 1071
täu@@ 1071
erzeugnisse 1071
bon@@ 1071
.net 1071
hotels 1071
Prüfungen 1070
span@@ 1070
ura 1070
arischen 1070
bat@@ 1070
aci@@ 1070
Autovermietung 1070
Campingplatz 1070
Charakter@@ 1069
veränderten 1069
Klassen 1069
entnehmen 1069
Auslands@@ 1069
gesu@@ 1069
Gleiche 1069
Stro@@ 1069
gal@@ 1069
tre 1068
privilegi@@ 1068
koordini@@ 1068
nein 1068
geschah 1068
zurufen 1068
Heu@@ 1068
gegeb@@ 1068
Bewegungs@@ 1068
Kunststoff@@ 1068
Wohl 1068
ham 1068
PE 1068
Ferienhaus 1068
ermutigt 1067
Kompetenz@@ 1067
Handhabung 1067
prü@@ 1067
Sin@@ 1067
nig 1067
von@@ 1067
Trä@@ 1067
Valencia 1067
heruntergeladen 1067
besi@@ 1066
abhängt 1066
Änderungsantrags 1066
saubere 1066
sn@@ 1066
Meinungsfreiheit 1066
zir@@ 1066
freundliches 1066
VIP 1066
erhöhte 1065
ernsten 1065
wissenschaftlicher 1065
Zen@@ 1065
Periode 1065
Renten 1065
anbieter 1065
Vergabe 1065
Belastungen 1065
Lat@@ 1065
Taxi 1065
t.@@ 1065
Breite 1064
Unions@@ 1064
ô@@ 1064
aster 1064
schwi@@ 1064
Akteuren 1064
Einmischung 1064
Anleger 1064
verläss@@ 1064
Spam 1064
empfehle 1063
komplizierten 1063
Bestreben 1063
Energiem@@ 1063
Konz@@ 1063
gewöhnlichen 1063
Experim@@ 1063
beeindruck@@ 1063
visu@@ 1063
Ticket@@ 1063
Vertrauens@@ 1062
verbesserten 1062
Hinzu 1062
existi@@ 1062
Parlamentarier 1062
ahn 1062
Heiz@@ 1062
Rezep@@ 1062
Space 1062
definierten 1061
Teils 1061
verweigert 1061
esenen 1061
dachten 1061
Fli@@ 1061
akte 1061
Klim@@ 1061
ome 1061
turm 1061
Formate 1061
lässig 1060
Themas 1060
Tampere 1060
steine 1060
nä@@ 1060
Vertrag@@ 1060
positiver 1060
unüber@@ 1060
sky 1060
Viren 1060
englische 1060
Reichweite 1060
Verts 1060
seg@@ 1060
Set 1060
Nachfolger 1060
zufriedenheit 1059
betreut 1059
Punk@@ 1059
entscheidungen 1059
Begleitung 1059
nächstes 1059
traf 1059
trinken 1059
Bun@@ 1059
teilnehmenden 1059
Motoren 1059
Therapie 1059
CE@@ 1059
beizu@@ 1058
auseinander@@ 1058
deu@@ 1058
enswerte 1058
anony@@ 1058
außen@@ 1058
Strecken 1058
wirst 1058
gemeldet 1057
beziehe 1057
Ergän@@ 1057
bedeutender 1057
Tier 1057
tran@@ 1057
lit@@ 1057
Ly@@ 1057
Trek 1057
stufe 1056
terien 1056
Ansprüchen 1056
tsprü@@ 1056
Behandlungen 1056
alist 1056
Zigare@@ 1056
å@@ 1056
Franzosen 1055
enttäu@@ 1055
uen 1055
wälte 1055
anschauen 1055
tika 1055
Still@@ 1055
ino@@ 1055
Fotografie 1055
Auftrag@@ 1055
schlicht 1054
multinationalen 1054
Beitrittskandidaten 1054
shofes 1054
angesprochenen 1054
palästinensische 1054
versammlung 1054
Musiker 1054
rahmen@@ 1054
Etagen 1054
künfte 1054
Eingabe 1054
zusätzlicher 1053
ür 1053
belast@@ 1053
pak@@ 1053
ao 1053
Dur@@ 1053
ereien 1053
pack@@ 1053
Lust 1053
UM@@ 1053
weiterentwickelt 1052
repräsentiert 1052
Weiter 1052
Ira@@ 1052
Verwand@@ 1052
elegant 1052
behindertenfreundliche 1052
Schwei@@ 1051
Kommissionsmitglied 1051
Anleitung 1051
Drittländer 1051
Kriege 1051
forder@@ 1051
Cab@@ 1051
Fan 1051
berat@@ 1050
historisch 1050
tab@@ 1050
elung 1050
Grafik@@ 1050
antwor@@ 1049
Unrecht 1049
unglück@@ 1049
italien@@ 1049
beschleunigt 1049
wünschte 1049
prüft 1049
ssig 1049
ernde 1049
tzei@@ 1049
adel@@ 1049
Unfälle 1048
siedlung 1048
Tech 1048
Konsequenz 1048
buchs 1048
untersagt 1048
agnen 1048
Chef 1048
Schengener 1048
turel@@ 1048
Versicherung 1048
Schalt@@ 1048
gänzlich 1047
beginn 1047
bestrebt 1047
unglaublich 1047
unterzeichnen 1047
Instanz 1047
bedient 1047
Gil@@ 1047
.-@@ 1047
Füßen 1046
Ausnahme@@ 1046
versprechen 1046
vorsehen 1046
gesetze 1046
bot 1046
Beschäftigungspolitik 1046
extremen 1046
Bibliotheken 1046
bestehend 1046
herbeizuführen 1046
liberale 1046
Songs 1046
Auskunft 1045
imstande 1045
lok@@ 1045
Bevölkerungsgruppen 1045
repräsent@@ 1045
unverändert 1045
Befreiung 1045
Berichterstattung 1045
Vormittag 1045
bekam 1045
beeindruckende 1045
Aufpreis 1045
Ref 1045
Plug 1045
ausgerüstet 1044
Auswirkung 1044
Europar@@ 1044
Dür@@ 1044
aufrecht 1044
Quer@@ 1044
zip@@ 1044
kompet@@ 1044
News@@ 1044
area 1044
kostenfreien 1044
maßgeblich 1043
mitzuteilen 1043
strengere 1043
spru@@ 1043
Dok@@ 1043
stim@@ 1043
org@@ 1043
Labor@@ 1043
Unterricht 1043
besichtigen 1043
Gläu@@ 1043
müßten 1042
initiativen 1042
hielten 1042
politi@@ 1042
gelegentlich 1042
Monte 1042
Kanz@@ 1042
sweise 1042
Lande 1042
Lev@@ 1042
Löhne 1042
ill@@ 1042
Ay@@ 1042
Baden 1042
air 1042
lass 1042
Alliance 1042
bräu@@ 1041
Gesundheitsversorgung 1041
erhielten 1041
übereinstimmen 1041
überschritten 1041
kontrolli@@ 1041
demokrati@@ 1041
Geldpolitik 1041
versorgen 1041
uter 1041
Kampf@@ 1041
Wandern 1041
bran@@ 1040
erneuerbarer 1040
Ven@@ 1040
1988 1040
Variablen 1040
rak@@ 1040
Pazi@@ 1040
Plattformen 1040
Kontak@@ 1040
dan 1040
Il 1040
Frau@@ 1039
schlü@@ 1039
Haushaltsmittel 1039
exportieren 1039
soren 1039
Brüder 1039
0er 1039
begrün@@ 1038
Management@@ 1038
stuhl 1038
Nachrichten@@ 1038
äter 1038
zusammengestellt 1038
Feri@@ 1038
tter@@ 1038
world 1038
other 1038
Konfigurations@@ 1038
Kodex 1037
lindustrie 1037
willen 1037
Forschungs- 1037
Lieblings@@ 1037
allgemeiner 1037
Block 1037
lichten 1037
kunfts@@ 1037
Drucker 1037
einrichtung 1037
WWU 1036
Straftaten 1036
Entscheidungsträger 1036
präsent 1036
griffe 1036
Busse 1036
Rohr@@ 1036
Exper@@ 1036
Schie@@ 1036
TO 1036
ics 1036
Slideshows 1036
pfli@@ 1035
geheim@@ 1035
Kürzung 1035
funktions@@ 1035
Gestern 1035
veranstaltet 1035
Modellen 1035
kub@@ 1035
chens 1035
ahl 1035
Co 1035
Zeitschrift 1035
home 1035
ć 1035
Unfall 1034
Betrieben 1034
sein@@ 1034
Kampfes 1034
konzep@@ 1034
freiwillige 1034
Prot@@ 1034
NE 1034
por 1034
gelan@@ 1033
vergabe 1033
Bewerber@@ 1033
tho@@ 1033
boot 1033
Install@@ 1033
ausgeht 1032
Diskussions@@ 1032
Inhalts@@ 1032
inischen 1032
Kloster 1032
genehm@@ 1031
Tiefe 1031
fossi@@ 1031
arisierung 1031
Spaniens 1031
Ausdehnung 1031
mittelalterlichen 1031
Münzen 1031
29@@ 1031
Wirtschaft@@ 1030
gendsten 1030
zwingend 1030
haltens 1030
beurteilt 1030
Einigkeit 1030
aussieht 1030
Exporte 1030
Fund@@ 1030
wettbewerbsfähig 1029
derartiger 1029
Rettungs@@ 1029
holt 1029
sebene 1029
historischer 1029
abilität 1029
abe 1029
römischen 1029
Milliarde 1028
Jerusalem 1028
Errungenschaften 1028
IX 1028
Fut@@ 1028
Haiti 1028
CA 1028
business 1028
tien 1028
Line 1028
Gepäck 1028
schwachen 1027
Umweltpolitik 1027
unterrichtet 1027
räte 1027
exzellente 1027
Aussprachen 1027
halts@@ 1027
igte 1027
verzö@@ 1027
Verstoß 1027
geschnit@@ 1027
vereinen 1027
ji 1027
Downloads 1027
Anstatt 1026
streng@@ 1026
öst@@ 1026
Kommunismus 1026
kunde 1026
befindlichen 1025
Konsultationen 1025
geplante 1025
tür@@ 1025
verbrauch 1025
Klin@@ 1025
Patente 1025
entfernten 1025
islam@@ 1025
registri@@ 1025
Cur@@ 1025
widmet 1024
umfassender 1024
beabsichti@@ 1024
staates 1024
wiesen 1024
fehlenden 1024
EURO@@ 1024
Milli@@ 1024
Standpunk@@ 1024
Umwelt- 1024
kam@@ 1024
Zuwanderung 1024
Spiegel 1024
Ostse@@ 1024
Fron@@ 1024
Seh@@ 1024
ile 1024
Behandlungs@@ 1024
vi 1024
KG 1024
orientieren 1023
litten 1023
tam@@ 1023
Häusern 1023
herauszufinden 1023
Bezug@@ 1023
kontra@@ 1023
typ@@ 1023
steigerung 1023
Gewis@@ 1023
oli 1023
geräumige 1023
iPod 1023
Strafen 1022
beträchtlichen 1022
Monti 1022
tchen 1022
komb@@ 1022
Akt 1022
blich 1022
Kämp@@ 1022
stetig 1022
Ros@@ 1022
Tragen 1021
angestre@@ 1021
Telekommunikation 1021
lebens 1021
fangs 1021
sofortige 1021
Mehrheits@@ 1021
Gefühle 1021
individu@@ 1021
Rap@@ 1020
ausreich@@ 1020
fachen 1020
graus@@ 1020
Seel@@ 1019
ünden 1019
Unser@@ 1019
transparenter 1019
gelt 1019
Null 1019
Komplex 1019
Pakets 1019
Verzeichn@@ 1019
FC 1019
Laufzeit 1018
vertrieben 1018
Vollendung 1018
Gerü@@ 1018
cken@@ 1018
Montenegro 1018
under@@ 1018
int@@ 1018
Fundament@@ 1018
schlag@@ 1017
allgemein@@ 1017
Bestandteile 1017
Cer@@ 1017
Erwärmung 1017
Ori@@ 1017
ME 1017
sphase 1016
Instrument@@ 1016
währung 1016
spon@@ 1016
aufrichtig 1016
echtes 1016
fert 1016
Griechenlands 1016
auszubauen 1016
Engli@@ 1016
rest@@ 1016
solle 1016
Rücksicht 1016
erzählen 1016
Düsseldorf 1016
Stern 1016
kirche 1016
Fuss 1016
Heraus@@ 1015
eingeb@@ 1015
überarbeitet 1015
Gru@@ 1015
Überschwemmungen 1015
unden@@ 1015
Trock@@ 1015
Behauptung 1015
atom@@ 1015
insel 1015
Vertiefung 1014
stabil 1014
dienstes 1014
appellieren 1014
Sab@@ 1014
Streitigkeiten 1014
First 1014
web 1014
Angestellten 1014
vermieten 1014
rede 1013
beizubehalten 1013
Streit 1013
zukommt 1013
ordnungsgemäße 1013
Kernkraft@@ 1013
annter 1013
exist@@ 1013
afri@@ 1013
vertrauens@@ 1013
Eingliederung 1013
Put@@ 1013
erei@@ 1013
Kohle 1013
Got@@ 1013
artiges 1012
verlaufen 1012
setzungen 1012
begehen 1012
tour@@ 1012
nit@@ 1012
Christian 1012
Hall 1012
beherbergt 1012
ehrte 1011
Experten@@ 1011
terte 1011
dol@@ 1011
iens 1011
er- 1011
glichkeiten 1010
ränk@@ 1010
Vertreterin 1010
Viel 1010
Jahreszeit 1010
wägen 1010
zyklus 1010
dest 1010
Mie@@ 1010
Chr. 1010
Zusage 1009
europaweit 1009
zögern 1009
Enttäuschung 1009
Anschließend 1009
argum@@ 1009
dringende 1009
Räumlichkeiten 1009
tol@@ 1009
konfigu@@ 1009
Umstrukturi@@ 1008
Erlaubnis 1008
M. 1008
verwandelt 1008
unterstütz@@ 1008
moralischen 1008
bür@@ 1008
scho@@ 1008
José 1008
ses@@ 1008
aben 1008
Buffet 1008
Verwenden 1008
eindeutigen 1007
juristische 1007
Spen@@ 1007
ographie 1007
überschreiten 1007
sports 1007
schiff 1007
erstklassige 1007
bean@@ 1006
wählt 1006
malen 1006
Fun@@ 1006
bun@@ 1006
ain 1006
schir@@ 1006
Leiden 1006
robu@@ 1006
Taliban 1006
services 1006
Neg@@ 1005
Straßenverkehr 1005
erweist 1005
Zufall 1005
zucht 1005
Rechtsetzung 1005
verse 1005
neten 1005
Auseinandersetzungen 1005
Prote@@ 1005
zitiere 1005
unzählige 1005
erung@@ 1005
aufgezeigt 1005
polnische 1005
verfasst 1005
Dolomiten 1005
trop@@ 1004
ierter 1004
igungs@@ 1004
pflich@@ 1004
Auslieferung 1004
inn 1004
beschäf@@ 1004
Völker@@ 1004
stellern 1004
scheu@@ 1004
Publi@@ 1004
def@@ 1004
undes 1004
Messen 1004
Multimedia 1004
erholen 1004
Höhen@@ 1004
Chat 1004
Qualifikationen 1003
ex 1003
Meeres 1003
dicht 1003
wahlen 1003
mark 1003
herkömmlichen 1003
einigt 1003
Saf@@ 1003
Nan@@ 1003
ader 1003
Marco 1003
Terminal 1003
CH 1003
pol 1002
Seminare 1002
organisator@@ 1002
etabli@@ 1002
teu@@ 1002
fängt 1002
Vieh@@ 1002
ras@@ 1002
Dresden 1002
been 1002
var 1002
SMS 1002
Place 1002
G20 1002
helpful 1002
Haltestelle 1002
Elektronik 1001
strategischer 1001
gleicht 1001
revi@@ 1001
rez 1001
Unger@@ 1001
gig 1001
Verknüpfung 1001
verarbeiten 1001
Leser 1001
allen@@ 1001
ankommt 1000
shaushal@@ 1000
dlern 1000
bed@@ 1000
bringung 1000
Gebäudes 1000
interven@@ 999
Kart@@ 999
Schulungen 999
absoluten 999
akts 999
ök@@ 999
wahl@@ 999
takt 999
anführen 999
Persönlichkeit 999
schrei@@ 999
ROM 999
Kä@@ 999
Fi 999
ernsthaften 998
Vollständigkeit 998
Zivilisten 998
wöch@@ 998
Edinburgh 998
Rüstungs@@ 998
passi@@ 998
Imperi@@ 998
reservieren 998
AF@@ 998
Harmonie 998
Quart@@ 998
Fraktions@@ 997
geograph@@ 997
vertiefen 997
hoben 997
perfekten 997
rechtlicher 997
Diplomatie 997
ux 997
Machen 997
zwecke 997
Gegen 997
Mittagessen 997
SI 997
Palast 997
Mitglied@@ 996
umfangreich@@ 996
erkt 996
traten 996
Dimensionen 996
ganzes 996
freiwilligen 996
einnahmen 996
Damals 996
acc@@ 996
zweit@@ 996
day 996
geänderten 995
Spannung 995
schich@@ 995
Illu@@ 995
Lieferungen 995
physi@@ 995
übergreifenden 994
Zeu@@ 994
Brok 994
A. 994
legungs@@ 994
sla@@ 994
iel 994
pot@@ 994
Suites 994
Infos 994
vertrete 993
auferlegt 993
deter 993
verlor@@ 993
weitergehen 993
Momente 993
vollsten 993
unterstützten 993
irakischen 993
esische 993
cal@@ 993
Designs 993
Glückwunsch 992
auszuarbeiten 992
Einwanderungspolitik 992
Portfolio 992
Felsen 992
chi 992
reinen 991
Lagerung 991
Temperatur@@ 991
pakete 991
lität 991
esta 991
mische 991
Leipzig 991
Vide@@ 991
aku@@ 990
Schwäche 990
Stärken 990
ähnlicher 990
handelte 990
anschließ@@ 990
Mittelme@@ 990
smo@@ 990
Kamer@@ 990
ICH@@ 990
IR 990
Pon@@ 989
jeglichen 989
einfaches 989
halten@@ 989
tschaft 989
vermei@@ 989
Misch@@ 989
Stehende 989
zweites 989
mut 989
beliebige 989
Aussehen 989
ungarische 989
befaßt 988
geordnete 988
gelei@@ 988
Rats 988
verläuft 988
Balance 988
Investitionsbank 988
sprechende 988
Schuld@@ 988
auswahl 988
Vir@@ 988
100@@ 988
Skript 988
Schulung 987
ritten 987
benachteiligten 987
strikt 987
schätze 987
Ideologie 987
spot@@ 987
ganzhei@@ 987
informellen 987
versorgt 987
Anbau 987
SL@@ 987
ati 987
01.@@ 987
Allah 987
king 987
Etage 986
Geg@@ 986
kapitali@@ 986
Hygi@@ 986
alisierungen 986
Leb@@ 986
Blei@@ 986
Herstell@@ 986
integri@@ 986
ämp@@ 986
ummer 986
Speicherk@@ 986
geleistete 985
Gewähr 985
Vertrauens 985
kum@@ 985
schnellstmöglich 985
kontinuierliche 985
anna 985
Krebs 985
Photo@@ 985
Flo@@ 985
magne@@ 985
höre 984
Rindfleisch 984
verschmutzung 984
merkt 984
ethischen 984
modus 984
bindung 984
Anlage@@ 984
Koalition 984
unterschiedlichsten 984
Sig@@ 984
augen@@ 983
operativen 983
Verbrech@@ 983
übersehen 983
Israelis 983
Verhaf@@ 983
Aufstieg 983
zweier 983
breiter 983
Haut@@ 983
din@@ 983
Klassen@@ 983
Hotelzimmer 983
Panoram@@ 983
file 983
tolle 982
deutlichen 982
Mineral@@ 982
entlassen 982
bestätigung 982
Entscheidungsfindung 982
Mir@@ 982
Singapur 982
ards 982
ok 982
и@@ 982
Welle 981
skri@@ 981
katastrophal@@ 981
riebenen 981
Aktionsprogramm 981
Umstand 981
Eis 981
sahen 981
statisti@@ 981
Glei@@ 981
ask@@ 981
Tempel 981
salon 981
LCD 981
Gü@@ 980
Anlaß 980
nischer 980
ernähr@@ 980
Reisenden 980
sauber@@ 980
aufnahmen 980
Fili@@ 980
Lit@@ 980
gos 979
lossene 979
hten 979
ologien 979
verlang@@ 979
Beamte 979
Assoziierungsabkommen 979
strei@@ 979
isieren 979
vielfäl@@ 979
vorteil@@ 979
regul@@ 979
erien 979
Wanderungen 979
Tanz@@ 979
acher 978
anwen@@ 978
stritten 978
eder@@ 978
samt 978
Behin@@ 978
sitzt 978
versuchte 978
haltungs@@ 978
Verwirrung 978
Unterscheidung 978
Distri@@ 978
ř@@ 978
auszuführen 977
bles 977
Beschleunigung 977
Aufnahme@@ 977
berge 977
stitu@@ 977
Typen 977
angem@@ 977
tas 977
Ausbruch 977
night 977
stay 977
Fahrrad 977
halbe 976
sident 976
einstellungen 976
verzeichnis 976
komponenten 976
By@@ 976
Palma 976
schwächen 975
untergebracht 975
hindern 975
ende@@ 975
Europäern 975
Kampagnen 975
Nahrung 975
befin@@ 975
Posten 975
Inneren 975
they 975
sheit 975
virtuelle 975
illa 975
Verfassungsvertrag 975
portal 975
einheimischen 974
gelegten 974
beteiligung 974
unabdingbar 974
Mitgliedsländern 974
anter 974
trug 974
gres@@ 974
fortgeschrit@@ 974
Blumen 974
Arzneimitteln 974
ators 974
.ch 974
mangelt 973
fragte 973
offener 973
aufgegeben 973
schiff@@ 973
entzieht 973
illegaler 973
Das@@ 973
dimension@@ 973
exo@@ 973
air@@ 973
enfalls 972
einzuräumen 972
konzer@@ 972
Simul@@ 972
treibung 972
geschäfte 972
Nachweis 972
Fachleute 972
einzeln 972
rem@@ 972
Zü@@ 972
Times 972
inierte 972
AP 972
Tennis 972
Dauer@@ 971
strit@@ 971
objektiv 971
Dienstleister 971
Ernst 971
folgte 971
Standorte 971
soll@@ 971
eria 971
stehend 971
Frequ@@ 971
light 971
formuli@@ 970
zuzustimmen 970
häufigsten 970
risk@@ 970
vorsitzenden 970
Jacques 970
norm@@ 970
familien@@ 970
entschuldigen 970
realistische 970
beruhi@@ 970
Katalo@@ 970
bet 970
win 970
hi 970
Mountain@@ 970
nder 969
finnischen 969
zweck 969
Weitergabe 969
maxim@@ 969
erledigen 969
andin@@ 969
liebt 969
Radi@@ 969
besuchte 969
gesteuert 969
Association 969
You 969
zwingt 968
verschärfen 968
großzügig 968
verständnis 968
erledigt 968
mitgliedern 968
tent@@ 968
rän@@ 968
Kamin 968
behilflich 968
zauber@@ 968
ästheti@@ 968
Wäre 967
flexibler 967
C4 967
indert 967
Linke 967
Kandidaten@@ 967
bedingten 967
Wartungs@@ 967
Kinderbetreuung 967
Vizepräsidentin 966
einwand@@ 966
gekürzt 966
verwendete 966
ffekt 966
stattfand 966
kündigen 966
Tä@@ 966
iso@@ 966
ds@@ 966
westen 966
Biotechnologie 966
Benutz@@ 966
nnen 966
Aluminium 966
Familienzimmer 966
geist 965
Wettbewerbspolitik 965
Blau@@ 965
angen@@ 965
tivere 965
ennung 965
Besucher@@ 965
echnik 965
marken 965
Schnee 965
entdeckte 965
gefertigt 965
gross@@ 965
Solarium 965
rent@@ 964
Sozial- 964
Amsterdamer 964
Bezüglich 964
Obergrenze 964
Finanzrahmen 964
günstiger 964
ye 964
Spr@@ 964
Prozessen 964
ny 964
elektrischen 964
Automati@@ 964
dent@@ 964
GN@@ 964
Bonus@@ 964
speisen 963
anges@@ 963
kaner 963
agen@@ 963
wehr@@ 963
Prestige 963
Gum@@ 963
lot 963
großartigen 962
voranzu@@ 962
allgemeinem 962
station@@ 962
ellen@@ 962
identi@@ 962
keln 962
jenseits 962
modells 962
Zurück@@ 962
vorwiegend 962
Wand 962
schär@@ 961
Gemeinschaftsrechts 961
Einstimmigkeit 961
ersucht 961
rali@@ 961
Verschmutzung 961
sozialistischen 961
UL@@ 961
raff@@ 961
brenn@@ 961
Finanzdienstleistungen 961
Rahmenrichtlinie 961
garanti@@ 961
stationen 961
Upgrade 961
Jazz 961
Informationsaustausch 960
unabhängiger 960
ermuti@@ 960
nachzukommen 960
Ersten 960
ierungen 960
artikel 960
Ve@@ 960
bru@@ 960
Mehrwertsteuer@@ 960
Herzlich 960
cer@@ 960
Micro@@ 960
verank@@ 959
sorgungs@@ 959
voraussichtlich 959
ausgewo@@ 959
assen@@ 959
eda 959
aufgeteilt 959
Übersetz@@ 959
inu@@ 959
Diagno@@ 959
umgewandelt 959
LED 959
Filter@@ 959
Protot@@ 959
Hunder@@ 958
Wäldern 958
Strei@@ 958
Währungsfonds 958
Kö@@ 958
gebern 958
rückt 958
Technologie@@ 958
verhaftet 958
häufi@@ 958
Fische 958
Erwachsen@@ 958
Bay@@ 958
geografischen 958
überwunden 957
Erfordernisse 957
Abstimmungs@@ 957
gelder 957
Kapit@@ 957
Tätigkeits@@ 957
zuversichtlich 957
Kontinuität 957
Kraftstoff@@ 957
Konzeption 957
soviel 957
Plätzen 957
Rub@@ 957
Partition 957
Verbraucherpolitik 956
risiko 956
bevorzugen 956
läufig 956
Santer 956
Verspä@@ 956
ängen 956
Diagnose 956
tierungs@@ 956
ewi@@ 956
imperi@@ 956
starb 956
Pel@@ 956
nette 956
Gewässer 955
intensiver 955
Berat@@ 955
bürgerlichen 955
rats@@ 955
Wagen 955
No 955
Schlussfolgerung 955
ash@@ 955
veranlasst 955
Festivals 955
verletzen 954
Etappe 954
deutsch@@ 954
erschwert 954
Rek@@ 954
lauten 954
verbot@@ 954
Lot@@ 954
tier 953
güter 953
eilung 953
Kron@@ 953
persönliches 953
älen 953
Serviceleistungen 953
Mannschaft 953
Klang@@ 953
AND 953
Mitteilungen 952
grundsätzliche 952
Behinderung 952
unlau@@ 952
05@@ 952
1986 952
angenommene 952
hon@@ 952
gegensei@@ 952
VI 952
demnach 952
Konsum 952
Med@@ 952
fikations@@ 952
manip@@ 952
Cafés 952
Werkzeug@@ 951
ümm@@ 951
Sou@@ 951
Dien@@ 951
Flusses 951
Berechti@@ 951
zusammengearbeitet 951
rechnet 951
kw 951
Ehe@@ 951
behar@@ 951
Pressemit@@ 951
1980 951
ball@@ 951
A.@@ 951
sinnvolle 950
Sichtweise 950
Handlung 950
Anpassungs@@ 950
Verkehrsmitteln 950
verfü@@ 950
jed@@ 950
Hob@@ 950
Erforschung 950
Bestes 950
KE@@ 950
aktion 949
verbände 949
Zehn@@ 949
Rücktritt 949
Ten@@ 949
list 949
Salz@@ 949
Darfur 949
в@@ 949
Auschecken 949
Auftreten 948
anträge 948
Käl@@ 948
zugenommen 948
sorge 948
organe 948
ky 948
unde@@ 948
nachhaltiges 948
restrik@@ 948
beanspru@@ 948
Später 948
strecken 948
spreis 948
hen@@ 948
Luftverkehrs@@ 948
Metro 948
Sec@@ 948
Controller 948
befugnisse 947
treffend 947
Atlantik 947
mende 947
zugewiesen 947
Öffnen 947
ku 947
ap 946
kasus 946
ef 946
Durchbruch 946
dreißig 946
Schlacht 946
Nächte 946
Holiday 946
gerweise 945
verfolgung 945
Konvergenz@@ 945
Richtungen 945
katho@@ 945
Auffassungen 945
wohin 945
pfer@@ 945
Terroran@@ 945
chel@@ 945
sabstimmung 945
beeindruckenden 945
japanische 945
dner 945
ão 945
Akademie 945
menschen@@ 944
rot@@ 944
verantwortlichen 944
slowen@@ 944
Beobachtung 944
morgens 944
IE 944
PD@@ 944
einzigartiges 944
Editor 944
konsequ@@ 943
Handelspolitik 943
SP 943
Daß 943
Zeilen 943
geld@@ 943
namentlich 943
Säulen 943
Minim@@ 943
einziger 942
agten 942
isti@@ 942
bring@@ 942
existierenden 942
massiv 942
eintritt 942
Gleichberechtigung 942
appe 942
Obst@@ 942
ungsermächtigungen 942
potenzielle 942
mau@@ 941
niedrigeren 941
beha@@ 941
übergreif@@ 941
QU@@ 941
ält 941
Demonstrationen 941
gestrigen 941
angekommen 941
betten 941
sil@@ 941
vent@@ 941
dd@@ 941
ordnungs@@ 940
länger@@ 940
anerkennt 940
höchstem 940
Mobili@@ 940
Verschiebung 940
GASP 940
Sied@@ 940
ministers 940
ares 940
dio@@ 940
ankommen 940
dafri@@ 940
thos 940
Wall@@ 940
Schnittstellen 940
9001 940
excellent 940
SDL 940
einleiten 939
gedrängt 939
akzept@@ 939
stürzen 939
portugiesische 939
Male 939
Länder@@ 939
euer@@ 939
diesjährigen 939
Fehlern 939
konver@@ 939
Körpers 939
Research 939
tic 939
minutes 939
Schande 938
herum@@ 938
legitim@@ 938
Wahlkreis 938
verhe@@ 938
jenem 938
erem 938
tspar@@ 938
rent 938
Wertpapier@@ 938
ysteme 938
Deck@@ 938
Spritz@@ 938
500@@ 938
ice 938
Grafik 938
geschmackvoll 938
ahl@@ 937
verweigern 937
annimmt 937
qualifizierter 937
beschä@@ 937
vorschlags 937
ekte 937
Label 937
bewusstsein 937
Applikation 937
Zusch@@ 936
Mitgliedstaats 936
Binnenmark@@ 936
uts 936
graf@@ 936
ischerweise 936
Tabak 936
Aktionsplans 936
shand@@ 936
ures 936
heiligen 936
Bearbeitungs@@ 936
Vorteilen 936
Finger@@ 936
til 936
Tap@@ 936
zusammengefasst 936
Sri 935
Palacio 935
niveaus 935
ennt 935
glücklicherweise 935
beleu@@ 935
ziehungs@@ 935
after 935
Logos 935
would 935
Softwa@@ 935
Brief@@ 934
vorange@@ 934
Aktion@@ 934
vorgelegte 934
aufer@@ 934
erwarteten 934
neut@@ 934
tiz@@ 934
Auszeichnung 934
Turm 934
einseitig 933
Sozialfonds 933
auffor@@ 933
wachstum 933
unbesch@@ 933
woll@@ 933
Süß@@ 933
Freihandelsabkommen 933
unterstützte 933
Psych@@ 933
pot 933
Road 933
Song 933
Reservierungen 933
Geduld 932
Marktan@@ 932
Auswertung 932
Differenzen 932
gesandt 932
wovon 932
makro@@ 932
Flugzeug@@ 932
sche@@ 932
Resultate 932
ungen@@ 932
sums 932
geschlossen@@ 932
tnismäßig 932
aire 932
sk 932
Plenar@@ 931
Nationalen 931
schäd@@ 931
operative 931
brü@@ 931
ding 931
Modell@@ 931
Jesus 931
Zo@@ 931
Platten 931
explo@@ 930
räumt 930
Program@@ 930
Mehrzahl 930
überleben 930
stur@@ 930
verbindlichen 930
allererst 930
drän@@ 930
aran@@ 930
KO@@ 930
schnit@@ 930
blauen 930
IBM 930
Dün@@ 930
Ale@@ 930
Toten 929
Präsident@@ 929
doppelte 929
bewährten 929
geleiteten 929
worfen 929
Öffent@@ 929
140 928
soziales 928
gängigen 928
umfangreiches 928
Dev@@ 928
Schü@@ 928
schlug 928
produktiv 928
behin@@ 928
noten 928
Konzern@@ 928
SD 928
Geltungsbereich 927
unterzogen 927
klingen 927
operi@@ 927
vorgesch@@ 927
anfän@@ 927
ender@@ 927
etzung 927
Kompromis@@ 927
gestütz@@ 927
Riviera 927
idyl@@ 927
Sandstrand 927
COD 926
Spiegel@@ 926
geradezu 926
stamm@@ 926
übernahm 926
band@@ 926
CD@@ 926
veränderte 925
Aufschwung 925
Radik@@ 925
eder 925
gebil@@ 925
ien@@ 925
carte 925
Bol@@ 925
SC 925
legungen 924
beschäftigungs@@ 924
thilfe 924
Diesel@@ 924
sist@@ 924
Botschafter 924
prim@@ 924
weiß@@ 924
Vorstands@@ 924
een 924
Badewanne 924
eingehend 923
Haushaltslinie 923
gezielte 923
Russen 923
Nar@@ 923
extreme 923
wirtschaftliches 923
ausgeweitet 923
hundert@@ 923
Sul@@ 923
Development 923
their 923
gemütlich 923
gang@@ 922
gangenen 922
fik 922
Besatzung 922
demonstrieren 922
Weihnachten 922
richtete 922
bein@@ 922
Rati@@ 922
ermordet 922
Note 922
restlichen 922
deinem 922
Ass@@ 922
firma 922
Fitnesscenter 922
о@@ 922
konstitu@@ 921
dramatisch 921
hinnehmbar 921
schritt@@ 921
06@@ 921
beobach@@ 921
galt 921
bisweilen 921
beherrscht 921
21.@@ 921
angegangen 921
Besatz@@ 921
Tschechische 921
Exempl@@ 921
Cent@@ 921
unnötig 920
einher@@ 920
Zuver@@ 920
sinken 920
holz 920
nuklearen 920
Nationalismus 920
Fahrzeu@@ 920
Sogar 920
östlich 920
konsu@@ 920
Klein- 920
s. 920
two 920
Liga 919
Ressource 919
Entschließungs@@ 919
affung 919
anspruchsvollen 919
enab@@ 919
spunkt 919
ordnet 919
Labour 919
orienti@@ 919
graben 919
vertik@@ 918
widersprüch@@ 918
unterworfen 918
drastisch 918
rationen 918
Tarif@@ 918
eingenommen 918
engere 918
abili@@ 918
Verkehrs 918
etabliert 918
Teilnehmer@@ 918
lev@@ 918
î@@ 918
Vin@@ 918
Waff@@ 917
Abänderungs@@ 917
greifende 917
Verlagerung 917
Schlag 917
amerikan@@ 917
flucht 917
gespannt 917
franzö@@ 917
Adress@@ 917
ähn@@ 917
biegen 917
Übernachtungen 917
Zonen 916
off 916
geringfü@@ 916
Handels- 916
EE@@ 916
Lärm@@ 916
sammelt 916
unternehmen@@ 916
begannen 916
Cir@@ 916
CO 916
Captain 916
mußte 915
Sav@@ 915
geehrten 915
Lenk@@ 915
graphie 915
verstößt 915
langjährigen 915
verab@@ 915
Hit@@ 915
Ford 915
Van@@ 915
Kooper@@ 915
Wunsch@@ 915
C. 915
einander@@ 915
Wertpap@@ 915
unvergleich@@ 915
Koch@@ 915
Professional 915
Grundsatzes 914
erbracht 914
administrativen 914
liter@@ 914
Tepp@@ 914
setzbar 914
Volkswirtschaft 914
lichte 914
Anschein 914
Küh@@ 914
Organismen 914
det@@ 914
Begri@@ 914
Jun@@ 914
Hussein 914
wörter 914
Größen 914
int 914
transport 913
Lücke 913
Verweis 913
haushalts@@ 913
gescheitert 913
Haftungs@@ 913
örung 913
Stolz 913
transparenten 913
tra 913
innovativer 913
Lebensdauer 913
Priv@@ 913
Ex 913
rank 913
Instand@@ 913
ags 913
Blü@@ 913
Public 913
Übersetzer 913
bir@@ 913
Olymp@@ 913
luxuriösen 913
CAD 913
Thematik 912
Entwicklung@@ 912
sektor@@ 912
grenzüberschreit@@ 912
dramatischen 912
ossen@@ 912
Beteilig@@ 912
attraktiv 912
gül@@ 912
getro@@ 912
unen 912
Eisenbahn 912
wanderung 911
strukturelle 911
rechtmäßig 911
geringeren 911
gigen 911
konstruktiv 911
hauses 911
gif@@ 911
bestimmtes 911
wol@@ 911
tempor@@ 911
Paar 911
Bli@@ 911
Rol@@ 911
Fotografen 911
Wi 911
Wiederaufnahme 910
kurzfristige 910
schwierig@@ 910
Grie@@ 910
Rückzug 910
dü@@ 910
mediterranen 910
zeuge 910
blieben 910
äne 910
Mani@@ 910
sprung 910
1985 910
erkrank@@ 910
Digit@@ 910
Tool@@ 910
zufügen 909
Schriften 909
schwerwiegende 909
bestimmung 909
stren@@ 909
übersetzen 909
Jahrhunderten 909
Ras@@ 909
OR 909
kus 909
fasste 909
ENT@@ 909
rachte 908
Vernichtung 908
strich 908
1987 908
Einfach 908
Schwein@@ 908
fing 908
Band@@ 908
Brust@@ 908
Bestand 907
legal 907
tragischen 907
Krankenhaus 907
Wörter 907
Gehör 907
essi@@ 907
Seu@@ 907
Grenzwerte 907
ua 907
BE@@ 907
FR@@ 907
most 907
eindeu@@ 906
bürokrati@@ 906
Europa@@ 906
Ambitionen 906
Pressefreiheit 906
Cast@@ 906
ühlen 906
Varianten 906
TM 906
ule 906
double 906
schock@@ 905
zivile 905
Dialog@@ 905
Lob 905
rangi@@ 905
demzufolge 905
keit 905
Religionsfreiheit 905
Südkorea 905
ure@@ 905
Kirk 905
Gehäuse 905
ausdrücken 904
Beitrittsländer 904
Rechenschaft 904
agne 904
Verantwortlichkeit 904
Zah@@ 904
summe 904
such 904
Haupts@@ 904
Donau 904
keit@@ 904
bewaffneten 904
wischen 904
Christus 904
eingetreten 903
Tode 903
Entwickl@@ 903
Wohnungs@@ 903
beginn@@ 903
Gremium 903
auszuschließen 903
irgen@@ 903
I. 903
Ama@@ 903
entierte 903
ania 903
erklärung 903
exklu@@ 903
misst 903
verdeutlicht 902
erstattet 902
Einsatzes 902
Republi@@ 902
Somm@@ 902
mie@@ 902
open 902
first 902
enkt 901
Öffentliche 901
weites 901
Substanz 901
folgen@@ 901
Fahren 901
fortschrit@@ 901
elektronischer 901
Solidaritätsfonds 901
krei@@ 901
Wärme@@ 901
gründete 901
Haushaltsausschuss 901
komfort@@ 901
klick 901
Š@@ 901
haush@@ 900
Oster@@ 900
verla@@ 900
Beihilfe 900
deuten 900
Fortschritten 900
distan@@ 900
Reihen 900
gesundheitlichen 900
Reisende 900
telefon@@ 900
Fähr@@ 900
Zeichen@@ 900
Handbuch 900
Leh@@ 900
place 900
Intel 900
Reader 900
beitritts@@ 899
Fro@@ 899
beträchtlich 899
brauch@@ 899
Betra@@ 899
Arbeitsprogramm 899
niederländische 899
Roten 899
Nahrungsmitteln 899
eingeschlossen 899
Versamm@@ 899
Daniel 899
Hannover 899
Telefonnummer 899
Ausgaben@@ 898
Skandal 898
gründliche 898
eistungen 898
Belange 898
gefaßt 898
schriften 898
Befürworter 898
Dringlichkeits@@ 898
elligkeit 898
Feind 898
Organis@@ 898
euren 898
ott 898
Tauchen 898
Verschlüssel@@ 898
warm 898
anti 897
Zertifikat 897
Erfahrungs@@ 897
bloß 897
berechnen 897
Schlus@@ 897
Oper 897
PCs 897
cou@@ 897
tasie 896
egen@@ 896
Rasse 896
intellektu@@ 896
Zul@@ 896
pflanz@@ 896
Schauen 896
kontak@@ 896
Mar 896
tech 896
Toskana 896
gebucht 896
anzeige 896
Abfahrt 896
Layout 896
Bügelservice 896
Änderungsvorschläge 895
spezifischer 895
Fac@@ 895
kümmert 895
nationales 895
genheit 895
Nutzungsbedingungen 895
Strö@@ 895
Stufen 895
üpp@@ 895
Samsung 895
Geschäf@@ 894
quasi 894
vermark@@ 894
grei@@ 894
Überprü@@ 894
Lücken 894
tliches 894
stimmung 894
überraschend 894
Einfuhr 894
standardi@@ 894
ausgedeh@@ 894
kommerzi@@ 894
Homo@@ 894
Stern@@ 894
strahlung 894
Filmen 894
FS 894
Trainings@@ 894
Wellnessbereich 894
legislative 893
Flexibili@@ 893
aufgreifen 893
wohlhab@@ 893
Langzeit@@ 893
nötige 893
stanzen 893
feldern 893
Dossier 893
loses 893
utes 893
gegn@@ 893
Kommun@@ 893
Proteste 893
Verkauf@@ 893
türk@@ 893
miet@@ 893
spunkte 892
öl 892
zeuger 892
verschlechtert 892
sert 892
sätz@@ 892
UC@@ 892
ambition@@ 892
Einträge 892
übergehen 892
Stä@@ 892
Ratspräsidentin 892
befes@@ 892
alp@@ 892
read 892
С@@ 892
discher 891
sicherungen 891
anteil 891
Sech@@ 891
Vorgänge 891
Andernfalls 891
Main@@ 891
Fremdenfeindlichkeit 891
Einzelpersonen 891
human@@ 891
freies 891
schwarze 891
konvention@@ 891
Multi 891
sse@@ 891
Skrip@@ 891
Tank@@ 890
debattieren 890
schädlichen 890
längeren 890
bezo@@ 890
erschwing@@ 890
kombinieren 890
bester 890
Saudi 890
eingetragen 890
grä@@ 890
üblicherweise 890
Daneben 890
spr@@ 890
steil 890
Inc 890
Sant 890
pran@@ 889
Gesetzgeb@@ 889
Grüne 889
Weltmarkt 889
Fischereisektor 889
konzentri@@ 889
Nähr@@ 889
lagern 889
gespräche 889
Kontra@@ 889
ausreichenden 889
flan@@ 889
erfolgreich@@ 889
Rechnungshofs 889
Sequ@@ 889
BS 889
Nachtleben 889
andernfalls 888
uropä@@ 888
verabschiedeten 888
finanz@@ 888
ital 888
benennen 888
brauchs 888
Abwesenheit 888
Umfrage 888
unverzichtbar 888
impor@@ 888
Patent 888
einsehen 888
Phänom@@ 888
Lärm 888
ish@@ 888
W. 887
Börsen@@ 887
kostspie@@ 887
statistischen 887
beziehungsweise 887
jähr@@ 887
Tie@@ 887
sung 887
eu 887
lier 887
Consulting 887
thei@@ 886
hinweg@@ 886
Madeira 886
raschen 886
funktionierenden 886
minist@@ 886
engagi@@ 886
Unterstützungs@@ 886
Ausfuhr@@ 886
Gründer 886
komplexer 886
Soft 886
Villen 886
geltende 885
Gesundheits- 885
archie 885
punkt@@ 885
renommierten 885
Gründungs@@ 885
Lamp@@ 885
PAR@@ 885
bedingte 885
Mobiltelef@@ 885
Wunder@@ 885
po 885
Metro@@ 885
DIN 885
erklär@@ 884
krie@@ 884
gültige 884
Rechtsvorschrift 884
zufällig 884
Maßstäbe 884
Pfund 884
1945 884
vention 884
Aktualität 884
westlich 884
HP 884
Superior 884
Geschäftsreisende 884
Ansatzes 883
aufgeworfen 883
Seitdem 883
flich 883
Bananen 883
anhaltenden 883
hende 883
klingt 883
Materials 883
Gastronomie 883
komplizierte 882
genügen 882
Vorgän@@ 882
Inhaf@@ 882
Repräsent@@ 882
Haft@@ 882
vorantreiben 882
öne 882
schädlich 882
FA@@ 882
Erholungs@@ 882
Wachstumspakt 882
identifiziert 882
physikali@@ 882
Handelsabkommen 882
leger 882
och 882
Jungen 882
pf 882
utz 882
herausragende 882
Sus@@ 882
cat@@ 882
Südtirol 882
Boutique 882
auslösen 881
gangs@@ 881
sorgfäl@@ 881
soli@@ 881
bestmögliche 881
Schir@@ 881
verträ@@ 881
Flair 881
Menschenleben 880
KS 880
Volumen 880
maßnahme 880
herzlichen 880
Ank@@ 880
symboli@@ 880
Feedback 880
versteck@@ 880
widersprechen 880
wohnt 880
gesetzes 880
stattfindenden 880
sin 880
Programmier@@ 880
Sky@@ 880
facilities 880
Sender 879
transportiert 879
ausmacht 879
arium 879
städte 879
Ansonsten 879
Austausch@@ 879
Legitim@@ 879
Gehen 879
ungsergebnisse 879
entwicklungen 879
Merk@@ 879
Schattenberichterstat@@ 879
ühr@@ 879
gelö@@ 879
Mär@@ 879
ement@@ 879
Aktionäre 879
Boo@@ 879
strik@@ 878
Verdacht 878
cel@@ 878
einschränken 878
Verbesser@@ 878
farbe 878
zellen 878
infrastruktur 878
Ring 878
GE 878
LateRooms.com 878
eingebrachten 877
betrachte 877
kore@@ 877
ereig@@ 877
onds 877
Quad@@ 877
konstitutionelle 877
neun@@ 877
kompati@@ 877
gliches 877
jah@@ 877
Entdeck@@ 877
ausch 877
unberühr@@ 877
Geschäftspar@@ 877
flotte 876
Kollegi@@ 876
symbo@@ 876
autori@@ 876
seid 876
Eth@@ 876
anstehenden 876
fter 876
pfe 876
Universal@@ 876
Well@@ 876
Import 876
essel 876
Mio 876
Oase 876
terrasse 876
vorankommen 875
Vorgänger 875
met 875
Kro@@ 875
Zivilbevölkerung 875
zau@@ 875
Industrien 875
echn@@ 875
elektron@@ 875
atisch 875
privat 875
Sho@@ 875
Erdgeschoss 875
logisch 874
Metho@@ 874
Minist@@ 874
befriedi@@ 874
shop 874
kurzfristigen 874
weilen 874
terweise 874
Rücküber@@ 874
ritt@@ 874
rief 874
Appart@@ 874
Pixel 874
Stable 874
bevorzugt 873
festlegt 873
risiken 873
Dokuments 873
daraufhin 873
vergangen 873
Itali@@ 873
abhalten 873
ordentlich 873
ünsti@@ 873
Kino 873
orn 873
unterricht 873
ausdrückliche 872
Richtlinien@@ 872
Luftverkehr 872
ehmern 872
relevante 872
Waffe 872
Mein@@ 872
Modells 872
definierte 872
sprachige 872
Defiz@@ 872
teur 872
ads 872
club 872
strand 872
bre 872
Malware 872
Sitzungsperiode 871
anerkannte 871
Kreis@@ 871
aufgetreten 871
decke 871
jugosla@@ 871
English 871
hierher 870
vorgebracht 870
Phan@@ 870
Generaldirektion 870
schiffe 870
Bildes 870
getrennte 870
zurückgreifen 870
pass@@ 870
Verbrau@@ 870
chers 870
haltenen 870
blockieren 870
Messung 870
jk 870
Fris@@ 870
Day 870
Biom@@ 870
brand@@ 870
Andreas 870
Servern 870
Meerblick 870
tiefer 869
immen@@ 869
angekün@@ 869
schritt 869
notwendi@@ 869
erlangt 869
schot@@ 869
inneh@@ 869
Brot 869
Spenden 869
inhaltlich 868
17.@@ 868
Kommen 868
90er 868
beschriebenen 868
Sinn@@ 868
arkt 868
g. 868
cc@@ 868
veren 868
Dorf@@ 868
VI@@ 868
Navigation 868
J. 868
v.@@ 868
UM 868
plans 867
reichsten 867
waffen@@ 867
rer 867
Fischbestände 867
then 867
yk@@ 867
lings 867
nachhaltiger 867
benachbarten 867
Kalten 867
Profil@@ 867
schrieben 867
ege 867
Terrorismusbekämpfung 867
Lav@@ 867
ink 867
т@@ 867
verlin@@ 867
Umweltschutz@@ 866
Ziffern 866
Verhütung 866
kunft 866
chteten 866
entstehenden 866
warnt 866
jenes 866
widerspricht 866
skraft 866
spektrum 866
ity 866
offers 866
verur@@ 865
lokal 865
Verantwortlichkeiten 865
vielerlei 865
Versuchen 865
Riesen@@ 865
außergewöhnlich 865
angemess@@ 865
Stück@@ 865
Verfü@@ 865
Züge 865
ließ@@ 865
kön@@ 865
worüber 865
eger@@ 865
Kontin@@ 865
chambres 865
Sarkozy 865
Speed 865
gewalts@@ 864
Impuls 864
streit@@ 864
Korrek@@ 864
spra@@ 864
erstaun@@ 864
ärz@@ 864
gekehrt 864
ms@@ 864
besetzten 864
militär@@ 864
COM 864
sah@@ 864
mus@@ 864
älteste 864
musi@@ 864
ausstellung 864
Apart@@ 864
а@@ 864
Wertschö@@ 863
widri@@ 863
pfeiler 863
belie@@ 863
Kinnock 863
verschwunden 863
angegriffen 863
Einwanderungs@@ 863
handel@@ 863
fällige 863
Erzeug@@ 863
relevant 863
Kuli@@ 863
Blu@@ 863
EP@@ 863
when 863
Dienstleist@@ 862
prior@@ 862
eingesetzten 862
Diszipl@@ 862
doppelten 862
verlei@@ 862
Ausgleichs@@ 862
Zuschauer 862
mauern 862
erfolgreicher 862
Fluggesellschaft 862
Finger 862
Verlei@@ 862
telefonisch 862
Authenti@@ 862
weitergeleitet 861
mitunter 861
digungs@@ 861
Naturschutz@@ 861
zo 861
amb@@ 861
verschieden 860
gehender 860
Schwäch@@ 860
egenheiten 860
einheitliches 860
langfris@@ 860
Verhand@@ 860
lossenen 860
Wat@@ 860
Jeden 860
bilanz 860
wissen@@ 860
lizen@@ 860
Medium 860
bo 860
Gur@@ 860
stage 860
Mön@@ 860
detaillierten 859
arm 859
lehne 859
Sitzungs@@ 859
ästi@@ 859
ketten 859
beides 859
perat@@ 859
End 859
Black 859
tro 859
Schaltfläche 859
Anfänger 859
gl 859
Notwendi@@ 858
beeindruckt 858
Erinnerungen 858
kä@@ 858
intern 858
Frühling 858
num@@ 858
repar@@ 858
Net 858
Hochzeits@@ 858
reißen 857
Prozentsatz 857
reak@@ 857
Zeugen 857
Europarat 857
verwen@@ 857
jeher 857
Politikbereiche 857
stattungen 857
ava 857
sammlung 857
Schönheits@@ 857
10.000 857
Magazin 857
Stornierungen 857
CEO 857
faßt 856
wesentliches 856
emm@@ 856
British 856
aufgabe 856
zuteil 856
Meldung 856
Bünd@@ 856
befand 856
eld 856
yo 856
lis 856
Dampfbad 856
inkl 856
erkläre 855
Initiativ@@ 855
betro@@ 855
stür@@ 855
glaubwürdig 855
herausgestellt 855
Hav@@ 855
Verlu@@ 855
Schokolade 855
seits 855
Oft 855
Abfall 855
Hemm@@ 855
Handelsbeziehungen 855
Paket@@ 855
ond 855
Embry@@ 855
Internetanschluss 855
р@@ 855
LAN@@ 855
fielen 854
paßt 854
Beschlusses 854
Wähler@@ 854
Erwähnung 854
fris@@ 854
maßen 854
Vereinig@@ 854
Strafgerichtshof 854
ping 854
3000 854
tori@@ 854
Bonn 854
elektro@@ 854
Fir@@ 854
Gütern 853
abzuschaffen 853
herrschende 853
artik@@ 853
Sicher 853
höchstens 853
verbleibenden 853
national 853
Betrei@@ 853
ecks 853
Visi@@ 853
his 853
weitreich@@ 852
Erscheinung 852
them@@ 852
Streichung 852
bedien@@ 852
erschö@@ 852
jahre@@ 852
Mund 852
wäch@@ 852
verbreitete 852
Käse 852
kund@@ 852
Acc@@ 852
Ausschuss@@ 852
lenstoff@@ 852
down 852
vorübergehend 851
Ausgehend 851
Herangehensweise 851
Bedauerlicherweise 851
krieg 851
Entwicklungsziele 851
vermin@@ 851
Völkerrecht 851
diesbezügliche 851
terroristischen 851
erwor@@ 851
niert 851
Frühjahr@@ 851
ph 851
Abhängi@@ 851
video 851
Snacks 851
е 851
Quark 851
schil@@ 850
Konzerne 850
Kette 850
philosoph@@ 850
Dank@@ 850
disziplin@@ 850
toleri@@ 850
Stoff@@ 850
index 850
zugeschnitten 850
schten 850
stem 850
Speicherung 850
Tarifa 850
REACH 850
Germany 850
Olympus 850
Wiederbelebung 849
üssen 849
Geltung 849
dokumentiert 849
biger 849
erhöhten 849
reformen 849
Sicherheitsrates 849
wertes 849
Liter 849
vorsorge 849
langes 849
risi@@ 849
dal@@ 849
draußen 848
interinstitutionellen 848
häu@@ 848
Meldungen 848
zeitlichen 848
ränkte 848
fassungs@@ 848
Holland 848
öffnung 848
1990er 848
hervorgeht 847
ausgedehnt 847
Arbeitsplatz@@ 847
blin@@ 847
begriff 847
high 847
Bedar@@ 847
Mord 847
pa 847
Logistik@@ 847
Herunterladen 847
Geburtstag 847
Pit@@ 847
gleichwer@@ 846
Ged@@ 846
bezir@@ 846
car 846
Gebiet@@ 846
Mitarbeit 846
Thun@@ 846
wohnheiten 846
ecker 846
later@@ 846
Laufenden 846
schenko 846
some 846
Bern@@ 846
Bettwäsche 846
у@@ 846
Obgleich 845
Nationalstaaten 845
Erfordernissen 845
respek@@ 845
anc@@ 845
sers 845
istik 845
Ry@@ 845
äufers 845
order 845
King 845
Anreisedatum 845
beauftragten 844
Ad 844
Summen 844
geordnet 844
Beitritts 844
Mitgefühl 844
abler 844
Anstrengung 844
Beauf@@ 844
baum 844
brasili@@ 844
Sign@@ 844
How 844
isiert 844
Info 844
serie 844
Stress 844
gewirkt 843
begünstigt 843
Gali@@ 843
ox@@ 843
Atomwaffen 843
gon 843
Produkts 843
dazu@@ 843
Gewalt@@ 843
töten 843
motoren 843
Szenario 843
nummern 843
Bezirk 843
HR@@ 843
Österreichs 842
entgegenzu@@ 842
tim 842
bisherige 842
nerin 842
sth@@ 842
einzubringen 842
kers 842
ommenen 842
ehrgeizi@@ 842
gebo@@ 842
verspä@@ 842
stück@@ 842
Engagements 842
kapazitäten 842
maximalen 842
verhäl@@ 842
verspricht 842
jü@@ 842
muster 842
etts 842
rale 842
renomm@@ 842
EGF 842
verhängt 841
abzubauen 841
Venti@@ 841
begri@@ 841
bliche 841
operation@@ 841
Gedächtnis 841
qualifizi@@ 841
kehrt 841
anischer 841
außenpolitischen 841
fremden 841
Datener@@ 841
Rabatt 841
sien 841
Codes 841
Science 841
Schattenberichterstattern 841
Vulkan@@ 841
angewand@@ 840
ratifizieren 840
wiederhol@@ 840
lung@@ 840
funk 840
Ausflug 840
Flugzeugen 840
Zauber 840
INE 840
Urlaub@@ 840
ueber 840
Kil@@ 839
hänge 839
beschränkungen 839
erheb@@ 839
Segment 839
univer@@ 839
leck@@ 839
igt 839
natürlicher 839
space 839
klam@@ 839
Pass 839
filter 839
Metall 839
erholsamen 839
besserer 838
Deut@@ 838
durfte 838
übri@@ 838
Gross@@ 838
kontro@@ 838
einladen 838
posten 838
Stipen@@ 838
jedermann 838
titel 838
Konten 838
entschied 838
techni@@ 838
tten@@ 838
gewohnt 838
Them@@ 838
Vorjahr 838
Rhyth@@ 838
Speise@@ 838
Beam@@ 837
vorbe@@ 837
gravier@@ 837
ausfallen 837
gelad@@ 837
exportiert 837
Leucht@@ 837
Genugtuung 837
Fat@@ 837
springen 837
entwicklungs@@ 837
Eltern@@ 837
assozi@@ 837
Sicher@@ 837
bekann@@ 837
omen 837
Seri@@ 837
zeug 837
yo@@ 837
konfiguriert 837
Transit@@ 836
endsten 836
experten 836
territoriale 836
erwartete 836
esa 836
kreativen 836
Sendung 836
größt@@ 836
Vorzüge 836
sus 836
HO@@ 836
[...]
