the 5805587
, 4671636
. 3848117
of 3034488
and 2684433
to 2600759
in 1874446
a 1648468
is 1356542
that 1099167
for 978323
on 777966
@-@ 719260
with 655130
be 648343
are 629986
The 610920
I 596277
this 569149
as 563506
it 501553
we 500790
have 471842
by 460507
not 458220
which 410995
you 410485
will 402824
&quot; 370392
from 358268
or 345529
at 344004
has 338055
an 336801
- 333465
&apos;s 321701
( 321660
) 318781
European 296169
can 281625
our 271126
all 269109
: 244857
also 243325
was 236850
its 201665
your 198894
would 197911
We 197866
but 196010
more 186781
their 183610
been 183386
Mr 180088
In 177154
should 174904
one 174880
This 170414
It 167866
Commission 167309
must 158448
&apos; 154942
President 145558
they 143473
there 142234
do 141935
other 138884
like 138780
new 138676
very 136195
time 134863
only 134656
/ 133486
about 131517
these 124746
us 123312
? 123008
Union 122820
so 121675
up 119630
who 118084
Parliament 116291
if 114147
Europe 111714
no 109712
any 106947
States 106655
people 106336
Member 105413
out 105005
report 104598
into 103733
countries 102329
what 100865
such 100479
Council 97675
need 96303
well 96033
; 95862
EU 95102
my 94113
than 93123
use 92514
were 91813
when 91195
important 90537
now 89422
some 88968
make 88148
work 87771
them 87319
because 87189
first 86940
between 86738
most 85442
many 84209
take 83327
his 81827
! 78951
way 78886
support 78338
made 77044
A 76048
those 75654
policy 75613
years 74551
information 74356
two 73214
If 72813
... 72432
am 72213
just 72213
world 71775
being 70799
over 70404
able 69421
s 68305
where 68221
system 66942
had 66915
even 65789
re@@ 65212
may 64949
he 64924
right 64706
un@@ 64400
year 64142
order 63332
market 62275
political 61858
hotel 61699
part 61612
economic 61266
rights 60202
possible 59577
here 59369
area 59169
development 58688
same 58563
see 58051
% 57974
As 57583
therefore 57557
through 57470
own 57438
good 57373
against 56996
place 56917
want 56467
how 56273
within 55691
country 55579
could 55357
then 55209
You 54974
does 53953
There 53711
after 53586
both 53544
much 53222
under 52617
For 52593
public 52412
point 52352
in@@ 52313
used 51767
social 51532
fact 51070
say 50829
without 50758
find 50434
de 50097
international 49971
believe 49910
2 49622
high 49598
1 49591
number 49041
me 48991
still 48818
future 48675
know 48634
services 48510
ing 48506
already 48080
long 47770
free 47543
ed 46967
last 46852
today 46841
different 46705
view 46643
think 46284
That 46244
cannot 45761
great 45612
Commissioner 45583
course 45448
human 45195
available 45187
set 45117
case 44987
too 44981
process 44945
before 44851
level 44794
end 44777
o 43854
products 43841
financial 43684
debate 43666
proposal 43625
issue 42935
But 42391
data 42366
national 42361
question 42021
said 41918
quality 41896
Hotel 41799
i 41665
situation 41512
example 41077
3 41011
means 40903
Committee 40169
day 39963
clear 39827
measures 39779
get 39685
particular 39662
service 39560
However 39490
S@@ 39306
since 39181
citizens 38991
es 38636
common 38406
during 38352
e 38337
agreement 38132
including 38090
offers 38042
energy 37925
based 37863
y 37863
help 37580
every 37538
best 37364
taken 37075
give 37047
C@@ 36980
areas 36910
ensure 36606
each 36514
put 36406
problem 36322
access 36307
small 36202
business 35886
next 35714
c@@ 35696
three 35320
problems 35206
provide 35189
Our 35142
security 35018
cooperation 35012
P@@ 35008
necessary 34871
far 34784
few 34619
further 34589
vote 34403
why 34317
again 34306
go 34154
&#91; 34095
given 33977
large 33853
come 33762
position 33718
&#93; 33691
change 33653
shall 33636
hope 33631
ation 33606
room 33568
s@@ 33478
offer 33415
4 33337
law 33313
however 33240
city 33207
On 33023
action 32878
All 32480
protection 32105
T@@ 32055
needs 32053
er 32046
p@@ 32026
real 32001
back 31929
Community 31834
group 31816
Mrs 31760
rooms 31501
company 31461
al 31425
United 31388
5 31174
A@@ 31161
while 31143
Group 30950
better 30906
always 30788
To 30770
whether 30751
B@@ 30734
particularly 30711
ers 30711
life 30653
With 30651
less 30629
What 30603
trade 30597
form 30592
current 30523
legal 30460
terms 30355
And 30353
working 30282
state 30073
power 30065
present 30030
using 29971
making 29965
down 29950
At 29896
House 29846
issues 29735
d@@ 29691
They 29681
10 29628
full 29547
production 29428
m 29424
M@@ 29283
her 29250
become 29122
result 28988
together 28986
ated 28897
D@@ 28838
certain 28825
conditions 28704
women 28628
sector 28573
G@@ 28520
did 28485
open 28431
role 28385
another 28197
When 28100
ate 28032
These 28016
basis 28015
main 28007
systems 27886
respect 27845
health 27835
special 27753
children 27746
budget 27652
matter 27597
second 27577
de@@ 27479
industry 27370
&amp; 27360
companies 27261
whole 27100
located 27095
done 27039
en@@ 27008
o@@ 27002
rapporteur 26984
specific 26920
per 26881
around 26864
account 26851
decision 26767
control 26737
E@@ 26717
L@@ 26681
various 26632
&apos;t 26620
b@@ 26565
especially 26502
government 26462
e@@ 26272
stay 26220
resolution 26180
H@@ 26149
F@@ 26147
third 26103
create 26028
K@@ 26028
research 25987
directive 25933
crisis 25830
programme 25801
continue 25745
gentlemen 25708
regard 25672
line 25634
million 25585
N@@ 25584
region 25282
page 25178
term 25129
called 25124
rules 25103
really 25097
itself 25076
going 25074
site 25012
g@@ 24979
non 24945
something 24835
experience 24825
old 24769
fully 24718
look 24681
wish 24625
y@@ 24605
global 24545
Treaty 24498
management 24494
US 24418
project 24374
Madam 24353
major 24255
least 24248
institutions 24242
local 24236
general 24198
ask 24186
dis@@ 24181
t@@ 24168
water 24151
single 24147
hand 24077
v@@ 24025
ted 23955
towards 23947
subject 23929
centre 23903
V@@ 23833
d 23819
ating 23722
t 23542
environment 23540
following 23488
R@@ 23461
thank 23416
ts 23370
growth 23358
transport 23329
O@@ 23327
welcome 23319
aid 23314
increase 23279
once 23232
often 23113
m@@ 23064
list 23038
days 23007
several 23004
Members 22993
start 22891
resources 22839
opportunity 22812
di@@ 22799
Germany 22739
forward 22720
things 22648
proposals 22525
agree 22516
amendments 22412
money 22408
close 22377
approach 22370
behalf 22340
German 22322
rather 22291
framework 22229
i@@ 22188
name 22171
call 22132
20 22125
individual 22066
ladies 22048
field 21869
ting 21809
W@@ 21809
30 21801
range 21788
product 21703
adopted 21687
No 21669
interest 21641
economy 21631
2009 21603
State 21591
&#124; 21587
software 21521
away 21514
off 21511
con@@ 21492
f@@ 21380
safety 21367
legislation 21356
n@@ 21347
yet 21346
u@@ 21338
activities 21333
food 21320
progress 21309
taking 21271
modern 21232
solution 21199
favour 21133
6 21110
opinion 21100
family 21087
until 21057
quite 20998
li@@ 20988
little 20947
price 20937
policies 20897
allow 20863
period 20845
private 20827
k@@ 20815
a@@ 20797
might 20788
found 20764
having 20741
costs 20721
an@@ 20699
provided 20680
China 20680
points 20658
al@@ 20579
effective 20567
concerned 20523
members 20486
So 20466
responsibility 20435
personal 20404
him 20333
7 20321
short 20318
reason 20256
among 20225
side 20224
technology 20181
ly 20126
key 20120
value 20094
excellent 20089
&apos;@@ 20049
importance 20026
difficult 20001
strategy 19912
ti@@ 19873
greater 19854
include 19796
above 19726
attention 19708
air 19692
society 19691
others 19669
projects 19665
principle 19619
environmental 19615
let 19609
results 19595
content 19567
known 19562
play 19527
due 19517
application 19441
text 19433
le 19404
groups 19370
ates 19352
makes 19329
I@@ 19259
8 19238
simply 19213
customers 19181
home 19160
authorities 19110
light 19068
He 19043
left 19027
p 19026
employment 19019
clearly 19002
times 18990
l 18988
words 18973
questions 18963
en 18954
ar@@ 18865
building 18832
ch@@ 18817
l@@ 18796
15 18732
standards 18707
ra@@ 18681
addition 18680
provides 18571
achieve 18536
ro@@ 18473
proposed 18451
serious 18385
One 18371
version 18370
show 18341
age 18337
step 18309
recent 18267
essential 18244
z@@ 18173
deal 18161
ations 18145
interests 18131
After 18100
risk 18058
regulation 18050
democracy 18033
k 18008
internal 17984
design 17983
regions 17974
voted 17968
pages 17932
co@@ 17930
der 17888
.@@ 17879
meeting 17852
si@@ 17845
h@@ 17839
website 17702
implementation 17698
technical 17675
training 17663
c 17656
democratic 17651
cultural 17645
freedom 17568
complete 17519
12 17509
le@@ 17502
required 17491
currently 17484
x 17467
efforts 17429
longer 17423
kind 17413
bring 17412
responsible 17400
contact 17385
Russia 17375
competition 17371
ri@@ 17348
address 17328
j@@ 17317
EUR 17310
involved 17300
easy 17298
on@@ 17290
related 17288
ago 17275
negotiations 17238
months 17229
peace 17215
enjoy 17169
location 17135
parties 17124
past 17115
2010 17108
natural 17045
user 17035
positive 17011
led 16997
er@@ 16984
Internet 16966
themselves 16941
needed 16928
solutions 16916
wide 16861
b 16842
Presidency 16826
sure 16818
requirements 16817
J@@ 16766
town 16762
2008 16707
rate 16703
fundamental 16697
World 16693
minutes 16679
force 16675
ent 16646
cases 16642
along 16612
u 16522
feel 16498
directly 16497
markets 16493
nature 16485
developing 16451
funds 16436
developed 16428
se 16417
changes 16402
enough 16389
she 16319
als 16314
cost 16291
extremely 16257
four 16240
young 16220
C 16219
sea 16203
date 16200
upon 16184
regional 16136
thing 16113
states 16090
events 16052
person 16037
heart 15969
via 15933
man 15920
consider 15892
improve 15880
comes 15860
strong 15820
st@@ 15819
or@@ 15747
education 15742
climate 15733
foreign 15731
workers 15725
em@@ 15705
history 15700
never 15672
low 15656
network 15646
procedure 15642
keep 15638
el@@ 15637
beautiful 15627
staff 15618
land 15613
ings 15592
effect 15550
house 15537
true 15494
appropriate 15445
thus 15445
views 15415
50 15413
as@@ 15413
la 15397
accept 15367
either 15332
ar 15320
majority 15317
im@@ 15315
es@@ 15299
actually 15297
pre@@ 15272
understand 15261
share 15258
el 15221
at@@ 15178
art 15168
request 15152
2007 15136
event 15134
war 15127
century 15124
success 15121
held 15098
total 15092
idea 15086
seen 15081
Re@@ 15061
pay 15049
lead 15041
tax 15005
online 14999
th@@ 14979
lot 14965
additional 14946
reform 14928
please 14915
relations 14913
context 14912
though 14895
created 14867
From 14860
according 14859
w@@ 14849
central 14846
language 14823
meet 14809
2000 14805
prices 14796
Turkey 14796
3@@ 14791
certainly 14790
International 14759
visit 14753
9 14751
live 14745
aware 14735
ever 14729
run 14723
soon 14721
Please 14703
concerns 14692
programmes 14676
investment 14670
agreements 14644
care 14631
tions 14627
D 14619
type 14607
committee 14590
guarantee 14571
turn 14564
almost 14560
top 14539
mentioned 14522
communication 14501
doing 14469
file 14466
receive 14454
significant 14430
France 14427
ous 14414
Government 14384
decisions 14376
n 14376
existing 14368
living 14359
everything 14344
plan 14311
guests 14299
r@@ 14263
am@@ 14248
five 14242
takes 14235
direct 14226
concerning 14219
road 14216
New 14164
impact 14160
men 14142
included 14130
add 14130
knowledge 14104
car 14099
French 14080
objectives 14075
looking 14047
initiative 13997
capital 13997
re 13979
des 13974
reasons 13952
writing 13945
red 13926
users 13913
facilities 13902
final 13857
try 13855
Lisbon 13850
over@@ 13846
near 13843
designed 13828
standard 13804
apply 13802
jobs 13757
25 13746
connection 13745
week 13729
reach 13681
act 13679
military 13677
throughout 13661
team 13658
24 13627
works 13622
agricultural 13587
ad@@ 13580
parts 13522
values 13481
remain 13480
ability 13478
11 13477
community 13471
objective 13467
across 13464
unique 13449
4@@ 13422
concern 13388
outside 13386
space 13370
nothing 13359
amount 13352
Z@@ 13343
fight 13338
took 13317
population 13294
moment 13284
100 13280
h 13273
practice 13270
although 13268
euro 13250
Affairs 13245
sh@@ 13229
Court 13224
party 13206
regarding 13198
integration 13187
How 13184
_ 13156
established 13140
sense 13131
sp@@ 13130
etc 13122
leading 13109
hard 13106
U@@ 13089
media 13087
inter@@ 13086
member 13085
partners 13079
program 13077
later 13075
ant 13070
ally 13062
basic 13059
keyword 13058
benefit 13050
America 13049
By 13048
customer 13041
ans 13039
develop 13031
Let 13024
situated 13024
reports 13022
completely 13015
aim 13012
dialogue 12992
stage 12985
et 12984
features 12967
km 12951
ways 12949
package 12938
early 12921
Y@@ 12921
demand 12917
model 12914
ac@@ 12894
American 12894
indeed 12882
ve 12877
Al@@ 12861
music 12848
performance 12827
governments 12802
body 12794
rates 12785
My 12770
achieved 12766
Finally 12763
Office 12750
move 12735
famous 12722
hours 12711
face 12690
culture 12649
2006 12632
amendment 12614
In@@ 12609
mean 12542
consumers 12528
night 12522
seems 12510
prevent 12508
check 12506
active 12497
S 12489
allows 12456
traditional 12450
table 12448
sustainable 12444
station 12442
est 12440
Since 12433
Article 12429
quickly 12422
principles 12417
function 12406
bar 12406
goods 12394
focus 12393
ine 12392
nuclear 12387
includes 12383
+ 12370
ic 12369
ist 12362
ds 12357
X@@ 12357
ab@@ 12347
lack 12321
bo@@ 12320
entire 12319
send 12312
big 12298
commitment 12294
po@@ 12279
read 12250
it@@ 12238
treatment 12235
beach 12234
received 12233
agreed 12211
contains 12190
professional 12184
potential 12181
card 12180
lo@@ 12165
book 12136
ideal 12135
increased 12118
matters 12117
os 12111
built 12079
half 12060
* 12051
perhaps 12033
co 12032
applications 12029
border 12029
web 12027
levels 11995
ex@@ 11984
restaurant 11979
mind 11976
promote 11970
TV 11956
successful 11949
job 11948
everyone 11924
answer 11923
presented 11918
carried 11917
recently 11909
board 11895
original 11893
joint 11888
huge 11887
res 11880
Con@@ 11880
game 11879
Therefore 11862
18@@ 11835
below 11832
self 11826
files 11825
follow 11819
material 11819
enable 11813
South 11811
whose 11808
g 11805
les 11793
actions 11791
simple 11761
choice 11752
B 11721
equipment 11721
ty 11695
aspects 11686
stop 11686
return 11679
June 11662
enlargement 11660
beginning 11652
image 11625
creation 11599
May 11594
increasing 11593
East 11587
Here 11586
ap@@ 11581
possibility 11565
ary 11559
response 11542
higher 11509
x@@ 11479
funding 11474
is@@ 11461
00 11458
priority 11457
highly 11449
effects 11444
direction 11426
opportunities 11421
tion 11415
test 11414
pressure 11410
balance 11402
reduce 11401
added 11382
mail 11372
asked 11371
2@@ 11370
external 11340
capacity 11317
se@@ 11295
per@@ 11293
civil 11275
perfect 11267
previous 11263
note 11261
be@@ 11253
ance 11251
O 11237
closed 11230
speak 11223
equipped 11221
ma@@ 11217
exchange 11214
ling 11213
bi@@ 11212
shown 11208
vi@@ 11200
coming 11189
T 11185
forms 11155
thanks 11151
comfortable 11143
reached 11131
prepared 11131
ding 11125
shows 11108
protect 11087
rest 11086
oil 11081
setting 11076
consumer 11075
5@@ 11064
billion 11043
pool 11036
und 11035
An 11023
� 11013
press 10975
holiday 10967
fair 10956
Convention 10950
complex 10938
behind 10929
ver@@ 10926
Now 10920
considered 10914
categories 10912
op@@ 10910
supply 10904
supported 10898
mo@@ 10897
series 10881
assistance 10873
friendly 10862
40 10860
industrial 10849
regards 10833
2005 10831
Africa 10831
computer 10823
stability 10819
breakfast 10807
ors 10801
office 10800
providing 10798
pro@@ 10784
Spain 10776
ten 10747
regulations 10736
decided 10733
relation 10714
choose 10710
qu@@ 10708
remains 10704
sed 10684
rule 10676
cause 10676
tic 10670
movement 10669
ec@@ 10656
ce 10655
efficient 10613
compromise 10606
Of 10599
style 10597
18 10583
® 10583
creating 10580
latest 10571
discussion 10566
pleased 10557
December 10516
Central 10490
que 10486
independent 10472
commercial 10472
sites 10466
Some 10464
relevant 10463
ci@@ 10461
materials 10454
Italy 10452
ves 10440
places 10424
procedures 10416
came 10414
size 10397
internet 10384
bed 10375
contribution 10374
operation 10370
2004 10368
gives 10366
limited 10360
item 10353
provisions 10349
fishing 10347
former 10335
um 10320
violence 10286
Bank 10284
double 10268
labour 10260
purpose 10237
brought 10234
z 10228
Berlin 10226
te 10208
statement 10204
6@@ 10203
draft 10200
to@@ 10186
walk 10181
criteria 10172
sound 10170
activity 10166
14 10140
September 10139
travel 10127
16 10123
search 10115
steps 10077
message 10073
transparency 10069
Minister 10067
document 10065
Mediterranean 10059
distribution 10024
instruments 10022
r 10013
front 10007
English 10006
ourselves 9990
easily 9979
instead 9971
similar 9971
First 9967
tra@@ 9967
giving 9965
Rights 9965
structure 9963
Republic 9955
solidarity 9954
tive 9951
th 9947
sub 9941
2003 9919
agenda 9913
leave 9913
property 9913
code 9909
details 9906
E 9905
medium 9887
ses 9877
status 9875
car@@ 9865
elections 9847
ones 9845
legislative 9842
ment 9841
safe 9837
equal 9829
produced 9825
six 9814
star 9813
don 9809
poverty 9806
express 9797
January 9791
floor 9786
effort 9780
cross 9776
task 9764
center 9759
et@@ 9754
Mar@@ 9744
source 9740
reviews 9734
credit 9732
conference 9728
consequences 9709
tell 9705
stand 9695
benefits 9680
Today 9673
UN 9669
2001 9668
March 9659
gas 9652
.com 9648
P 9647
damage 9624
challenges 9620
produce 9619
speed 9615
000 9601
ch 9593
13 9591
tri@@ 9589
video 9585
lines 9575
concept 9549
link 9547
construction 9547
$ 9545
terrorism 9543
October 9540
paid 9537
British 9537
allowed 9530
reading 9524
conflict 9511
di 9509
charge 9507
colleagues 9506
nor 9502
integrated 9500
finally 9497
summer 9490
ag@@ 9474
ground 9473
study 9472
popular 9468
Service 9459
Ro@@ 9456
reality 9447
7@@ 9438
forces 9436
documents 9436
accommodation 9416
tomorrow 9407
Directive 9407
written 9393
congratulate 9392
Furthermore 9381
saying 9344
establish 9343
te@@ 9326
partner 9326
par@@ 9325
require 9319
ise 9310
draw 9309
applied 9306
largest 9305
ties 9299
organisations 9286
option 9268
ins 9268
8@@ 9263
Amendment 9249
crucial 9248
General 9243
growing 9239
efficiency 9234
implemented 9226
interesting 9226
payment 9224
word 9220
ons 9216
review 9200
started 9200
Co@@ 9200
talk 9199
sing 9196
elements 9188
monitoring 9175
Italian 9175
sub@@ 9170
enter 9169
relating 9166
avoid 9155
ke 9149
om@@ 9139
DE 9120
tool 9102
ou@@ 9102
voting 9101
atmosphere 9101
hotels 9089
Development 9088
goes 9077
accession 9070
employees 9053
An@@ 9044
IT 9033
requires 9032
July 9026
ol@@ 9020
processes 9013
analysis 9005
types 9004
submitted 9003
reduction 9002
practical 9000
immediately 8994
click 8993
lives 8992
Spanish 8985
ha@@ 8982
section 8982
ator 8947
Party 8940
farmers 8935
ity 8933
island 8931
instrument 8921
beyond 8906
ded 8901
carry 8901
9@@ 8869
variety 8867
2002 8861
class 8851
M 8839
minimum 8837
Ar@@ 8819
waste 8808
Israel 8803
official 8799
da 8793
Although 8779
tools 8764
November 8760
sectors 8759
happy 8755
powers 8753
reference 8746
rich 8745
0@@ 8735
su@@ 8720
ze 8718
persons 8708
G 8708
Many 8705
ms 8699
North 8696
X 8691
death 8686
Windows 8678
ter 8677
do@@ 8675
guest 8657
post 8653
highest 8643
useful 8639
extent 8639
comprehensive 8637
expect 8623
base 8621
under@@ 8619
wi@@ 8616
gra@@ 8614
mention 8602
historical 8587
ni@@ 8572
begin 8567
ideas 8562
build 8559
links 8549
weeks 8548
ders 8541
server 8539
download 8535
namely 8527
ot@@ 8524
secure 8517
Secondly 8514
la@@ 8514
school 8511
0 8511
ta@@ 8506
businesses 8501
anti 8501
implement 8480
accordance 8477
adopt 8474
cut 8468
rec@@ 8467
numerous 8464
wine 8460
bus 8460
challenge 8454
€ 8447
National 8446
operating 8443
raised 8432
ul@@ 8426
strategic 8421
hold 8405
Fund 8386
starting 8386
During 8377
ry 8374
scientific 8370
ne@@ 8369
annual 8364
technologies 8362
digital 8352
ism 8348
caused 8347
no@@ 8346
drive 8334
initiatives 8308
cohesion 8291
doubt 8291
gu@@ 8282
poor 8282
despite 8278
Even 8274
scale 8271
daily 8258
borders 8256
ge@@ 8256
pi@@ 8248
mobile 8236
Ireland 8232
sent 8218
methods 8212
historic 8207
L 8207
absolutely 8201
maximum 8201
ess 8198
alone 8190
innovation 8186
ready 8180
leaders 8176
Your 8165
&apos;ll 8162
representatives 8160
April 8151
Moreover 8147
bit 8144
ces 8140
affected 8132
ina 8127
expressed 8124
scope 8124
transfer 8124
Western 8115
apartment 8113
anything 8105
month 8099
60 8094
method 8093
sc@@ 8092
round 8092
friends 8087
é@@ 8084
probably 8083
child 8082
reforms 8077
accepted 8075
f 8066
sometimes 8065
1999 8060
R 8059
calls 8056
= 8050
thought 8047
ur@@ 8047
became 8045
published 8043
fine 8041
illegal 8032
Conference 8030
lower 8022
distance 8022
com@@ 8021
offered 8018
justice 8018
trying 8018
demands 8010
sales 8005
w 8004
structural 8003
machine 7999
ality 7995
sts 7992
so@@ 7989
offering 7985
gh@@ 7976
fall 7973
Thank 7972
heard 7968
options 7963
late 7960
interested 7954
for@@ 7952
vital 7951
17 7947
confidence 7947
approved 7946
priorities 7943
lies 7941
influence 7932
learn 7931
chance 7916
extra 7916
talking 7911
committed 7908
advantage 7908
worldwide 7908
ge 7904
innovative 7903
languages 7902
While 7890
regime 7890
die 7876
intended 7875
rise 7871
village 7870
overall 7859
unemployment 7850
K 7848
conclusion 7844
banks 7836
maintain 7833
processing 7830
join 7821
proper 7820
currency 7819
stress 7808
wanted 7805
ators 7805
Chinese 7792
news 7789
head 7785
emissions 7769
Austria 7760
il@@ 7760
ence 7758
del 7755
mis@@ 7752
ed@@ 7749
Do 7748
Iraq 7748
clients 7745
victims 7744
release 7744
crime 7741
circumstances 7740
critical 7739
sports 7735
tabled 7734
ad 7728
-@@ 7721
Indeed 7717
fields 7713
ensuring 7698
F 7698
uses 7694
worked 7693
opening 7691
mon@@ 7683
plans 7683
alternative 7683
lost 7680
pass 7672
administration 7672
relationship 7658
Russian 7656
ful 7636
En@@ 7630
got 7623
competitive 7621
increasingly 7621
decide 7607
cities 7605
Nations 7604
contribute 7595
Is 7583
improved 7579
budgetary 7578
agriculture 7576
encourage 7570
restaurants 7561
players 7556
pe@@ 7555
La 7551
21 7550
up@@ 7548
st 7547
fish 7541
contract 7535
morning 7532
ck@@ 7525
effectively 7524
fi@@ 7520
airport 7511
cover 7507
infrastructure 7499
Bo@@ 7495
comments 7494
ler 7492
participation 7489
target 7489
II 7486
reduced 7484
fellow 7471
gi@@ 7464
images 7461
park 7457
Public 7453
ski 7451
says 7442
changed 7425
met 7424
pa@@ 7418
son 7414
aimed 7410
mainly 7399
ter@@ 7399
res@@ 7393
mountain 7391
ments 7384
apartments 7384
green 7379
ent@@ 7376
Security 7353
whom 7345
us@@ 7345
out@@ 7344
goal 7341
correct 7336
placed 7331
specifically 7327
ir@@ 7327
19 7325
exist 7321
discussed 7320
ic@@ 7317
partnership 7315
Room 7311
planning 7310
risks 7308
assessment 7304
discuss 7302
ets 7293
player 7268
Only 7263
precisely 7256
games 7256
supports 7254
discrimination 7240
stated 7239
ving 7230
sources 7229
selection 7227
traffic 7225
200 7224
bu@@ 7222
motion 7221
laws 7218
institutional 7216
protected 7216
running 7214
enterprises 7212
discussions 7211
Di@@ 7205
22 7196
manner 7194
fast 7190
strengthen 7185
ents 7178
Car@@ 7175
hi@@ 7175
People 7172
suitable 7164
guidelines 7161
film 7160
ps 7158
Agreement 7156
defined 7154
Th@@ 7145
developments 7138
introduced 7133
families 7133
measure 7131
{ 7131
nice 7126
ies 7120
immigration 7120
rural 7119
Ma@@ 7109
ten@@ 7101
box 7096
automatically 7094
ra 7086
wrong 7078
ren@@ 7078
represents 7068
referred 7061
train 7061
Centre 7059
introduction 7058
80 7055
fisheries 7033
sufficient 7029
yourself 7029
wants 7028
sign 7023
V 7015
500 7013
administrative 7011
speaking 7010
serve 7008
covered 7005
quiet 6997
ative 6996
bank 6992
da@@ 6986
else 6984
animals 6974
closely 6971
phone 6971
sized 6968
improving 6966
competitiveness 6966
sitting 6957
income 6957
tor 6955
debt 6952
detailed 6950
27 6949
likely 6945
becoming 6943
GmbH 6943
limit 6942
relate 6939
minute 6937
installation 6935
More 6929
visitors 6924
police 6922
financing 6919
email 6916
broad 6913
ure 6911
coordination 6907
ho@@ 6906
separate 6905
managed 6899
electronic 6896
India 6895
clean 6894
linked 6893
exactly 6892
session 6888
supporting 6884
appear 6879
purposes 6873
UK 6872
menu 6871
Mo@@ 6868
Japan 6862
Paris 6862
West 6861
represent 6860
v 6859
listed 6857
powerful 6851
functions 6851
presidency 6845
thousands 6842
parliamentary 6841
considerable 6837
ters 6835
Park 6834
Greece 6833
zed 6831
delivery 6829
ia 6825
loss 6817
} 6815
entry 6813
Pro@@ 6811
www.@@ 6807
evening 6802
Web 6800
Policy 6796
networks 6796
duty 6787
AG 6783
parking 6780
provision 6779
hour 6779
Iran 6777
speech 6769
signed 6768
ati@@ 6754
shopping 6754
sive 6746
Ch@@ 6745
H 6743
den 6737
feature 6737
man@@ 6737
plant 6736
summit 6727
king 6725
happen 6706
inc@@ 6706
map 6701
den@@ 6699
Why 6696
bodies 6696
otherwise 6695
sion 6695
sur@@ 6690
San 6690
17@@ 6686
ages 6680
1.@@ 6673
swimming 6673
Asia 6671
garden 6669
Middle 6660
extensive 6659
earlier 6658
Cor@@ 6650
generation 6648
organisation 6647
remember 6646
thinking 6645
difficulties 6641
comfort 6640
Economic 6636
suggest 6630
ru@@ 6630
sk@@ 6620
modified 6615
properly 6606
facing 6601
Social 6599
collection 6596
Its 6592
dealing 6588
comm@@ 6584
authority 6583
London 6582
Brussels 6580
pl@@ 6580
N 6578
ging 6571
positions 6570
founded 6569
usually 6568
operations 6565
end@@ 6564
port 6557
ut@@ 6551
record 6547
lu@@ 6540
00@@ 6539
ical 6533
wing 6529
spirit 6527
ca 6526
consideration 6517
bad 6517
understanding 6517
sions 6515
degree 6512
animal 6503
getting 6500
Then 6498
refer 6492
followed 6483
street 6481
cu@@ 6475
Ad@@ 6468
ber@@ 6466
ep@@ 6455
ship 6454
&apos;re 6454
ously 6450
combat 6448
promoting 6446
presence 6444
ev@@ 6440
February 6430
entirely 6429
worth 6428
flexibility 6421
23 6420
trust 6416
regular 6408
love 6406
City 6396
experts 6392
students 6384
path 6369
applies 6364
hear 6362
ing@@ 6362
humanitarian 6362
flexible 6360
expected 6359
Unfortunately 6347
white 6343
PC 6342
medical 6340
opened 6331
defence 6325
University 6325
informed 6312
cor@@ 6304
implementing 6300
adoption 6300
seriously 6290
programs 6287
paper 6284
sen@@ 6282
ka 6280
ph@@ 6279
fund 6275
selected 6273
aims 6271
terrace 6268
mi@@ 6264
Czech 6263
origin 6261
save 6260
threat 6259
played 6257
camera 6256
establishment 6253
tourism 6252
screen 6252
criminal 6251
seem 6251
Firstly 6248
ably 6247
Each 6245
monetary 6242
ology 6239
began 6235
ys 6234
components 6231
track 6227
politics 6224
Switzerland 6224
marketing 6220
aspect 6201
Poland 6194
Gu@@ 6188
practices 6187
connected 6185
ana 6182
opposition 6181
spend 6178
Rooms 6172
bathroom 6169
vehicles 6166
St@@ 6166
ard 6165
difference 6158
actual 6157
est@@ 6156
sti@@ 6156
Not 6156
fixed 6154
failure 6152
90 6152
reducing 6151
balanced 6151
ES 6150
God 6149
bar@@ 6141
client 6141
exclusive 6140
appears 6133
1@@ 6132
domestic 6129
myself 6128
average 6128
metres 6123
Y 6121
Barcelona 6118
south 6117
ale 6117
differences 6115
born 6113
plants 6112
Debian 6111
Lo@@ 6102
&gt; 6102
propose 6101
tourist 6099
me@@ 6096
statements 6091
fo@@ 6088
meetings 6087
Europeans 6085
producers 6082
Ex@@ 6082
70 6078
attempt 6075
mar@@ 6072
Human 6071
Justice 6069
Bar@@ 6065
concrete 6063
Sea 6056
net 6056
respond 6056
structures 6055
ying 6053
il 6053
comp@@ 6051
recognition 6048
der@@ 6047
purchase 6046
playing 6042
Because 6039
unacceptable 6037
votes 6034
Just 6034
happened 6023
forget 6018
WTO 6017
buy 6011
reasonable 6000
easier 5993
served 5992
des@@ 5990
du@@ 5986
hands 5979
select 5974
0.@@ 5971
stable 5969
genuine 5964
ban 5964
buildings 5959
won 5959
EC 5955
sa@@ 5953
normal 5952
prior 5951
calling 5949
economies 5947
introduce 5939
agencies 5930
guarantees 5928
ness 5928
asylum 5926
unfortunately 5925
sport 5924
go@@ 5923
col@@ 5921
Amsterdam 5918
ese 5911
estate 5911
mission 5909
instance 5905
ali@@ 5905
finance 5903
numbers 5901
ne 5900
larger 5900
becomes 5898
union 5895
August 5892
Kingdom 5886
ari@@ 5886
dangerous 5883
generally 5882
ob@@ 5880
ahead 5879
ma 5878
houses 5876
au@@ 5874
gave 5869
Also 5863
negative 5863
telephone 5862
war@@ 5858
consumption 5850
items 5848
USA 5844
pre 5842
acts 5840
,000 5838
cards 5836
trading 5830
ches 5829
seek 5826
walking 5825
peaceful 5821
impossible 5818
immediate 5817
establishing 5815
improvement 5815
fresh 5814
elected 5805
raise 5804
inside 5802
High 5800
Free 5794
Once 5792
evidence 5788
Kosovo 5784
Pre@@ 5782
carefully 5781
associated 5780
Ri@@ 5777
can@@ 5774
ks 5770
un 5768
voice 5767
Services 5765
machines 5763
membership 5762
Regulation 5758
picture 5758
ants 5756
detail 5752
election 5746
Q@@ 5745
According 5733
wa@@ 5732
Le@@ 5725
urgent 5723
experienced 5723
conclusions 5718
inform 5717
ak@@ 5711
went 5701
Christian 5700
strongly 5688
fear 5683
ck 5682
Ukraine 5681
wishes 5678
closer 5678
database 5672
Li@@ 5672
Linux 5669
ish 5668
display 5667
sensitive 5663
figures 5661
desire 5660
winter 5659
advanced 5657
Turkish 5653
rightly 5652
gain 5651
spent 5650
fied 5648
Democrats 5648
shared 5644
territory 5641
unto 5640
Palestinian 5631
é 5629
anyone 5627
perspective 5625
core 5624
obtain 5623
Po@@ 5623
enormous 5622
truly 5621
stock 5621
Com@@ 5621
wonderful 5620
told 5618
continued 5617
commitments 5617
convinced 5616
he@@ 5613
Irish 5612
continues 5611
bear 5607
participate 5607
ls 5607
photo 5607
paragraph 5604
sides 5604
African 5601
20@@ 5598
typical 5593
tasks 5590
element 5590
fiscal 5584
spending 5582
fire 5580
drawn 5575
models 5575
Euro 5573
era 5571
honourable 5567
changing 5564
remind 5562
Nevertheless 5559
availability 5554
warm 5552
cs 5549
CD 5537
exercise 5535
religious 5535
300 5535
format 5535
contrary 5534
announced 5534
cur@@ 5531
passed 5531
transparent 5528
Swiss 5521
insurance 5520
Booking.com 5520
definition 5517
Green 5514
greatest 5511
á@@ 5511
Vi@@ 5506
zing 5505
campaign 5504
Guest 5496
studies 5492
described 5492
Mon@@ 5492
outcome 5490
Research 5490
candidate 5490
allowing 5481
export 5480
equality 5474
charged 5473
gen@@ 5473
tradition 5471
institution 5470
translation 5470
Constitution 5470
combination 5469
achieving 5466
leader 5464
ambitious 5454
sort 5451
beds 5451
comment 5446
possibilities 5446
kitchen 5445
Due 5444
tour 5440
unless 5439
fl@@ 5437
packages 5436
character 5432
manage 5430
Prime 5429
firm 5423
controls 5421
organised 5418
weapons 5417
expenditure 5412
colleague 5407
entitled 5406
fying 5401
19@@ 5400
ble 5399
obligations 5399
.. 5382
Trade 5380
sets 5380
payments 5379
Foreign 5379
1998 5376
permanent 5375
fun 5375
factors 5374
reliable 5371
himself 5371
laid 5370
Most 5370
ently 5369
W 5363
lin@@ 5361
forced 5359
De@@ 5357
failed 5355
ast@@ 5349
district 5348
obviously 5345
ER 5343
advance 5341
Portugal 5338
ver 5333
yesterday 5331
initial 5329
granted 5324
season 5324
article 5321
vo@@ 5321
attractive 5321
shop 5319
ie 5315
26 5314
Par@@ 5310
enables 5310
28 5308
installed 5306
disease 5304
Board 5301
totally 5299
courses 5299
registered 5299
War 5298
individuals 5297
contain 5297
Such 5292
names 5290
ges 5289
learning 5286
Health 5279
av@@ 5272
Un@@ 5270
intervention 5269
unable 5266
neither 5262
advertising 5261
2.@@ 5261
completed 5259
ats 5258
promotion 5255
exhibition 5254
Yet 5250
She 5249
va 5245
cars 5243
Airport 5242
16@@ 5236
har@@ 5235
Eastern 5234
moving 5234
strengthening 5230
pointed 5229
Netherlands 5229
claims 5227
continuing 5226
recommendations 5226
vision 5220
prevention 5219
brand 5216
expression 5215
combined 5212
compared 5208
eg@@ 5205
devices 5201
asking 5198
dy 5198
targets 5190
ta 5187
limits 5185
His 5184
button 5180
black 5178
grounds 5175
independence 5172
extended 5166
deep 5161
merely 5158
reservation 5156
Be@@ 5148
platform 5142
cre@@ 5141
Summit 5137
kept 5134
stands 5133
mechanism 5129
responsibilities 5128
situations 5123
architecture 5122
conclude 5119
tu@@ 5117
tors 5116
binding 5111
sale 5107
IN@@ 5103
monitor 5102
skills 5097
governance 5095
31 5092
wood 5092
court 5091
Inter@@ 5087
pleasant 5081
bringing 5081
Another 5080
goals 5078
Every 5078
Greek 5073
substantial 5071
zone 5071
middle 5071
15@@ 5066
putting 5065
ological 5060
consensus 5059
ines 5058
shops 5058
corporate 5055
acceptable 5054
released 5053
pictures 5051
obvious 5048
Sch@@ 5043
storage 5040
ens 5037
science 5036
color 5031
condition 5027
win 5026
acc@@ 5025
eb@@ 5025
resort 5025
door 5022
agency 5012
compliance 5009
Thus 5006
cuisine 5006
television 5003
U 5002
install 5000
discussing 4998
ics 4994
35 4992
write 4990
seeking 4990
AN@@ 4989
consistent 4988
contained 4985
super@@ 4985
successfully 4980
communities 4975
attack 4975
maintenance 4973
arms 4972
memory 4972
mass 4972
Agency 4972
ste@@ 4966
Su@@ 4966
factor 4964
elegant 4963
north 4962
capable 4959
weight 4958
break 4956
advice 4954
ice 4947
background 4946
tried 4945
addressed 4944
trans@@ 4944
signal 4942
ino 4942
vehicle 4941
claim 4940
nations 4940
dimension 4935
extend 4935
Lu@@ 4933
constantly 4932
chosen 4929
bur@@ 4926
York 4924
Business 4920
biggest 4916
spacious 4914
operate 4913
piece 4913
thereby 4910
guaranteed 4910
qualified 4906
ancient 4906
perfectly 4904
mark 4902
mm 4897
AT@@ 4891
ber 4888
Ac@@ 4886
ven@@ 4886
accessible 4883
sis 4883
Can 4880
deliver 4877
rapid 4872
surface 4871
Romania 4869
meters 4867
Those 4866
dedicated 4866
interface 4863
testing 4858
attacks 4856
zation 4855
sting 4852
causes 4849
ships 4846
planned 4845
Dis@@ 4845
10@@ 4845
recovery 4843
Minutes 4840
urge 4840
Environment 4834
organization 4828
ig@@ 4826
recommend 4822
diversity 4821
beaches 4820
ised 4819
stone 4817
seven 4814
um@@ 4814
surrounding 4814
valid 4812
mechanisms 4811
railway 4806
explain 4804
adequate 4803
keeping 4801
nation 4801
ner 4799
29 4799
EC@@ 4796
Click 4795
phase 4794
ade 4792
talks 4790
AS@@ 4789
hot 4788
evaluation 4788
AR@@ 4787
competence 4781
dynamic 4781
ingly 4778
ass@@ 4778
saw 4776
delay 4773
foot 4771
update 4770
sun 4770
arrival 4769
Sweden 4767
ore 4765
fuel 4765
Are 4760
alism 4760
consultation 4758
1997 4756
Management 4756
determined 4755
Latin 4755
print 4754
dealt 4752
contents 4752
category 4750
Rules 4742
device 4742
disposal 4741
someone 4740
exp@@ 4738
mutual 4730
physical 4730
examples 4726
aircraft 4726
à 4719
conduct 4713
45 4713
Austrian 4711
investments 4711
relax 4703
decades 4699
industries 4697
sanctions 4695
Museum 4689
recognise 4688
cal 4686
host 4684
unit 4683
approval 4683
identity 4683
leads 4682
object 4675
representative 4673
emphasise 4671
treated 4665
association 4665
resulting 4662
patients 4662
Association 4662
IC@@ 4661
guide 4658
brings 4652
regret 4647
coast 4643
System 4642
coffee 4637
multi 4634
shower 4634
id 4633
ger 4631
beauty 4629
Vienna 4628
registration 4626
affect 4621
tests 4621
flight 4621
discover 4620
older 4617
helpful 4617
sal@@ 4614
spread 4611
waiting 4611
cra@@ 4608
approximately 4606
tor@@ 4601
window 4601
speakers 4600
booking 4599
existence 4596
outstanding 4593
river 4591
primarily 4590
ano 4590
artists 4590
highlight 4589
engine 4588
oral 4584
fer@@ 4581
remove 4581
reply 4580
trip 4578
IT@@ 4575
previously 4571
flow 4571
orders 4569
ER@@ 4569
letter 4565
lic@@ 4564
technological 4562
lose 4560
Tra@@ 4560
nearby 4557
holidays 4557
rejected 4556
liability 4552
FR 4550
gre@@ 4548
delegation 4543
manufacturing 4542
refugees 4541
medi@@ 4540
reception 4539
compensation 4537
Gra@@ 4537
attitude 4535
species 4530
spaces 4526
amongst 4524
por@@ 4523
represented 4522
improvements 4517
obligation 4517
resolve 4516
leadership 4515
story 4514
bra@@ 4513
# 4512
burden 4510
ton 4510
participants 4505
drugs 4505
fraud 4503
requested 4499
rail 4497
Chamber 4496
race 4495
smoking 4494
rent 4492
Federal 4491
Center 4491
Red 4488
driving 4484
accounts 4484
primary 4483
bl@@ 4481
faced 4479
intention 4475
AL@@ 4474
disaster 4472
combating 4472
Information 4472
tur@@ 4471
title 4470
comply 4469
church 4469
standing 4466
Both 4466
Ber@@ 4464
square 4463
politicians 4462
appeal 4462
knows 4461
von 4461
urban 4460
smaller 4459
mer@@ 4458
consists 4457
Energy 4453
prepare 4450
willing 4449
renewable 4448
firstly 4447
manufacturers 4445
affairs 4443
substances 4441
ring 4440
GDP 4439
meaning 4438
ce@@ 4434
ws 4433
turned 4426
helping 4423
route 4422
significantly 4419
Programme 4419
nearly 4414
mountains 4412
Any 4411
ba@@ 4408
fin@@ 4407
St. 4407
tly 4405
mobility 4404
touch 4402
solve 4402
ran@@ 4402
ja 4401
Man@@ 4399
recognised 4396
emphasis 4395
steel 4394
notice 4393
im 4391
versions 4390
forest 4389
relaxing 4388
Great 4388
ST@@ 4388
truth 4386
suffering 4386
Per@@ 4386
glass 4385
entered 4384
profit 4383
ths 4382
dra@@ 4382
books 4381
serves 4380
constructive 4378
Despite 4378
Paper 4378
UN@@ 4378
directives 4377
controlled 4377
RE@@ 4377
pri@@ 4376
peoples 4375
danger 4375
ely 4365
kinds 4362
Se@@ 4361
14@@ 4360
taxes 4358
Find 4358
Thanks 4357
landscape 4355
tics 4352
&apos;ve 4352
ists 4348
EN@@ 4348
Microsoft 4344
Restaurant 4344
ak 4343
tan@@ 4341
Dutch 4340
attractions 4337
strength 4336
fighting 4335
satellite 4335
involving 4334
luxury 4332
exists 4329
Ministers 4329
copy 4326
marked 4324
mandate 4320
rapporteurs 4319
ori@@ 4317
register 4316
liberalisation 4315
surrounded 4314
fication 4311
drawing 4310
delivered 4309
med 4309
sec@@ 4307
reflect 4306
extension 4304
Euro@@ 4303
schools 4301
requests 4300
ES@@ 4296
respective 4293
Strategy 4290
ite 4289
involvement 4288
operators 4288
protecting 4285
presentation 4280
arrangements 4279
fac@@ 4274
fail 4273
diseases 4272
acting 4269
Safety 4266
treaty 4264
pleasure 4261
opposed 4261
Other 4260
min@@ 4259
stations 4257
expectations 4254
Afghanistan 4254
store 4250
br@@ 4250
Club 4249
default 4248
Bar 4247
Software 4246
Before 4245
naturally 4244
tes 4243
Market 4240
finding 4237
opposite 4235
discharge 4234
southern 4233
Sp@@ 4233
Pi@@ 4232
wealth 4231
Charter 4230
multiple 4229
personally 4227
dri@@ 4225
applicable 4225
AC@@ 4225
shape 4224
aries 4224
IS@@ 4221
repeat 4218
debates 4218
photos 4215
Ab@@ 4214
criticism 4212
whatever 4210
millions 4205
van 4200
error 4200
advantages 4195
1996 4194
felt 4193
gets 4193
ched 4192
launched 4191
not@@ 4191
hand@@ 4190
happens 4189
feeling 4189
mid 4187
ster 4184
hostels 4182
ined 4181
expertise 4181
length 4178
lake 4178
author 4175
sha@@ 4174
holding 4170
producing 4166
Private 4166
happening 4163
Or@@ 4160
ff@@ 4160
NATO 4159
wait 4157
figure 4156
32 4154
ian 4152
ended 4152
equally 4150
@ 4149
officials 4146
heavy 4146
Mor@@ 4142
latter 4140
eight 4138
defend 4138
whilst 4137
mode 4137
confirmed 4136
No@@ 4134
Bi@@ 4134
texts 4132
appreciate 4131
Located 4130
contemporary 4129
Home 4127
resolutions 4125
down@@ 4125
MEPs 4118
Swedish 4118
covers 4118
cks 4117
ought 4117
ye 4117
Sa@@ 4117
club 4112
reaching 4111
Rome 4111
constant 4110
parliaments 4110
ur 4109
opinions 4108
temporary 4108
pen@@ 4104
contributions 4101
restrictions 4098
fruit 4098
bath 4098
proof 4097
berg 4097
bars 4095
ff 4094
experiences 4092
om 4089
cl@@ 4089
sell 4088
centres 4083
Instead 4081
regulatory 4080
recommendation 4079
furnished 4078
awareness 4076
To@@ 4075
Ladies 4070
collective 4069
amounts 4068
strategies 4067
ini 4066
onto 4064
expensive 4063
determine 4059
Financial 4058
browser 4057
valuable 4056
au 4056
eye 4055
websites 4054
gender 4053
passengers 4049
quick 4048
units 4048
2020 4048
fit 4047
healthy 4047
sol@@ 4046
skin 4045
requirement 4044
yes 4043
plus 4040
tical 4039
bro@@ 4039
locations 4039
ker 4039
Control 4037
prove 4037
relatively 4032
radio 4030
Monetary 4028
handling 4024
intend 4021
back@@ 4018
define 4016
increases 4016
DVD 4015
75 4014
e.g. 4013
Cyprus 4010
Two 4008
fil@@ 4008
buffet 4005
sted 4003
Note 4003
ved 4002
largely 4001
Grand 4001
involve 4000
SMEs 4000
conflicts 3999
president 3993
continent 3991
contracts 3989
helps 3989
waters 3987
Si@@ 3987
Mi@@ 3985
tim@@ 3985
runs 3985
inv@@ 3983
engineering 3982
Go@@ 3981
Britain 3979
sexual 3978
privacy 3978
Company 3977
stra@@ 3976
i.e. 3974
Rule 3973
exclusively 3972
fill 3972
articles 3972
except 3970
uni@@ 3965
audio 3965
í@@ 3962
ars 3961
na 3960
sold 3958
els 3956
facilitate 3955
Bulgaria 3948
moved 3945
Where 3943
minority 3943
Croatia 3943
IP 3942
cing 3939
ou 3937
operational 3936
ethnic 3932
preparation 3931
ther@@ 3929
head@@ 3929
alisation 3927
Tri@@ 3927
du 3923
gar@@ 3921
recommended 3920
For@@ 3919
chain 3919
automatic 3919
precise 3918
volume 3914
obtained 3914
mu@@ 3914
Alliance 3913
cycle 3911
Lake 3911
che 3910
issued 3907
effectiveness 3906
ear@@ 3901
Roma 3901
suite 3901
resi@@ 3900
water@@ 3896
fe@@ 3896
welfare 3893
meat 3893
removed 3892
identify 3889
Lord 3888
charges 3887
subsidies 3886
judicial 3886
discovered 3886
sto@@ 3884
ei@@ 3884
ement 3883
communications 3882
terrorist 3878
ve@@ 3877
golf 3877
gone 3875
jo@@ 3874
worse 3873
cies 3872
fu@@ 3870
vel@@ 3868
trafficking 3862
grateful 3858
ering 3854
work@@ 3854
customs 3854
soft 3848
depends 3847
Last 3847
helped 3846
objects 3846
assist 3843
destination 3841
Luxembourg 3838
™ 3838
her@@ 3836
Ni@@ 3833
named 3830
Google 3829
glad 3828
facts 3826
confirm 3826
cal@@ 3825
migration 3824
Check 3824
grant 3821
understood 3819
spring 3818
tru@@ 3816
CO@@ 3816
functioning 3813
pollution 3812
proved 3811
creates 3811
carbon 3811
massive 3810
occasion 3809
elling 3808
declaration 3806
output 3806
wed 3805
Israeli 3803
creative 3803
alised 3801
imposed 3801
seeing 3801
organizations 3801
exceptional 3797
maintained 3796
emergency 3796
Enjoy 3796
cutting 3793
committees 3789
submit 3789
cheap 3788
cul@@ 3787
ft 3783
corruption 3781
Amendments 3780
spa 3780
launch 3778
impression 3776
ultimately 3775
Cal@@ 3774
fy 3773
eyes 3771
reserves 3771
Pact 3771
acy 3770
block 3769
OS 3768
command 3765
remaining 3764
cent 3763
ically 3761
Schengen 3760
reserve 3756
ann@@ 3755
offices 3753
ro 3753
perform 3753
looks 3751
pping 3748
wind 3744
reject 3743
visa 3742
statistics 3740
RO@@ 3739
electricity 3738
Foundation 3738
ron@@ 3737
leaving 3735
delighted 3735
counter 3734
universal 3732
cally 3730
characteristics 3730
parents 3730
° 3730
j 3728
ours 3727
met@@ 3727
Institute 3726
Art 3726
Procedure 3724
bilateral 3723
98 3721
temperature 3721
Villa 3721
justified 3720
focused 3719
hundreds 3719
ced 3719
trees 3719
ports 3717
ward 3717
Applause 3714
topic 3714
and@@ 3714
oc@@ 3713
minorities 3713
Ba@@ 3708
ral 3707
Korea 3704
demonstrate 3703
investors 3702
conducted 3702
deals 3702
Book 3701
dly 3699
password 3699
Use 3695
Take 3694
Arab 3693
Gi@@ 3692
friend 3685
demanding 3685
divided 3684
answers 3682
we@@ 3680
Breakfast 3680
poli@@ 3679
demonstrated 3678
Over 3676
marks 3675
somewhat 3673
abroad 3673
extreme 3672
Under 3670
visible 3670
Question 3670
PT 3669
streets 3668
EL@@ 3668
stri@@ 3667
absolute 3666
adopting 3665
ends 3665
Funds 3663
Munich 3661
lay 3660
noted 3659
ration 3657
6.@@ 3657
boat 3656
mann 3654
tackle 3653
determination 3652
za 3652
connections 3651
compatible 3650
crimes 3648
maintaining 3647
are@@ 3647
museum 3647
residence 3646
Polish 3646
taste 3646
convenient 3645
strict 3644
ots 3637
ching 3637
asing 3636
credibility 3636
hit 3634
01 3633
blue 3632
Time 3631
ery 3629
immigrants 3629
transition 3627
proud 3627
3.@@ 3626
Portuguese 3625
vast 3625
phrase 3625
-- 3625
charming 3624
involves 3622
follows 3622
speaker 3620
subsidiarity 3620
concluded 3619
actively 3618
bri@@ 3617
impressive 3616
bedroom 3615
constitutional 3608
Col@@ 3608
Her@@ 3608
regularly 3606
Qu@@ 3605
atic 3602
blood 3602
respected 3600
ged 3600
grow 3599
4.@@ 3599
globalisation 3597
journey 3595
dishes 3593
watch 3592
ang 3591
IS 3590
pension 3589
bre@@ 3588
intellectual 3581
Belarus 3581
ongoing 3580
ek 3580
Structural 3579
indicated 3578
faster 3578
satisfied 3577
taxation 3576
legitimate 3572
messages 3572
signs 3571
Copenhagen 3571
load 3570
competent 3566
feed 3565
Their 3565
Given 3562
citizen 3560
hardware 3559
So@@ 3557
1995 3553
Best 3551
edge 3550
wall 3548
conditioning 3547
dates 3546
ess@@ 3546
firms 3545
finished 3545
displayed 3545
Perhaps 3544
doors 3542
noise 3542
plenary 3540
PL 3539
Hotels 3539
Brazil 3537
organized 3536
overcome 3534
all@@ 3534
ID 3533
heritage 3532
chemical 3532
colour 3528
careful 3527
flat 3527
13@@ 3526
declared 3525
contacts 3525
je@@ 3519
roads 3518
furniture 3517
stronger 3516
east 3516
Baltic 3515
couple 3513
multi@@ 3512
tr@@ 3511
El@@ 3508
emerging 3508
Nice 3506
eu@@ 3505
ures 3505
Costa 3505
dec@@ 3505
encouraging 3502
row 3500
99 3497
dependent 3497
5.@@ 3496
cold 3494
accompanied 3494
White 3494
sm@@ 3494
Vice 3493
frequently 3491
assets 3491
inclusion 3488
tional 3486
scheme 3481
fies 3478
Frankfurt 3475
definitely 3474
entertainment 3473
familiar 3472
Protection 3472
lets 3472
meant 3471
tested 3471
spoken 3468
brief 3467
ple@@ 3467
Thirdly 3466
Can@@ 3464
los 3463
je 3463
ular 3462
Do@@ 3462
the@@ 3461
vers 3460
Japanese 3460
pieces 3458
earth 3457
license 3457
proposing 3455
loc@@ 3455
collaboration 3454
400 3452
occasions 3451
printing 3451
inflation 3449
possibly 3448
lists 3448
raw 3447
band 3446
proposes 3445
deficit 3445
newly 3444
app@@ 3443
cable 3442
30@@ 3441
constitution 3441
ach@@ 3440
seat 3439
ó@@ 3439
eastern 3436
23@@ 3435
showing 3432
assume 3430
ir 3430
passenger 3428
owners 3425
profile 3421
died 3421
contrast 3419
outdoor 3417
doesn 3415
bound 3414
destruction 3414
cap@@ 3414
joined 3413
resolved 3412
drug 3412
leisure 3412
impose 3411
afternoon 3411
reported 3411
correctly 3410
ell@@ 3410
apart 3408
sky 3406
flo@@ 3405
settings 3405
tures 3404
decisive 3403
Pa@@ 3403
prefer 3401
depth 3398
clo@@ 3398
examine 3397
Belgium 3396
Le 3396
regarded 3394
configuration 3394
our@@ 3393
bs 3391
satisfaction 3390
vulnerable 3389
Am@@ 3389
listen 3388
Nos 3388
drivers 3384
Canada 3384
mor@@ 3383
bottom 3383
lasting 3383
air@@ 3382
provider 3380
depending 3380
resistance 3379
updated 3379
150 3378
ser@@ 3378
Non 3377
em 3375
vol@@ 3374
ACP 3372
properties 3372
Yes 3371
partly 3371
land@@ 3371
mp@@ 3369
hin@@ 3368
desired 3368
Action 3368
invite 3367
2011 3367
ga@@ 3366
fee 3365
driver 3365
Get 3365
ory 3364
library 3363
zz@@ 3362
occur 3362
rapidly 3361
presents 3361
preparing 3360
documentation 3359
tours 3358
Day 3357
Soviet 3357
log 3355
Rec@@ 3353
behaviour 3352
Fi@@ 3350
starts 3348
transactions 3347
AD@@ 3345
settlement 3342
SP@@ 3340
Hungary 3340
dining 3340
ya 3339
tic@@ 3338
ming 3337
95 3335
father 3335
dinner 3335
Data 3334
tobacco 3331
expert 3330
cking 3330
argument 3329
oriented 3329
Bu@@ 3329
counter@@ 3328
widely 3328
bedrooms 3328
west 3328
returned 3326
interpretation 3324
maritime 3324
voluntary 3321
Whether 3320
identified 3316
Pakistan 3316
foundation 3315
remote 3314
cuts 3314
Kar@@ 3314
ising 3311
shares 3311
Framework 3309
heating 3309
generated 3308
channels 3307
northern 3306
12@@ 3306
Welcome 3304
sight 3303
nevertheless 3302
techniques 3302
percent 3299
woman 3298
award 3298
appointed 3297
spot 3297
excessive 3295
weather 3294
metal 3294
THE 3294
classic 3293
sugar 3293
assure 3292
expansion 3292
educational 3290
fre@@ 3288
stored 3285
owner 3283
duties 3283
visited 3281
replace 3281
applying 3280
sen 3279
walls 3279
freedoms 3276
absence 3273
puts 3273
performed 3273
forum 3272
considering 3268
copyright 3267
corresponding 3266
MS 3264
bly 3263
tion@@ 3263
dan@@ 3263
inhabitants 3262
quarter 3262
sian 3262
pol@@ 3261
Desk 3261
containing 3259
Ho@@ 3259
ty@@ 3259
He@@ 3258
exports 3258
employed 3256
harmonisation 3254
Sh@@ 3254
distributed 3253
housing 3253
Assembly 3253
Women 3253
personnel 3252
banking 3252
surroundings 3251
substance 3250
com 3250
ein 3249
saving 3248
transportation 3247
abuse 3247
amp@@ 3247
gs 3244
suffer 3244
ay 3243
ast 3243
cat@@ 3243
Agriculture 3239
suppliers 3238
Open 3238
elsewhere 3237
formed 3236
proceed 3235
Well 3235
che@@ 3235
Hungarian 3233
pursue 3231
politically 3231
syn@@ 3230
Without 3230
Bush 3229
fashion 3229
1,@@ 3227
flights 3226
arrive 3224
alization 3223
LE@@ 3222
p.m. 3221
heat 3221
VAT 3219
97 3219
Saint 3219
El 3219
Legal 3217
ending 3215
solely 3214
Report 3214
La@@ 3214
imports 3213
milk 3213
manufacturer 3212
sending 3211
COM 3207
Star 3207
invest 3206
master 3206
mer 3205
enhance 3204
Mexico 3204
representation 3204
mat@@ 3204
² 3203
sharing 3202
component 3201
wn 3200
prosperity 3200
De 3200
wines 3200
farm 3199
providers 3199
blog 3199
wonder 3198
courts 3197
Square 3196
exception 3195
sta@@ 3194
carrying 3193
realistic 3193
exciting 3192
Will 3192
EL 3192
negotiating 3191
stance 3190
das 3190
John 3189
ticket 3187
ju@@ 3186
Friday 3184
western 3184
solid 3183
arguments 3183
complicated 3182
pped 3182
sum 3182
mostly 3182
intensive 3181
hor@@ 3181
islands 3180
az@@ 3179
valley 3179
ency 3178
pla@@ 3178
gener@@ 3177
extraordinary 3176
channel 3175
savings 3174
falls 3174
Mal@@ 3174
Auditors 3173
Following 3172
CO2 3169
7.@@ 3169
Station 3168
char@@ 3167
star@@ 3166
moral 3165
division 3164
usual 3163
plays 3163
val@@ 3163
referendum 3163
castle 3163
drink 3162
patent 3161
cooperate 3159
gold 3159
pose 3157
Air 3156
Barroso 3156
replaced 3155
equ@@ 3153
farming 3153
iz@@ 3153
ns 3152
allocated 3151
fantastic 3150
surely 3149
fla@@ 3149
frame 3149
sauna 3149
ko@@ 3148
Thursday 3145
men@@ 3145
Second 3145
Northern 3144
match 3144
count 3142
ss 3141
Special 3140
Stability 3139
ordinary 3136
functional 3134
ah 3134
army 3133
youth 3130
zi@@ 3129
bul@@ 3129
Transport 3128
Socialist 3125
Page 3125
Strasbourg 3124
difficulty 3121
renovated 3121
pe 3119
ght 3118
aged 3117
Description 3117
united 3116
career 3115
proven 3115
96 3114
domain 3114
professionals 3114
ensures 3112
labelling 3112
Prague 3109
secret 3106
gri@@ 3106
fulfil 3105
constitute 3104
awarded 3103
safeguard 3103
packaging 3102
generate 3102
trend 3102
recorded 3101
ss@@ 3101
Within 3100
.... 3098
forthcoming 3098
succeed 3097
Shi@@ 3097
formal 3096
gy 3096
supplies 3096
Du@@ 3096
tel@@ 3095
relaxation 3095
rising 3094
mother 3094
necessarily 3092
http 3091
significance 3090
facility 3089
pu@@ 3087
ach 3087
greatly 3084
addresses 3083
thousand 3083
depend 3081
proceedings 3081
trial 3081
Palace 3079
ca@@ 3079
Q 3077
concepts 3075
societies 3074
Spa 3074
consent 3072
ens@@ 3069
sa 3069
legally 3068
Madrid 3068
Dr. 3068
enabled 3066
forests 3064
tickets 3064
cri@@ 3063
updates 3062
promised 3061
Street 3059
balcony 3059
af@@ 3058
audi@@ 3058
def@@ 3058
hom@@ 3058
battle 3058
department 3057
ational 3054
introducing 3053
subjects 3052
slow 3050
str@@ 3050
Design 3050
obliged 3049
preventing 3049
attempts 3046
hall 3046
nu@@ 3045
lie 3044
revision 3043
enabling 3038
lessons 3038
supervision 3038
theme 3038
suggestions 3037
artist 3037
EADS 3037
Sal@@ 3035
firmly 3034
hair 3034
Facilities 3034
explore 3033
Har@@ 3033
Ver@@ 3033
48 3030
hundred 3029
suites 3028
spoke 3026
specified 3026
Egypt 3026
Serbia 3026
suggested 3025
Tip 3025
barriers 3024
dic@@ 3024
Code 3023
ISO 3020
Secretary 3019
comparison 3019
fra@@ 3018
ture 3017
Commissioners 3017
del@@ 3016
exit 3016
cash 3016
decorated 3016
EN 3014
routes 3014
disasters 3012
fore@@ 3012
micro@@ 3012
sought 3011
OR@@ 3011
ella 3011
adults 3010
swe@@ 3009
bridge 3007
exploitation 3007
owned 3006
PPE 3005
Cas@@ 3005
towns 3002
realise 3000
straight 2999
pr@@ 2999
directory 2999
anti@@ 2999
raising 2998
exclusion 2996
pres@@ 2996
corner 2996
slightly 2994
religion 2994
endorse 2993
interior 2992
stocks 2991
ant@@ 2990
paying 2986
Au@@ 2986
sel@@ 2985
sustainability 2984
ales 2984
2013 2984
accurate 2983
qui@@ 2982
beings 2982
Ru@@ 2982
coordinated 2982
ishing 2981
directed 2981
tourists 2981
receiving 2980
obstacles 2980
ine@@ 2980
disabled 2977
tro@@ 2976
arise 2975
visiting 2975
fitness 2975
cru@@ 2974
dignity 2974
soci@@ 2974
supplier 2974
traditions 2973
welcomed 2971
ric 2970
ECB 2969
topics 2969
AL 2966
import 2966
cia 2966
remarks 2965
Americans 2965
sters 2963
weak 2962
undoubtedly 2960
con 2957
ministers 2956
violations 2954
refers 2954
pers 2952
Ra@@ 2952
periods 2951
ining 2950
Very 2949
nights 2949
sation 2948
ECU 2948
shipping 2948
hu@@ 2948
Technology 2948
Old 2948
diverse 2947
Having 2945
Enterprise 2945
gained 2943
armed 2942
disk 2940
module 2940
sovereignty 2939
cast 2939
Finland 2938
Balkans 2937
33 2936
ley 2936
reservations 2934
Atlantic 2934
input 2934
und@@ 2932
university 2930
ser 2930
contributed 2927
programming 2924
resource 2924
electric 2924
Gar@@ 2923
virtual 2923
adapt 2922
investigation 2922
notes 2922
1st 2920
wider 2918
clause 2917
Or 2917
cosy 2917
vacation 2917
permitted 2916
Guests 2916
suffered 2915
US@@ 2915
zes 2913
Roman 2912
restricted 2910
penalty 2908
lat@@ 2907
productive 2907
invited 2907
approve 2906
supposed 2906
Like 2904
windows 2904
tically 2903
Agenda 2903
len@@ 2902
centuries 2901
IM@@ 2901
believes 2900
Chi@@ 2900
cont@@ 2899
web@@ 2899
lounge 2898
drop 2897
sch@@ 2897
whereas 2895
1990 2891
Islamic 2891
rep@@ 2890
sheet 2890
entrance 2890
rock 2889
River 2888
everyday 2888
ads 2887
parliament 2885
Church 2885
Z 2885
ara 2885
filled 2881
alized 2880
une 2879
productivity 2875
scene 2875
treat 2874
Media 2873
finish 2872
Bal@@ 2872
label 2871
motor 2870
assess 2870
ben@@ 2869
explained 2866
Tor@@ 2866
stylish 2866
sphere 2865
patient 2865
faith 2863
Comp@@ 2863
winning 2862
estimated 2861
welcomes 2860
gap 2859
optim@@ 2859
3D 2856
reflected 2855
pp@@ 2854
Bor@@ 2854
atory 2853
restructuring 2850
Cre@@ 2850
blo@@ 2849
elled 2849
artistic 2849
selling 2848
64 2848
Ju@@ 2847
leaves 2847
wor@@ 2846
gardens 2846
yed 2844
isation 2844
eventually 2843
post@@ 2843
ion 2843
Monday 2842
hardly 2842
enhanced 2842
turning 2842
strengthened 2841
08 2841
vessels 2839
courage 2839
flows 2839
appropriations 2838
philosophy 2837
conc@@ 2836
spectacular 2836
See 2835
severe 2834
fourth 2833
twenty 2832
van@@ 2832
Food 2832
fishermen 2831
continuous 2831
hearing 2830
losses 2828
indicate 2827
overview 2827
34 2826
planet 2826
regardless 2825
Organisation 2825
1994 2824
protocol 2823
Besides 2823
undertaken 2821
theory 2821
PHP 2821
missing 2820
Cam@@ 2817
Does 2816
therapy 2816
• 2816
everybody 2815
movements 2815
imagine 2813
considerably 2812
ado 2812
roll 2809
plenty 2809
inn@@ 2807
gallery 2806
CAP 2804
magnificent 2803
sun@@ 2803
enterprise 2802
ING 2802
teams 2801
excluded 2800
description 2800
Year 2800
MP@@ 2800
pillar 2799
Act 2799
parameters 2799
&apos;m 2799
ire 2798
specialist 2797
publication 2797
ok@@ 2797
wrote 2796
lift 2796
ov@@ 2796
ern@@ 2795
Congress 2793
š@@ 2792
IN 2790
od@@ 2788
covering 2787
reflects 2786
wear 2786
checks 2784
MO@@ 2783
id@@ 2781
modules 2780
recognized 2780
acceptance 2779
acknowledge 2777
concentrate 2776
handle 2776
mini 2775
cells 2775
Comm@@ 2773
Regional 2772
sensible 2772
listings 2771
bike 2771
ited 2770
shadow 2770
worthy 2769
09 2768
rental 2768
sections 2766
dream 2766
renowned 2766
NGOs 2765
colours 2764
dness 2764
worst 2763
gr@@ 2763
cancer 2761
none 2760
departure 2760
ping 2758
weekend 2758
functionality 2758
tables 2758
prime 2757
Ombudsman 2757
root 2756
aside 2756
organic 2756
ered 2755
errors 2755
mix 2754
album 2754
reconstruction 2753
lots 2753
reaction 2752
managing 2748
bio@@ 2748
Santa 2748
Asian 2746
films 2746
intends 2744
Georgia 2743
budgets 2742
Me@@ 2742
fly 2738
connect 2738
Obama 2737
restore 2735
ell 2735
sm 2735
Through 2734
generations 2734
rely 2733
Jo@@ 2733
tree 2733
si 2733
accident 2732
instructions 2731
gen 2731
homes 2731
targeted 2730
Geneva 2729
acted 2729
liber@@ 2727
Mer@@ 2726
pra@@ 2725
Ne@@ 2725
ize 2724
Global 2723
A5 2722
urgently 2722
36 2722
Sunday 2722
Site 2722
55 2721
confirmation 2719
ased 2717
freely 2717
sufficiently 2716
Tourism 2715
aff@@ 2715
Law 2715
profits 2713
Ste@@ 2711
threats 2710
RA@@ 2710
countryside 2709
ON 2708
decade 2706
liberal 2706
Budgets 2704
roots 2703
fairly 2703
mental 2703
transmission 2703
Ti@@ 2703
Lastly 2702
sion@@ 2702
fleet 2701
ranging 2701
killed 2701
ulation 2698
bor@@ 2696
USB 2695
driven 2694
saved 2693
xes 2692
Should 2691
destroyed 2689
tation 2689
prospects 2689
proportion 2688
ences 2688
ination 2688
deposit 2687
adapted 2686
relates 2684
ong 2684
Val@@ 2683
07 2680
skiing 2680
arising 2679
ah@@ 2676
Consequently 2675
neighbouring 2672
universities 2671
coherent 2671
Bra@@ 2670
internationally 2669
ill 2669
wards 2666
ger@@ 2666
clubs 2665
kernel 2665
promise 2664
cent@@ 2661
deeply 2659
Dra@@ 2658
showed 2658
territorial 2657
nine 2655
Protocol 2655
Who 2655
pm 2655
ki 2654
ki@@ 2653
heading 2653
Ta@@ 2653
presenting 2651
hostel 2651
conventional 2650
pal@@ 2649
highlighted 2648
fa@@ 2648
Treaties 2647
subsequent 2647
Consumer 2647
collected 2647
una 2647
birth 2646
U.S. 2646
Black 2645
combine 2645
pan@@ 2645
sole 2644
manager 2640
burg 2638
AM@@ 2638
Express 2638
wo@@ 2637
Culture 2636
9.@@ 2635
Belgian 2633
dead 2632
ash@@ 2632
Br@@ 2632
pun@@ 2631
quotas 2630
War@@ 2630
8.@@ 2629
eh@@ 2629
600 2628
rare 2628
briefly 2627
convergence 2627
belong 2627
contextual 2626
reliability 2625
ished 2624
assembly 2624
ecological 2623
ation@@ 2622
layer 2622
kers 2621
England 2621
miles 2620
villages 2620
ately 2619
Notes 2619
trends 2616
gro@@ 2616
considers 2615
football 2615
cleaning 2613
ware 2611
stages 2610
pro 2609
diplomatic 2609
tou@@ 2609
luxurious 2608
Mac@@ 2607
forth 2606
Constitutional 2606
Ko@@ 2606
decline 2605
supplied 2605
referring 2604
parallel 2604
mit 2604
processed 2604
stars 2604
upper 2603
oning 2602
consulting 2602
Denmark 2602
honour 2601
Systems 2601
cultures 2600
800 2599
fees 2598
phenomenon 2597
insist 2597
Online 2597
looked 2596
boot 2596
lau@@ 2595
speci@@ 2595
ona 2594
shi@@ 2593
learned 2593
drinks 2593
PDF 2593
lovely 2592
lin 2592
characters 2592
geographical 2591
pure 2591
pos@@ 2591
ey 2591
massage 2591
appeared 2590
remained 2590
ga 2590
poses 2589
Festival 2588
classes 2587
transferred 2587
thermal 2587
aci@@ 2585
pul@@ 2584
affects 2584
prisoners 2583
Pal@@ 2583
37 2582
essentially 2581
belief 2581
joining 2581
clarify 2579
push 2579
missions 2577
LA@@ 2576
funded 2575
ease 2575
imp@@ 2575
mistake 2575
struggle 2573
stat@@ 2573
Inn 2572
efficiently 2571
equivalent 2569
cked 2569
Executive 2568
serving 2567
favourable 2566
pat@@ 2566
SA@@ 2566
minister 2565
secondly 2563
ared 2561
chair 2561
eng@@ 2558
consequence 2557
adds 2557
Bri@@ 2557
hill 2556
Front 2556
ub@@ 2556
female 2555
ada 2555
Situated 2553
ables 2552
seeks 2551
Plan 2551
ba 2550
Fi 2550
arrived 2548
Fundamental 2548
Wi 2548
Hamburg 2546
ha 2545
originally 2544
abilities 2543
meaningfully 2543
logical 2542
ame 2542
Wi@@ 2542
accidents 2541
satisfy 2541
ect 2541
lands 2539
engaged 2539
trac@@ 2539
Prodi 2537
shift 2537
ti 2537
uniform 2536
environmentally 2536
highlights 2535
candidates 2535
Education 2535
MA@@ 2533
engage 2531
portfolio 2531
--@@ 2531
ride 2530
Cooperation 2529
enti@@ 2529
tennis 2529
computers 2528
rel@@ 2527
succeeded 2527
warning 2527
appearance 2526
achievement 2526
eri@@ 2525
operates 2525
sounds 2525
guided 2525
occurred 2524
int 2524
ome 2523
lived 2522
willingness 2521
AS 2519
gl@@ 2517
ning 2517
aviation 2516
tively 2515
shed 2515
vit@@ 2514
lock 2514
spec@@ 2514
sou@@ 2514
CH@@ 2511
integrate 2510
manufacture 2510
Card 2510
wal@@ 2509
Smoking 2509
á 2509
ster@@ 2508
Im@@ 2507
bers 2506
Real 2506
harmful 2505
sit 2504
Mu@@ 2504
incorporated 2503
contextually 2503
grammatically 2502
49 2501
Royal 2500
encouraged 2499
director 2499
execution 2498
anniversary 2497
pressing 2496
Island 2494
compulsory 2493
symbol 2493
ratification 2493
amended 2492
für 2492
IMF 2491
unforgettable 2491
42 2490
printed 2490
holds 2489
TH@@ 2489
unfair 2488
III 2488
regulated 2487
lan@@ 2487
attached 2485
preserve 2485
wage 2483
Hu@@ 2482
euros 2481
cy@@ 2481
widespread 2479
trips 2478
ban@@ 2477
damages 2477
lunch 2477
User 2477
wellness 2477
implications 2476
Tour 2476
tre@@ 2475
entering 2475
reserved 2475
Beach 2475
enjoyed 2474
purely 2474
zu 2474
Fisheries 2473
dr@@ 2473
43 2472
crises 2472
festival 2472
revenue 2471
compact 2471
videos 2471
adding 2470
ke@@ 2470
tend 2470
Town 2470
ll 2468
insi@@ 2468
boost 2468
negotiation 2467
Char@@ 2467
non@@ 2465
dollar 2462
bearing 2461
dies 2461
chairman 2459
causing 2459
snow 2459
Kyoto 2458
stake 2458
utmost 2458
Pri@@ 2458
individually 2456
resulted 2456
poorest 2455
edi@@ 2454
ek@@ 2453
governing 2452
equi@@ 2452
alcohol 2451
scientists 2450
gli@@ 2450
Industry 2449
switch 2449
cas@@ 2449
Box 2449
explanation 2448
ghts 2448
associations 2447
delicious 2447
AND 2447
enforcement 2446
1992 2446
ID@@ 2445
heads 2444
tered 2444
strictly 2442
produces 2442
quote 2441
grown 2441
Tre@@ 2441
Venice 2441
Danish 2440
travelling 2438
sum@@ 2437
collect 2436
suit 2436
Peter 2436
reporting 2435
multilateral 2435
cle@@ 2435
hum@@ 2435
graphic 2433
extending 2432
unity 2431
ins@@ 2431
ET@@ 2431
Employment 2430
dark 2430
Director 2430
virtually 2429
info 2429
dry 2428
UR@@ 2428
normally 2426
Te@@ 2426
designs 2426
fans 2426
dispute 2424
Bre@@ 2423
hopes 2423
radical 2422
relative 2421
factory 2421
anywhere 2421
eat 2421
ko 2421
panel 2421
Nor@@ 2419
24@@ 2418
executive 2418
promises 2418
DA@@ 2417
ini@@ 2417
sia 2417
prison 2416
airports 2416
stream 2415
King 2414
legitimacy 2413
gers 2413
Saturday 2413
Min@@ 2413
hal@@ 2412
50@@ 2412
sex 2412
ment@@ 2411
incentives 2410
spite 2410
Mil@@ 2410
CA@@ 2408
agents 2407
cious 2407
IA 2407
aling 2405
medicines 2405
toward 2405
whereby 2404
Sub@@ 2403
meets 2403
Common 2403
schemes 2402
School 2402
liable 2401
satisfactory 2400
conciliation 2400
\ 2400
codecision 2399
Earth 2399
tea 2399
Pas@@ 2398
min 2398
gradually 2397
servers 2397
operated 2395
pick 2395
cell 2395
with@@ 2393
percentage 2392
sup@@ 2392
Exchange 2392
airlines 2392
wireless 2392
everywhere 2391
iled 2390
convention 2388
addressing 2388
chi@@ 2388
formats 2388
museums 2388
Christmas 2387
neighbours 2386
aging 2385
violation 2385
operator 2385
ai 2385
urgency 2383
Intergovernmental 2382
plastic 2381
25@@ 2380
mel@@ 2380
las 2380
Server 2380
utili@@ 2379
vis 2379
observed 2377
ata 2377
recognize 2376
troops 2375
participating 2375
38 2374
Tur@@ 2372
musical 2371
debating 2370
coun@@ 2370
Among 2370
65 2370
ai@@ 2368
zer 2368
expense 2367
Indian 2367
Er@@ 2366
edited 2365
Ap@@ 2364
Sk@@ 2364
Michael 2364
uri@@ 2362
Federation 2362
custom@@ 2362
foot@@ 2362
choices 2361
Paul 2360
At@@ 2359
Family 2359
eliminate 2358
specialists 2358
catch 2358
ordered 2357
dict@@ 2356
rating 2356
Vo@@ 2356
Fo@@ 2356
ste 2356
marine 2356
acquired 2355
Australia 2355
constitutes 2354
Ser@@ 2354
tal 2354
passing 2353
soil 2353
treatments 2353
alongside 2352
ato 2352
bit@@ 2352
restored 2348
makers 2346
02 2345
Civil 2345
surprised 2344
edition 2344
evident 2343
Internal 2343
begins 2343
genuinely 2342
index 2342
OF 2342
financed 2341
graphics 2341
DI@@ 2341
PR@@ 2341
script 2341
85 2340
rop@@ 2340
stabili@@ 2338
moreover 2337
Subject 2337
cher 2337
Authority 2336
gn@@ 2336
surprise 2335
lia 2335
timetable 2334
ands 2333
Customer 2333
sli@@ 2331
retain 2331
Islands 2331
PL@@ 2331
Vol@@ 2331
narrow 2330
bas@@ 2329
solar 2329
200@@ 2328
Cuba 2328
LO@@ 2327
arian 2326
seconds 2326
victory 2326
producer 2326
ress 2323
06 2323
condemn 2322
hospitality 2321
miss 2320
guaranteeing 2319
amed 2319
engines 2319
deserves 2318
repeated 2318
Nor 2318
emb@@ 2317
Would 2316
ulate 2316
03 2316
ay@@ 2315
letters 2315
organise 2314
labor 2314
inadequate 2313
ex 2312
varied 2311
floors 2311
Lin@@ 2309
movie 2309
Deutsche 2308
Using 2308
chapter 2307
Mr. 2306
Fe@@ 2305
sand 2304
permit 2303
SE@@ 2303
read@@ 2303
romantic 2302
Good 2302
teaching 2302
twice 2301
welcoming 2301
yer 2301
Based 2301
openness 2300
Resort 2300
desk 2299
Next 2299
Gro@@ 2299
cer@@ 2299
eli@@ 2299
shot 2298
considerations 2298
mere 2298
studio 2297
conf@@ 2295
Manager 2294
Valley 2293
approaches 2292
vice 2292
reputation 2291
itable 2291
Slovakia 2291
tracks 2291
alities 2289
accounting 2289
Dublin 2289
ane 2289
mouse 2289
emp@@ 2288
amending 2287
Music 2287
External 2285
NL 2284
Golf 2284
seats 2283
usage 2283
songs 2283
my@@ 2282
uted 2281
economically 2281
composition 2280
speeches 2279
ie@@ 2279
Further 2278
cell@@ 2278
kilometres 2277
repair 2276
intentions 2276
ink 2276
m2 2276
desirable 2275
ash 2274
olive 2274
bal@@ 2272
foundations 2272
capabilities 2272
Casino 2270
records 2269
relationships 2269
fewer 2268
Bay 2268
Martin 2268
filter 2268
Op@@ 2267
ON@@ 2266
concentration 2265
ED 2265
val 2265
cho@@ 2265
Meeting 2264
eurozone 2264
province 2263
Dec@@ 2263
attend 2262
inspired 2262
medicine 2262
stic 2261
39 2261
scheduled 2259
campaigns 2259
mine 2259
teachers 2258
intelligent 2258
faces 2257
exact 2257
sh 2257
foremost 2257
Forum 2257
manual 2257
forming 2256
sively 2255
bonus 2255
.00 2254
unnecessary 2253
combines 2253
blocks 2252
iling 2251
tragic 2251
motor@@ 2251
prize 2251
wild 2251
lar@@ 2250
repeatedly 2250
Acc@@ 2250
fle@@ 2250
ball 2250
developers 2249
panoramic 2249
visual 2248
song 2248
hiking 2248
picturesque 2248
examined 2246
Sec@@ 2245
TO 2245
conferences 2244
kes 2244
Heads 2243
underground 2243
alists 2242
View 2242
thorough 2241
journalists 2241
dol@@ 2240
stuff 2240
oni@@ 2240
Palestinians 2239
ises 2238
completion 2238
commit 2238
bel@@ 2237
sophisticated 2237
Fl@@ 2237
Bel@@ 2235
ol 2234
opens 2232
Muslim 2232
importantly 2231
shortly 2231
hon@@ 2231
occupation 2231
IL@@ 2230
respects 2229
stick 2229
Ben@@ 2228
inf@@ 2227
phones 2227
amenities 2227
examination 2226
vely 2225
ole 2225
pensions 2224
Bosnia 2224
Vil@@ 2224
sights 2224
ries 2223
federal 2223
withdraw 2222
actors 2221
Hall 2221
sorry 2220
Morocco 2217
Pro 2216
ica 2213
mouth 2213
tragedy 2212
ethical 2212
horse 2212
mal@@ 2212
19th 2212
magazine 2212
jointly 2211
communicate 2211
Java 2211
arch@@ 2210
appointment 2210
signing 2210
poly@@ 2209
Gal@@ 2209
sible 2208
expand 2207
underlying 2206
riding 2204
cker 2204
Chairman 2203
student 2203
s.@@ 2202
cm 2202
RO 2202
JavaScript 2202
Ci@@ 2201
hence 2200
empty 2200
wh@@ 2200
ownership 2199
pretty 2199
1993 2198
exposed 2198
inner 2198
yn@@ 2198
28@@ 2198
clarity 2197
kl@@ 2196
custom 2196
bes 2195
ambi@@ 2195
hidden 2194
ultimate 2194
USD 2194
Rotary 2194
liked 2193
eded 2193
05 2193
upgrade 2191
44 2190
EM@@ 2190
ot 2188
electoral 2188
Castle 2188
gue 2187
dence 2186
sessions 2185
recording 2185
pot@@ 2184
asset 2184
observe 2183
alist 2182
transitional 2181
Greens 2180
ap 2180
Terms 2179
remarkable 2178
Growth 2178
revolution 2177
begun 2177
Van 2177
lab@@ 2176
ert 2176
references 2175
Skype 2174
compete 2172
ham@@ 2172
PS 2171
speciali@@ 2169
pilot 2169
pace 2169
checked 2168
stores 2168
permission 2167
recall 2166
complaints 2166
nor@@ 2165
initially 2164
doubts 2164
oppose 2162
Apart 2162
ri 2161
comple@@ 2159
ello 2159
uting 2158
prec@@ 2158
Cri@@ 2158
Wednesday 2157
Gaza 2157
sake 2156
smooth 2156
Off@@ 2155
03@@ 2154
Is@@ 2154
ney 2154
ist@@ 2153
disc@@ 2153
As@@ 2153
Be 2153
partial 2152
Have 2152
sees 2152
ath 2152
250 2152
dramatic 2150
off@@ 2150
boats 2150
ked 2150
bin@@ 2150
constructed 2149
loans 2149
bright 2149
lec@@ 2149
describe 2148
Network 2148
lobby 2147
Representative 2147
Ku@@ 2147
solved 2146
Sur@@ 2146
clicking 2146
granting 2145
broader 2145
ang@@ 2145
affecting 2145
textile 2145
concert 2144
NI 2144
dual 2143
zero 2142
Via 2142
collapse 2141
27@@ 2140
convenience 2139
sovereign 2139
A4 2139
ler@@ 2139
Cap@@ 2139
colors 2139
ac 2138
Gentoo 2138
Sc@@ 2135
Player 2135
stressed 2133
Syria 2133
till 2133
ingredients 2132
ran 2132
Storage 2132
representing 2131
camp 2131
accordingly 2127
folder 2127
suggests 2126
minor 2125
revised 2125
Set 2125
navigation 2125
losing 2124
Trans@@ 2124
enn@@ 2124
ani 2124
alise 2123
41 2123
deadline 2122
feet 2122
vocational 2121
boards 2121
rit@@ 2120
afraid 2119
amazing 2119
run@@ 2119
sely 2118
Garden 2117
specialized 2117
prospect 2116
informal 2116
meal 2116
ites 2115
Project 2115
ola 2113
chan@@ 2112
Ca@@ 2112
apparent 2111
mixed 2111
coastal 2110
logic 2108
sle@@ 2108
casino 2108
instantly 2108
declare 2106
wave 2106
subsequently 2105
hur@@ 2105
enjoys 2105
log@@ 2104
conditioned 2103
debated 2101
AG@@ 2101
tionally 2101
Mat@@ 2100
ari 2100
Presidents 2099
strike 2099
Cro@@ 2098
Flash 2098
viable 2097
Three 2097
fax 2097
Hostelsclub 2097
Pol@@ 2096
preferred 2095
judge 2095
ace 2095
AB@@ 2094
keys 2094
revi@@ 2093
ous@@ 2092
istic 2091
collabor@@ 2091
broken 2091
whatsoever 2090
ards 2090
fan@@ 2089
Quality 2089
ction 2089
Life 2088
clock 2088
Bur@@ 2088
Mc@@ 2087
Putin 2087
TR@@ 2087
Support 2086
noon 2085
tin 2083
assurance 2083
Single 2083
oldest 2083
villa 2083
terrible 2082
ts@@ 2082
cou@@ 2082
governmental 2081
taxpayers 2080
delays 2079
ill@@ 2079
cel@@ 2079
Win@@ 2079
Games 2079
iting 2078
overlooking 2078
Together 2077
honest 2077
IC 2077
ris@@ 2077
Don 2077
dependence 2076
expenses 2076
greenhouse 2075
portal 2075
nation@@ 2074
healthcare 2074
comparable 2072
Ob@@ 2072
ratified 2070
violent 2069
secondary 2069
destroy 2068
spectrum 2066
superior 2066
sta 2065
PO@@ 2065
teen 2062
maybe 2062
deb@@ 2062
electrical 2062
managers 2061
certainty 2060
afford 2059
loading 2059
Sun@@ 2059
Net@@ 2059
jurisdiction 2058
integrity 2058
expressly 2057
forgotten 2056
Left 2056
surveillance 2056
negotiated 2056
mes 2056
GNU 2056
promoted 2055
deserve 2054
preparations 2053
Children 2053
falling 2051
bet 2051
populations 2050
és 2050
removal 2050
certified 2050
basically 2049
inspection 2049
certification 2048
SO@@ 2048
Hong 2048
Hel@@ 2048
Kong 2047
ME@@ 2047
translated 2046
04 2045
tivity 2045
ef@@ 2045
q 2045
thanking 2044
beef 2044
Maastricht 2044
Ha@@ 2044
projec@@ 2044
Hi@@ 2043
undertake 2043
devoted 2043
girls 2043
roof 2043
Section 2042
listening 2041
Partnership 2041
newsletter 2041
Otherwise 2040
theatre 2038
Airbus 2038
uncertainty 2037
nobody 2037
700 2036
Hol@@ 2036
Fer@@ 2036
answered 2035
trained 2035
suspended 2035
believed 2035
alternatives 2034
ass 2034
fer 2034
orientation 2033
autumn 2033
oring 2033
ich@@ 2033
person@@ 2032
Sol@@ 2032
fifth 2031
beer 2031
Gre@@ 2030
Sam@@ 2029
hole 2028
publish 2028
art@@ 2028
nationals 2027
assigned 2027
Product 2027
optimal 2027
ignore 2026
viol@@ 2026
stunning 2026
refused 2025
bought 2025
slo@@ 2025
atives 2024
loaded 2023
bing 2023
las@@ 2023
credible 2020
civilian 2018
native 2018
didn 2018
lo 2017
territories 2016
stories 2016
voc@@ 2016
Lan@@ 2015
simultaneously 2015
calm 2015
Pl@@ 2015
refuse 2014
adjustment 2014
tens 2014
47 2014
tual 2014
deficits 2014
indoor 2014
beneficial 2013
frequency 2013
renewed 2013
Joint 2013
Hor@@ 2013
audience 2012
suited 2012
20th 2012
dance 2011
wooden 2011
bureaucracy 2010
paths 2010
ruling 2009
observation 2009
ams 2009
ung@@ 2009
justify 2008
2012 2008
Speci@@ 2008
indicators 2007
ils 2007
dem@@ 2007
Fu@@ 2006
studied 2004
exc@@ 2004
enting 2003
Europol 2003
presidential 2003
transaction 2001
nit@@ 2001
sizes 2001
OR 2001
Finnish 2000
explicitly 2000
č@@ 2000
reali@@ 1999
distinction 1999
ni 1998
admit 1998
mini@@ 1998
SI@@ 1998
Moscow 1996
necessity 1996
Plaza 1996
Rural 1994
Han@@ 1994
akes 1993
Jean 1993
technique 1993
gran@@ 1992
employers 1992
posed 1992
dge 1992
expanded 1992
Award 1992
vis@@ 1991
51 1991
formation 1991
dialog 1991
focusing 1990
form@@ 1990
splendid 1989
false 1989
reflection 1988
Hour 1988
spe@@ 1987
TS 1987
SA 1987
wers 1985
ening 1985
transfers 1984
string 1983
tar@@ 1983
principal 1982
ading 1982
2nd 1982
worrying 1981
adventure 1981
ide@@ 1979
ette 1979
BSE 1979
freight 1979
allocation 1978
cope 1978
height 1978
adult 1977
dia 1977
win@@ 1976
Fin@@ 1975
bathrooms 1975
ish@@ 1974
soul 1974
120 1973
postal 1973
ceiling 1972
manufactured 1972
MySQL 1972
modify 1971
moments 1971
Ministry 1971
dom@@ 1971
accuracy 1970
intervene 1970
hot@@ 1970
prevented 1969
chemicals 1969
insufficient 1968
pas@@ 1968
demonstrates 1967
telecommunications 1967
1991 1967
supplementary 1967
achievements 1967
ili@@ 1967
negotiate 1966
competences 1965
array 1965
classical 1965
ized 1965
1989 1964
tonnes 1963
installations 1963
David 1963
focuses 1963
turns 1963
Burma 1963
argue 1961
Jewish 1961
researchers 1961
dem 1960
viewed 1958
authors 1958
DA 1958
unanimously 1957
46 1957
bug 1956
characteristic 1956
wise 1956
coal 1956
10.@@ 1956
arrangement 1955
continuously 1955
discount 1955
son@@ 1954
citizenship 1954
alled 1954
delete 1954
inter 1953
enjoying 1953
hills 1953
measurement 1953
posts 1952
ack 1951
soldiers 1951
mark@@ 1951
boasts 1951
amm@@ 1950
closing 1949
cool 1949
dimensions 1948
Sha@@ 1948
Mag@@ 1948
cam@@ 1948
cy 1947
ase 1947
deaths 1946
seemed 1946
ania 1946
.de 1946
26@@ 1945
cancellation 1945
doub@@ 1944
Yugoslavia 1943
Ter@@ 1943
Maria 1943
ental 1942
Studio 1942
eds 1941
meals 1941
applicant 1940
don@@ 1940
pools 1940
escape 1939
dist@@ 1939
inten@@ 1937
fails 1937
quantity 1937
ories 1936
mechanical 1936
residential 1936
ization 1936
Lithuania 1934
defining 1934
notified 1934
Cup 1933
coordinate 1932
neighbourhood 1931
conservation 1930
catalogue 1930
dig@@ 1930
commerce 1929
judgment 1929
hes 1928
fix 1928
ye@@ 1928
ned 1927
bigger 1927
ena 1927
Florence 1927
agrees 1926
Area 1926
variable 1925
authorised 1924
recession 1924
tom@@ 1924
assi@@ 1924
finds 1923
angle 1923
St 1923
conversion 1922
papers 1922
timely 1922
charm 1921
calendar 1921
rated 1919
accessories 1919
cancelled 1918
Suite 1918
belongs 1917
lively 1917
Pe@@ 1916
cli@@ 1916
humanity 1915
Investment 1915
cement 1914
52 1913
identification 1913
unions 1913
mistakes 1913
threatened 1913
shor@@ 1912
chairs 1912
conventions 1910
sample 1910
ath@@ 1909
procurement 1908
iron 1907
Holiday 1907
mandatory 1906
evaluate 1906
branch 1906
breach 1905
ita 1905
qualifications 1905
harm 1905
privileged 1905
patents 1905
Fri@@ 1904
gross 1903
stopped 1903
ero@@ 1902
relief 1902
desktop 1902
Taiwan 1901
Several 1901
consistently 1899
Bro@@ 1899
Die 1899
Alps 1898
buying 1898
Read 1898
Power@@ 1898
emerged 1896
imported 1896
sleep 1896
terrorists 1895
arrest 1895
arbitrary 1895
fir@@ 1895
Socialists 1893
ances 1893
signals 1892
withdrawal 1892
San@@ 1892
survey 1891
leg@@ 1890
fascinating 1890
Apartments 1890
contributing 1889
by@@ 1889
protest 1889
whenever 1888
biodiversity 1887
earn 1886
cookies 1886
trouble 1885
arti@@ 1885
Team 1885
GB 1884
treaties 1882
vary 1882
unemployed 1881
react 1881
systematic 1881
medieval 1881
elderly 1881
contractual 1880
automotive 1880
pressed 1877
residents 1877
Youth 1877
ind 1876
Third 1876
arranged 1876
Make 1876
experiencing 1875
ort 1875
farms 1875
layout 1875
fur@@ 1874
Bureau 1874
preserved 1873
machinery 1872
Up 1872
blu@@ 1872
emphasised 1871
occupied 1871
purchased 1871
anda 1870
Multi@@ 1870
AIDS 1869
bon@@ 1868
potentially 1867
transit 1865
bureaucratic 1865
Department 1865
ere 1864
ón 1864
Mac 1864
drafting 1863
mas@@ 1863
rou@@ 1861
wheel 1861
Ban@@ 1860
ene 1859
quar@@ 1858
publishing 1858
Fra@@ 1858
duration 1858
Iranian 1858
J 1857
imposing 1857
PA 1857
cab@@ 1856
Deposit 1855
undermine 1853
hei@@ 1853
reads 1852
yst@@ 1852
Ara@@ 1852
eding 1851
placing 1851
voters 1850
blame 1849
marquis 1849
thri@@ 1848
port@@ 1848
plug 1848
tis 1848
consistency 1847
pursued 1847
fan 1847
visits 1846
q@@ 1846
motorway 1845
interinstitutional 1844
ron 1843
certificate 1842
The@@ 1842
stand@@ 1842
advise 1841
missed 1840
innovations 1840
parti@@ 1840
precision 1840
affordable 1840
Slovenia 1840
undertakings 1839
Parliamentary 1838
trans 1838
plan@@ 1838
04@@ 1838
gift 1837
indicates 1836
mit@@ 1836
Lebanon 1836
lam@@ 1835
cro@@ 1835
play@@ 1835
composed 1834
S.@@ 1834
zones 1833
precious 1833
George 1833
Power 1832
mil@@ 1832
dal 1832
logistics 1832
perspectives 1831
Democratic 1828
Until 1828
officially 1828
ambition 1827
notably 1827
premium 1827
AT 1827
Liberal 1826
baby 1826
disputes 1825
specially 1825
crops 1825
virus 1825
brands 1825
sor@@ 1824
cian 1824
imm@@ 1823
Pap@@ 1822
fell 1821
Prize 1821
generous 1820
ll@@ 1820
fications 1819
Mas@@ 1819
deci@@ 1818
ligh@@ 1818
rig@@ 1817
behavior 1817
initiated 1816
Car 1816
vo 1816
contrac@@ 1816
dro@@ 1815
regulate 1815
Elevator 1815
throw 1814
yp@@ 1814
knew 1813
1000 1813
dumping 1812
Similarly 1812
Washington 1812
dial 1812
Video 1812
warmly 1811
Olympic 1811
winner 1811
Communist 1811
smart 1811
Download 1811
aus 1810
threshold 1808
Malta 1808
bonds 1807
Ger@@ 1807
IG@@ 1807
pain 1806
bay 1805
structured 1804
ky 1804
holder 1804
tigh@@ 1803
newspaper 1802
lev@@ 1802
adi@@ 1802
wars 1802
releases 1801
publications 1801
slopes 1800
Luggage 1800
tangible 1799
Obviously 1799
featuring 1799
ala 1799
interactive 1799
moves 1798
Society 1798
purchasing 1798
declarations 1798
esc@@ 1798
acquisition 1798
excursions 1798
apparently 1797
finances 1797
Defence 1797
Mobile 1797
Web@@ 1797
fulfilled 1796
subscribe 1796
Citizens 1795
gan@@ 1795
flu@@ 1795
wherever 1794
Far@@ 1794
opt 1793
Palestine 1793
comprises 1793
tering 1793
logo 1792
sad 1791
fol@@ 1791
Pacific 1790
pil@@ 1790
cameras 1790
Heating 1790
wording 1789
replacement 1789
revealed 1788
ate@@ 1788
Co 1788
specify 1787
schedule 1787
Standard 1787
realize 1787
Robert 1785
oth 1785
ratio 1785
ideally 1785
Fre@@ 1785
BO@@ 1785
spare 1784
expressing 1783
nonetheless 1783
attended 1783
essence 1783
enlarged 1782
ard@@ 1781
archive 1781
destinations 1781
drives 1781
rein@@ 1780
fuels 1780
è@@ 1780
pur@@ 1780
eth 1780
Hamas 1780
68 1779
elec@@ 1779
SV 1779
asser@@ 1779
quest 1779
organize 1779
tribute 1777
bel 1777
ick 1777
My@@ 1777
LE 1776
reg@@ 1775
suggestion 1775
talked 1775
Full 1775
EF@@ 1775
Poker 1775
Cologne 1774
sentence 1774
emission 1774
Dom@@ 1774
Iraqi 1774
confident 1773
parks 1773
findings 1772
convince 1772
e.g 1772
Ph@@ 1771
retail 1771
superb 1769
substantially 1769
nur@@ 1769
returns 1769
ther 1768
exhibitions 1767
OT@@ 1767
sign@@ 1766
lic 1766
alike 1765
We@@ 1764
Del@@ 1763
frequent 1763
regrettable 1763
rational 1763
alo@@ 1763
pursuant 1762
wages 1762
IP@@ 1762
wife 1761
travellers 1761
gate 1760
EA 1760
Macedonia 1760
zo@@ 1760
measuring 1760
tower 1760
tough 1757
2.0 1757
academic 1756
IR@@ 1756
ond 1756
1.5 1756
creature 1756
Zurich 1756
Budgetary 1755
ute 1755
partnerships 1755
restrict 1755
kno@@ 1755
CON@@ 1754
intelligence 1753
Out 1752
poker 1752
Pu@@ 1751
onic 1751
exchanges 1751
assured 1751
pair 1751
160 1751
2,@@ 1751
raises 1750
lim@@ 1750
but@@ 1750
Por@@ 1750
airline 1749
tab@@ 1749
consequently 1748
tech 1748
shortcomings 1748
proc@@ 1748
arity 1748
tened 1748
handled 1748
mar 1747
ups 1746
arrange 1746
72 1746
para 1746
regimes 1745
ny 1745
intensi@@ 1744
handed 1744
54 1744
Ms 1744
TO@@ 1744
controversial 1743
progres@@ 1743
warming 1743
aj@@ 1743
condemned 1742
sil@@ 1742
ques 1742
,@@ 1742
ov 1741
SS 1740
preliminary 1739
racism 1739
AM 1739
squ@@ 1738
amb@@ 1738
diving 1738
sunny 1738
eve 1737
C5 1737
demographic 1737
incentive 1737
progressive 1737
transatlantic 1737
eted 1736
flying 1736
Marina 1736
meantime 1734
atively 1734
photographs 1734
antly 1733
outs 1733
duc@@ 1733
eled 1733
metro 1733
fallen 1732
Argentina 1732
tension 1731
Bas@@ 1731
pays 1730
rever@@ 1729
integral 1729
heavily 1729
Nordic 1729
outset 1729
centers 1729
expanding 1728
crew 1728
pattern 1728
Shop 1728
Albania 1727
oni 1725
nom@@ 1725
Southern 1725
biological 1724
SC@@ 1724
Main 1724
practically 1723
senior 1723
posi@@ 1723
hel@@ 1722
Pra@@ 1722
stor@@ 1721
sho@@ 1720
eth@@ 1719
announce 1719
tropical 1719
poll@@ 1718
breaking 1718
creativity 1718
Salzburg 1718
lights 1717
HTML 1717
codes 1716
downloaded 1716
prosec@@ 1715
posted 1715
clothing 1715
Small 1714
tory 1714
feedback 1714
occurs 1714
Clearly 1713
victim 1713
chat 1713
elle 1713
drinking 1712
Space 1712
tiz@@ 1712
avoided 1711
split 1711
Adobe 1711
rejection 1710
simplification 1710
Budapest 1710
Website 1710
silence 1709
worry 1709
yo@@ 1709
B5 1709
ble@@ 1709
unusual 1708
genetic 1708
torture 1707
53 1707
marking 1706
statistical 1706
tone 1706
amend 1705
inclusive 1705
dd@@ 1705
borne 1704
passion 1704
Labour 1704
lon@@ 1704
EX@@ 1704
fitted 1704
fi 1704
minim@@ 1703
blind 1703
disp@@ 1702
dollars 1702
ton@@ 1702
spo@@ 1702
Gen@@ 1700
evi@@ 1700
busy 1700
ignored 1700
intense 1700
drafted 1698
Ren@@ 1696
unknown 1695
transformation 1695
acknowledged 1694
lowest 1693
ped 1693
dog 1693
Declaration 1693
Conditions 1693
ord 1693
tw@@ 1692
quota 1691
ly@@ 1691
monitored 1690
yard 1690
56 1690
dor@@ 1690
performing 1690
simplify 1689
specifications 1689
adjust 1689
penalties 1688
Direc@@ 1688
rela@@ 1688
licence 1687
ier 1687
CS 1687
patterns 1686
Ge@@ 1686
chose 1685
ys@@ 1685
Digital 1685
Academy 1685
shuttle 1685
cancel 1684
fears 1683
autonomy 1683
aring 1682
discipline 1682
reiterate 1681
AV@@ 1681
contra@@ 1680
power@@ 1680
Pres@@ 1680
Nonetheless 1679
71 1679
yc@@ 1679
controlling 1679
Sil@@ 1679
connec@@ 1679
slowly 1678
ska 1678
fate 1677
dominant 1677
refer@@ 1677
confusion 1676
notion 1676
claimed 1676
hab@@ 1675
pharmaceutical 1675
caught 1675
SE 1675
dy@@ 1675
Met@@ 1675
incorporate 1674
unfortunate 1674
arts 1674
premises 1674
vic@@ 1674
21st 1673
thro@@ 1673
headquarters 1673
boxes 1673
Search 1673
differ 1672
steam 1672
&apos;d 1672
prestigious 1671
hesitate 1671
painting 1670
inde@@ 1670
Zimbabwe 1669
MB 1669
lesson 1668
indirect 1667
Uni@@ 1667
undertaking 1667
Camp@@ 1666
keeps 1665
Place 1665
Libya 1664
dent 1664
ession 1663
Scotland 1663
buses 1663
infringement 1662
tt@@ 1662
copies 1662
reinforce 1661
ums 1661
tolerance 1661
dating 1661
indication 1660
thoroughly 1660
IV 1660
belonging 1660
Men@@ 1660
publicly 1659
wer 1659
sam@@ 1659
consult 1658
Plus 1658
gaining 1658
hoped 1658
exposure 1657
develops 1657
dated 1657
e.@@ 1657
estimate 1656
Which 1656
reductions 1656
Stockholm 1655
fs 1655
accepting 1655
bot@@ 1655
eries 1655
West@@ 1655
mo 1655
Sony 1655
receives 1654
Da@@ 1654
Gr@@ 1654
ken 1653
Budget 1653
segment 1653
fare 1652
equity 1652
ean 1652
underline 1651
displays 1651
icon 1651
ile 1650
Port 1650
ero 1650
need@@ 1649
respecting 1649
lighting 1649
keen 1648
AD 1648
emerge 1647
concerts 1647
eing 1646
flag 1645
settled 1645
converted 1645
Opera 1645
pact 1644
radi@@ 1644
explains 1644
isolated 1644
motions 1643
bol@@ 1643
holders 1643
convert 1643
lig@@ 1643
ora 1643
stops 1642
ust 1641
ett@@ 1640
encies 1640
platforms 1640
Poli@@ 1640
Select 1640
lacking 1639
survival 1639
59 1639
zu@@ 1639
coverage 1638
disappointed 1638
measured 1637
closure 1637
ony 1637
plate 1637
Wa@@ 1637
architectural 1637
exceptions 1636
ven 1636
Wei@@ 1636
Hence 1635
Pan@@ 1635
failing 1634
Beijing 1634
ples 1634
lovers 1633
indi@@ 1633
Las 1633
Water 1632
allo@@ 1632
diver@@ 1631
PC@@ 1631
plane 1631
wake 1629
respectively 1629
CE 1629
dad 1629
ensured 1628
complexity 1628
kil@@ 1627
accepts 1627
66 1627
acquire 1627
ases 1627
observers 1627
dat@@ 1626
Series 1626
Access 1625
rap@@ 1624
Canon 1624
Everyone 1623
sailing 1623
itation 1623
92 1623
heated 1623
tem@@ 1623
tries 1623
Islam 1623
MA 1622
cr@@ 1621
fought 1621
Milan 1621
monuments 1621
fold 1620
asi@@ 1620
li 1620
Tuesday 1619
tackling 1619
aire 1619
Nov@@ 1619
decent 1618
IF@@ 1618
Sta@@ 1618
chief 1618
ros 1618
staying 1617
eting 1616
defending 1615
inquiry 1615
ground@@ 1615
continuation 1614
micro 1613
hospital 1613
eless 1613
deemed 1613
tin@@ 1613
nar@@ 1613
auf 1613
trains 1613
Personal 1613
designer 1613
EEC 1612
stays 1612
favourite 1612
executed 1611
noticed 1611
Tibet 1611
Sudan 1611
tery 1611
EMU 1610
GN@@ 1610
strange 1610
unds 1610
han@@ 1610
pack@@ 1610
News 1610
interaction 1609
Out@@ 1608
interim 1607
literature 1607
downloading 1607
Guide 1606
smo@@ 1606
Charles 1606
auto@@ 1605
consolidation 1605
responses 1604
mur@@ 1604
churches 1604
stones 1603
Thomas 1603
acquis 1602
ests 1602
bil@@ 1602
typically 1602
lement 1602
gam@@ 1602
snow@@ 1601
governed 1601
listened 1601
sustained 1601
whi@@ 1601
hing 1601
maps 1601
characterised 1600
oned 1600
artificial 1600
AP@@ 1600
unlike 1599
reverse 1599
decre@@ 1599
Master 1599
ints 1598
12.@@ 1598
temp@@ 1597
magic 1597
silver 1597
shareholders 1596
conjunction 1596
camps 1596
Anonymous 1596
Indonesia 1595
relaxed 1595
guard 1594
actor 1594
taxi 1594
delicate 1593
rem@@ 1593
Des@@ 1593
Point 1593
sandy 1593
Science 1592
unstable 1592
mon 1592
entries 1591
Ka@@ 1591
telling 1590
gains 1590
AC 1590
founding 1590
collec@@ 1590
18th 1590
a.@@ 1590
abolition 1589
grants 1589
unt 1589
holes 1589
migrants 1589
Open@@ 1589
column 1589
describes 1588
clearer 1588
hed 1588
Est@@ 1588
sporting 1588
SD@@ 1588
ok 1587
denied 1585
exceed 1585
harmony 1585
aches 1584
catering 1584
authorisation 1583
inform@@ 1583
fires 1583
activated 1583
na@@ 1582
wa 1582
horizontal 1581
Tunisia 1580
recycling 1579
inst@@ 1577
compare 1577
tionary 1576
Tu@@ 1576
workshop 1575
wind@@ 1574
Cat@@ 1574
Peace 1573
constitu@@ 1573
Above 1571
workshops 1571
Consi@@ 1569
hear@@ 1569
choosing 1569
Al 1569
editor 1569
circle 1568
surprising 1568
sheets 1568
denti@@ 1567
App@@ 1567
plain 1566
58 1566
degrees 1565
invitation 1565
yers 1565
estimates 1565
0s 1565
survive 1564
ambitions 1564
uring 1564
tailored 1564
alarm 1564
pursuing 1563
Naturally 1563
parameter 1563
foods 1563
rubber 1563
ells 1563
discrimin@@ 1562
robust 1561
det@@ 1561
watching 1561
booked 1561
prohibited 1560
Travel 1560
lied 1559
ential 1559
adap@@ 1559
Wil@@ 1558
battery 1558
bill 1557
aded 1557
tured 1556
bases 1555
accommodate 1555
book@@ 1555
Go 1555
edit 1555
badly 1554
tells 1554
AR 1554
backing 1554
unch 1554
mobili@@ 1554
TI@@ 1554
Apartment 1554
vac@@ 1553
aming 1553
Tro@@ 1553
laser 1553
automation 1553
banned 1552
Pen@@ 1552
ily 1552
departments 1551
67 1551
Gulf 1550
visitor 1550
linguistic 1549
Choose 1549
ired 1548
Liber@@ 1548
ç@@ 1548
kg 1547
temperatures 1546
assessments 1546
preventive 1546
Lau@@ 1546
signature 1546
PRO@@ 1546
adher@@ 1545
manifest@@ 1545
reli@@ 1545
shaped 1545
Moldova 1545
globalization 1545
specialities 1544
oo@@ 1544
unanimous 1543
engineers 1543
Rot@@ 1543
College 1542
evolution 1542
pack 1542
bid 1541
homo@@ 1541
Organization 1541
coinci@@ 1540
analyses 1540
thoughts 1540
suff@@ 1540
separately 1540
hol@@ 1540
consulted 1539
profound 1539
dominated 1539
spots 1539
.org 1539
favorite 1539
dar@@ 1538
Dan@@ 1538
proximity 1538
ample 1538
subsidiary 1537
Millennium 1537
reduces 1537
ó 1537
authentic 1537
explo@@ 1536
Blue 1536
congratulations 1535
· 1535
circulation 1534
guidance 1533
iti@@ 1533
ark@@ 1533
mi 1533
Medi@@ 1533
tips 1533
coherence 1532
tives 1532
investigate 1532
ñ@@ 1532
Experience 1532
Additionally 1532
damaged 1531
demonstration 1531
birds 1531
deny 1531
adjusted 1531
capture 1530
securities 1530
57 1530
analy@@ 1530
compatibility 1529
sla@@ 1529
appreciated 1529
alogue 1529
celebrate 1529
announcement 1528
ente 1528
quantities 1527
Industrial 1527
movies 1527
approx 1527
tz 1526
tre 1526
furthermore 1526
socio 1526
allies 1526
minds 1525
solving 1525
hydro@@ 1525
filling 1525
ET 1525
implies 1524
Everything 1524
doctors 1524
black@@ 1524
BC 1524
exec@@ 1523
Em@@ 1523
branches 1523
railways 1522
accountability 1522
dangers 1522
Sho@@ 1522
Gold 1522
Road 1521
skilled 1521
san@@ 1521
Mur@@ 1521
tening 1520
Cent@@ 1520
environments 1519
mm@@ 1518
Live 1518
stood 1517
concentrated 1517
derived 1517
calculated 1516
ED@@ 1516
ail 1516
racing 1516
searching 1516
Contact 1516
optical 1516
photography 1516
supervisory 1515
continually 1515
enthusiasm 1515
rub@@ 1515
ester 1515
stakeholders 1514
twin 1514
requiring 1514
Right 1513
2.5 1513
challenging 1513
stem 1513
tain 1513
preferences 1513
investigations 1512
abandoned 1511
invested 1511
teacher 1511
tra 1511
cooking 1510
tape 1508
conver@@ 1508
Norway 1507
les@@ 1507
CE@@ 1507
alliance 1507
partition 1507
fam@@ 1506
defects 1506
terminal 1506
lor@@ 1505
initi@@ 1505
servi@@ 1505
ote 1504
harbour 1503
NO@@ 1503
Rap@@ 1502
BMW 1502
clarification 1501
agent 1501
Kr@@ 1501
ut 1501
3rd 1501
accused 1500
prev@@ 1500
habit@@ 1500
ened 1500
multimedia 1500
Fax 1500
reconciliation 1499
fault 1499
88 1499
optional 1499
bat@@ 1498
paradise 1498
infrastructures 1497
weigh@@ 1497
lined 1497
mining 1497
tious 1497
evil 1497
automated 1497
sin 1496
identical 1496
ez 1495
adaptation 1495
themes 1495
murder 1495
chen 1495
inations 1494
economics 1494
contributes 1494
secured 1494
sw@@ 1494
laying 1493
dictatorship 1493
male 1493
alle@@ 1493
Start 1493
cop@@ 1493
PSE 1492
explicit 1492
exploit 1492
cer 1492
í 1492
aqu@@ 1492
Fran@@ 1492
Super@@ 1492
modes 1492
Fac@@ 1491
sus@@ 1491
vin@@ 1491
att@@ 1491
super 1491
pending 1490
unprecedented 1490
seekers 1490
AN 1490
knowing 1489
sincerely 1489
backed 1489
vor@@ 1489
feels 1488
aking 1488
conviction 1488
enemy 1488
Puerto 1488
stringent 1487
intergovernmental 1487
assumed 1487
albeit 1487
compar@@ 1487
Wall 1487
sn@@ 1486
suddenly 1486
inher@@ 1486
pot 1485
Sometimes 1484
James 1484
bag 1484
© 1484
obtaining 1483
differently 1483
scre@@ 1482
deleted 1482
AU@@ 1482
sem@@ 1481
decentrali@@ 1480
sanc@@ 1480
pic@@ 1480
eo 1480
characterized 1480
incredible 1479
semi 1479
turing 1479
Press 1478
brain 1478
ée 1477
directions 1477
pione@@ 1477
mul@@ 1477
direc@@ 1476
specialised 1476
pru@@ 1476
Lam@@ 1476
Rental 1476
justification 1475
demanded 1475
fifteen 1474
genetically 1474
powered 1474
eller 1474
SAP 1474
realized 1474
constraints 1473
Meanwhile 1473
Currently 1473
hire 1473
Regarding 1472
adequately 1472
quot@@ 1471
performances 1471
Order 1471
Edition 1471
Spe@@ 1470
isn 1470
Cha@@ 1470
IB@@ 1470
appreciation 1469
Wor@@ 1469
77 1469
translations 1468
enhan@@ 1467
crystal 1466
Technical 1466
Tru@@ 1466
Sar@@ 1466
defense 1466
damaging 1465
capacities 1465
1980 1465
checking 1464
lakes 1464
tel 1464
upcoming 1464
izing 1464
tun@@ 1463
wat@@ 1463
ee 1463
62 1462
essed 1462
tac@@ 1461
partially 1460
93 1460
doctor 1460
Los 1460
fts 1459
permanently 1459
cheese 1459
EU@@ 1458
sensor 1458
eine 1458
grade 1457
chocolate 1457
shel@@ 1457
physi@@ 1457
connecting 1457
Vietnam 1457
admi@@ 1456
unlikely 1456
sers 1456
ł@@ 1456
OL@@ 1456
optimum 1455
ouring 1455
top@@ 1455
witness 1454
jo 1454
newspapers 1454
competitors 1454
scep@@ 1453
Could 1453
History 1453
Mel@@ 1453
interpreted 1452
sound@@ 1452
backs 1452
practi@@ 1452
SC 1451
ians 1451
Fil@@ 1451
82 1450
humans 1450
LU@@ 1450
89 1449
strive 1449
lt 1449
fe 1449
Show 1448
aching 1447
removing 1447
ela 1447
bak@@ 1447
struck 1446
adv@@ 1446
investing 1446
attract 1446
vari@@ 1445
mirror 1445
rid 1444
breaks 1444
returning 1444
ham 1444
rin@@ 1444
impetus 1443
subscri@@ 1443
excess 1443
Dor@@ 1443
irre@@ 1442
tot@@ 1442
grand 1442
participated 1442
Chechnya 1442
Estonia 1442
leather 1442
ico 1442
isolation 1441
atten@@ 1441
conditional 1441
bone 1441
ishes 1441
diplom@@ 1441
grand@@ 1441
halt 1441
passes 1440
gement 1440
Part 1440
abo@@ 1440
notification 1439
combining 1439
s. 1439
lier 1439
Program 1439
peri@@ 1438
pop@@ 1438
Add 1438
explanations 1437
Gran 1437
ú@@ 1436
bach 1436
iPhone 1436
alising 1435
demo@@ 1435
Communication 1435
avi@@ 1435
deleg@@ 1434
activ@@ 1434
stimulate 1434
mb@@ 1434
ater 1434
XP 1434
rose 1433
motivated 1433
Modern 1433
short@@ 1433
nis@@ 1433
Tel@@ 1433
crossing 1432
independently 1432
striking 1432
Training 1432
promotes 1431
LA 1431
prominent 1431
Cra@@ 1431
inequality 1430
formula 1430
editing 1430
bird 1429
Process 1429
aces 1429
Content 1429
harmonised 1428
hi 1428
advocate 1428
currencies 1428
modest 1427
taught 1427
ologically 1427
monthly 1427
vegetables 1427
bears 1426
venture 1426
Tim@@ 1426
ain 1426
Doha 1426
login 1425
ze@@ 1424
wn@@ 1424
permits 1424
Image 1424
ab 1424
abuses 1423
gh 1423
ultra 1423
Apple 1423
lessly 1422
ori 1422
arm 1422
setup 1422
restoration 1421
grave 1421
terror 1420
dged 1420
Alpine 1420
winners 1420
pan 1419
ama 1419
Danube 1419
Pat@@ 1419
DC 1419
CHF 1419
78 1418
outlined 1417
dam@@ 1417
socially 1416
Kor@@ 1416
hosts 1416
SQL 1416
Working 1415
seminars 1415
score 1415
vent 1415
aw@@ 1415
divide 1414
Visit 1414
Cu@@ 1413
announ@@ 1413
mod@@ 1413
excellence 1412
radiation 1412
Ol@@ 1412
DO@@ 1411
hard@@ 1411
ideological 1410
Rather 1410
trademarks 1410
Golden 1410
hypo@@ 1409
gradual 1409
dges 1409
activate 1408
hazardous 1408
arrested 1407
dental 1407
hopefully 1406
separated 1406
shore 1406
flowers 1406
dé@@ 1406
origin@@ 1406
Client 1406
avoiding 1405
configure 1405
fundamentally 1404
eness 1404
salt 1404
neutral 1404
transformed 1404
twelve 1404
fri@@ 1404
HD 1404
well@@ 1403
Che@@ 1403
OM@@ 1403
scenario 1402
employee 1402
summary 1402
receipt 1402
Saddam 1402
Tyrol 1402
Ltd 1402
eligible 1401
86 1400
ère 1400
11.@@ 1400
surplus 1400
owing 1399
Allow 1399
aled 1399
dep@@ 1399
flash 1399
observations 1398
roughly 1398
realised 1398
coalition 1398
garage 1398
rescue 1397
spiritual 1397
tool@@ 1397
inevitably 1396
rati@@ 1396
enz@@ 1396
patri@@ 1396
forums 1396
su 1396
alize 1396
peak 1395
lending 1395
breathtaking 1395
Friendly 1395
40@@ 1394
revenues 1394
rolling 1394
colonial 1394
ald 1394
labels 1394
ST 1394
fli@@ 1393
Work 1393
Rom@@ 1393
arm@@ 1393
archi@@ 1393
proliferation 1392
simplified 1392
hide 1392
Sem@@ 1392
unlimited 1392
Mont@@ 1392
Res@@ 1392
resumed 1391
pleas@@ 1391
distribute 1391
gence 1391
dings 1391
tho@@ 1391
ner@@ 1390
audit 1390
translate 1390
warranty 1390
inevitable 1389
stating 1389
bread 1389
hunger 1389
scenery 1389
struc@@ 1388
bility 1388
systematically 1388
databases 1388
Statute 1388
Ham@@ 1388
ich 1388
sten@@ 1387
dering 1387
controller 1387
officers 1387
fron@@ 1387
mas 1387
Supervisory 1387
delayed 1386
mailing 1386
golden 1386
ols 1386
bathing 1386
piano 1386
ante 1385
moderate 1385
toler@@ 1385
complement 1385
reinforced 1385
wel@@ 1385
Discover 1385
nowadays 1384
criterion 1384
indispensable 1384
alive 1384
ail@@ 1384
thy 1384
iness 1383
League 1383
arians 1382
a.m. 1382
gathered 1382
toilet 1382
gases 1381
symbolic 1381
rage 1381
entities 1381
net@@ 1381
urs 1380
ems 1380
separation 1380
tain@@ 1380
indigenous 1380
novel 1379
venue 1379
set@@ 1379
influ@@ 1378
capability 1378
civili@@ 1378
Py@@ 1378
Thailand 1378
Cathedral 1378
envisaged 1377
champ@@ 1377
maxim@@ 1377
discovery 1377
camp@@ 1377
advis@@ 1376
ords 1376
stry 1376
blocked 1376
Climate 1376
minimal 1375
opponents 1375
procedural 1374
reviewed 1374
craft 1374
objec@@ 1374
uns 1374
ras 1374
judges 1373
thumbnail 1373
openly 1372
resolving 1371
endor@@ 1370
tight 1370
Sou@@ 1370
pin 1370
frag@@ 1370
tiv@@ 1370
aria 1370
centrally 1369
restrictive 1369
Criminal 1369
retirement 1368
lob@@ 1368
interview 1368
consisting 1368
ford 1368
Star@@ 1368
globally 1367
recover 1367
EP 1367
Petitions 1367
invo@@ 1367
rigorous 1366
IGC 1366
New@@ 1366
sing@@ 1366
kit 1366
SM@@ 1366
ament 1365
suspension 1365
disagree 1365
kids 1365
commission 1364
gol@@ 1364
63 1363
fits 1363
Air@@ 1363
Stuttgart 1363
ues 1362
donors 1362
mines 1362
boundaries 1361
vicinity 1361
fic@@ 1361
Den@@ 1361
High@@ 1361
rac@@ 1361
OK 1361
Vista 1361
repression 1360
embedded 1360
Region 1359
charter 1359
ea 1359
countless 1359
94 1358
ography 1358
criminals 1358
subjected 1358
tial 1358
interference 1357
congratulating 1357
touched 1357
gent 1357
workforce 1357
par 1357
Solidarity 1357
finest 1357
conscious 1356
celebrated 1356
installing 1356
trails 1356
Annual 1355
abstained 1355
TA 1355
carrier 1355
gel 1355
fran@@ 1354
Christians 1353
paintings 1353
pointing 1352
feelings 1352
divi@@ 1352
ycle 1352
cip@@ 1352
aller@@ 1352
Sel@@ 1352
Newspapers 1352
Location 1352
statute 1351
sharp 1351
Mau@@ 1351
integrating 1350
examining 1350
91 1350
bi 1350
amp 1350
HIV 1349
instability 1348
presentations 1348
tex@@ 1348
gar 1348
quarters 1347
inning 1347
asks 1347
UC@@ 1347
transmitted 1347
kill 1347
tia 1347
hr@@ 1347
Trek 1347
await 1346
synchron@@ 1346
gon 1346
limitations 1345
Bon@@ 1345
arises 1345
alling 1344
indirectly 1344
safely 1344
ENT 1344
vine 1344
behold 1344
PM 1344
landscapes 1343
stein 1343
Professor 1342
regul@@ 1342
unanimity 1342
conveniently 1342
profiles 1342
Sun 1342
dre@@ 1341
PP@@ 1341
speaks 1340
revol@@ 1340
Written 1340
Playa 1340
scrutiny 1339
adverse 1339
lawyers 1339
cheaper 1339
Her 1339
dimin@@ 1338
sensitivity 1338
Change 1338
Jerusalem 1338
counts 1338
umb@@ 1337
eable 1337
CEO 1337
credi@@ 1337
acceler@@ 1337
ji 1337
Hans 1337
SU@@ 1337
sums 1336
Pla@@ 1336
sk 1336
evol@@ 1335
pride 1335
cum@@ 1335
oms 1335
eigh@@ 1334
democracies 1334
laboratory 1334
culinary 1334
girl 1334
safeguarding 1333
influenced 1333
Disabled 1333
About 1333
Det@@ 1333
existed 1332
Bol@@ 1332
circuit 1332
pillars 1331
threatening 1331
distinguished 1331
refugee 1331
oting 1331
Mari@@ 1331
Mark 1331
imperative 1330
eter 1330
complic@@ 1330
besides 1330
eria 1330
Kur@@ 1330
cali@@ 1330
subscription 1330
advances 1329
Romanian 1329
tages 1329
trademark 1329
Four 1329
ght@@ 1328
boo@@ 1328
rupt 1328
Spring 1328
wis@@ 1327
Rio 1327
Bad 1327
roles 1326
op 1326
ital 1326
capitalism 1326
WC 1326
Muslims 1326
Wal@@ 1326
sofa 1326
excuse 1325
glob@@ 1325
Caribbean 1325
74 1325
walks 1325
ep 1325
ticul@@ 1324
tremendous 1324
cos 1324
extends 1324
grass 1323
Hei@@ 1323
Chief 1323
incomes 1322
Rob@@ 1322
cket 1322
founder 1322
promising 1321
admission 1321
deep@@ 1321
utions 1321
Finance 1321
guides 1321
Line 1321
81 1320
ruled 1320
household 1320
tless 1319
69 1319
disastrous 1319
ailed 1319
exclude 1319
73 1318
homepage 1318
refined 1318
utility 1318
writer 1317
gear 1317
delivering 1317
cen@@ 1317
innocent 1316
compromises 1316
Professional 1316
ci 1316
yellow 1315
feder@@ 1315
61 1315
hy@@ 1315
profitable 1314
ía 1314
voices 1313
UT@@ 1313
Gor@@ 1312
entrepreneurs 1312
calculation 1312
ageing 1312
Latvia 1312
eta 1312
tensions 1311
argued 1311
Cross 1311
separ@@ 1311
Radio 1311
cher@@ 1310
magnetic 1310
entity 1309
determining 1309
distributors 1309
MP3 1309
deeper 1308
alls 1308
troub@@ 1308
verse 1308
tains 1308
incident 1307
care@@ 1307
Sport 1307
reproduction 1307
cooling 1307
linking 1306
affir@@ 1306
delegations 1306
oked 1306
Mul@@ 1306
int@@ 1306
ema 1306
continental 1305
lifestyle 1305
waves 1305
engagement 1305
consultations 1304
civilians 1304
encounter 1304
Cho@@ 1304
weekly 1304
rows 1304
Empire 1304
16th 1304
monopoly 1303
districts 1303
adjustments 1303
rivers 1303
mes@@ 1303
cycling 1303
grew 1302
olo@@ 1302
fabric 1302
Reg@@ 1302
perpet@@ 1301
Cohesion 1300
viewing 1300
weapon 1300
visas 1300
cinema 1300
Fair 1300
designers 1300
endeavour 1299
shr@@ 1299
tonight 1298
worker 1298
ial 1298
sy@@ 1298
assessed 1297
absurd 1297
killing 1297
Val 1297
HU 1297
harmon@@ 1296
accum@@ 1296
render 1296
hearts 1296
immunity 1296
autonomous 1296
Corporate 1296
ey@@ 1295
resistant 1295
interfaces 1294
mounted 1294
joy 1294
ign@@ 1294
show@@ 1294
cements 1293
neo 1293
Pack 1293
Tr@@ 1293
surfing 1293
fes@@ 1292
qualities 1292
Kal@@ 1292
supplement 1291
SS@@ 1291
endorsed 1290
analyse 1290
organiz@@ 1290
attach 1289
fire@@ 1289
sincere 1289
ices 1289
Christ 1289
ules 1289
sch 1288
author@@ 1288
resorts 1288
ple 1288
lens 1288
margin 1287
paragraphs 1287
enter@@ 1287
width 1287
plugin 1287
prevents 1286
generating 1286
UNESCO 1286
Joseph 1286
afterwards 1285
decrease 1285
inspiration 1285
rain 1285
tile 1285
washing 1285
dorf 1285
stro@@ 1284
perf@@ 1284
Don@@ 1284
lion 1283
deli@@ 1283
detention 1283
76 1283
designated 1283
graphical 1283
yl@@ 1282
cit@@ 1282
Ther@@ 1282
scra@@ 1281
stag@@ 1281
appe@@ 1281
unilateral 1281
Gui@@ 1281
ami 1281
pop 1281
lays 1279
refusal 1279
California 1279
earned 1278
gging 1278
sympathy 1278
Holy 1278
haven 1277
ano@@ 1277
ix 1277
Allah 1277
Whilst 1276
finishing 1276
Tom@@ 1276
elite 1276
libraries 1276
communist 1276
Nigeria 1276
Helsinki 1275
infl@@ 1275
Nature 1275
mers 1275
carriers 1275
Products 1275
Come 1275
hectares 1274
Natural 1274
foster 1274
thin 1274
ingen 1274
0.00 1274
gym 1274
shing 1273
enters 1273
clothes 1273
Alexander 1272
convincing 1272
exploited 1272
compens@@ 1271
formally 1271
abandon 1271
consist 1271
liquid 1271
Sor@@ 1271
filters 1271
Suites 1271
duction 1270
maintains 1270
encomp@@ 1270
fal@@ 1270
exploring 1270
Staff 1269
portra@@ 1269
panels 1269
reaches 1269
29@@ 1269
interventions 1268
reaffir@@ 1268
tariff 1268
eff@@ 1268
consolidate 1267
workplace 1267
intern@@ 1267
modernisation 1266
gged 1266
carries 1266
omed 1266
preservation 1266
implic@@ 1266
securing 1266
protests 1266
dest 1265
OLAF 1265
Hon@@ 1265
endless 1265
irs 1265
plates 1265
electronics 1265
dreams 1265
sin@@ 1264
ater@@ 1264
chances 1263
Plan@@ 1263
5th 1263
bloo@@ 1263
Gay 1263
authorized 1263
Dep@@ 1262
audiovisual 1262
Residence 1262
asp@@ 1262
ele 1262
Unless 1261
consolidated 1261
Congo 1261
oria 1261
commonly 1261
IV@@ 1261
technically 1260
irrespective 1260
clu@@ 1260
max 1260
Blair 1260
KDE 1260
obstacle 1259
enhancing 1259
Mad@@ 1259
Tran@@ 1259
bags 1259
Cold 1259
с@@ 1259
energies 1258
distant 1258
discretion 1258
02@@ 1258
shock 1258
alu@@ 1258
Ak@@ 1258
wishing 1258
sweet 1258
insu@@ 1257
cease 1257
punishment 1257
ades 1257
Administration 1257
Unlike 1256
gather 1256
married 1256
kilometers 1256
offset 1255
incorrect 1255
symp@@ 1255
demonstrations 1255
alt 1255
fertili@@ 1255
clauses 1254
worried 1254
moder@@ 1254
notic@@ 1254
prop@@ 1254
gio 1254
Wireless 1254
outermost 1253
thinks 1253
somewhere 1253
hof 1253
circum@@ 1252
detection 1252
lying 1251
younger 1251
Library 1251
deciding 1250
olls 1250
luck 1250
Jan@@ 1250
regre@@ 1249
preference 1249
ici@@ 1249
reactions 1249
Child 1249
Jews 1248
900 1248
ong@@ 1248
ails 1247
plac@@ 1247
hau@@ 1247
broad@@ 1246
strikes 1246
rat@@ 1246
anism 1245
brother 1245
dust 1245
Galileo 1245
gaming 1245
downtown 1245
condi@@ 1244
Algeria 1244
oder 1244
Warcraft 1244
thereof 1243
pull 1243
Chile 1242
Language 1242
vacuum 1241
porting 1241
confirms 1241
styles 1241
Head 1241
Fa@@ 1241
wire 1241
proves 1240
poin@@ 1240
attempting 1240
sat@@ 1240
Post@@ 1240
tube 1240
complaint 1239
Korean 1239
Over@@ 1239
hosting 1239
Ki@@ 1239
validity 1238
deadlines 1238
Between 1238
deployment 1238
overwhelming 1238
spell 1238
ratify 1237
Round 1237
shoes 1237
BR@@ 1237
Cab@@ 1236
Ocean 1236
thirty 1236
mass@@ 1236
seminar 1236
Wikitravel 1236
character@@ 1235
guilty 1235
asses 1235
query 1235
os@@ 1235
ologies 1234
ood 1234
reveal 1234
ín 1234
mp 1234
concludes 1233
FOR 1233
divisions 1233
ft@@ 1233
Jesus 1233
Rei@@ 1233
SP 1233
Mail 1233
selecting 1232
facilit@@ 1232
eco 1232
mile 1232
bath@@ 1232
Much 1231
esses 1231
group@@ 1231
responding 1231
scenes 1231
mus@@ 1231
mol@@ 1230
60@@ 1230
Basel 1230
illi@@ 1230
Aqu@@ 1230
tab 1229
breeding 1229
Cultural 1229
Privacy 1229
Tar@@ 1229
democratically 1228
fulness 1228
limiting 1228
bles 1228
extrac@@ 1228
silent 1228
collections 1228
Test 1228
Objective 1227
invites 1227
aiming 1227
wan@@ 1227
oh@@ 1227
Gallery 1227
USS 1227
medicinal 1226
GPS 1226
races 1225
Pet@@ 1225
processor 1225
Piazza 1225
corporations 1224
anger 1224
Simply 1224
Innovation 1224
recognises 1223
disabilities 1223
ö@@ 1223
Chancellor 1223
Sol 1223
disciplinary 1222
climbing 1222
skill 1222
bands 1222
Partner 1222
unified 1221
Country 1221
impro@@ 1221
safeguards 1221
Ari@@ 1221
coins 1221
supporters 1221
critique 1220
ME 1220
Flo@@ 1220
alter 1219
cattle 1219
tip 1219
87 1218
Anti 1218
ually 1218
Lat@@ 1218
Anti@@ 1218
Decision 1217
tioning 1217
anders 1217
conce@@ 1217
Adriatic 1217
glo@@ 1217
Bat@@ 1217
EX 1217
Hostel 1217
safer 1216
differenti@@ 1216
forestry 1216
locally 1216
Prin@@ 1216
100@@ 1216
remedy 1215
bits 1215
License 1215
delivers 1214
teach 1214
sur 1214
Ei@@ 1213
Net 1213
boarding 1213
FI 1213
DP 1212
Explorer 1212
fruits 1211
domin@@ 1211
aggressive 1211
Solana 1211
Arts 1211
ambience 1211
Neither 1210
ph 1210
cep@@ 1210
prot@@ 1210
emphasize 1210
meaningful 1209
far@@ 1209
ack@@ 1209
tually 1209
Colombia 1209
Big 1209
trail 1208
geo@@ 1208
Nero 1208
renewal 1207
symbols 1207
theoretical 1207
ocean 1207
awards 1207
pour 1206
dos 1206
ville 1206
tness 1205
simul@@ 1205
med@@ 1205
a.m 1205
mal 1205
protective 1205
ruption 1205
ouse 1205
lan 1205
inger 1205
Double 1205
day@@ 1204
tracking 1204
insight 1204
nutri@@ 1204
ker@@ 1204
vineyards 1204
ghter 1203
imbalances 1203
tig@@ 1203
cycles 1203
limitation 1203
perception 1203
XML 1203
appearing 1202
praise 1202
definitions 1202
vali@@ 1202
clinical 1202
Rem@@ 1202
titles 1202
Je@@ 1202
rice 1202
rative 1202
Casa 1202
pretext 1201
wished 1201
Av@@ 1201
ective 1200
immense 1200
indications 1200
practic@@ 1200
Singapore 1200
revolutionary 1200
tage 1200
Heritage 1200
assessing 1199
witnessed 1199
pipeline 1199
Montenegro 1199
loved 1199
fing 1199
DS 1199
comforts 1199
profession 1198
donor 1198
reasonably 1198
macro 1198
aus@@ 1198
Ashton 1198
accompanying 1197
ects 1197
Annex 1197
dioxide 1197
Eu@@ 1197
15th 1197
annually 1196
xed 1196
wisdom 1196
Roman@@ 1196
fic 1196
dairy 1196
Green@@ 1196
herself 1196
GP 1196
District 1196
identifying 1195
eating 1195
belt 1195
GA 1195
3,@@ 1195
edly 1194
bian 1194
Against 1194
prerequisite 1193
prompt 1193
colon@@ 1193
glu@@ 1193
woods 1193
4th 1193
tendency 1192
17th 1192
desc@@ 1192
printer 1192
contest 1192
exceptionally 1191
rarely 1191
lian 1191
IM 1191
ection 1191
adverti@@ 1191
EP@@ 1191
multip@@ 1190
mand@@ 1190
Sy@@ 1190
wra@@ 1190
ink@@ 1190
Bio@@ 1190
HO@@ 1190
erial 1189
Being 1189
incidents 1189
var 1189
dogs 1189
dru@@ 1189
beat 1188
admitted 1188
arriving 1188
Nikon 1188
Reform 1187
personality 1187
yield 1187
retri@@ 1187
tiny 1187
stu@@ 1187
Mus@@ 1187
gel@@ 1187
classification 1186
Tower 1186
Anyone 1186
fed 1186
stit@@ 1186
stimulus 1186
ry@@ 1186
Dresden 1186
va@@ 1185
Democracy 1185
Siemens 1185
Firefox 1185
oper@@ 1184
verify 1184
ier@@ 1184
broadcasting 1184
globe 1184
Sen@@ 1184
alpine 1184
certificates 1183
perceived 1183
Dru@@ 1183
OECD 1183
cargo 1182
spi@@ 1182
Cer@@ 1182
tori@@ 1182
Ag@@ 1182
ilt 1181
rank 1181
80@@ 1181
marriage 1181
Bag@@ 1181
broadly 1180
costly 1180
talent 1180
tz@@ 1180
feasible 1179
formul@@ 1179
QU@@ 1179
aux 1179
hop@@ 1179
Mah@@ 1179
p.m 1178
wanting 1178
oll@@ 1178
execute 1178
prints 1178
rob@@ 1178
cache 1178
enforce 1177
foodstuffs 1177
cotton 1177
musicians 1177
stering 1177
Sig@@ 1177
lers 1176
introduces 1176
Bed 1176
SK 1176
exacerb@@ 1175
modification 1175
Sim@@ 1175
multinational 1174
inci@@ 1174
disappear 1174
Saudi 1174
Top 1174
oes 1174
Il@@ 1173
counting 1173
trials 1173
ais 1173
universe 1173
Herzegovina 1173
booth 1173
IX 1172
Haiti 1172
visibility 1172
ROM 1172
Mark@@ 1172
Ram@@ 1172
Ö@@ 1171
Na@@ 1171
warrant 1171
problematic 1170
dramatically 1170
Mis@@ 1170
program@@ 1170
Terrace 1170
sco@@ 1169
Neu@@ 1169
ideology 1169
83 1168
matches 1168
precautionary 1168
defeat 1168
tn@@ 1168
preserving 1167
pushed 1167
OSCE 1167
textiles 1167
organs 1167
mount 1167
elegance 1167
S. 1167
drew 1166
attempted 1166
floods 1166
cross@@ 1166
84 1166
ranges 1166
Riviera 1166
fulfilling 1165
blocking 1165
cc@@ 1165
wei@@ 1165
gres@@ 1165
Str@@ 1165
customized 1165
understandable 1164
Provi@@ 1164
Sierra 1164
Rhine 1164
mineral 1164
Louis 1164
tioned 1163
uter 1163
mented 1163
lifting 1163
giant 1163
Ed@@ 1163
Ke@@ 1162
advised 1162
SY@@ 1162
continuity 1162
sends 1162
shooting 1162
inappropriate 1161
earthquake 1161
encourages 1161
mid@@ 1161
configured 1161
stroll 1161
elli 1160
vessel 1160
pt 1160
fragile 1160
advisory 1160
hyper@@ 1160
Wellness 1160
justi@@ 1159
devi@@ 1159
Rel@@ 1159
án 1159
loan 1159
Max 1159
villas 1159
inspections 1158
C. 1158
rs 1157
persu@@ 1157
master@@ 1157
coordinating 1156
arri@@ 1156
distinguish 1156
boy 1156
Cl@@ 1156
Relations 1156
BA 1156
Mart@@ 1155
carte 1155
Dry 1155
diplomacy 1154
draws 1154
bus@@ 1154
eive 1153
remin@@ 1153
Land@@ 1153
daughter 1153
camping 1153
PE 1153
Les 1153
improves 1152
Again 1152
complementary 1152
Cir@@ 1152
A.@@ 1152
Ur@@ 1151
convic@@ 1151
bab@@ 1151
DR@@ 1151
Bridge 1150
A. 1150
spreading 1149
Patten 1149
Kra@@ 1149
packed 1149
ept 1149
psych@@ 1149
ual 1148
Coast 1148
cus 1148
gra 1148
stly 1147
num@@ 1147
dered 1147
sibility 1146
variables 1146
genocide 1146
eil 1146
visu@@ 1146
Ay@@ 1146
seaside 1146
lou@@ 1145
macroeconomic 1145
List 1145
ray 1145
legendary 1145
EB@@ 1145
menus 1145
Laundry 1145
termin@@ 1144
initiate 1144
shell 1144
headed 1144
Especially 1144
iler 1144
della 1144
persecution 1143
austerity 1143
eption 1143
insert 1143
thi@@ 1142
orious 1142
etc. 1142
CDs 1142
Sie 1142
Articles 1141
concessions 1141
mixture 1141
conscience 1141
painful 1141
CA 1141
ord@@ 1141
alty 1141
inequalities 1140
distinct 1140
crus@@ 1140
EIB 1140
vable 1140
ès 1140
palace 1140
bo 1140
organising 1139
asting 1139
chamber 1139
construct 1139
stayed 1139
origins 1139
reader 1139
lica 1139
Slovak 1139
barrier 1138
Freedom 1138
settle 1138
ceremony 1138
Indi@@ 1138
yo 1138
newest 1138
tournament 1138
RSS 1138
inland 1137
layers 1137
stically 1137
protectionism 1137
council 1137
tons 1137
predic@@ 1137
pushing 1137
ids 1137
Hague 1136
peripheral 1136
irregularities 1136
attitudes 1136
Michel 1136
escal@@ 1136
completing 1136
new@@ 1136
horses 1136
illa 1136
quali@@ 1135
stresses 1135
calcul@@ 1135
Lim@@ 1135
static 1135
invoice 1135
credits 1134
350 1134
toxic 1134
definite 1133
dossier 1133
emotional 1133
atri@@ 1133
GMOs 1133
oli 1133
DS@@ 1133
upload 1133
Equ@@ 1132
Liberals 1132
protects 1132
seas 1132
ung 1132
ret@@ 1131
transnational 1131
Fle@@ 1131
Reserve 1131
ando 1131
Eff@@ 1130
penet@@ 1130
topical 1130
Schulz 1130
Under@@ 1130
Ticket 1130
gal@@ 1129
xi@@ 1129
onian 1129
law@@ 1129
Bulgarian 1129
dive 1129
keyboard 1129
confidentiality 1128
preparatory 1128
psychological 1128
oli@@ 1128
ria 1128
Village 1128
weakness 1127
encing 1127
main@@ 1127
Capital 1127
complimentary 1127
essing 1126
fun@@ 1126
rounds 1126
Look 1126
samples 1126
sightseeing 1126
officer 1125
anyway 1125
Ober@@ 1125
privileges 1125
conducting 1125
ALE 1125
transported 1124
gy@@ 1124
sett@@ 1124
deser@@ 1124
PH@@ 1124
vil@@ 1123
Political 1123
insul@@ 1123
itali@@ 1123
activists 1123
Islam@@ 1123
ume 1123
Easy 1123
loo@@ 1122
resol@@ 1122
facilitating 1122
Cle@@ 1122
tackled 1121
Edinburgh 1121
aving 1121
rear 1121
Ukrainian 1121
Inc 1121
LCD 1121
exemption 1120
reminded 1120
persuade 1120
unt@@ 1120
kit@@ 1120
withdrawn 1119
disadvantaged 1119
clas@@ 1119
intent 1119
correction 1119
Depending 1119
poorer 1118
speculation 1118
reb@@ 1118
VIP 1118
repercussions 1117
ancy 1117
ji@@ 1117
cin@@ 1117
ski@@ 1117
§ 1117
Post 1116
stence 1116
Young 1116
Cleaning 1116
chair@@ 1115
retained 1115
posing 1115
evaluated 1115
insur@@ 1115
Kurdish 1115
din 1115
developer 1115
refurbished 1115
NEW 1115
ope 1114
bla@@ 1114
classified 1114
organisms 1114
sav@@ 1114
serial 1114
Lag@@ 1114
UL@@ 1114
illness 1113
licensed 1113
1970 1113
dress 1113
theast 1113
tan 1113
ALDE 1113
listing 1112
seed 1112
featured 1112
Valencia 1112
grid 1112
exam@@ 1111
scar@@ 1111
2015 1111
uty 1111
aro@@ 1111
persi@@ 1110
photo@@ 1110
pine 1110
turn@@ 1109
mad 1109
buyer 1109
shots 1109
Pic@@ 1109
vising 1108
cooperative 1108
banana 1108
Mountain 1108
productions 1108
bugs 1108
.net 1108
weaknesses 1107
Richard 1107
sorts 1106
Environmental 1106
legacy 1106
Sac@@ 1106
Bru@@ 1106
commands 1106
patch 1106
Sav@@ 1105
defines 1105
Verheugen 1105
valued 1105
tied 1105
Cli@@ 1105
relevance 1104
enemies 1104
Engineering 1104
elimination 1103
pursuit 1103
elev@@ 1103
Corporation 1103
Canary 1103
documented 1103
meter 1103
Wikicars 1103
eur 1102
crimin@@ 1102
broadcast 1102
pricing 1102
heim 1102
buttons 1102
ž@@ 1102
aston@@ 1101
convey 1101
vertical 1101
tag 1101
modifications 1101
lows 1101
responded 1100
studying 1100
positively 1100
fasc@@ 1100
1990s 1100
couples 1100
classi@@ 1099
successes 1099
debts 1099
healing 1099
attraction 1098
sau@@ 1098
bicycle 1098
LT 1098
contradiction 1097
confidential 1097
enshrined 1097
brutal 1097
batteries 1097
Med@@ 1097
downloads 1097
utor 1096
taining 1096
Organ@@ 1096
deliberately 1096
bin 1096
aluminium 1096
baggage 1096
Photocopying 1096
commend 1095
rup@@ 1095
temporarily 1095
dity 1094
launching 1094
bal 1094
inviting 1094
cla@@ 1094
ull 1093
acci@@ 1093
maker 1093
Hussein 1093
margin@@ 1092
Whatever 1092
Account 1092
Ul@@ 1092
rot@@ 1092
belie@@ 1092
diversi@@ 1092
pig@@ 1092
Looking 1091
diagnosis 1091
lifelong 1091
commodity 1091
overnight 1091
hairdryer 1091
volumes 1090
portion 1090
79 1090
detect 1090
tal@@ 1090
chi 1090
URL 1090
eliminating 1089
diet 1089
objections 1089
metals 1089
ordering 1089
tunnel 1087
Want 1087
accessibility 1087
Building 1087
mess@@ 1087
accessed 1087
employ 1086
Close 1086
terraces 1086
retro@@ 1085
gical 1085
dt 1084
deck 1084
Cur@@ 1084
ación 1084
Pack@@ 1084
socialist 1083
ops 1083
burning 1083
Supp@@ 1083
On@@ 1083
Catholic 1082
Fal@@ 1082
var@@ 1082
gambling 1082
AP 1082
PD@@ 1082
Nothing 1081
design@@ 1081
Nobel 1081
Fischler 1081
warran@@ 1081
break@@ 1081
readers 1081
Hil@@ 1081
anticipated 1080
hunting 1080
comb@@ 1080
mption 1080
wel 1080
liberty 1080
Users 1080
Class 1080
scripts 1080
Recently 1079
Continu@@ 1079
counted 1078
tran@@ 1078
Tampere 1078
rhetoric 1078
wholly 1078
sleeping 1078
selec@@ 1078
container 1078
aks 1077
pressures 1077
brea@@ 1077
Mallorca 1077
Samsung 1077
emergence 1076
accountable 1076
fat 1076
conservative 1076
shorter 1076
statutory 1076
thou 1076
instant 1076
highway 1076
è 1076
tible 1075
affair 1075
complied 1075
settlements 1075
there@@ 1075
Ass@@ 1075
AK@@ 1075
threaten 1074
ux 1074
ede 1074
fut@@ 1074
wedding 1074
admire 1073
Nokia 1073
sequence 1073
compiled 1072
retention 1072
check@@ 1072
traditionally 1071
PAR@@ 1071
comfortably 1071
ling@@ 1071
Exhibition 1071
regulating 1070
disappeared 1070
midst 1070
Conc@@ 1070
Leipzig 1070
Solutions 1069
ESS 1069
qualification 1068
fastest 1068
surfaces 1068
sheep 1068
Oper@@ 1068
jet 1068
galleries 1068
Marketing 1068
Mountains 1068
compet@@ 1067
matic 1067
aspirations 1067
ckers 1067
timing 1067
subjec@@ 1067
Pin@@ 1067
educ@@ 1066
harder 1066
relie@@ 1066
smallest 1066
paint 1065
recti@@ 1065
gic 1065
fers 1065
yiel@@ 1065
pedestrian 1065
installer 1065
optimized 1065
Bir@@ 1064
AF@@ 1064
beside 1064
Upon 1064
decoration 1064
Ref 1064
priori@@ 1063
instances 1063
MEP 1063
billions 1063
economical 1063
alleged 1063
moon 1063
liquidity 1063
Kon@@ 1063
quoted 1062
institute 1062
pragmatic 1062
formerly 1062
bert 1062
110 1061
disadvantage 1061
concent@@ 1061
cular 1061
Globalisation 1061
shortage 1061
Times 1061
NE@@ 1061
Dol@@ 1061
ounce 1060
partic@@ 1060
acknowled@@ 1059
fossil 1059
Chan@@ 1059
grams 1059
surgery 1059
Ori@@ 1059
furnishings 1059
pedi@@ 1058
licences 1058
Fortunately 1058
ements 1058
premi@@ 1058
Vel@@ 1058
coach 1058
GUE 1057
directors 1057
fically 1057
diesel 1057
altitude 1057
otel 1057
envis@@ 1056
fav@@ 1056
Dam@@ 1056
viruses 1056
EM 1056
thirds 1055
smoke 1055
ium 1055
gon@@ 1055
high@@ 1054
Update 1054
correspond 1053
definitive 1053
alarming 1053
toys 1053
mood 1053
artic@@ 1053
accommodations 1053
180 1052
stream@@ 1052
shame 1052
detected 1052
Airlines 1052
Oc@@ 1052
Light 1052
ful@@ 1051
nutrition 1051
literally 1051
auto 1051
worlds 1051
transform 1051
CR@@ 1051
Along 1051
auch 1051
contem@@ 1050
stricter 1050
landing 1050
advan@@ 1050
alogues 1050
tro 1050
Pr@@ 1050
gathering 1049
capitalist 1049
experiments 1049
vibrant 1049
Land 1049
hip 1049
ati 1049
six@@ 1048
Revolution 1048
Arti@@ 1048
embargo 1047
recru@@ 1046
Ky@@ 1046
concep@@ 1046
blan@@ 1046
Ant@@ 1046
thesis 1045
mitig@@ 1045
inary 1045
vig@@ 1045
gla@@ 1045
detriment 1044
orial 1044
resist 1044
livestock 1044
painted 1044
depic@@ 1044
Additional 1044
HP 1044
ern 1043
ambiguous 1043
Ah@@ 1043
Resolution 1043
resp@@ 1043
som@@ 1043
interven@@ 1042
lap@@ 1042
compla@@ 1042
invasion 1042
organ 1042
vel 1042
Contrac@@ 1042
boom 1041
transpor@@ 1041
lad@@ 1041
outer 1041
grain 1041
spam 1041
question@@ 1040
centrali@@ 1040
shoulder 1040
Afghan 1040
Porto 1040
Marco 1040
compli@@ 1039
Force 1039
ckets 1039
forever 1039
til@@ 1039
sooner 1039
entary 1039
Dr 1039
beautifully 1039
Zi@@ 1039
bis 1039
CC 1039
Quite 1038
geared 1038
bic 1038
deterior@@ 1038
road@@ 1038
apped 1037
constituency 1037
utter 1037
outline 1037
prevail 1037
VI 1037
pap@@ 1037
ace@@ 1037
lifts 1037
Santer 1036
grey 1036
aboli@@ 1036
fitting 1036
real@@ 1036
mag@@ 1036
1988 1036
Germans 1036
frames 1036
Hom@@ 1036
sty@@ 1036
Il 1036
ears 1035
gaps 1035
incurred 1035
Warsaw 1035
Army 1035
beneficiaries 1034
strongest 1034
ship@@ 1034
legitim@@ 1034
hoping 1034
class@@ 1034
Certainly 1034
noble 1034
formulated 1034
hat 1034
tender 1034
ax@@ 1034
inated 1033
Future 1033
bold 1033
Croatian 1033
Stra@@ 1033
households 1033
democratisation 1033
singer 1033
virtu@@ 1032
mothers 1032
displaced 1032
quantitative 1031
cat 1031
Forest 1031
momentum 1031
parent 1031
restriction 1031
lum@@ 1031
tle 1031
turnover 1031
measurements 1031
Pool 1031
deployed 1030
reveals 1030
Man 1030
pho@@ 1030
fundament@@ 1030
vegetable 1030
Not@@ 1030
financially 1029
negligence 1029
aer@@ 1029
tiveness 1029
Timor 1029
Docum@@ 1029
human@@ 1028
duly 1028
cultivation 1028
cabin 1028
pit@@ 1027
biotechnology 1027
tuna 1027
pay@@ 1027
exquisite 1027
establishes 1026
depl@@ 1026
possession 1026
chip 1026
500@@ 1026
liberalization 1026
Film 1026
luggage 1026
html 1026
mitting 1025
Long 1025
suits 1025
enza 1025
routine 1024
criticisms 1024
Bus@@ 1024
nearest 1024
prin@@ 1024
oxi@@ 1024
segments 1023
intimate 1023
mut@@ 1023
enfor@@ 1022
replacing 1022
varying 1022
ré@@ 1022
fusion 1022
injury 1022
Guinea 1022
unter 1022
Call 1022
issuing 1021
opera 1021
automobile 1021
NOT 1021
Es@@ 1021
tations 1021
cians 1021
ppy 1021
baths 1021
sidents 1020
Börse 1020
guiding 1019
clari@@ 1019
tism 1019
prof@@ 1019
dres@@ 1019
SI 1019
Age 1019
por 1019
clarified 1018
anc@@ 1018
screening 1018
realities 1018
Mol@@ 1018
bund@@ 1018
lage 1017
compensate 1017
crop 1017
een 1017
Ven@@ 1017
signatures 1017
exotic 1017
stell@@ 1017
pity 1016
ingu@@ 1016
thrown 1016
aments 1016
voltage 1016
eling 1016
altogether 1015
verb@@ 1015
eliminated 1015
â@@ 1015
dear 1015
Taliban 1015
electro@@ 1015
industri@@ 1014
hec@@ 1014
130 1014
ruins 1014
entation 1014
buffer 1014
indic@@ 1013
alli@@ 1013
propaganda 1013
jum@@ 1013
loads 1013
ein@@ 1013
ax 1013
nicht 1013
manually 1013
Spirit 1013
algorith@@ 1013
Serbian 1012
humane 1012
imagination 1012
cathedral 1012
Fon@@ 1012
decides 1011
circul@@ 1011
goo@@ 1011
confronted 1011
tariffs 1011
3.5 1011
Later 1011
congress 1010
Caucasus 1010
pris@@ 1010
ranks 1010
vulnerability 1010
collecting 1010
ferry 1010
gia 1010
nic@@ 1009
Sarkozy 1009
osity 1008
burdens 1008
Brok 1008
lateral 1008
ferred 1007
random 1007
memories 1007
eping 1007
punished 1007
Bis@@ 1007
inser@@ 1007
Save 1007
cut@@ 1007
injection 1007
decor@@ 1007
donation 1007
sand@@ 1007
Instruments 1007
eck 1006
arena 1006
Iceland 1006
dening 1006
mem@@ 1006
accompany 1006
Version 1006
shut 1006
aders 1006
passport 1006
и@@ 1006
slight 1005
TE 1005
Credit 1005
Summer 1005
Below 1005
appropriately 1004
Monti 1004
legisl@@ 1004
defended 1004
discriminatory 1004
portable 1004
tos 1004
nec@@ 1004
ag 1004
tailor 1003
precedent 1003
respon@@ 1003
Technologies 1003
Incre@@ 1002
criticised 1002
hen@@ 1002
devastating 1002
journalist 1002
slide 1002
jec@@ 1002
Côte 1002
Develop@@ 1002
inch 1002
Egyptian 1002
Arena 1002
prohi@@ 1001
contamination 1001
attacked 1001
recipient 1001
ura 1001
Liberties 1001
Palma 1001
snacks 1001
haus 1001
Ret@@ 1000
cost@@ 1000
breast 1000
einer 1000
iPod 1000
tionality 999
Madeira 999
isi@@ 999
hygiene 999
ares 999
lend 999
distinctive 999
encountered 999
queries 999
ão 999
hospitals 998
Questions 998
ented 998
aband@@ 998
Athens 998
Nu@@ 998
enjoyable 998
Dolomites 998
thor@@ 997
transposition 997
rehabilitation 997
municipal 997
assumption 997
ao 997
demonstrating 997
festivals 997
sever@@ 996
Yesterday 996
cream 996
Sales 996
Micro@@ 996
long@@ 995
sei@@ 995
illegally 995
vian 995
Bl@@ 995
stan@@ 995
od 995
Theatre 995
clim@@ 994
minded 994
forecasts 994
treating 994
corresponds 994
dei 994
Gift 994
dryer 994
saf@@ 993
postponed 993
oured 993
astic 993
IBM 993
Mount 993
enforced 992
cure 992
factories 992
Medical 992
zzo 992
shes 991
publi@@ 991
lay@@ 991
negoti@@ 991
updating 991
grat@@ 991
End 991
spra@@ 991
panorama 991
modular 991
catalog 991
overseas 990
generates 990
mot@@ 990
aults 990
harmonise 990
Dri@@ 990
solo 990
polis 990
conve@@ 989
appalling 989
Russians 989
lical 989
earnings 989
tivities 989
identi@@ 989
remo@@ 989
Sri 988
accomplished 988
advocates 988
vals 988
Meas@@ 988
Institu@@ 988
dark@@ 988
pesticides 988
Vit@@ 988
backup 988
vague 987
grace 987
chers 987
chart 987
experiment 987
broadband 987
popularity 987
bis@@ 987
opp@@ 987
Tem@@ 987
Banquet 987
dropped 986
accoun@@ 986
vent@@ 986
Airconditioning 986
Mir@@ 985
infection 985
establishments 985
magazines 985
Lab@@ 985
ecommerce 985
fair@@ 985
proofed 985
educated 984
coastline 984
recur@@ 984
Balkan 984
Ir@@ 984
CS@@ 984
esta 984
biofuels 984
Cin@@ 984
Comple@@ 984
Tel 984
substitute 983
Basi@@ 983
05@@ 983
Large 983
lining 983
pling 983
mounting 983
Captain 983
gui@@ 982
dened 982
expects 982
Pur@@ 982
ethics 982
indul@@ 982
Zealand 982
dying 982
omm@@ 982
night@@ 982
swi@@ 982
ected 982
materi@@ 981
devote 981
emphasises 981
wheels 981
din@@ 981
reward 981
boys 981
judiciary 980
teenth 980
commission@@ 980
judged 980
archives 980
Mar 980
Arctic 980
File 980
guitar 980
verification 979
predictable 979
escap@@ 979
alia 979
mail@@ 979
Learning 979
coating 979
dently 978
C4 978
violated 978
Initiative 978
auction 978
oasis 978
irresponsible 977
Still 977
worthwhile 977
Competition 977
sus 977
EG@@ 977
uniqu@@ 977
verified 977
10th 977
vi 977
ali 977
Advanced 977
favor 977
stret@@ 976
mild 976
mountain@@ 976
placement 976
Universal 976
Milosevic 976
enced 976
Bot@@ 976
13th 976
Game 976
autom@@ 976
SDL 976
construc@@ 975
severely 975
failures 975
red@@ 975
dev@@ 975
attending 975
anim@@ 975
Likewise 975
aul@@ 975
individu@@ 975
righ@@ 975
purchases 975
Hand@@ 975
dev 975
bio 974
milit@@ 974
rous 974
competitions 974
ř@@ 974
jun@@ 973
nationality 973
vers@@ 973
Elec@@ 973
Division 973
deter@@ 972
abolished 972
optimistic 972
Far 972
flood 972
gg@@ 972
1980s 972
intensity 972
adapting 971
excluding 971
Plat@@ 971
protein 971
organ@@ 971
locate 971
Os@@ 971
Darfur 971
Buyer 971
tanks 970
accommod@@ 970
fest 970
cus@@ 970
Directors 970
nationalism 970
promptly 970
stretch 970
Seville 970
ellers 970
Drive 970
loud 969
barely 969
wholeheartedly 969
fiable 969
feeding 969
networking 969
FR@@ 968
Wol@@ 968
servatory 968
mails 968
regi@@ 968
marble 968
rel 967
typ@@ 967
iring 967
designing 967
tank 967
Ski 967
concluding 966
brilliant 966
Any@@ 966
graphy 966
zia 966
sixth 965
dest@@ 965
dish 965
block@@ 965
6th 965
kar@@ 965
lei@@ 965
A3@@ 965
nightlife 965
LED 965
multiannual 964
recommends 964
coupled 964
Tibetan 964
architect 964
Blo@@ 964
closest 964
ario 964
Deb@@ 964
Lounge 964
ested 963
acks 963
pper 963
CP 963
lings 962
anno@@ 962
civilisation 962
consultants 962
phenomena 962
hosted 962
COD 961
denom@@ 961
alistic 961
exported 961
thir@@ 961
alter@@ 961
deterioration 961
architects 961
cool@@ 961
stainless 961
notify 960
Has 960
posting 960
flower 960
hil@@ 960
haz@@ 960
å@@ 960
CO 960
V. 960
entails 959
respec@@ 959
recep@@ 959
likewise 959
footing 959
scandal 959
locked 959
ć 959
weak@@ 958
Fourthly 958
privilege 958
sided 958
folk 958
screens 958
Help 958
Auto@@ 958
organizing 958
sectoral 957
submitting 957
awaiting 957
mou@@ 957
misleading 957
resident 957
blin@@ 957
contribut@@ 957
onal 957
Sin@@ 957
9001 957
chains 956
competing 956
io 956
thwest 956
additives 956
cour@@ 956
quet 956
drag 955
gratitude 955
exert 955
Israelis 955
free@@ 955
Dem@@ 955
Source 955
monopolies 954
suspect 954
mutually 954
bac@@ 954
seller 954
birthday 954
consul@@ 953
urged 953
ires 953
use@@ 953
blow 953
uncertain 953
Rein@@ 953
disparities 952
bulk 952
ör@@ 952
transl@@ 952
Sax@@ 952
ue 952
plot 952
fulfil@@ 951
heav@@ 951
trage@@ 951
imag@@ 951
destroying 951
descriptions 951
pets 951
aesthetic 951
vor 951
simpler 950
uphold 950
erup@@ 950
burn 950
multitude 950
7th 950
Chem@@ 950
Bus 950
Venezuela 949
dient 949
ik@@ 949
iss@@ 949
sons 949
licensing 949
rum 949
journ@@ 949
merchan@@ 949
past@@ 949
FC 949
tranquil 949
encouragement 948
ref@@ 948
rises 948
eda 948
tie 948
resear@@ 948
Ear@@ 948
mac@@ 948
Bonn 948
distances 947
cially 947
dom 947
wonder@@ 947
wash@@ 947
somehow 947
radioactive 947
accurately 947
influences 947
Goals 947
privati@@ 947
understands 946
sustain 946
ranking 946
motivation 946
occup@@ 946
occurring 945
unequi@@ 945
geable 945
laim@@ 945
tasty 945
Š@@ 945
refreshing 944
yea 944
Play 944
humili@@ 943
remark 943
unite 943
acute 943
ached 943
scop@@ 943
Mach@@ 943
06@@ 942
1986 942
tune 942
merit 942
rigid 942
corrected 942
sy 942
terrain 942
formali@@ 942
successor 942
alle 942
Syn@@ 942
ologi@@ 942
TM 942
Enter 942
BS 942
crash 941
confront 941
ners 941
possess 941
condemnation 941
desert 941
Bou@@ 941
abortion 941
gency 941
stal@@ 941
sciences 941
Pon@@ 940
lawyer 940
embry@@ 940
chaos 940
exceeded 940
expresses 940
organis@@ 940
lit@@ 940
bond 940
Bau@@ 940
forbidden 940
GM 940
sage 940
conceived 939
Currency 939
Monte 939
proph@@ 939
exhaus@@ 938
submission 938
sl@@ 938
vocal 938
sensi@@ 938
matching 938
deliveries 938
lling 938
Installation 938
Production 938
bridges 937
inherent 937
thick 937
Istanbul 937
disability 937
anymore 937
Level 937
episode 937
frozen 937
reiter@@ 936
variations 936
anne@@ 936
recruitment 936
density 936
Sah@@ 936
GR@@ 936
sensors 936
Intel 936
stipul@@ 935
achiev@@ 935
olds 935
void 935
D. 935
lihood 934
lacks 934
grav@@ 934
economists 934
contradic@@ 934
commissioned 934
arities 934
bre 934
Publi@@ 934
gentle 934
subsidiaries 934
metro@@ 934
adhere 933
comitology 933
univers@@ 933
oming 933
bottle 933
Nav@@ 933
trace 933
host@@ 933
towels 933
shipment 932
varieties 932
exercises 931
Accordingly 931
mankind 931
incredibly 931
passive 931
home@@ 931
ava 931
cky 930
NGL 930
sex@@ 930
aver@@ 930
assemb@@ 930
Nord 930
destabili@@ 930
elli@@ 930
Railway 930
adjacent 929
gering 929
xenophobia 929
motto 929
speeds 929
ka@@ 929
sich 929
PER@@ 929
SD 929
theater 929
KG 929
distortion 928
jeopardi@@ 928
dable 928
servants 928
genic 928
fathers 928
nick@@ 928
minibar 928
stran@@ 927
VE 927
pes 927
template 927
lush 927
administrations 926
utes 926
evenings 926
springs 926
reproductive 926
Mich@@ 926
SL@@ 926
fier 926
Palacio 925
cane 925
attracted 925
emplo@@ 925
impressed 925
techn@@ 925
zo 925
Type 925
tram 925
CL@@ 925
antique 925
personalized 925
internally 924
casting 924
Ford 924
axis 924
Baroness 924
SH@@ 924
anybody 923
Canadian 923
persistent 923
fen@@ 923
disappointment 923
ison 923
Super 923
moratorium 923
Hot@@ 923
inte@@ 923
ATION 923
avec 922
ature 922
Holland 922
illu@@ 922
moul@@ 922
Tuscany 922
Esp@@ 922
о@@ 922
capita 921
time@@ 921
diam@@ 921
assu@@ 921
pass@@ 921
defect 921
lit 921
jk 921
seaf@@ 921
spark@@ 921
mani@@ 920
offences 920
Jan 920
inability 920
celebration 920
Kir@@ 920
е 920
administrator 919
favoured 919
flora 919
Scientific 919
happ@@ 919
ei 919
disc 919
Learn 919
tful 918
deta@@ 918
ticism 918
exclu@@ 918
wearing 918
fici@@ 918
purchaser 918
screen@@ 918
pump 918
Word 918
expecting 917
ineffective 917
timber 917
Respon@@ 917
experimental 917
Local 917
tus 917
Mes@@ 917
therap@@ 917
orient@@ 916
undermining 916
gle@@ 916
injured 916
phases 916
municipality 916
salaries 916
positioned 916
.The 916
courtyard 916
halls 916
а@@ 916
calculations 915
sentences 915
CD@@ 915
abolish 914
restoring 914
CFSP 914
shaping 914
soli@@ 914
tissue 914
С@@ 914
nam@@ 913
deprived 913
140 913
Almost 913
outs@@ 913
1,000 913
ector 913
fleets 913
solarium 913
shores 912
matched 912
utable 912
trau@@ 912
indicating 912
horri@@ 912
contracting 912
seeds 912
300@@ 912
mill 912
dimensional 912
boutique 912
chapters 911
lav@@ 911
spot@@ 911
suspend 911
eme@@ 911
discou@@ 911
backdrop 911
Kno@@ 911
studios 911
Thai 911
EV@@ 911
postp@@ 910
appropri@@ 910
interpret 910
secular 910
conception 910
reformed 910
echo@@ 910
14th 910
trendy 910
fel@@ 910
Mand@@ 910
fabulous 910
.ch 910
locating 909
live@@ 909
stered 909
finger 909
Cuban 909
ologists 909
dealer 909
robots 909
distur@@ 908
foreseen 908
ulated 908
termination 908
sudden 908
tends 908
ssi@@ 908
trigger 908
therapeutic 908
Düsseldorf 908
Sant 908
CAD 908
LAN 908
nbsp 908
Customs 907
cot@@ 907
Sab@@ 907
1987 907
DI 907
recreational 907
Sports 907
dan 907
drawings 907
assumes 906
ech@@ 906
minors 906
eggs 906
Ale@@ 906
Ironing 906
photographer 906
bookings 906
sel 905
varies 905
thly 905
Jacques 905
writers 905
appoint 904
Fif@@ 904
thirdly 904
reflecting 904
Mit@@ 904
£ 904
eva 904
confused 903
approxim@@ 903
seasonal 903
mature 903
dealers 903
recreation 903
endo@@ 903
refund 903
lot@@ 903
eti@@ 903
Rock 903
RI 903
Sup@@ 902
modernis@@ 902
Father 902
esa 902
ames 902
zen 902
bikes 902
exagger@@ 901
ô@@ 901
harsh 901
nia 901
Back 901
IL 901
basin 901
exer@@ 901
explanatory 900
subsidy 900
storm 900
scienti@@ 900
emotions 900
incomplete 900
succ@@ 900
kin@@ 900
Kat@@ 900
confined 899
anch@@ 899
compan@@ 899
gor@@ 899
arily 898
Bet@@ 898
Copyright 898
acid 898
Ry@@ 898
API 898
anna 898
scan 898
awa@@ 897
Taking 897
tongue 897
strations 897
jan 897
arre@@ 897
pa 897
dur@@ 897
zy@@ 897
unclear 896
dare 896
deregulation 896
zoom 896
3.0 896
petition 895
sement 895
tier 895
conven@@ 895
lity 895
Nazi 895
1985 895
Gri@@ 895
chronic 894
Arabia 894
Watch 894
charging 894
Tal@@ 894
Hin@@ 894
simulation 894
forcing 893
remit 893
swift 893
approaching 893
ees 893
ae 893
tica 893
Five 892
mittedly 892
frankly 892
Ga@@ 892
Olympus 892
stimulating 891
applicants 891
dependency 891
manu@@ 891
Commerce 891
diameter 891
yards 890
opposing 890
exemplary 890
stant 890
immer@@ 890
zy 890
wins 890
ua 890
aren 890
interfere 889
defen@@ 889
serv@@ 889
encryption 889
Cast@@ 889
Gothic 889
realization 889
atility 888
lifetime 888
likes 888
360 888
acqu@@ 887
rus@@ 887
weaker 887
contradictory 887
omp@@ 887
G20 887
jazz 887
erti@@ 886
Maybe 886
Anim@@ 886
Prof. 886
specification 885
populated 885
Works 885
echo 885
recognising 885
resume 885
inserted 885
redundant 884
sit@@ 884
merits 884
qualitative 884
bom@@ 884
dian 884
Police 884
Bavaria 884
Gau@@ 884
Auth@@ 884
Karl 883
accessing 883
norms 883
Arch@@ 883
José 883
arisen 882
Though 882
earmarked 882
schol@@ 882
ec 882
Malaysia 882
fireplace 882
Computer 882
inau@@ 881
GBP 881
steady 881
particip@@ 881
p.@@ 881
sor 881
ino@@ 881
lengthy 880
weaken 880
flags 880
Kinnock 880
persec@@ 880
Sand@@ 880
nau@@ 880
Black@@ 880
у@@ 880
insecurity 879
passage 879
ato@@ 879
draftsman 879
extract 879
mixing 879
Vic@@ 879
anning 879
atics 879
promotional 879
cup 879
fabrics 879
requesting 878
aked 878
infected 878
stle 878
linear 878
fortress 878
anian 878
yl 878
path@@ 878
buil@@ 878
Back@@ 878
critics 877
Fol@@ 877
pen 877
peac@@ 877
CF@@ 877
electorate 877
DR 877
REACH 877
critici@@ 877
LateRooms.com 877
simplifying 876
rable 876
rum@@ 876
owe 876
murdered 876
1945 876
peti@@ 876
Bill 876
chal@@ 876
Ok@@ 876
Francisco 876
ceful 875
1.2 875
Basque 875
threatens 875
multinationals 875
cken 875
obligatory 875
infin@@ 875
scenarios 875
altered 875
aran 875
11@@ 875
geomet@@ 875
enchanting 875
Cour@@ 875
Quark 875
teeth 874
prejudice 874
unded 874
nov@@ 874
Verts 874
rocks 874
EST 874
Tarifa 874
transi@@ 873
foreigners 873
facto 873
coin 873
vegetation 873
ind@@ 873
optimization 873
filed 872
caution 872
intermediate 872
masters 872
captured 872
fairs 872
occasionally 871
alert 871
assuming 871
federation 871
adju@@ 871
vocation 871
pluralism 871
iti 871
slave 871
Cit@@ 871
Up@@ 871
Available 871
GT@@ 871
func@@ 870
modi@@ 870
participant 870
generic 870
Whenever 870
bli@@ 870
licenses 870
IR 870
Metro 870
Panasonic 870
predecessor 869
Lou@@ 869
sacrifice 869
flour@@ 869
balancing 869
Scottish 869
pet 869
translators 869
UM@@ 869
viewer 869
Der 869
containers 868
fro@@ 868
fast@@ 868
acres 868
undermined 868
Daniel 868
ech 868
в@@ 868
investigated 867
Europa 867
rejecting 867
strip 867
Eurostat 867
documentary 867
Excellent 867
versatile 867
Queen 867
ê@@ 867
codi@@ 866
differing 866
disappointing 866
prostitution 866
chil@@ 866
brigh@@ 866
Official 865
methodology 865
eric 865
ure@@ 865
correc@@ 864
adop@@ 864
symptoms 864
cooperating 864
smoothly 864
picked 864
Harbour 864
rical 864
credited 863
virtue 863
anticip@@ 863
acity 863
rali@@ 863
Starting 863
Cou@@ 863
tut@@ 863
animation 863
Neighbourhood 863
gladly 862
fines 862
earliest 862
Tan@@ 862
incoming 862
straightforward 862
learnt 862
Sound 862
Tokyo 862
Smith 862
sexu@@ 862
traceability 861
refuge 861
parliamentarians 861
authoritarian 861
og@@ 861
Slovenian 861
proprietary 861
copper 861
vention 860
wood@@ 860
eks 860
swiftly 860
cow 860
Dur@@ 860
nets 860
shapes 860
news@@ 860
rest@@ 860
highlighting 859
expec@@ 859
eses 859
nat@@ 859
orange 859
Built 859
assisted 858
colourful 858
govern@@ 858
business@@ 858
Phot@@ 858
Adjustment 858
mentioning 857
Exc@@ 857
fairness 857
Albanian 857
cocktail 857
harmonization 857
Play@@ 857
binary 857
instruction 856
insofar 856
pec@@ 856
oun@@ 856
pered 856
incompatible 856
coup 856
fet@@ 856
Review 856
Hal@@ 856
Application 856
zza 856
William 856
anonymous 855
plu@@ 855
dish@@ 855
sic 855
ologist 855
enthusiastic 855
oils 855
promenade 855
Regions 854
stipulated 854
privatisation 854
Various 854
banning 854
thread 854
prefer@@ 854
bananas 854
bank@@ 854
conversation 854
Ali@@ 854
laundry 854
ext@@ 853
Fir@@ 853
ank 853
entirety 853
let@@ 853
Rou@@ 853
forecast 853
vacc@@ 853
sick 853
husband 853
Direct 853
Shanghai 853
cht 853
Relax 853
criticise 852
recital 852
Nowadays 852
sof@@ 852
wer@@ 852
SL 852
indicator 851
linen 851
positioning 851
deposits 851
toll 851
ova 851
Get@@ 851
onia 851
Renaissance 851
py@@ 851
ik 851
Inv@@ 851
Boh@@ 851
GU@@ 851
intermedi@@ 850
Follow 850
ä@@ 850
ago@@ 850
Price 850
Classic 850
investor 849
Key 849
supposedly 849
Democrat 849
manages 849
chips 849
nan@@ 849
orph@@ 849
stro 849
recourse 848
Jordan 848
ool 848
fund@@ 848
ions 848
Tam@@ 848
longest 848
seating 848
survi@@ 847
cir@@ 847
Brazilian 847
ordin@@ 847
agreeing 847
ILO 847
veto 847
Ele@@ 847
monastery 847
ave 847
icons 847
Ros@@ 847
kon@@ 847
т@@ 847
tv 847
distortions 846
onwards 846
somebody 846
professionalism 846
transferring 846
interrupted 846
thetic 846
mentation 846
honor 846
ultra@@ 845
exercised 845
altern@@ 845
Hitler 845
corrupt 845
hang 845
Purch@@ 845
ados 845
refusing 844
rendered 844
steep 844
po 844
Bern@@ 844
GE 844
B.@@ 844
broke 843
foreseeable 843
repe@@ 843
eco@@ 843
diff@@ 843
ont 843
Gate 843
one@@ 843
fulfill 843
reforming 842
fting 842
rolled 842
deri@@ 842
Hy@@ 842
round@@ 842
Mugabe 842
judgments 842
FA@@ 842
onds 842
any@@ 842
Connec@@ 842
hitherto 841
protocols 841
claiming 841
Cz@@ 841
Inclu@@ 841
motiv@@ 841
supplying 841
149 841
spor@@ 841
Adri@@ 841
tiles 841
Frontex 841
s.com 841
essors 840
Bul@@ 840
slot 840
discounts 840
scann@@ 840
Ibiza 840
Apache 840
Sound@@ 840
substantive 839
Wel@@ 839
rations 839
Conciliation 839
manipulation 839
gifts 839
Key@@ 839
berger 839
rooted 838
neutrali@@ 838
salary 838
Supreme 838
donations 838
Motor@@ 838
Dar@@ 838
optimize 838
gourmet 838
breaches 837
jump 837
continu@@ 837
cand@@ 837
nel 837
Provence 837
hath 837
Communities 836
princip@@ 836
gur@@ 836
lifted 836
emph@@ 836
accelerate 836
cloning 836
Particip@@ 836
Das 836
assass@@ 835
unilater@@ 835
destructive 835
college 835
excessively 835
consciousness 835
embar@@ 835
prevailing 835
Eli@@ 835
HR 835
Past@@ 835
ith 835
enta 835
prosperous 834
postpone 834
dium 834
Proc@@ 834
hydraulic 834
Monitoring 834
ks@@ 834
columns 834
Coun@@ 834
W. 834
sadly 833
modern@@ 833
qualify 833
Throughout 833
vir@@ 833
Around 833
jury 833
peaks 833
pas 832
Clinton 832
dans 832
wet 832
Cy@@ 832
console 832
ENT@@ 832
Days 832
Century 831
Bla@@ 831
letting 831
rich@@ 831
Prince 831
magical 831
Garda 831
politician 830
seal 830
ekeeping 830
mercury 830
ront 830
bench@@ 830
regulators 830
lov@@ 830
conduc@@ 830
Sky 830
Got@@ 830
Machine 830
bomb 829
stadt 829
recordings 829
chef 829
Initi@@ 829
Ty@@ 829
tec 829
Premium 829
400@@ 828
courageous 828
circles 828
reconcile 828
embark@@ 828
reunification 828
Wo@@ 828
fridge 828
agi@@ 828
Len@@ 828
remembered 827
hops 827
histori@@ 827
cataly@@ 827
domains 827
desires 827
commodities 827
ig 827
Bundes@@ 827
elles 827
HS 827
Concerning 826
bili@@ 826
found@@ 826
harmonious 826
inspectors 826
suspicion 826
realisation 826
vation 826
CAR@@ 826
chron@@ 826
fashionable 826
sz@@ 826
sten 825
hereby 825
risen 825
happiness 825
ority 825
mechan@@ 825
govern 825
Mod@@ 825
dispat@@ 825
continents 825
kingdom 825
forti@@ 825
exhibitors 825
advoc@@ 824
Chair 824
abstract 824
fifty 824
adver@@ 824
Cambodia 824
operative 824
Es 824
expressions 824
impa@@ 824
TC 824
Pul@@ 824
warn 823
brown 823
consultancy 823
DG 823
delightful 823
RS 823
valleys 823
tern@@ 822
Did 822
surveys 822
offensive 822
wns 822
sul@@ 822
Naples 822
pumps 822
bets 822
Steel 821
detrimental 821
advocated 821
tolerate 821
usable 821
refrain 821
mentions 821
fruitful 821
suicide 821
cosmetic 821
Prot@@ 821
Regi@@ 821
europ@@ 821
delight 820
absent 820
comprising 820
deliberate 820
Already 820
Santiago 820
pupils 820
surf 820
dynamics 819
stamp@@ 819
proactive 819
petrol 819
Oslo 819
ho 819
ssa 819
emen 819
Studies 819
rez 819
kov@@ 819
tub 819
4,@@ 819
Audio 819
EGF 819
Antonio 818
amaz@@ 818
friendship 818
incorporating 818
cans 818
DIN 818
german 818
oth@@ 817
yours 817
aten 817
HT@@ 817
publicity 816
prob@@ 816
underlined 816
constituents 816
chen@@ 816
ttably 816
unexpected 816
Kirk 816
hoc 815
instruc@@ 815
neg@@ 815
werden 815
ousness 815
sens@@ 815
eld 815
Tex@@ 815
laptop 815
Little 814
Countries 814
fauna 814
affili@@ 814
Freedoms 814
underway 814
Assi@@ 814
copying 814
jack@@ 814
prizes 814
traces 814
temple 814
PRO 814
gent@@ 814
catastrophe 813
Surely 813
overla@@ 813
plastics 813
Wat@@ 813
childhood 813
SW@@ 813
attentive 812
tones 812
spices 812
traders 812
neighbour 812
four@@ 812
hatred 812
frontier 812
determines 812
connects 812
etch 812
iny 812
entail 811
Stock 811
1979 811
asty 811
stries 811
uli@@ 811
CM@@ 811
DNA 811
informing 810
CNS 810
withstanding 810
stabilisation 810
employer 810
evaluating 810
outlook 810
G8 810
ane@@ 810
oven 810
GO 810
intuitive 810
Date 810
suspected 809
SIS 809
questionable 809
ministerial 809
Lar@@ 809
seam@@ 809
molec@@ 809
appealing 808
Nuclear 808
Lev@@ 808
empire 808
interoperability 808
accesses 808
Hop@@ 807
prehen@@ 807
None 807
expor@@ 807
age@@ 807
Beg@@ 807
cap 807
Rad@@ 806
synthetic 806
intellec@@ 806
sty 806
adhe@@ 806
Cubase 806
obstruc@@ 805
benefited 805
unification 805
dle 805
collectively 805
ctions 805
ceilings 805
cel 805
5,@@ 805
Top@@ 805
bow@@ 805
playground 805
FREE 805
diversification 804
ake 804
fr@@ 804
fat@@ 804
dict 804
wasn 804
pts 804
ě@@ 804
margins 803
gle 803
Ful@@ 803
insisted 803
pensioners 803
450 803
hop 803
cellar 803
RAM 803
demo 803
relatives 802
enda 802
powder 802
slaughter 802
derivatives 802
duced 802
ja@@ 802
itiner@@ 802
utely 801
professions 801
prosecution 801
Gender 801
sson 801
institutes 801
chas@@ 801
lag@@ 801
occupational 801
part@@ 800
reinforcing 800
DF 800
mediation 800
Ecofin 800
frontiers 800
scho@@ 800
bow 800
key@@ 800
share@@ 800
engineer 799
premature 799
packing 799
sity 799
sequ@@ 799
exporting 799
Collection 799
successive 798
cautious 798
administ@@ 798
Jacuzzi 798
dentally 797
eleven 797
enthusiasts 797
Try 797
cave 797
tired 797
ring@@ 797
Sir 797
Cop@@ 797
Alber@@ 797
bei 797
triple 797
May@@ 797
yacht 797
HD@@ 797
12th 797
Tools 797
TION 797
Eurex 797
renovation 796
patience 796
infringements 796
readily 796
ough 796
kne@@ 796
rant 796
Upper 796
multilingual 796
Photo 796
thematic 795
organisational 795
gues 795
Chernobyl 795
ann 795
poorly 795
patented 795
pel@@ 795
shoe 795
sentenced 794
drastic 794
laundering 794
strengthens 794
prem@@ 794
Bed@@ 794
unchanged 794
edges 794
Mak@@ 794
Meg@@ 794
strasse 794
objection 793
approving 793
handic@@ 793
Directorate 793
ender 793
weakened 793
rul@@ 793
holdings 793
derogation 793
idyllic 793
delic@@ 793
grows 793
olo 793
Championship 793
LAN@@ 793
lea@@ 792
outlin@@ 792
strengths 792
stimul@@ 792
explaining 792
mobilisation 792
Aires 792
disarmament 792
Andreas 792
ret 792
aboard 792
Cala 792
sister 791
presum@@ 791
behave 791
seriousness 791
feld 791
Frattini 791
SSL 791
subordin@@ 790
influential 790
dismantling 790
awaits 790
arc@@ 790
rus 790
Buenos 790
logos 790
Kenya 790
switching 790
blend 790
68@@ 790
alizing 790
simpli@@ 789
acqui@@ 789
trucks 789
tap 789
venues 789
FOR@@ 789
FS 789
abide 788
perc@@ 788
judgement 788
Maritime 788
illustrate 788
isol@@ 788
dozens 788
carriage 788
offence 788
writes 788
combinations 788
Kit@@ 788
aya 788
imply 787
forefront 787
Gran@@ 787
Perspective 787
cyn@@ 787
Limited 787
coloured 787
acies 787
prisons 787
Mexican 787
Near 787
pipe 787
Bell@@ 787
ALL 787
quo 786
chant 786
mali@@ 786
manipul@@ 786
precondition 786
Managing 786
Lanzarote 786
drop@@ 785
warned 785
allocate 785
Chapter 785
attributed 785
breakthrough 785
metre 785
neglected 785
imprisoned 785
1984 785
sat 785
anded 785
celebrations 785
Laeken 785
SMS 785
Gam@@ 785
scenic 785
anticipate 784
underp@@ 784
absor@@ 784
Cav@@ 784
Water@@ 784
lucky 784
creatures 784
econom@@ 784
leverage 784
Patri@@ 784
holy 784
encrypted 784
Ker@@ 784
Gold@@ 784
horny 784
intolerable 783
unsatisfactory 783
curious 783
remuneration 783
exceeds 783
religions 783
Techn@@ 783
anding 783
M. 783
beginners 783
manship 782
Aid 782
ambigu@@ 782
assy 782
fishery 782
honey 782
copy@@ 782
attributes 782
Consulting 782
pixels 782
Cairo 781
reflec@@ 781
breath 781
font 781
optimism 780
Shar@@ 780
demic 780
copied 780
Hill 780
phi@@ 780
cio 780
els@@ 780
tabling 779
Sit@@ 779
revise 779
incapable 779
tch 779
tag@@ 779
Peru 779
elect 779
emer@@ 779
Basic 779
resses 779
juice 779
Lei@@ 779
rebuild 778
discrepan@@ 778
hoods 778
peninsula 778
communicated 778
inventory 778
conformity 778
vil 778
Pil@@ 778
Fat@@ 778
signat@@ 777
pit 777
Van@@ 777
scores 777
priced 777
dou@@ 777
Yugoslav 777
Diam@@ 777
Winter 777
FAQ 777
gates 776
aph@@ 776
Hum@@ 776
bration 776
thrust 775
evalu@@ 775
hypocrisy 775
inciner@@ 775
disadvantages 775
disproportionate 775
urity 775
ket 775
0.0 775
10,000 775
zi 775
MM@@ 775
agen@@ 774
Speed 774
conductor 774
bedding 774
disturbing 773
exemp@@ 773
exercising 773
Paragraph 773
pron@@ 773
envel@@ 773
discre@@ 773
sym@@ 773
brothers 773
ASEAN 773
ATA 773
sie 773
completeness 773
snack 773
RES@@ 773
deple@@ 772
worn 772
Sahara 772
truck 772
excav@@ 772
you@@ 772
lis 772
brochure 772
Lido 772
YOU 772
С 772
predict 771
odds 771
precarious 771
Property 771
petitions 771
Hau@@ 771
ratings 770
understand@@ 770
radically 770
pet@@ 770
Premier 770
reas@@ 770
young@@ 770
historically 770
sharply 770
ICE 770
obe@@ 770
ima@@ 770
guest@@ 770
suggesting 769
enligh@@ 769
tee 769
gher 769
Journal 769
peculi@@ 769
egoti@@ 769
forge 769
Abu 769
Mary 769
frequ@@ 769
ý 769
IO 769
kitchenette 769
thei@@ 768
Rus@@ 768
reminds 768
outbreak 768
iner 768
Euros 768
Cube 768
informations 768
accredi@@ 767
woo@@ 767
Love 767
GM@@ 767
exemptions 766
gestion 766
swim 766
abstain 766
recei@@ 766
scape 766
biking 766
consuming 765
turally 765
deepening 765
enrich@@ 765
Equality 765
comprehen@@ 765
Pierre 765
lean 765
clearing 765
calculate 765
lah 765
Prices 765
idity 765
mari@@ 765
millennium 764
spar@@ 764
accu@@ 764
nowhere 764
stup@@ 764
Personally 764
auer 764
confron@@ 764
Companies 764
realm 764
rier 764
junior 764
amo 764
preview 764
0.000 764
xx 764
ration@@ 763
analysed 763
gesture 763
redundancies 763
trium@@ 763
famili@@ 763
extensions 763
monument 763
IK@@ 763
coa 763
impor@@ 763
tournaments 763
Stay 763
Tool 763
champion 762
forgetting 762
dedication 762
INTER@@ 762
stock@@ 762
immune 762
dot@@ 762
nominated 762
jer@@ 762
Magic 762
reassure 761
ECHO 761
observer 761
rally 761
consequ@@ 761
deposi@@ 761
refin@@ 761
ank@@ 761
Juan 761
slope 761
Son@@ 761
emails 761
architec@@ 761
р@@ 761
lesser 760
thou@@ 760
Dun@@ 760
Sici@@ 760
Anna 760
castles 760
paraly@@ 760
tastes 760
counters 760
Fun@@ 760
Beauty 760
VER@@ 760
enth@@ 760
Belar@@ 760
Store 760
steering 759
compile 759
corners 759
assembled 759
dissemin@@ 759
bes@@ 759
isons 759
milestone 758
Commun@@ 758
distingu@@ 758
cluster 758
1960 758
depar@@ 758
royal 758
cone 758
neck 758
Ron@@ 758
Customers 758
composer 758
En 758
LateRooms 758
terri@@ 757
loose 757
assisting 757
odi@@ 757
constra@@ 757
violate 757
xing 757
profitability 757
confrontation 757
beliefs 757
cratic 757
Recent 757
atically 757
iger 757
Run@@ 757
monitors 756
Ps 756
inate 756
lamps 756
triggered 756
attack@@ 756
complain 756
Bak@@ 756
Berlusconi 756
ever@@ 756
bree@@ 756
d.@@ 756
menting 755
celebrating 755
aired 755
transmit 755
fresh@@ 755
vens 755
brush 755
embo@@ 755
exhaust 755
Stu@@ 755
Pit@@ 755
Jackson 754
steadily 754
striving 754
glance 754
tioners 754
lun@@ 754
lingu@@ 754
ku@@ 753
illumin@@ 753
beg@@ 753
atro@@ 753
cham@@ 753
eman@@ 753
sos 753
builds 753
beverages 753
struggling 753
Self 753
Sul@@ 753
Inst@@ 753
cocktails 753
Wales 752
worsen@@ 752
overlook 752
allowances 752
associate 752
restricting 752
aforementioned 752
grass@@ 752
relocation 752
ilers 752
performs 752
ITY 752
wasted 751
Gol@@ 751
liberties 751
11th 751
Kol@@ 751
е@@ 751
aids 750
veri@@ 750
contaminated 750
counterparts 750
warnings 750
EURO@@ 750
fru@@ 750
Nobody 750
habits 750
atoes 750
malaria 750
Tourist 750
hybrid 750
bor 750
welding 750
pp 750
advisable 749
illustrated 749
touches 749
Avi@@ 749
Pop@@ 749
employs 749
tural 749
retreat 749
loyalty 749
shoot 749
Wine 749
Sz@@ 749
cookie 749
sind 749
endeav@@ 748
impacts 748
ager 748
aters 748
towers 748
Mercedes 748
zur 748
obli@@ 747
Erika 747
aric 747
arest 747
explosion 747
extraction 747
distri@@ 747
Republi@@ 747
receiver 747
analyze 747
vigilant 746
rests 746
Regulations 746
Watson 746
assign 746
yourselves 746
196 746
Itali@@ 746
0.5 746
Prix 746
Print 746
Barnier 745
ailing 745
..... 745
winds 745
engaging 745
ampli@@ 745
spheres 744
benefiting 744
racist 744
reck@@ 744
cription 744
deduc@@ 744
1970s 744
egg 744
PCs 744
volunteers 743
frustr@@ 743
prescri@@ 743
cial 743
empt 743
enjoyment 743
2.2 743
tuals 743
Orchestra 743
All@@ 743
fen 743
partitions 743
Conservative 742
liter@@ 742
outcomes 742
attaches 742
trillion 742
vous 742
normali@@ 742
Often 742
climb 742
wellbeing 742
Clo@@ 742
depression 742
Kin@@ 742
compression 742
sky@@ 742
Course 742
couldn 742
templates 742
rentals 742
Mess@@ 741
san 741
disregard 741
invented 741
schi@@ 741
geographic 741
liqui@@ 741
clean@@ 741
Leg@@ 741
Excel 741
AKVIS 741
sid 741
misuse 740
grip 740
tting 740
complying 740
foo@@ 740
heaven 740
Sus@@ 740
oling 740
ush@@ 740
galax@@ 740
coat 740
Reader 740
inquiries 739
devast@@ 739
Others 739
challenged 739
haul 739
tail 739
rain@@ 739
grapes 739
Active 739
tastefully 739
9th 739
ION 739
viability 738
sail 738
Beyond 738
grasp 738
buyers 738
eira 738
durable 738
tancy 738
unk 738
plant@@ 738
IF 738
Swoboda 737
cofinancing 737
Leonardo 737
notable 737
archaeological 737
casts 737
mann@@ 737
recipe 737
beginn@@ 737
Governments 737
Cape 737
Klaus 737
fa 737
compressed 737
1967 736
embrace 736
Bolkestein 736
associ@@ 736
cens@@ 736
sacred 736
rian 736
8th 736
orts 735
Turning 735
ecting 735
1978 735
1975 735
roll@@ 735
beta 735
UPS 735
massages 735
Alternatively 734
wealthy 734
worries 734
public@@ 734
tar 734
farmer 734
Ethiopia 734
has@@ 734
interviews 734
ceramic 734
cozy 734
workable 733
proceeding 733
observ@@ 733
supranational 733
underlines 733
forwarded 733
inters 733
ogra@@ 733
crafts 733
oping 733
bra 733
seventh 732
ped@@ 732
injuries 732
35@@ 732
ges@@ 732
memorable 732
л@@ 732
utterly 731
stopping 731
correctness 731
disgu@@ 731
Azerbaijan 731
laun@@ 731
terminals 731
Mercosur 731
ston 731
CC@@ 731
esti@@ 731
Create 731
brake 730
focal 730
scour@@ 730
arose 730
precau@@ 730
senses 730
edy 730
Avenue 730
authorization 730
frameworks 729
disclosure 729
spokes@@ 729
depri@@ 729
attendance 729
breakdown 729
oppression 729
mortality 729
culmin@@ 729
urable 729
arch 729
vors 729
Cash 729
ignor@@ 728
entrusted 728
1.1 728
Kre@@ 728
mir@@ 728
eval 728
upgraded 728
iel@@ 728
zen@@ 728
az 728
showers 728
ject 727
upgrading 727
readiness 727
3000 727
summits 727
pocket 727
mir 727
CIA 727
discovering 727
Poly@@ 727
Name 727
Kam@@ 727
Outlook 727
platz 727
cture 726
derogations 726
formulate 726
imbalance 726
selective 726
otic 726
acre 726
appliances 726
eph@@ 726
Alpha 726
betting 726
vot@@ 725
sponsored 725
sacrific@@ 725
reconc@@ 725
Mass@@ 725
fixes 725
Bali 725
assert 724
ety 724
emin@@ 724
twentieth 724
seize 724
eag@@ 724
paramount 724
Algarve 724
Channel 724
1950 724
femin@@ 724
sunshine 724
Night 724
tif 724
PS@@ 724
Send 724
shipped 723
wan 723
balances 723
strugg@@ 723
innov@@ 723
palm 723
berry 723
gas@@ 723
singing 723
len 723
Victoria 723
,00 723
prohibition 722
assurances 722
Soci@@ 722
desperate 722
mask 722
ancest@@ 722
Every@@ 722
Viol@@ 722
leng@@ 722
tox@@ 722
bollah 722
Georgian 722
Ji@@ 722
adjustable 722
Oil 721
totalitarian 721
Major 721
tali@@ 721
Bavarian 721
rape 721
spatial 721
umes 721
policymakers 721
disorders 721
queu@@ 721
informative 721
ento 721
vy 720
corporation 720
reminder 720
ça 720
ishment 720
injustice 720
laboratories 720
Design@@ 720
iser 720
Fire 720
Musi@@ 720
Venetian 720
kindly 719
child@@ 719
Overall 719
consi@@ 719
onn@@ 719
Exclu@@ 719
curi@@ 719
6,@@ 719
DL@@ 719
Tor 719
vivi@@ 718
gically 718
Cham@@ 718
alysts 718
dali@@ 718
rough 718
geni@@ 718
retailers 718
Platform 718
volunte@@ 718
tum@@ 718
folders 718
Maison 718
Starfleet 718
representations 717
Mid@@ 717
precedence 717
occupying 717
communic@@ 717
Ce@@ 717
recipes 717
Us 717
Merkel 717
browsing 717
incomprehensible 716
condemning 716
Collec@@ 716
lla 716
Sciences 716
Fur@@ 716
Tuscan 716
mistaken 715
dation 715
bombs 715
appointments 715
traded 715
accusations 715
preferential 715
Granada 715
warmth 715
ih@@ 715
ción 715
Seventh 715
scanner 715
cam 715
perpetrators 714
bon 714
reciproc@@ 714
Panel 714
assortment 714
straße 714
veterinary 713
illustrates 713
comparative 713
strain 713
illnesses 713
pipes 713
basi@@ 713
journeys 713
Jer@@ 713
bass 713
interpre@@ 712
Independent 712
dancing 712
36@@ 712
watch@@ 712
iles 712
hit@@ 712
inu@@ 712
Baden 712
simplicity 712
seasons 712
mare 712
speedy 711
MAR@@ 711
allowance 711
opted 711
cheap@@ 711
etta 711
clou@@ 711
Gl@@ 711
Tat@@ 711
Manhattan 711
Sky@@ 711
balconies 711
decor 711
fulfilment 710
promotions 710
chem@@ 710
scrip@@ 710
stuck 710
crowd 710
cereals 710
slogan 710
Pope 710
depend@@ 710
loop 710
Var@@ 710
5,000 710
odic 709
weakening 709
marvellous 709
umbrella 709
Cel@@ 709
editorial 709
disclose 709
Belgrade 709
perform@@ 709
invention 709
Adam 709
café 709
Lic@@ 709
J. 709
buff@@ 709
recogni@@ 709
proving 708
uranium 708
repressive 708
fixing 708
ear 708
stepping 708
teen@@ 708
emo@@ 708
Att@@ 708
cod 708
Typ@@ 708
Emer@@ 708
visi@@ 708
anton 708
motors 708
Tob@@ 707
deficiencies 707
agne 707
professor 707
tained 707
cry 707
Ama@@ 707
terminate 707
hub 707
esh 707
publisher 707
ans@@ 707
Deep 707
Tyrolean 707
travel@@ 707
unrealistic 706
exhau@@ 706
ym@@ 706
cryp@@ 706
commerci@@ 706
Cotonou 706
passwords 706
specialties 706
FTP 706
stru@@ 705
amper 705
consumed 705
horizon 705
vaccination 705
impunity 705
FO@@ 705
Aviation 705
&apos;E@@ 705
deliberations 704
Jon@@ 704
appeals 704
ï@@ 704
Consul@@ 704
Partners 704
Solar 704
zip 704
Barack 704
ML 704
appro@@ 703
manoeuvre 703
literary 703
ø@@ 703
feeds 703
cha@@ 703
assistants 703
dless 703
faithful 703
And@@ 703
Vis@@ 703
S.A. 703
Vision 703
weekends 703
volcanic 703
CH 703
inflic@@ 702
loop@@ 702
dissemination 702
spirits 702
aca 702
similarly 702
harvest 702
expan@@ 702
ored 702
gene 702
kin 702
astronom@@ 702
Points 702
ebook 702
Editor 702
climatic 701
testi@@ 701
disagreement 701
Beh@@ 701
asion 701
targeting 701
lug@@ 701
sulph@@ 701
DH@@ 701
nik 701
.000 701
Majorca 701
Hz 701
Log@@ 701
restraint 700
dead@@ 700
symboli@@ 700
nationalist 700
disciplines 700
discourse 700
take@@ 700
drama 700
lac@@ 700
000@@ 700
handy 700
ARE 700
airspace 699
Gothenburg 699
wick@@ 699
ér@@ 699
compress@@ 699
Bluetooth 699
suspi@@ 698
geopolitical 698
planted 698
assent 698
Easter 698
pression 698
atis@@ 698
ported 698
additionally 698
photographic 698
Tab@@ 698
Classi@@ 698
jects 697
demon@@ 697
protectionist 697
1976 697
tended 697
decommission@@ 697
iz 697
appreci@@ 697
practise 697
opponent 697
esse 697
eful 697
Deutschland 697
Base 697
MAN@@ 697
emphasized 697
vised 696
accelerated 696
iners 696
view@@ 696
Keep 696
repository 696
commemor@@ 696
particles 696
disman@@ 695
peripher@@ 695
mercy 695
TEN@@ 695
Produc@@ 695
mobilise 695
Rwand@@ 695
Fel@@ 695
gene@@ 695
politan 695
enlar@@ 694
rush 694
wrong@@ 694
sional 694
repeti@@ 694
lie@@ 694
low@@ 694
TB 694
impul@@ 694
advertisements 694
actu@@ 694
Km 694
attain 693
guardian 693
approached 693
reactors 693
describing 693
chy 693
FF@@ 693
simultaneous 693
Person@@ 693
Soft 693
controversy 692
rendering 692
honoured 692
controllers 692
lectures 692
cleaner 692
Cs 692
sponsor@@ 692
Johannesburg 692
Australian 692
Christ@@ 692
bou@@ 692
Moh@@ 692
Officer 692
omas 692
Vor@@ 692
BE 692
Ast@@ 691
Tom 691
Lama 691
cited 691
Oli@@ 691
hero@@ 691
energe@@ 691
Patent 691
Ly@@ 691
vern@@ 691
inal 691
alla 691
i.e 691
vente 691
Submitted 691
sighted 690
vitally 690
Low 690
eu 690
Pir@@ 690
rt 690
tter 690
Son 690
Dre@@ 690
interiors 690
Poettering 689
Agricultural 689
Remember 689
catches 689
infring@@ 689
duplication 689
Parking 689
fairer 688
applause 688
applaud 688
unresolved 688
pilgri@@ 688
rings 688
cosmetics 688
aly@@ 688
mortgage 688
Terminal 688
Marbella 688
Lamanites 688
Red@@ 687
displaying 687
floating 687
intervals 687
Presiden@@ 687
ete 687
conceivable 687
twi@@ 687
Pau@@ 687
Province 687
legs 687
Camp 687
browse 687
Temple 687
BM@@ 687
Groups 686
summar@@ 686
differs 686
este@@ 686
hearings 686
physically 686
rewards 686
emble 686
wich 686
photograph 686
athletes 686
Fab@@ 686
Lanka 685
acknowledges 685
Men 685
overcoming 685
assignment 685
tant 685
Uz@@ 685
dirty 685
span 685
cers 685
Ten 685
activation 685
ICT 685
graduate 685
growers 685
genes 685
OP@@ 685
thickness 685
nach 685
forty 684
supplemented 684
prompted 684
Associ@@ 684
streams 684
ras@@ 684
maternity 684
lends 684
hair@@ 684
occupy 684
finger@@ 684
stairs 684
Too 683
entrepreneurship 683
ulsion 683
epidemic 683
plying 683
IA@@ 683
sto 683
tubes 683
photographers 683
guys 683
Visual 683
Mozilla 683
flexi@@ 682
censure 682
pornography 682
wned 682
exempt 682
statistic 682
Fine 682
pockets 682
Head@@ 682
issu@@ 682
BL@@ 682
wap 682
Oracle 682
incorporation 681
elaborate 681
feit 681
Der@@ 681
thic 681
rays 681
ree 681
sqm 681
witnessing 680
endeavours 680
1982 680
ridiculous 680
pav@@ 680
cils 680
ika 680
CFP 680
ats@@ 680
planes 680
Wolfgang 680
workflow 680
thee 680
omis@@ 679
scandalous 679
staff@@ 679
Euratom 679
cake 679
Stri@@ 679
mond 679
prim@@ 679
denial 679
hits 679
add@@ 679
Free@@ 679
travelers 679
corro@@ 678
station@@ 678
coexistence 678
prov@@ 678
saves 678
dynamism 678
Intel@@ 678
pitch 678
cation 678
I.@@ 678
charts 678
directories 678
adidas 678
effec@@ 677
gely 677
bills 677
midnight 677
unspo@@ 677
Boli@@ 677
Awards 677
Tech 677
TER@@ 677
stric@@ 676
Syrian 676
provo@@ 676
ow@@ 676
puri@@ 676
tories 676
emia 676
etal 676
ander 676
obsolete 676
shirt 676
essi@@ 676
TE@@ 676
proxy 676
Fed 676
machining 676
sq@@ 676
Vall@@ 675
stamp 675
intoler@@ 675
proportionality 675
dictator 675
intact 675
recipients 675
degra@@ 675
culosis 675
amen@@ 675
EE@@ 675
Qui@@ 675
quiet@@ 675
zum 675
adapter 675
lowering 674
backwards 674
dging 674
timet@@ 674
bies 674
eradication 674
Ages 674
mati@@ 674
fabri@@ 674
plasma 674
organizational 674
Newsletter 674
Radi@@ 673
Franz 673
nut 673
custo@@ 673
Share 673
Mun@@ 673
municipalities 672
useless 672
evolved 672
anxious 672
trusted 672
recovered 672
glory 672
strings 672
Siena 672
accompli@@ 672
contractors 672
zzle 672
cultivated 672
Essen 672
chap@@ 672
excursion 672
declining 672
theatres 672
Café 672
No. 671
Recomm@@ 671
Bremen 671
stepped 671
urely 671
dose 671
counterfeiting 671
Six 671
valuation 671
bey 671
weg 671
presses 671
brochures 671
Superior 671
Lun@@ 671
modernization 671
proportions 670
Lower 670
hanging 670
dubious 670
PVC 670
aker 670
Americ@@ 670
ulty 670
sey 670
128 670
pdf 670
Arrival 670
leap 669
Generally 669
crossed 669
authentic@@ 669
atorial 669
Money 669
2.1 669
missile 669
mirrors 669
Number 669
crats 668
provinces 668
Natura 668
Andalu@@ 668
goodwill 668
aga 668
het 668
Knowledge 668
privately 668
True 668
mix@@ 668
mins 668
boosting 667
inspec@@ 667
Kremlin 667
panic 667
tely 667
Senate 667
Sustainable 667
fest@@ 667
pled 667
Karel 667
moist@@ 667
70@@ 667
Rol@@ 667
cz 667
ING@@ 667
bap@@ 666
communism 666
pubs 666
24th 666
Armenia 666
trap 666
Trading 666
unter@@ 666
bankruptcy 666
tico 666
cinem@@ 666
merger 665
tax@@ 665
Hav@@ 665
attri@@ 665
TA@@ 665
Former 665
aggression 665
Let@@ 665
ade@@ 665
But@@ 665
insulation 665
Sard@@ 665
boutiques 665
Castell@@ 665
NOR@@ 665
marina 665
Guaran@@ 664
Frank@@ 664
regain 664
ulations 664
cables 664
extrem@@ 664
Nat@@ 664
142 664
Coordin@@ 664
responsibly 664
quer@@ 664
lamp 664
Bei@@ 664
analog 664
assistant 663
distributing 663
fix@@ 663
belts 663
Important 663
allo 663
1960s 663
1983 663
C6 663
U.@@ 663
Text 663
robot 663
UV 663
scru@@ 662
sures 662
repa@@ 662
wheel@@ 662
slip 662
resu@@ 662
extensively 662
Better 662
brave 662
alcoholic 662
waiver 662
ideals 662
cast@@ 662
dice 662
Canal 662
printers 662
inn 662
USE 662
dus 661
anxiety 661
card@@ 661
passionate 661
Som@@ 661
peer 661
Verona 661
Chicago 661
orship 661
legend 661
ACE 661
allet 661
gi 661
UM 661
0,@@ 661
ı@@ 661
к@@ 661
Tau@@ 660
tactics 660
deeds 660
disputed 660
neglect 660
facilitates 660
infections 660
conflic@@ 660
secrecy 660
beam 660
mies 660
Swi@@ 660
fibre 660
Cru@@ 660
Frank 660
shifting 659
enormously 659
arrogan@@ 659
spiral 659
excise 659
tices 659
ren 659
Pass 659
diagra@@ 659
Ent@@ 659
д@@ 659
neighbors 659
inspire 658
revitali@@ 658
chie@@ 658
gements 658
doctrine 658
nose 658
Bil@@ 658
kidn@@ 658
contradictions 658
realism 658
nt 658
keywords 658
treasures 658
tasting 658
Palazzo 658
DJ 658
м@@ 658
CPU 658
adjour@@ 657
provisional 657
gay 657
safeguarded 657
Making 657
incorporates 657
sequences 657
processors 657
Virtual 657
za@@ 657
fon@@ 657
infra@@ 656
170 656
logging 656
ourcing 656
after@@ 656
stim@@ 656
SPA 656
diagno@@ 656
ü@@ 656
а 656
Entertainment 656
english 656
reign 655
repeating 655
interpreters 655
destined 655
radic@@ 655
predicted 655
Sakharov 655
Ten@@ 655
bell 655
narro@@ 655
Histor@@ 655
Visa 655
acoustic 655
cornerstone 654
Serbs 654
bubble 654
ophi@@ 654
delines 654
shire 654
Posselt 654
helicopter 654
1.3 654
SV@@ 654
Electronic 654
ovi@@ 654
Edit 654
username 654
Rimini 654
viewpoint 653
lessness 653
apologise 653
jeopardis@@ 653
risky 653
strust 653
categor@@ 653
institution@@ 653
predominantly 653
terminology 653
ache 653
basket 653
igrant 653
microph@@ 653
newer 653
Certi@@ 653
â 653
Ideal 653
Equal 652
Lor@@ 652
ignoring 652
pollut@@ 652
mig@@ 652
Performance 652
winding 652
surprisingly 652
Auto 652
bans 652
caves 652
Fire@@ 652
emphasi@@ 652
compounds 651
intensify 651
legislators 651
agers 651
WHO 651
reciprocity 651
Succ@@ 651
1968 651
yn 651
brethren 651
manus@@ 651
patio 651
Conservatives 650
abor@@ 650
Never 650
heart@@ 650
intimid@@ 650
invisible 650
90@@ 650
arguing 650
Blan@@ 650
harv@@ 650
irrit@@ 650
best@@ 650
bottles 650
Sant@@ 650
kan@@ 650
dition 650
Zu@@ 650
renew 649
hedge 649
refuses 649
Champ@@ 649
coff@@ 649
bud@@ 649
democrats 649
banner 649
solvency 649
ition 649
fiction 649
ured 649
ase@@ 649
sail@@ 649
Edi@@ 649
IE 649
Ash@@ 649
Maj@@ 649
hike 649
cycli@@ 649
locals 649
Lodge 649
bour@@ 648
aton 648
prescribed 648
beforehand 648
doubled 648
unci@@ 648
dozen 648
reviewing 648
internation@@ 648
shelter 648
Clar@@ 648
referendums 648
clinic 648
cafes 648
upheld 647
rejects 647
standardisation 647
efully 647
forcement 647
hierarchy 647
extremists 647
PR 647
5.00 647
Fifth 647
Moroccan 647
implied 647
accomplish 647
gin 647
Translation 647
Movement 647
inia 647
tt 647
Mini 647
з@@ 647
accord 646
coordinator 646
relies 646
hostile 646
ott 646
fatal 646
analysing 646
versa 646
illusion 646
13.@@ 646
overwhel@@ 646
meas@@ 646
Monte@@ 646
like@@ 646
Gil@@ 646
gan 646
parish 646
ku 646
ather 646
UT 646
Made 646
sarge 646
pin@@ 645
percep@@ 645
overlooked 645
wil@@ 645
isc@@ 645
rede@@ 645
overlooks 645
ña 645
Hen@@ 645
Cont@@ 645
guy 645
Kim 645
н@@ 645
replied 644
edo 644
swing 644
disrup@@ 644
lobby@@ 644
physics 644
advertisement 644
tent 644
bered 644
cca 644
1930 644
Quartet 644
ml 644
traveling 644
tative 643
Progress 643
incidentally 643
FP@@ 643
prerog@@ 643
Events 643
220 643
shocks 643
semi@@ 643
Bab@@ 643
wi 643
revel@@ 643
Doctor 643
MD@@ 643
Petersburg 643
loung@@ 643
orchestra 643
wald 643
Ltd. 643
bitter 642
lics 642
formulation 642
acious 642
publishers 642
Sat@@ 642
slots 642
addic@@ 642
gun 642
balls 642
tsch@@ 642
hausen 642
apparatus 641
attacking 641
Main@@ 641
interpreting 641
nominal 641
spectac@@ 641
avoidable 641
Mei@@ 641
tops 641
fragmentation 641
dele@@ 641
odd 641
DVDs 641
tera 641
Sty@@ 641
Event 641
fortune 640
succe@@ 640
pos 640
Carlos 640
bad@@ 640
extradition 640
TU@@ 640
Gardens 640
harmonising 639
pir@@ 639
inhabited 639
wholesale 639
kat@@ 639
dio 639
FL@@ 639
scal@@ 639
php 639
legality 638
ament@@ 638
abri@@ 638
gru@@ 638
pregnant 638
perio@@ 638
Vir@@ 638
conv@@ 638
IRC 638
missible 637
undergoing 637
allegations 637
impressions 637
undeni@@ 637
125 637
yearly 637
gest@@ 637
Tony 637
mont 637
unk@@ 637
cas 637
hero 637
ographic 637
Benjamin 637
rad 637
exterior 637
neighbor@@ 637
neighborhood 637
HOTEL 637
kan 636
pronounced 636
restra@@ 636
Sixth 636
undergo 636
Roth 636
outdated 636
ander@@ 636
Cul@@ 636
fundamentalism 636
Emperor 636
cha 636
slides 636
UR 636
cz@@ 636
tutorial 636
browsers 636
musi@@ 636
Desktop 636
protagon@@ 635
orchest@@ 635
interpretations 635
adequ@@ 635
shame@@ 635
bear@@ 635
ado@@ 635
Sau@@ 635
Colom@@ 635
aler 635
Sharon 635
wid@@ 635
CAN 635
lag 634
Certain 634
mainstreaming 634
sorted 634
thumb 634
los@@ 634
investigating 634
asymmet@@ 634
honesty 634
rides 634
Unit 634
oll 634
RT@@ 634
gencies 634
Identi@@ 634
advent@@ 634
ark 634
wen@@ 634
admissible 633
mainland 633
decreased 633
repairs 633
quanti@@ 633
cart 633
lasts 633
favou@@ 633
open@@ 633
MEDA 633
county 633
seemingly 633
secretariat 633
elem@@ 633
bet@@ 633
î@@ 633
arom@@ 633
aka 633
Canaria 633
Emb@@ 633
zers 633
zer@@ 633
dread@@ 632
consolidating 632
laim 632
mainstream 632
benchmark 632
Nich@@ 632
squares 632
Sto@@ 632
Economy 632
Tax 632
1973 632
cruise 632
distributor 632
Que@@ 632
mathemati@@ 632
cann@@ 632
diagnostic 632
ef 632
ATE 632
Buil@@ 632
2014 632
civilization 632
elabor@@ 631
juris@@ 631
Galicia 631
ecosystems 631
eradicate 631
nai@@ 631
emerges 631
Workers 631
imprisonment 631
coupling 631
numer@@ 631
fired 631
ign 631
brut@@ 631
unbe@@ 631
Municip@@ 631
Angeles 631
Behold 631
Either 630
rotation 630
migratory 630
imminent 630
frustration 630
Approval 630
tention 630
Armen@@ 630
beneath 630
butter 630
Prop@@ 630
BE@@ 630
Brun@@ 630
constructions 630
izes 630
Camping 630
Ethernet 630
entrepreneurial 629
vigorously 629
spin 629
maturity 629
dam 629
dischar@@ 629
afford@@ 629
contexts 629
industrialised 629
get@@ 629
cultiv@@ 629
awak@@ 629
milli@@ 629
Stre@@ 629
distorted 629
arance 629
Early 629
avia 629
Tak@@ 629
iev@@ 629
Iron 629
debut 629
urban@@ 628
Numerous 628
resur@@ 628
mili@@ 628
unders 628
borrowing 628
Crete 628
slaugh@@ 628
exceeding 628
vendors 628
Ben 628
variant 628
disorder 628
chemistry 628
ovo 628
Color 628
VI@@ 627
undermines 627
lane 627
stre@@ 627
manufactures 627
redress 627
Stat@@ 627
toy 627
homeland 627
differ@@ 627
Airways 627
Lum@@ 627
Creative 627
Automatic 627
Estate 627
Messenger 627
transposed 626
alleviate 626
sounding 626
retaining 626
ghtful 626
Councils 626
persist 626
EDF 626
circu@@ 626
bury 626
sert 626
ISA 626
searches 626
declined 626
2.4 626
wheat 626
translator 626
ASA 626
housed 626
Dubai 626
Buy 626
Converter 626
Greater 625
oted 625
complies 625
interfer@@ 625
à@@ 625
administered 625
orities 625
slavery 625
1981 625
vaccines 625
tale 625
generator 625
consecutive 625
Burmese 625
stadium 625
Model 625
PCI 625
tivirus 625
supplements 624
annex 624
freeze 624
solic@@ 624
Mou@@ 624
conform 624
observing 624
protec@@ 624
verti@@ 624
NT 624
Link 624
Guantánamo 624
TP 624
Shuttle 624
PXI 624
taxpayer 623
fortunately 623
loyal 623
commun@@ 623
lady 623
tract 623
converter 623
defeated 623
abundance 623
Category 623
cryst@@ 623
loses 623
ozone 623
converting 623
pluses 623
handles 623
Manufac@@ 623
rom@@ 623
COM@@ 623
frigh@@ 622
standardis@@ 622
legislator 622
chann@@ 622
fluid 622
ebo@@ 622
extremism 622
march 622
preval@@ 622
Living 622
adventures 622
Commercial 622
talented 622
brick 622
iel 622
oric 621
harassment 621
concerted 621
parall@@ 621
dic 621
prote@@ 621
mos@@ 621
7,@@ 621
SK@@ 621
woody 621
HTTP 621
lasted 620
fertile 620
07@@ 620
critically 620
suppose 620
mighty 620
Junior 620
Somalia 620
Philippines 620
technicians 620
Mann 620
Fischer 620
pregnancy 620
leg 620
Volkswagen 620
delights 620
Castro 619
Total 619
enty 619
imagin@@ 619
quicker 619
whis@@ 619
deploy 619
conten@@ 619
aves 619
Eur@@ 619
Lady 619
riders 619
WiFi 619
ANY 619
reconsider 618
1.4 618
andum 618
assing 618
questioned 618
servant 618
otypes 618
Telec@@ 618
alties 618
Govern@@ 618
Pay@@ 618
Conver@@ 618
acquain@@ 618
Buch@@ 618
Malaga 618
meadows 618
Loc@@ 618
Comfort 618
Tool@@ 618
frank 617
transp@@ 617
bying 617
ener 617
warehouse 617
smuggling 617
Cypriot 617
Sum@@ 617
Cannes 617
Walter 617
scanning 617
Kil@@ 617
Spi@@ 617
det 617
Innsbruck 617
MIDI 617
blat@@ 616
think@@ 616
furnis@@ 616
crazy 616
ulist 616
nineteenth 616
anth@@ 616
than@@ 616
flooding 616
Impro@@ 616
committing 616
detained 616
hydrogen 616
gravity 616
2,000 616
unge@@ 616
absorption 616
Gy@@ 616
STE@@ 616
Tenerife 616
authentication 616
justifiable 615
essly 615
UEN 615
immigrant 615
responds 615
subsidis@@ 615
Vac@@ 615
dial@@ 615
hate 615
brie@@ 615
oo 615
theories 615
boot@@ 615
feasibility 614
vei@@ 614
assuring 614
Mayor 614
constituted 614
aquaculture 614
battle@@ 614
spel 614
Dev@@ 614
Sti@@ 614
NA 614
skiers 614
Gener@@ 613
mono@@ 613
secrets 613
testimony 613
bombing 613
byp@@ 613
versal 613
ican 613
payable 613
Map 613
Beautiful 613
zione 613
strategically 612
temptation 612
uphol@@ 612
Construction 612
shoul@@ 612
mind@@ 612
sponsors 612
switched 612
Medina 612
flats 612
icing 612
capitali@@ 612
Join 612
Blizzard 612
offen@@ 611
roo@@ 611
expectation 611
condu@@ 611
focus@@ 611
chro@@ 611
DO 611
dows 611
travels 611
1974 611
marketplace 611
telep@@ 611
Occ@@ 611
handi@@ 611
biomass 611
dividing 611
negli@@ 611
Integration 611
Berg@@ 611
utilization 611
baroque 611
Terra@@ 611
tsun@@ 611
Silver 611
и 611
fonts 611
TER 611
underwater 610
relying 610
afflic@@ 610
entit@@ 610
replies 610
confirming 610
concentrating 610
Henry 610
Ré@@ 610
ART 610
destiny 610
25.@@ 610
Mozart 610
imperialist 610
excitement 610
25th 610
ingo 610
Visitors 610
firewall 610
accomodation 610
treas@@ 609
command@@ 609
Stor@@ 609
wai@@ 609
bureau@@ 609
liberalism 609
Register 609
Was 609
myst@@ 609
Marine 609
originating 609
flowing 609
inventions 609
gens 609
arium 609
Grande 609
Kan@@ 609
Azur 609
catastrophic 608
emphasising 608
constructing 608
streaming 608
Kh@@ 608
funny 608
outlets 608
acking 608
align@@ 608
Set@@ 608
Kl@@ 608
doc@@ 608
enquiry 608
anten@@ 608
Zone 608
synergies 607
Continental 607
struction 607
Arafat 607
colli@@ 607
tom 607
Refu@@ 607
dically 607
Norwegian 607
Trans 607
recognizes 607
OM 607
Secure 607
tags 607
Princ@@ 607
Split 607
SLR 607
dense 606
exchanged 606
mach@@ 606
Human@@ 606
blank 606
meanwhile 606
proclaimed 606
buried 606
recover@@ 606
Ran@@ 606
fres@@ 606
Strategi@@ 606
eins 606
dell 606
Wher@@ 606
Players 606
Vin@@ 606
FT 606
Eurocopter 606
mergers 605
lish 605
Expl@@ 605
bizarre 605
priv@@ 605
Something 605
exhi@@ 605
aps 605
graph@@ 605
Müller 605
1500 605
éri@@ 605
Crus@@ 605
dine 605
Arc@@ 605
Facebook 605
deline 604
memor@@ 604
richest 604
preci@@ 604
veness 604
propri@@ 604
motives 604
amateur 604
Agreements 604
animated 604
catching 604
Pakist@@ 604
sortium 604
CN@@ 604
hr 604
drum 604
Phar@@ 604
ń@@ 604
congratul@@ 603
speculative 603
Chirac 603
racial 603
amounting 603
misunderstanding 603
enriched 603
battles 603
Added 603
Bangkok 603
reimbur@@ 603
vod@@ 603
gastronomy 603
Sofia 603
HI 603
Hat 603
imple@@ 602
embark 602
Ambassador 602
drought 602
eternal 602
SR 602
Manchester 602
democrati@@ 602
inspiring 602
squee@@ 602
casinos 602
Intro@@ 602
tuber@@ 602
Smart 602
angel@@ 602
gateway 602
Catalan 602
neuro@@ 602
PA@@ 602
Bangladesh 602
Zap@@ 602
pist@@ 602
Files 602
tana 602
LabVIEW 602
Blog 602
Simp@@ 601
centralised 601
spontane@@ 601
rulers 601
suffers 601
treats 601
ila 601
systemic 601
Scho@@ 601
tist 601
surprises 601
CP@@ 601
Combin@@ 601
wski 601
entertaining 601
Bahn 601
Portal 601
ст@@ 601
modem 601
torate 600
opport@@ 600
certainties 600
introduc@@ 600
Kazakhstan 600
phra@@ 600
conqu@@ 600
inos 600
Gibraltar 600
identities 600
Swe@@ 600
supportive 600
umer@@ 600
Mechan@@ 600
Tou@@ 600
Different 600
Pot@@ 600
addiction 600
addle 600
souven@@ 600
Stan@@ 600
IND 600
Seller 600
Sadly 599
professionally 599
Spec@@ 599
mentary 599
stroke 599
Albert 599
Andalusia 599
duplicate 599
Opening 599
etz@@ 599
essen 599
DE@@ 599
atar 599
Optim@@ 599
Photo@@ 599
legislat@@ 598
Consumers 598
transc@@ 598
fashi@@ 598
rewarded 598
14.@@ 598
angered 598
piracy 598
RA 598
aggregate 598
earning 598
Wit@@ 598
Military 598
Aut@@ 598
imposition 598
laimed 598
poultry 598
radar 598
Pass@@ 598
oak 598
Memory 598
Twitter 598
hell 597
FF 597
extraordinarily 597
bun@@ 597
absorb 597
agu@@ 597
consci@@ 597
antibiotics 597
subsidi@@ 597
arran@@ 597
kni@@ 597
cruel 597
plen@@ 597
rol 597
stling 597
borro@@ 597
Lithu@@ 597
subway 597
jacuzzi 597
desperately 596
shipbuilding 596
infan@@ 596
rey 596
abused 596
boast 596
prohibit 596
graduated 596
yar@@ 596
horn 596
championship 596
wilderness 596
Bay@@ 596
exhibits 596
Fitness 596
Lukas@@ 596
SCH@@ 596
SEO 596
transplan@@ 595
Essen@@ 595
shocked 595
han 595
voluntarily 595
landmark 595
theft 595
County 595
racle 595
ptions 595
garten 595
hardt 595
divor@@ 595
wag@@ 595
unic@@ 595
ault 595
DM@@ 595
Saf@@ 594
1977 594
norm 594
travelled 594
sponsor 594
tedly 594
fled 594
recomm@@ 594
hony 594
etto 594
aerospace 594
Friedrich 594
BAE 594
tide 593
reproduce 593
hall@@ 593
stretches 593
Od@@ 593
scratch 593
consume 593
Form 593
Port@@ 593
urging 592
Azo@@ 592
aligned 592
orable 592
Ultimately 592
wonders 592
misery 592
attracts 592
who@@ 592
lightweight 592
moun@@ 592
eventual 592
SME 592
rail@@ 592
communicating 592
cot 592
supermarket 592
butions 592
Bran@@ 592
disks 592
Rub@@ 592
scarcely 591
cleared 591
nuts 591
Thessaloniki 591
hosti@@ 591
Corbett 591
intri@@ 591
simil@@ 591
estim@@ 591
sad@@ 591
clin@@ 591
fittings 591
sear@@ 591
HE@@ 591
compromising 590
cite 590
jud@@ 590
eligibility 590
guards 590
Guatemala 590
merged 590
courtesy 590
exploiting 590
answering 590
tenden@@ 590
easiest 590
ore@@ 590
eager 590
betra@@ 590
hormon@@ 590
ego 590
Mini@@ 590
Cards 590
Payment 590
Realty 590
bei@@ 589
Seven 589
ensu@@ 589
shocking 589
bankers 589
questioning 589
yen 589
Bologna 589
invalid 589
MIN@@ 589
Nepal 589
reliably 589
Tit@@ 589
rhythm 589
Bec@@ 589
logged 589
matt@@ 589
fried 589
Oxford 589
corrections 588
pledge 588
peacefully 588
mysterious 588
Formula 588
scored 588
Alger@@ 588
bn 588
proo@@ 588
Books 588
efore 588
Unix 588
Seattle 587
ball@@ 587
jungle 587
capitals 587
seized 587
transfer@@ 587
Particularly 587
Angola 587
survived 587
yan 587
Alm@@ 587
utilisation 586
tled 586
unlawful 586
anony@@ 586
Taj@@ 586
differentiated 586
aspi@@ 586
maj@@ 586
onies 586
Cardiff 586
Whereas 586
restart 586
rolls 586
aro 586
Communications 586
editions 586
Perfect 586
Erasmus 586
Zak@@ 586
routing 586
unwind 586
sculp@@ 586
Theater 586
reluctant 585
richer 585
talents 585
enny 585
collapsed 585
illustration 585
ct 585
geneous 585
drain 585
digi@@ 585
Chad 585
trop@@ 585
grave@@ 585
dent@@ 585
offerings 585
Cancún 585
attribute 584
consultant 584
affiliated 584
pilots 584
sham@@ 584
ris 584
bonuses 584
Cot@@ 584
Stefan 584
BI@@ 584
enco@@ 584
SilverFast 584
syner@@ 583
succession 583
Current 583
identifies 583
choo@@ 583
Care 583
proceeds 583
ardo 583
Dell 583
defici@@ 583
Pension 583
advantageous 583
Statement 583
folding 583
oman 583
devised 583
flavour 583
possesses 583
lanes 583
smile 583
sunset 583
ken@@ 583
TU 583
Messe 583
install@@ 583
atile 582
nin@@ 582
Pom@@ 582
magnitude 582
will@@ 582
derive 582
marginal 582
RE 582
fraudul@@ 582
fei@@ 582
Brown 582
wed@@ 582
storing 582
ghs 582
Things 582
cook 582
picking 582
Turn 582
glacier 582
ader 582
sculptures 582
п@@ 582
Inc. 582
Deluxe 582
argues 581
egu@@ 581
vigorous 581
Franco 581
weigh 581
unwanted 581
Hab@@ 581
rav@@ 581
crafts@@ 581
INI 581
coding 581
canal 581
Package 581
Recovery 581
Imperial 581
clips 581
Hôtel 581
may@@ 580
lest 580
fluctuations 580
sper@@ 580
subtle 580
gastronomic 580
Prestige 580
orn 580
atings 580
Mario 580
microwave 580
Eng@@ 580
model@@ 580
wie 580
unauthorized 580
lemma 579
Prosec@@ 579
Tw@@ 579
compliant 579
occurrence 579
region@@ 579
complemented 579
teous 579
juven@@ 579
denying 579
IK 579
prestige 579
750 579
pelago 579
Sign@@ 579
gt 579
Yu@@ 579
zn@@ 579
ju 579
utting 578
oods 578
dealings 578
demonstr@@ 578
dominate 578
hob@@ 578
variation 578
Stephen 578
Indonesian 578
shade 578
premier 578
polar 578
validation 578
ë@@ 578
Table 578
Born 578
.NET 578
nen 577
Eurojust 577
noti@@ 577
Confederal 577
Put 577
neoliberal 577
analytical 577
Prec@@ 577
minerals 577
graph 577
potato 577
10.00 577
OL 577
henko 577
Instrument 577
Bene@@ 577
dedic@@ 576
floo@@ 576
ug@@ 576
Opportunities 576
Economics 576
aftermath 576
labelled 576
lecture 576
analo@@ 576
Pent@@ 576
aesthe@@ 576
ome@@ 576
disable 576
here@@ 576
painter 576
wall@@ 576
Settings 576
Texas 575
smell 575
reasoning 575
voiced 575
emit@@ 575
therhood 575
Ideally 575
cabinet 575
sits 575
filtration 575
som 575
dock 575
wash 575
Rab@@ 575
decorative 575
patches 575
Visi@@ 575
Photoshop 575
shifted 574
honest@@ 574
Fore@@ 574
flat@@ 574
ense 574
obsc@@ 574
contacted 574
traine@@ 574
medication 574
trig@@ 574
tare 574
kits 574
Tour@@ 574
cafés 574
PG 574
Func@@ 574
ula 574
aden 573
evolving 573
unused 573
signation 573
confusing 573
signi@@ 573
itations 573
Fourth 573
supermarkets 573
administrators 573
Magazine 573
08@@ 572
Rac@@ 572
XI 572
acquiring 572
militar@@ 572
CI@@ 572
uous 572
watched 572
circular 572
Invest@@ 572
guer@@ 572
rotating 572
Gaz@@ 572
rech@@ 572
Info 572
Arabic 572
chic 572
tet 572
Hot 572
philosophical 571
IMO 571
token 571
disappearance 571
Holding 571
slower 571
ae@@ 571
Lucerne 571
aki 571
uba 571
Shopping 571
Alp@@ 571
WAR@@ 571
Steinberg 571
Transpar@@ 570
visions 570
Fru@@ 570
Reding 570
Ala@@ 570
interact 570
drying 570
Way 570
gram@@ 570
tem 570
distill@@ 570
Lud@@ 570
Statisti@@ 570
lls 570
Baroque 570
Punta 570
Chap@@ 570
gau 570
Bath 570
probability 569
wondering 569
presiden@@ 569
Gas@@ 569
explosive 569
uss 569
harm@@ 569
Jarzembowski 569
thr@@ 569
ware@@ 569
journal 569
Links 569
Transfer 569
Sli@@ 569
personalised 569
enz 569
ThyssenKrupp 569
equilibrium 568
stres@@ 568
Establi@@ 568
upgra@@ 568
junction 568
Socrates 568
Jam@@ 568
degradation 568
dynam@@ 568
spic@@ 568
cigarettes 568
chat@@ 568
side@@ 568
oxygen 568
cerem@@ 568
Remo@@ 568
ben 568
refrigerator 568
über 568
standardized 568
Stand@@ 567
ferences 567
correspondence 567
Lomé 567
kick 567
ille 567
jar@@ 567
outskirts 567
Pel@@ 567
spect@@ 567
asts 567
Clin@@ 567
eler@@ 566
cleaned 566
infec@@ 566
cleansing 566
emble@@ 566
dio@@ 566
emotion 566
anta 566
apping 566
rat 566
traveller 566
teles@@ 566
carto@@ 566
them@@ 566
TW@@ 566
ò 566
antes 566
treasure 566
hyp@@ 566
lenses 566
Summary 566
holistic 565
allegedly 565
mayor 565
correspon@@ 565
paradig@@ 565
erosion 565
pum@@ 565
wings 565
prayer 565
eg 565
Ds 565
rounded 565
Ramblas 565
~ 565
Montreal 564
alis@@ 564
imperial 564
reproduced 564
utilities 564
tron@@ 564
clip 564
poster 564
zio 564
Marx 564
header 564
Engine 564
Original 564
Bic@@ 564
satisfying 563
competi@@ 563
jacket 563
Commons 563
wning 563
rebuilt 563
cyc@@ 563
hiding 563
charity 563
Friends 563
alig@@ 563
ota 563
refriger@@ 563
freezing 563
Provider 563
GI 563
oma 563
campsite 563
Lab 563
change@@ 562
iry 562
condem@@ 562
Cau@@ 562
dressing 562
Pad@@ 562
lled 562
Jac@@ 562
liberation 562
Individual 562
Argent@@ 562
Leh@@ 562
computing 562
Princip@@ 561
aug@@ 561
suit@@ 561
episodes 561
aly 561
crowded 561
indu@@ 561
exploration 561
nich@@ 561
invent@@ 561
Real@@ 561
Applications 561
Bern 561
Crist@@ 561
Equipment 561
Fr@@ 561
Reservations 561
D.@@ 561
ION@@ 561
Shine 561
investig@@ 560
registering 560
dis 560
even@@ 560
gently 560
Mongo@@ 560
guess 560
myth 560
combustion 560
Rica 560
executives 560
elegantly 560
Fro@@ 560
CAN@@ 560
plat@@ 560
half@@ 559
attachment 559
Multi 559
caps 559
Hollywood 559
vain 559
etti 559
extern@@ 559
offshore 559
cats 559
inas 559
LL@@ 559
orn@@ 559
tenth 559
witnesses 559
appren@@ 559
Prior 559
forwarding 559
Ann@@ 559
grin@@ 559
Sep@@ 558
benefici@@ 558
shipments 558
pole 558
thre@@ 558
tuning 558
disper@@ 558
intake 558
masses 558
beaten 558
desi@@ 558
certi@@ 558
existent 558
Origin@@ 558
After@@ 558
cogni@@ 558
Qaeda 558
Quali@@ 558
Residen@@ 558
cript 558
imaging 558
POR@@ 558
Infineon 558
Poverty 557
ose 557
sanitary 557
instrumental 557
traffi@@ 557
Marie 557
Annan 557
small@@ 557
draw@@ 557
aman@@ 557
hegemon@@ 557
follo@@ 557
Hospital 557
Consu@@ 557
visor 557
dispar@@ 556
commented 556
Alpes 556
guil@@ 556
sea@@ 556
Short 556
Retur@@ 556
lago@@ 556
anne 556
breed 556
fantasy 556
amidst 556
Florida 556
By@@ 556
Gott 556
й 556
remot@@ 555
Leban@@ 555
Iber@@ 555
oul 555
designation 555
Dest@@ 555
22@@ 555
Az@@ 555
voucher 555
gies 555
siveness 555
PK@@ 555
dul@@ 555
tras 555
Aar@@ 555
lich 555
favor@@ 555
critic@@ 554
electronically 554
navig@@ 554
vul@@ 554
Wallström 554
impres@@ 554
Wind@@ 554
colony 554
oter 554
Blu@@ 554
reme@@ 554
ities 554
1.6 554
dant 554
t.@@ 554
EOS 554
explored 553
boundary 553
epi@@ 553
bres 553
sensu@@ 553
arbit@@ 553
scattered 553
É@@ 553
rout@@ 553
configurations 553
switches 553
Neg@@ 553
1.0 553
aser 553
dal@@ 553
Lis@@ 553
lio 553
16.@@ 553
es.@@ 553
Gast@@ 553
albums 553
favorable 553
comprise 552
Cadiz 552
ouses 552
edt 552
AF 552
extinc@@ 552
ITS 552
2050 552
Heb@@ 552
coordinates 552
throu@@ 552
cav@@ 552
Complete 552
NT@@ 552
ettes 552
City@@ 552
addi@@ 551
additions 551
reimbursement 551
preferably 551
budge@@ 551
otage 551
accumulated 551
MP 551
pink 551
tian 551
cooked 551
tes@@ 551
sses 551
Integrated 551
offline 551
Return 551
Kas@@ 551
Porsche 551
TRA@@ 551
reluc@@ 550
lodge 550
scrut@@ 550
undergone 550
insights 550
cosmopolitan 550
ury 550
governor 550
eng 550
attor@@ 550
antine 550
registry 550
Core 550
vibration 550
Ner@@ 550
Zürich 550
malware 550
minimize 550
Bonus 550
feed@@ 549
Standards 549
candi@@ 549
Fern@@ 549
cock 549
Boo@@ 549
vulner@@ 549
Clean 549
Nar@@ 549
г@@ 549
uminum 549
rustic 549
ambiance 549
requi@@ 548
vings 548
Recon@@ 548
prolonged 548
voy 548
Dalai 548
gauge 548
tta 548
commer@@ 548
qui 548
Membership 548
Virgin 548
Chianti 548
stair@@ 547
worship 547
tricks 547
bloc 547
tending 547
embles 547
Tribunal 547
nicely 547
ony@@ 547
Sydney 547
VII 547
dise 547
hungry 547
Liechtenstein 547
Kri@@ 547
Options 547
atable 547
Mira@@ 547
vise 546
Treasury 546
stolen 546
Scandinavian 546
oration 546
onymous 546
poet 546
deplo@@ 546
sag@@ 546
ducing 546
satellites 546
defensive 546
Ny@@ 546
Sing@@ 546
sculpture 546
oph@@ 546
YouTube 546
ashed 545
thin@@ 545
Inci@@ 545
okes 545
noisy 545
3.2 545
Mission 545
rels 545
ason 545
muscles 545
ONE 545
Babysi@@ 545
originated 544
nels 544
gulf 544
2.6 544
dues 544
Buddhist 544
Fort@@ 544
Prac@@ 544
civi@@ 544
mud 544
cloud 544
modernity 544
Peninsula 544
cons 544
coated 544
Heidelberg 544
Dat@@ 544
convey@@ 544
cliffs 544
Dalmati@@ 544
enlarge 543
bordering 543
fai@@ 543
Afri@@ 543
joins 543
eland 543
cater 543
gible 543
portrait 543
Pay 543
eps 543
OS@@ 543
NO 543
Delta 543
Move 543
Accommodation 543
Brand 543
pixel 543
paradox@@ 542
bub@@ 542
Martini 542
ide 542
LIFE 542
compilation 542
preceding 542
broadcast@@ 542
Monaco 542
dor 542
Ski@@ 542
ра@@ 542
rele@@ 541
eux 541
PHARE 541
Sv@@ 541
Ferr@@ 541
lib@@ 541
Dum@@ 541
Traditional 541
ethanol 541
paste 541
salon 541
LIN@@ 541
farmhouse 541
hesi@@ 540
Genoa 540
bited 540
mits 540
Cohn 540
obs@@ 540
atmospheric 540
eme 540
hetero@@ 540
lighter 540
zin@@ 540
rocky 540
PO 540
wered 539
coasts 539
greg@@ 539
Europe@@ 539
TACIS 539
ego@@ 539
Coming 539
evacu@@ 539
æ@@ 539
curricul@@ 539
Bendit 539
occupies 539
fighters 539
Alzheimer 539
rev@@ 539
ckey 539
call@@ 539
Train 539
Hi 539
ASE 539
HC 539
Luxury 539
hist@@ 538
pol 538
akis 538
Iz@@ 538
corridors 538
retains 538
bishop 538
faction 538
Vladimir 538
sheer 538
Chris 538
Half 538
atomic 538
fort 538
AV 538
lab 538
prototype 538
shirts 538
lumin@@ 538
QuarkXPress 538
ELDR 537
105 537
renew@@ 537
nez 537
Exam@@ 537
athle@@ 537
CV@@ 537
aster 537
vic 537
Manuel 537
Physi@@ 537
clay 537
Quick@@ 537
Swimming 537
101 536
Gom@@ 536
terly 536
vity 536
helicopters 536
slow@@ 536
cigarette 536
Insurance 536
modal 536
sives 536
Governance 536
Delivery 536
herbs 536
trekking 536
Hannover 536
drome 535
apar@@ 535
posters 535
sliding 535
Harry 535
foam 535
Included 535
flair 535
conf 535
Atlan@@ 534
Liikanen 534
proportionate 534
quer 534
appearances 534
soccer 534
ee@@ 534
3,000 534
Defense 534
ANT@@ 534
touristic 534
α@@ 534
horror 533
communal 533
stere@@ 533
abundant 533
Uganda 533
Stop 533
cros@@ 533
LI@@ 533
versus 533
stom@@ 533
ECT 533
dec 533
blogs 533
Ec@@ 532
tari@@ 532
leaf@@ 532
fia 532
surround 532
0.1 532
oneself 532
Á@@ 532
Tai@@ 532
Ze@@ 532
Trop@@ 532
ismo 532
logs 532
Sle@@ 532
Bit@@ 532
Quarter 532
Č@@ 532
mware 532
Tennis 532
TNG 532
reti@@ 531
conci@@ 531
Bible 531
bias 531
glasses 531
tuous 531
RC 531
wr@@ 531
m. 531
Fam@@ 531
lodging 531
Football 531
fiers 531
ador 531
rented 531
chs 531
eno 531
Band 531
BB@@ 531
mana 531
SOL@@ 530
myth@@ 530
mistak@@ 530
birth@@ 530
remainder 530
clever 530
Conduc@@ 530
4.5 530
conversations 530
legi@@ 530
chens 530
Oomen 530
locking 530
bicycles 530
org 530
como 530
DEN@@ 530
Ankara 529
ld 529
injec@@ 529
durability 529
tioner 529
oro 529
Usually 529
muscle 529
Television 529
Cruz 529
hill@@ 529
wouldn 529
alto 529
fiber 529
CMS 529
attracting 528
Program@@ 528
integrates 528
editors 528
Commander 528
bir@@ 528
Feel 528
spells 527
Lamy 527
unas 527
8,@@ 527
Title 527
MS@@ 527
Christian@@ 527
Giovanni 527
etary 527
Def@@ 527
ett 527
BER@@ 527
Jazz 527
belonged 526
sab@@ 526
crafted 526
entran@@ 526
Always 526
Dear 526
patron@@ 526
Inside 526
Exp@@ 526
majestic 526
HER@@ 526
Gardena 526
Radisson 526
Palm 526
acon 525
2.3 525
Regar@@ 525
packs 525
Founded 525
Me 525
bandwidth 525
wery 525
cylinder 525
MB@@ 525
rad@@ 525
ERP 525
Mercure 525
wildlife 524
Rotterdam 524
vez 524
dow 524
refresh@@ 524
nos 524
tas 524
sica 524
flagship 524
Ein@@ 524
ces@@ 524
socket 524
Fas@@ 523
experim@@ 523
FT@@ 523
standardi@@ 523
pairs 523
exhibit 523
amid 523
pub 523
ionships 523
clicks 523
KO@@ 523
Oliver 523
sevent@@ 522
shield 522
provincial 522
prospective 522
erc@@ 522
Ach@@ 522
celeb@@ 522
sports@@ 522
oved 522
tempor@@ 522
genre 522
CSS 522
GNOME 522
ambots 522
ancho@@ 521
sligh@@ 521
fortunate 521
rega@@ 521
cide 521
115 521
Guil@@ 521
synthesis 521
absorbed 521
expl@@ 521
casual 521
Rail 521
apple 521
plateau 521
vas 521
Soli@@ 521
E.ON 521
-B4 521
XX@@ 520
Emp@@ 520
Vitorino 520
unbelie@@ 520
vendor 520
reve@@ 520
distra@@ 520
reserv@@ 520
geograph@@ 520
seafood 520
biomet@@ 520
implants 520
Catalunya 520
groves 520
OC@@ 520
storey 520
Script 520
inging 519
gmati@@ 519
whit@@ 519
Ander@@ 519
curve 519
Myanmar 519
Parties 519
Thir@@ 519
endi@@ 519
Ruijten 519
Test@@ 519
Sign 519
Ask 519
Dark 519
Angel@@ 519
01.@@ 519
rais@@ 518
quiries 518
bekistan 518
Hung@@ 518
eder 518
distinc@@ 518
Motion 518
til 518
Ple@@ 518
Week@@ 518
vineyard 518
moderni@@ 518
añ@@ 518
Graphi@@ 518
Surrounded 518
Need@@ 517
paradox 517
reform@@ 517
ommis@@ 517
beverage 517
Emplo@@ 517
kets 517
roller 517
fascin@@ 517
dunes 517
diabetes 517
30th 517
cafe 517
ICEcat 517
accord@@ 516
awar@@ 516
1969 516
Dé@@ 516
intim@@ 516
inhi@@ 516
glia 516
propag@@ 516
Scott 516
Bud@@ 516
backgrounds 516
locks 516
Registration 516
Mé@@ 516
friendliness 516
ius 516
Domin@@ 516
Them@@ 516
är@@ 516
Beau@@ 516
AB 516
ICA 516
INE 516
format@@ 516
mills 515
NGO 515
Experts 515
disturbed 515
fingers 515
Nag@@ 515
Imp@@ 515
Soon 515
situ@@ 515
UP 515
beau@@ 515
wird 515
Pum@@ 515
PayPal 515
reson@@ 514
sau 514
Kash@@ 514
3.1 514
tat 514
ahn 514
viewers 514
Mec@@ 514
allen 514
banqu@@ 514
tise 513
registers 513
carpet 513
sig@@ 513
hus@@ 513
pots 513
ington 513
T. 513
Veri@@ 513
Universi@@ 513
gram 513
fur 513
Istri@@ 513
lava 513
Assistance 512
eves 512
Tomorrow 512
Reference 512
gregation 512
15.@@ 512
Turin 512
owns 512
Lyon 512
tranquillity 512
franchise 512
Ferrero 512
Hou@@ 512
bacteria 512
sep@@ 512
Orange 512
mage 512
SN@@ 512
mmer 512
bee 512
ş@@ 512
τ@@ 512
RI@@ 512
MPEG 512
heed 511
Hilton 511
nomination 511
vies 511
recyc@@ 511
perfection 511
programmed 511
rak@@ 511
Re 511
subur@@ 511
Banking 511
rag@@ 511
portals 511
Kiev 511
cant@@ 511
WE 511
cc 511
ę@@ 511
Mode 511
plugins 511
Nephi 511
popul@@ 510
scri@@ 510
chn@@ 510
renees 510
100,000 510
Moder@@ 510
shades 510
001 510
Tuni@@ 510
orous 510
Stone 510
rhyth@@ 510
Details 510
DV@@ 510
Fis@@ 510
Jet 510
Vegas 510
Voyager 510
pulled 509
mathematical 509
preme 509
she@@ 509
lip 509
Vie@@ 509
ssi 509
Share@@ 509
ergonom@@ 509
Mail@@ 509
thouse 509
ior 508
declar@@ 508
republic 508
DB 508
Ali 508
pulse 508
Guard 508
psycho@@ 508
VA 508
AA 508
instructors 508
ceram@@ 508
Designed 508
tner 508
A6 508
Plas@@ 508
WordPress 508
scand@@ 507
elo@@ 507
mos 507
bb@@ 507
Conven@@ 507
Cypri@@ 507
trusion 507
Terror@@ 507
merge 507
navigate 507
donated 507
emis@@ 507
creations 507
discover@@ 507
fit@@ 507
38@@ 507
ouldn 507
Metal 507
Rose 507
loader 507
ficial 506
hem@@ 506
epide@@ 506
shar@@ 506
Lav@@ 506
lus@@ 506
aba 506
A1 506
stur@@ 506
hesit@@ 505
comprehensible 505
descri@@ 505
shop@@ 505
woven 505
kt@@ 505
Index 505
dinners 505
Rep@@ 505
anytime 505
glaci@@ 505
án@@ 505
Benz 505
asive 504
valu@@ 504
spac@@ 504
brus@@ 504
1972 504
Banks 504
veter@@ 504
eper 504
eline 504
ön@@ 504
BG 504
SERV@@ 504
Barón 503
sac@@ 503
assault 503
opath@@ 503
Catalonia 503
She@@ 503
drops 503
cottage 503
aco 503
transform@@ 503
stack 503
ranked 503
uta 503
Wes@@ 503
Astrium 503
ij 502
amoun@@ 502
Sei@@ 502
metallic 502
pad 502
Imagine 502
Langu@@ 502
Dy@@ 502
ress@@ 502
faç@@ 502
commanded 502
tima 502
Waldner 502
WW@@ 502
authorit@@ 501
Stream 501
uro 501
Alicante 501
vou@@ 501
Davi@@ 501
promin@@ 501
dictator@@ 501
compound 501
liers 501
secre@@ 501
bare 501
retary 501
ographi@@ 501
cient 501
Contr@@ 501
amin 501
oul@@ 501
stra 501
Brand@@ 501
FS@@ 501
Rent 501
Quick 501
Ligh@@ 501
artwork 501
Torre 501
Picard 501
tees 500
Strip 500
unpleasant 500
Dou@@ 500
irrelevant 500
ere@@ 500
remark@@ 500
graduates 500
Europ@@ 500
Lehne 500
aw 500
cler@@ 500
Klingon 500
league 499
nes 499
stan 499
wher@@ 499
rea 499
cardi@@ 499
nervous 499
tainment 499
captain 499
vet 499
doorstep 499
wled@@ 499
lash 499
Analysis 499
hood 499
eck@@ 499
pod@@ 499
Solution 499
Eiffel 499
L. 499
olin 499
Conveni@@ 499
hierarch@@ 498
EPP 498
5000 498
pseu@@ 498
cracy 498
rites 498
Brit@@ 498
Bour@@ 498
sticks 498
encoding 498
Administ@@ 498
Vati@@ 498
Analy@@ 498
kilomet@@ 498
CI 498
einen 498
Walking 498
Copy 498
Crespo 497
raft 497
carb@@ 497
Stalin 497
sterili@@ 497
B4 497
Simon 497
ATM 497
enclosed 497
scholars 497
pear@@ 497
Fair@@ 497
Metro@@ 497
Milano 497
communautaire 496
Leader 496
adly 496
trivi@@ 496
trick 496
cau@@ 496
rival 496
Moz@@ 496
ARC 496
mosa@@ 496
Progressive 496
Lom@@ 496
ées 496
vegetarian 496
Wolf 496
Week 496
AVI 496
TY 496
Expo 496
rooftop 496
barbecue 496
derly 495
mation 495
Alban@@ 495
igno@@ 495
Final 495
tice 495
sealed 495
ylene 495
Zagreb 495
aine 495
ow 495
Feli@@ 495
Twin 495
avian 495
tol@@ 495
NH 495
Copy@@ 495
colored 495
opho@@ 494
ongside 494
alien 494
Eth@@ 494
Lee 494
till@@ 494
Markets 494
Fan@@ 494
ii 494
Aero@@ 494
utt@@ 493
retariat 493
dding 493
excited 493
Leone 493
Kyi 493
pause 493
erie 493
embran@@ 493
ende 493
G. 493
Simple 493
E.@@ 493
Gh@@ 493
boots 493
liv@@ 493
IVE 493
Acrobat 493
Gene@@ 492
Böge 492
tionist 492
Resources 492
neys 492
scientist 492
tuary 492
naval 492
reachable 492
CRM 492
CNC 492
determin@@ 491
voir 491
alien@@ 491
restruc@@ 491
cohe@@ 491
Farm 491
Aus@@ 491
loves 491
compositions 491
Wri@@ 491
Ster@@ 491
inum 491
SIM@@ 491
Amon@@ 490
gst 490
gery 490
sent@@ 490
rogen 490
ICC 490
Coll@@ 490
dena 490
multilater@@ 490
roy@@ 490
Orthodo@@ 490
que@@ 490
tels 489
onents 489
hosp@@ 489
Flexi@@ 489
adol@@ 489
Interior 489
Daily 489
öl@@ 489
sili@@ 489
affiliate 489
Ech@@ 488
Isa@@ 488
erly 488
103 488
thresh@@ 488
opher 488
turbul@@ 488
Phil@@ 488
chest@@ 488
Sili@@ 488
Málaga 488
Nuremberg 488
Polo 488
Everest 488
45@@ 488
aber 488
slu@@ 487
ghters 487
Tanz@@ 487
fem@@ 487
beck 487
esting 487
Fixed 487
GO@@ 487
Route 487
Pisa 487
Miles 487
partment 487
MAN 487
³ 487
dup@@ 486
riad 486
voy@@ 486
vio 486
DEM 486
tu 486
mic 486
glam@@ 486
Yo@@ 486
Sach@@ 486
facade 486
Shops 486
sehr 486
más 486
Module 486
stron@@ 485
dau@@ 485
god 485
attrac@@ 485
Tut@@ 485
ons@@ 485
debit 485
unication 485
Olympics 485
Master@@ 485
ś@@ 485
stav@@ 485
Poker@@ 485
pon@@ 484
vintage 484
utop@@ 484
accom@@ 484
corn 484
formations 484
Nord@@ 484
ller 484
residen@@ 484
sender 484
Electric 484
actress 484
cached 484
occasional 483
crown 483
agan 483
Romans 483
1950s 483
meth@@ 483
Posi@@ 483
event@@ 483
gs@@ 483
1971 483
WA 483
node 483
durch 483
lear@@ 482
abulary 482
agra@@ 482
lash@@ 482
Ep@@ 482
oi 482
thers 482
Mare 482
musician 482
Linz 482
GUI 482
colorful 482
einem 482
sympath@@ 481
ounced 481
suppor@@ 481
aut@@ 481
tude 481
FTA 481
geb@@ 481
32@@ 481
lar 481
Ferrari 481
Evans 480
LT@@ 480
vigor@@ 480
effic@@ 480
eradic@@ 480
Prote@@ 480
arks 480
NE 480
wool 480
aux@@ 480
tte 480
Pun@@ 480
Mist@@ 480
este 480
Lufthansa 480
ów 480
Berg 479
monumental 479
Care@@ 479
ramp@@ 479
Tun@@ 479
pupp@@ 479
ardi@@ 479
PI 479
agn@@ 479
gir@@ 479
Archi@@ 479
tranquili@@ 479
fif@@ 478
fore 478
coast@@ 478
9.00 478
stes 478
massi@@ 478
Jack 478
Years 478
ventilation 478
mina 478
Delors 477
rigi@@ 477
24.@@ 477
Day@@ 477
spr@@ 477
petro@@ 477
Bangemann 477
dinal 477
dictionary 477
135 477
retired 477
Alexand@@ 477
noch 477
ERS 477
Cox 476
pon 476
fis@@ 476
elt 476
Sci@@ 476
Suu 476
sans 476
Release 476
rope 476
conveni@@ 476
pedition 476
Mr@@ 476
premiere 476
Work@@ 476
ype 475
pessimis@@ 475
volcano 475
mega 475
zh@@ 475
tite 475
García 475
Famili@@ 475
lover 475
styli@@ 475
org@@ 475
Adverti@@ 475
PNR 475
melo@@ 475
e. 475
elevator 475
Tours 475
wir 475
fort@@ 474
hydr@@ 474
Schi@@ 474
ESA 474
Students 474
thos 474
Document 474
af 474
Are@@ 474
Images 474
fountain 474
r.@@ 474
Walk 474
mysq@@ 474
YORK 474
12.00 473
develop@@ 473
Simil@@ 473
Subscri@@ 473
Fron@@ 473
inver@@ 473
Rehn 473
Abbas 473
sync 473
Traveller 473
sink 472
xen@@ 472
mort@@ 472
techno@@ 472
stitutes 472
aroma 472
azi@@ 472
Circle 472
gano 472
vom 472
debian 472
neighbour@@ 471
proportional 471
import@@ 471
help@@ 471
contin@@ 471
imperi@@ 471
mist@@ 471
vin 471
Am 471
TVs 471
Com 471
MI@@ 471
Battle 471
17.@@ 471
horse@@ 471
bine 471
Email 471
thering 470
Urban 470
imper@@ 470
Ric@@ 470
billi@@ 470
Shor@@ 470
1965 470
Fres@@ 470
amente 470
dispos@@ 469
ligent 469
E. 469
Step 469
poetry 469
TEC 469
Champs 469
spy@@ 469
inings 469
Terme 469
prerequi@@ 468
Rh@@ 468
populi@@ 468
monster 468
cover@@ 468
raid 468
ETA 468
missi@@ 468
Bah@@ 468
Operation 468
ssen 468
Ken@@ 468
gger 468
composite 468
kW 468
Run 468
ο@@ 468
TCP 468
kms 468
González 467
COS 467
erce 467
proxim@@ 467
timent 467
Wall@@ 467
curr@@ 467
Raf@@ 467
MAS 467
philos@@ 467
Ev@@ 467
Salvador 467
dden 467
alternate 467
ira 467
assign@@ 467
amins 467
C.@@ 467
ev 467
och 467
23rd 467
HA@@ 467
Lite 467
Delegation 466
Who@@ 466
Dal@@ 466
dot 466
assador 466
Autom@@ 466
Glob@@ 466
Schu@@ 466
occ@@ 466
Stein@@ 466
B6 466
120@@ 466
Coffee 466
Dubrovnik 466
BugTraq 466
São 465
Naz@@ 465
ould 465
dg@@ 465
ses@@ 465
Malmström 465
dents 465
trailer 465
uli 465
Lon@@ 465
Ray 465
bronze 465
phot@@ 465
Zar@@ 465
skis 465
kus@@ 465
flavours 465
Advisory 464
Represent@@ 464
genous 464
elly 464
sacrifi@@ 464
dil@@ 464
tail@@ 464
Satur@@ 464
Manual 464
Bristol 464
ZF 464
Challenge 464
ASPs 464
ALL@@ 464
abi@@ 463
iss 463
frau@@ 463
itar@@ 463
pep@@ 463
town@@ 463
Clau@@ 463
finder 463
Conil 463
vigil@@ 462
Mother 462
190 462
lung 462
excell@@ 462
VO@@ 462
19.@@ 462
Carmen 462
kov 462
avant 462
poss@@ 462
ussy 462
behavi@@ 462
Elba 462
Deci@@ 461
aler@@ 461
computer@@ 461
anom@@ 461
Pé@@ 461
Alba 461
Nic@@ 461
175 461
oure 461
Claude 461
yachts 461
gans 461
asis 461
igi 461
gem 461
chio 461
HT 461
hired 460
cle 460
ffs 460
crow@@ 460
Oh 460
quiry 460
R. 460
...... 460
Asi@@ 460
Liby@@ 460
mei@@ 460
ror 460
magni@@ 459
ophobia 459
vision@@ 459
damp@@ 459
otechn@@ 459
Di 459
presso 459
150@@ 459
celebri@@ 459
access@@ 459
bann@@ 459
bahn 459
Carl 459
Lux@@ 459
freshly 459
wo 459
Racing 459
Swiss@@ 459
lige 458
Atom@@ 458
plum@@ 458
SR@@ 458
slip@@ 458
Italia 458
nific@@ 458
medic@@ 458
ont@@ 458
IDE 458
delle 458
veau 458
reser@@ 457
Span@@ 457
berries 457
aero@@ 457
Ces@@ 457
teach@@ 457
Ernst 457
9,@@ 457
susta@@ 456
discus@@ 456
Legislative 456
Heav@@ 456
Dimension 456
anic 456
PE@@ 456
Um@@ 456
Ring 456
Wogau 455
rigor@@ 455
Ivoire 455
mg 455
Teh@@ 455
grades 455
Race 455
Aller@@ 455
aciones 455
Fast 455
Target 455
starship 455
Brandenburg 454
avenue 454
Effici@@ 454
lick 454
teleph@@ 454
matrix 454
bau@@ 454
parag@@ 454
magi@@ 454
Econom@@ 454
Wars 454
Glo@@ 454
touring 454
og 454
UP@@ 454
app 454
1957 453
hat@@ 453
satisfac@@ 453
transpar@@ 453
cion 453
replac@@ 453
lux@@ 453
rack 453
4.1 453
Flor@@ 453
CET 453
ا@@ 453
leges 452
ativity 452
Schmidt 452
riv@@ 452
health@@ 452
eras 452
dere 452
F1 452
JPEG 452
DS9 452
Fontaine 451
tano 451
ister 451
spl@@ 451
sidi@@ 451
Rober@@ 451
sar@@ 451
Regul@@ 451
sko 451
cho 451
Conf@@ 451
inian 451
Securities 451
dyn@@ 451
Pati@@ 451
Vari@@ 451
Amazon 451
guesthouse 451
two@@ 450
servation 450
COR@@ 450
rescu@@ 450
Valle 450
Networks 450
Doc@@ 450
Esc@@ 450
vices 450
Cali@@ 450
ensemble 450
Records 450
CF 450
porteur 449
athy 449
ventures 449
112 449
Miguel 449
sched@@ 449
pharmac@@ 449
Sw@@ 449
Stars 449
uan 449
dass 449
predec@@ 448
bed@@ 448
rot 448
rence 448
Norm@@ 448
Mont 448
Leon@@ 448
lid 448
patent@@ 448
800@@ 448
polite 448
kal@@ 448
uk 448
Risk 448
Weber 448
Factory 448
ANT 448
DB@@ 448
ко@@ 448
décor 448
GOL@@ 448
fin 447
gma 447
vels 447
gos 447
240 447
Scandin@@ 447
650 447
arded 447
Export 447
rin 447
Plant 447
Rosa 447
Wilhelm 447
Bahrain 447
xis 447
Team@@ 447
skir@@ 446
diox@@ 446
stuffs 446
trin@@ 446
Four@@ 446
ggen@@ 446
exce@@ 446
wering 446
Mars 446
kow 446
PP 446
Interface 446
acher 446
MT 446
MHz 446
Tourn@@ 446
sec 446
MAS@@ 446
Wide 445
scap@@ 445
chrome 445
Wu@@ 445
figu@@ 445
ritual 445
Gaulle 445
Nest@@ 445
farm@@ 445
ademi@@ 445
20,000 445
pasta 445
1956 445
Nou@@ 445
я 445
y.@@ 445
deluxe 445
mile@@ 444
entu@@ 444
aven@@ 444
Enhan@@ 444
recre@@ 444
forec@@ 444
Status 444
Å@@ 444
Sett@@ 444
Winter@@ 444
teau 444
bia 444
Marc 444
Mik@@ 444
Ve@@ 444
Tickets 444
Blu 444
antum 443
folios 443
nic 443
fighter 443
porary 443
Columbia 443
18.@@ 443
NET 443
aran@@ 443
Materials 443
Basilica 443
RAW 443
Seri@@ 442
SO 442
Geb@@ 442
Rav@@ 442
Johann 442
tall 442
fec@@ 442
rane 442
rench 442
Palais 442
pam@@ 442
Style 442
Electronics 442
Lyn@@ 441
Hat@@ 441
method@@ 441
dend 441
kings 441
arbitr@@ 441
video@@ 441
gg 441
volta@@ 441
aller 441
zel@@ 441
Leon 441
Slo@@ 441
Burundi 441
FIFA 441
potenti@@ 441
cil 441
Agent 441
Woo@@ 441
Affiliate 441
aison 440
band@@ 440
jer 440
Senior 440
Figu@@ 440
Across 440
basketball 440
PD 440
erk@@ 440
eh 440
dow@@ 440
sol 440
ciano 440
2D 440
washer 440
uno 440
.jpg 440
108 439
assimil@@ 439
Jacob 439
rewar@@ 439
mming 439
produc@@ 439
jen@@ 439
suffici@@ 439
Wen@@ 439
Spre@@ 439
asy 439
eri 439
queen 439
KUKA 439
config 439
stituted 438
VIII 438
thal@@ 438
derer 438
Schum@@ 438
shine 438
Mitchell 438
Gab@@ 438
Var 438
P. 438
Platz 438
Lap@@ 437
abu@@ 437
Satellite 437
Aff@@ 437
Connect 437
Study 437
Value 437
FIN@@ 437
Sym@@ 437
Pad 437
Champion 437
LY 437
a.com 437
enne 436
Peri@@ 436
Aung 436
chim@@ 436
ancies 436
ecks 436
Enter@@ 436
Stadium 436
Prophet 436
Utili@@ 436
lyrics 436
ACK@@ 436
Governor 435
ondo 435
11.30 435
altar 435
Vinci 435
fame 435
50,000 435
Kn@@ 435
Nicolas 435
Photos 435
Aparthotel 435
Frequ@@ 434
Bonino 434
consum@@ 434
Broad@@ 434
logy 434
Andrea 434
M.@@ 434
rank@@ 434
в 434
Studios 434
Cookies 434
Mulder 433
té 433
refra@@ 433
BBC 433
jug@@ 433
bru@@ 433
ult 433
tissu@@ 433
porte@@ 433
seg@@ 433
alp@@ 433
Fox 433
Gates 433
Geo@@ 433
pertoire 433
config@@ 433
München 433
Pocket 433
DSLR 433
pus@@ 432
oos 432
bure@@ 432
Ortega 432
Carlo 432
Herman 432
herein 432
Ras@@ 432
corridor 432
Trust 432
Markus 432
garde 432
embrane 432
Sla@@ 432
1200 432
orials 432
rlpool 432
DivX 432
izer 432
Schro@@ 431
Think 431
plurali@@ 431
Harmon@@ 431
promp@@ 431
decla@@ 431
111 431
anto 431
quad@@ 431
Infra@@ 431
cides 431
transmit@@ 431
Graz 431
Certificate 431
configu@@ 431
dela@@ 430
Pre 430
Ans@@ 430
Bun@@ 430
eman 430
Rothley 430
Fit@@ 430
snap@@ 430
soap 430
Renault 430
emy 430
ole@@ 430
Generation 430
rison 430
Kel@@ 430
Yan@@ 430
MI 430
ISS 430
haben 430
x.@@ 430
Hotel@@ 430
pursu@@ 429
ernity 429
Inform@@ 429
Territ@@ 429
FY@@ 429
lips 429
expendi@@ 429
lik@@ 429
pha@@ 429
adi 429
5.1 429
trainer 429
Phili@@ 429
Mike 429
Automati@@ 429
Masters 429
1920 429
F. 429
č 429
glo 428
Rit@@ 428
OP 428
flan@@ 428
Eden 428
Metho@@ 428
Alt@@ 428
flex@@ 428
ECR 428
5.0 428
WITH 428
skep@@ 428
Seg@@ 427
Some@@ 427
tability 427
stir@@ 427
Milli@@ 427
dafi 427
Patrick 427
AI 427
AST 427
instructor 427
Yahoo 427
Logistics 427
o.@@ 427
Glacier 427
1948 426
otti 426
B. 426
Carol@@ 426
meaning@@ 426
Andrew 426
rupted 426
ange@@ 426
21.@@ 426
Rate 426
wholes@@ 426
Planet 426
Campo 426
34@@ 426
cris@@ 426
meg@@ 426
authori@@ 426
zano 426
sti 426
GS 426
ε@@ 426
Picture 426
Audit 425
Valent@@ 425
Need 425
H. 425
LEX 425
Install@@ 425
oblig@@ 425
DNS 425
PT@@ 425
gorgeous 425
SAT 425
Mandelson 425
Automation 425
allevi@@ 424
extra@@ 424
wolf 424
Byrne 424
client@@ 424
.- 424
Sub 424
agre@@ 424
Cum@@ 424
osc@@ 424
Capp@@ 424
exhibit@@ 424
statue 424
Ja@@ 424
WM@@ 424
ská 424
WS 424
Eis@@ 424
Perl 424
Booking 424
Boutique 424
б@@ 424
Reading 423
Gs 423
neces@@ 423
Holocaust 423
List@@ 423
avoi@@ 423
Amnesty 423
Stabili@@ 423
ás 423
Ecuador 423
Hamp@@ 423
entes 423
pod 423
Ice 423
Moon 423
Castel@@ 423
gl 423
rene@@ 422
flation 422
plann@@ 422
apt 422
rebel@@ 422
ylon 422
Motor 422
sump@@ 422
K. 422
Prus@@ 422
hn 422
Energi@@ 422
allas 422
Neph@@ 422
Interactive 422
ч@@ 422
Châ@@ 422
vern 422
tainer 422
1900 421
toilets 421
tifs 421
radius 421
Vinc@@ 421
DER 421
rite 421
Arn@@ 421
Heart 421
esi@@ 421
boulevard 421
Mandriva 421
tment 420
Morgan 420
Koso@@ 420
lack@@ 420
lus 420
Kla@@ 420
Ott@@ 420
toral 420
Worldwide 420
Requi@@ 420
EURO 420
Fut@@ 420
1944 420
Hit@@ 420
Wire 420
YOUR 420
bum@@ 419
Resul@@ 419
esp@@ 419
racy 419
jack 419
Cambridge 419
singles 419
lon 419
MR@@ 419
INC@@ 419
Phone 419
NCC 419
arding 418
Eri@@ 418
posium 418
NAT@@ 418
Anne 418
Whit@@ 418
Lloyd 418
emann 418
Gru@@ 418
Mos@@ 418
ul 418
palette 418
oom 418
Bosch 418
JO@@ 418
Novotel 418
GIMP 418
rand@@ 417
prejudi@@ 417
nostal@@ 417
inspi@@ 417
[...]
